<?xml version="1.0"?>
<MethodSetup Method="BDT::BDTMitFisher">
  <GeneralInfo>
    <Info name="TMVA Release" value="4.2.1 [262657]"/>
    <Info name="ROOT Release" value="6.04/14 [394254]"/>
    <Info name="Creator" value="anthony"/>
    <Info name="Date" value="Tue Jun 20 12:27:12 2017"/>
    <Info name="Host" value="Linux lcgapp-slc6-physical1.cern.ch 2.6.32-573.8.1.el6.x86_64 #1 SMP Wed Nov 11 15:27:45 CET 2015 x86_64 x86_64 x86_64 GNU/Linux"/>
    <Info name="Dir" value="/home/anthony/MVA_V2/TMVA"/>
    <Info name="Training events" value="2000"/>
    <Info name="TrainingTime" value="9.50874805e-01"/>
    <Info name="AnalysisType" value="Classification"/>
  </GeneralInfo>
  <Options>
    <Option name="V" modified="Yes">False</Option>
    <Option name="VerbosityLevel" modified="No">Default</Option>
    <Option name="VarTransform" modified="No">None</Option>
    <Option name="H" modified="Yes">False</Option>
    <Option name="CreateMVAPdfs" modified="No">False</Option>
    <Option name="IgnoreNegWeightsInTraining" modified="No">False</Option>
    <Option name="NTrees" modified="Yes">50</Option>
    <Option name="MaxDepth" modified="Yes">3</Option>
    <Option name="MinNodeSize" modified="Yes">2.5%</Option>
    <Option name="nCuts" modified="Yes">20</Option>
    <Option name="BoostType" modified="Yes">AdaBoost</Option>
    <Option name="AdaBoostR2Loss" modified="No">quadratic</Option>
    <Option name="UseBaggedBoost" modified="No">False</Option>
    <Option name="Shrinkage" modified="No">1.000000e+00</Option>
    <Option name="AdaBoostBeta" modified="Yes">5.000000e-01</Option>
    <Option name="UseRandomisedTrees" modified="No">False</Option>
    <Option name="UseNvars" modified="No">3</Option>
    <Option name="UsePoissonNvars" modified="No">True</Option>
    <Option name="BaggedSampleFraction" modified="No">6.000000e-01</Option>
    <Option name="UseYesNoLeaf" modified="No">True</Option>
    <Option name="NegWeightTreatment" modified="No">inverseboostnegweights</Option>
    <Option name="Css" modified="No">1.000000e+00</Option>
    <Option name="Cts_sb" modified="No">1.000000e+00</Option>
    <Option name="Ctb_ss" modified="No">1.000000e+00</Option>
    <Option name="Cbb" modified="No">1.000000e+00</Option>
    <Option name="NodePurityLimit" modified="No">5.000000e-01</Option>
    <Option name="SeparationType" modified="Yes">giniindex</Option>
    <Option name="DoBoostMonitor" modified="No">False</Option>
    <Option name="UseFisherCuts" modified="Yes">True</Option>
    <Option name="MinLinCorrForFisher" modified="No">8.000000e-01</Option>
    <Option name="UseExclusiveVars" modified="No">False</Option>
    <Option name="DoPreselection" modified="No">False</Option>
    <Option name="SigToBkgFraction" modified="No">1.000000e+00</Option>
    <Option name="PruneMethod" modified="No">nopruning</Option>
    <Option name="PruneStrength" modified="No">0.000000e+00</Option>
    <Option name="PruningValFraction" modified="No">5.000000e-01</Option>
    <Option name="nEventsMin" modified="No">0</Option>
    <Option name="UseBaggedGrad" modified="No">False</Option>
    <Option name="GradBaggingFraction" modified="No">6.000000e-01</Option>
    <Option name="UseNTrainEvents" modified="No">0</Option>
    <Option name="NNodesMax" modified="No">0</Option>
  </Options>
  <Variables NVar="8">
    <Variable VarIndex="0" Expression="Tau2_1fatjet" Label="Tau2_1fatjet" Title="Tau2_1fatjet" Unit="" Internal="Tau2_1fatjet" Type="D" Min="0.00000000e+00" Max="3.97072643e-01"/>
    <Variable VarIndex="1" Expression="Tau2_2fatjet" Label="Tau2_2fatjet" Title="Tau2_2fatjet" Unit="" Internal="Tau2_2fatjet" Type="D" Min="0.00000000e+00" Max="4.41416353e-01"/>
    <Variable VarIndex="2" Expression="m_1fatjet_st" Label="m_1fatjet_st" Title="m_1fatjet_st" Unit="" Internal="m_1fatjet_st" Type="D" Min="-3.92838448e-01" Max="9.10695496e+02"/>
    <Variable VarIndex="3" Expression="m_2fatjet_st" Label="m_2fatjet_st" Title="m_2fatjet_st" Unit="" Internal="m_2fatjet_st" Type="D" Min="-1.84998035e-01" Max="3.68340179e+02"/>
    <Variable VarIndex="4" Expression="Qw_1fatjet" Label="Qw_1fatjet" Title="Qw_1fatjet" Unit="" Internal="Qw_1fatjet" Type="D" Min="0.00000000e+00" Max="2.08386469e+05"/>
    <Variable VarIndex="5" Expression="Qw_2fatjet" Label="Qw_2fatjet" Title="Qw_2fatjet" Unit="" Internal="Qw_2fatjet" Type="D" Min="0.00000000e+00" Max="1.27581211e+05"/>
    <Variable VarIndex="6" Expression="Split12_1fatjet" Label="Split12_1fatjet" Title="Split12_1fatjet" Unit="" Internal="Split12_1fatjet" Type="D" Min="0.00000000e+00" Max="6.35636475e+02"/>
    <Variable VarIndex="7" Expression="Split12_2fatjet" Label="Split12_2fatjet" Title="Split12_2fatjet" Unit="" Internal="Split12_2fatjet" Type="D" Min="0.00000000e+00" Max="2.57611023e+02"/>
  </Variables>
  <Spectators NSpec="0"/>
  <Classes NClass="2">
    <Class Name="Signal" Index="0"/>
    <Class Name="Background" Index="1"/>
  </Classes>
  <Transformations NTransformations="0"/>
  <MVAPdfs/>
  <Weights NTrees="50" AnalysisType="0">
    <BinaryTree type="DecisionTree" boostWeight="4.3477166209302154e-01" itree="0">
      <Node pos="s" depth="0" NCoef="9" fC0="0.0000000000000000e+00" fC1="0.0000000000000000e+00" fC2="1.9421714514285043e-03" fC3="-8.6699632881956021e-04" fC4="1.1742119057538157e-06" fC5="0.0000000000000000e+00" fC6="-1.7678677159554371e-03" fC7="6.2928652563320336e-03" fC8="-2.7444099997627053e-01" IVar="8" Cut="4.3459627777338028e-02" cType="0" res="-9.9000000000000000e+01" rms="0.0000000000000000e+00" purity="5.0000000000000000e-01" nType="0">
        <Node pos="l" depth="1" NCoef="9" fC0="0.0000000000000000e+00" fC1="0.0000000000000000e+00" fC2="4.0991201751263383e-04" fC3="-1.6264135279334664e-03" fC4="0.0000000000000000e+00" fC5="0.0000000000000000e+00" fC6="-6.4155594870654985e-05" fC7="4.6952100203969550e-03" fC8="-1.6716018751952191e-01" IVar="-1" Cut="1.2740753591060638e-02" cType="0" res="-9.9000000000000000e+01" rms="0.0000000000000000e+00" purity="7.3257046937942505e-01" nType="1"/>
        <Node pos="r" depth="1" NCoef="0" IVar="1" Cut="7.4012666940689087e-02" cType="1" res="-9.9000000000000000e+01" rms="0.0000000000000000e+00" purity="3.7789240479469299e-01" nType="0">
          <Node pos="l" depth="2" NCoef="9" fC0="0.0000000000000000e+00" fC1="0.0000000000000000e+00" fC2="8.9974676403855431e-04" fC3="-2.7850271936087408e-03" fC4="3.9941582454875774e-06" fC5="0.0000000000000000e+00" fC6="1.3112480450912923e-03" fC7="9.8046339907180806e-03" fC8="-2.5927250012461389e-01" IVar="8" Cut="-3.0877850949764252e-02" cType="0" res="-9.9000000000000000e+01" rms="0.0000000000000000e+00" purity="4.5172730088233948e-01" nType="0">
            <Node pos="l" depth="3" NCoef="0" IVar="-1" Cut="0.0000000000000000e+00" cType="1" res="-9.9000000000000000e+01" rms="0.0000000000000000e+00" purity="5.8038973808288574e-01" nType="1"/>
            <Node pos="r" depth="3" NCoef="0" IVar="-1" Cut="0.0000000000000000e+00" cType="1" res="-9.9000000000000000e+01" rms="0.0000000000000000e+00" purity="2.9388076066970825e-01" nType="-1"/>
          </Node>
          <Node pos="r" depth="2" NCoef="9" fC0="0.0000000000000000e+00" fC1="0.0000000000000000e+00" fC2="-5.7335068680991334e-04" fC3="9.4381027370396501e-03" fC4="0.0000000000000000e+00" fC5="-7.1623545212384388e-06" fC6="2.0393546482759821e-04" fC7="-8.4977815397155928e-03" fC8="-7.3196944388590424e-02" IVar="8" Cut="6.3002809882164001e-02" cType="0" res="-9.9000000000000000e+01" rms="0.0000000000000000e+00" purity="2.6292037963867188e-01" nType="0">
            <Node pos="l" depth="3" NCoef="0" IVar="-1" Cut="0.0000000000000000e+00" cType="1" res="-9.9000000000000000e+01" rms="0.0000000000000000e+00" purity="6.2390935420989990e-01" nType="1"/>
            <Node pos="r" depth="3" NCoef="0" IVar="-1" Cut="0.0000000000000000e+00" cType="1" res="-9.9000000000000000e+01" rms="0.0000000000000000e+00" purity="2.0224410295486450e-01" nType="-1"/>
          </Node>
        </Node>
      </Node>
    </BinaryTree>
    <BinaryTree type="DecisionTree" boostWeight="3.5904892447513354e-01" itree="1">
      <Node pos="s" depth="0" NCoef="9" fC0="0.0000000000000000e+00" fC1="0.0000000000000000e+00" fC2="1.1389829930961235e-03" fC3="-1.2334074341108978e-03" fC4="6.4988685559558696e-07" fC5="0.0000000000000000e+00" fC6="-9.6661331002668028e-04" fC7="5.4294587578840306e-03" fC8="-1.7593138761080132e-01" IVar="8" Cut="1.3916608691215515e-01" cType="0" res="-9.9000000000000000e+01" rms="0.0000000000000000e+00" purity="4.6905159950256348e-01" nType="0">
        <Node pos="l" depth="1" NCoef="9" fC0="0.0000000000000000e+00" fC1="0.0000000000000000e+00" fC2="1.6908174831522886e-04" fC3="-5.3783770202308380e-03" fC4="0.0000000000000000e+00" fC5="7.3749480247494887e-06" fC6="-5.3038422956157825e-04" fC7="4.7766890769824393e-03" fC8="5.7978268344657025e-02" IVar="-1" Cut="6.7637063562870026e-02" cType="0" res="-9.9000000000000000e+01" rms="0.0000000000000000e+00" purity="7.8526079654693604e-01" nType="1"/>
        <Node pos="r" depth="1" NCoef="9" fC0="0.0000000000000000e+00" fC1="0.0000000000000000e+00" fC2="9.0301647602396252e-04" fC3="3.2517058268649326e-03" fC4="4.2813277322593768e-07" fC5="-9.7202978185890346e-06" fC6="-3.9920495174547286e-04" fC7="1.5257050993831589e-03" fC8="-1.2354964542506970e-01" IVar="8" Cut="6.4319424331188202e-02" cType="0" res="-9.9000000000000000e+01" rms="0.0000000000000000e+00" purity="4.2562103271484375e-01" nType="0">
          <Node pos="l" depth="2" NCoef="9" fC0="-3.6052085443839199e-02" fC1="0.0000000000000000e+00" fC2="-3.7017342753137119e-03" fC3="-1.0646905407828008e-03" fC4="4.1807959321563707e-06" fC5="0.0000000000000000e+00" fC6="2.4233923068670313e-03" fC7="-9.1969892093919756e-04" fC8="2.5220194222831377e-01" IVar="8" Cut="-3.4829292446374893e-02" cType="0" res="-9.9000000000000000e+01" rms="0.0000000000000000e+00" purity="6.2234687805175781e-01" nType="0">
            <Node pos="l" depth="3" NCoef="0" IVar="-1" Cut="0.0000000000000000e+00" cType="1" res="-9.9000000000000000e+01" rms="0.0000000000000000e+00" purity="7.1194469928741455e-01" nType="1"/>
            <Node pos="r" depth="3" NCoef="0" IVar="-1" Cut="0.0000000000000000e+00" cType="1" res="-9.9000000000000000e+01" rms="0.0000000000000000e+00" purity="3.2454043626785278e-01" nType="-1"/>
          </Node>
          <Node pos="r" depth="2" NCoef="0" IVar="3" Cut="9.5163135528564453e+00" cType="1" res="-9.9000000000000000e+01" rms="0.0000000000000000e+00" purity="3.6963602900505066e-01" nType="0">
            <Node pos="l" depth="3" NCoef="0" IVar="-1" Cut="0.0000000000000000e+00" cType="1" res="-9.9000000000000000e+01" rms="0.0000000000000000e+00" purity="5.4302501678466797e-01" nType="1"/>
            <Node pos="r" depth="3" NCoef="0" IVar="-1" Cut="0.0000000000000000e+00" cType="1" res="-9.9000000000000000e+01" rms="0.0000000000000000e+00" purity="3.3888766169548035e-01" nType="-1"/>
          </Node>
        </Node>
      </Node>
    </BinaryTree>
    <BinaryTree type="DecisionTree" boostWeight="2.5364828938755191e-01" itree="2">
      <Node pos="s" depth="0" NCoef="9" fC0="0.0000000000000000e+00" fC1="0.0000000000000000e+00" fC2="1.2297240912211680e-03" fC3="-4.9601504807537564e-04" fC4="-2.3461659362545233e-07" fC5="0.0000000000000000e+00" fC6="-1.1140649860975082e-03" fC7="3.4660052265549435e-03" fC8="-1.2909996128170195e-01" IVar="8" Cut="4.0162738412618637e-02" cType="0" res="-9.9000000000000000e+01" rms="0.0000000000000000e+00" purity="4.9017325043678284e-01" nType="0">
        <Node pos="l" depth="1" NCoef="9" fC0="0.0000000000000000e+00" fC1="0.0000000000000000e+00" fC2="1.1538446426804664e-03" fC3="-1.5266842295149823e-03" fC4="0.0000000000000000e+00" fC5="0.0000000000000000e+00" fC6="-1.4979095914128687e-03" fC7="3.4502077079804926e-03" fC8="-1.2516230973632581e-01" IVar="8" Cut="5.2880417555570602e-02" cType="0" res="-9.9000000000000000e+01" rms="0.0000000000000000e+00" purity="6.4027446508407593e-01" nType="0">
          <Node pos="l" depth="2" NCoef="0" IVar="-1" Cut="0.0000000000000000e+00" cType="1" res="-9.9000000000000000e+01" rms="0.0000000000000000e+00" purity="7.7501416206359863e-01" nType="1"/>
          <Node pos="r" depth="2" NCoef="0" IVar="4" Cut="1.7594373046875000e+04" cType="0" res="-9.9000000000000000e+01" rms="0.0000000000000000e+00" purity="6.0221701860427856e-01" nType="0">
            <Node pos="l" depth="3" NCoef="0" IVar="-1" Cut="0.0000000000000000e+00" cType="1" res="-9.9000000000000000e+01" rms="0.0000000000000000e+00" purity="7.1303778886795044e-01" nType="1"/>
            <Node pos="r" depth="3" NCoef="0" IVar="-1" Cut="0.0000000000000000e+00" cType="1" res="-9.9000000000000000e+01" rms="0.0000000000000000e+00" purity="4.3136793375015259e-01" nType="-1"/>
          </Node>
        </Node>
        <Node pos="r" depth="1" NCoef="9" fC0="0.0000000000000000e+00" fC1="0.0000000000000000e+00" fC2="8.0918396810230296e-04" fC3="3.2615132210552858e-03" fC4="-8.5549281120023104e-07" fC5="-6.6953839255388005e-06" fC6="-2.7141106197899973e-04" fC7="-1.1289821690436172e-03" fC8="-5.5492378267326267e-02" IVar="8" Cut="5.5487766861915588e-02" cType="0" res="-9.9000000000000000e+01" rms="0.0000000000000000e+00" purity="4.3576279282569885e-01" nType="0">
          <Node pos="l" depth="2" NCoef="9" fC0="-1.9063968202496335e+00" fC1="0.0000000000000000e+00" fC2="3.5862004940280886e-04" fC3="1.9098897095924654e-03" fC4="9.7989017706977025e-06" fC5="-5.7814015082274743e-06" fC6="-2.4190017969832329e-03" fC7="0.0000000000000000e+00" fC8="-5.9142764214805549e-02" IVar="8" Cut="-1.5320133417844772e-02" cType="0" res="-9.9000000000000000e+01" rms="0.0000000000000000e+00" purity="6.2846636772155762e-01" nType="0">
            <Node pos="l" depth="3" NCoef="0" IVar="-1" Cut="0.0000000000000000e+00" cType="1" res="-9.9000000000000000e+01" rms="0.0000000000000000e+00" purity="8.0611574649810791e-01" nType="1"/>
            <Node pos="r" depth="3" NCoef="0" IVar="-1" Cut="0.0000000000000000e+00" cType="1" res="-9.9000000000000000e+01" rms="0.0000000000000000e+00" purity="4.1608902812004089e-01" nType="-1"/>
          </Node>
          <Node pos="r" depth="2" NCoef="9" fC0="0.0000000000000000e+00" fC1="0.0000000000000000e+00" fC2="6.3791214656976579e-04" fC3="-1.8087047567233840e-03" fC4="-1.7290245780135213e-06" fC5="4.0591643505354812e-06" fC6="7.9845479627561021e-05" fC7="-1.2962117750948514e-03" fC8="8.3996092785236232e-03" IVar="-1" Cut="-4.3069176375865936e-02" cType="0" res="-9.9000000000000000e+01" rms="0.0000000000000000e+00" purity="4.1035574674606323e-01" nType="-1"/>
        </Node>
      </Node>
    </BinaryTree>
    <BinaryTree type="DecisionTree" boostWeight="1.8377793716425272e-01" itree="3">
      <Node pos="s" depth="0" NCoef="9" fC0="0.0000000000000000e+00" fC1="0.0000000000000000e+00" fC2="8.5585510092920476e-04" fC3="-9.7530694391454874e-04" fC4="-7.1135696533769344e-07" fC5="7.5744738446455478e-07" fC6="-6.4652313170706515e-04" fC7="2.9752992057423479e-03" fC8="-7.4595071070560237e-02" IVar="8" Cut="7.3411211371421814e-02" cType="0" res="-9.9000000000000000e+01" rms="0.0000000000000000e+00" purity="5.2462172508239746e-01" nType="0">
        <Node pos="l" depth="1" NCoef="0" IVar="-1" Cut="1.0942070186138153e-01" cType="1" res="-9.9000000000000000e+01" rms="0.0000000000000000e+00" purity="7.0493620634078979e-01" nType="1"/>
        <Node pos="r" depth="1" NCoef="0" IVar="4" Cut="5.4192875000000000e+04" cType="0" res="-9.9000000000000000e+01" rms="0.0000000000000000e+00" purity="5.0471317768096924e-01" nType="0">
          <Node pos="l" depth="2" NCoef="0" IVar="-1" Cut="6.0656839843750000e+04" cType="1" res="-9.9000000000000000e+01" rms="0.0000000000000000e+00" purity="6.1181265115737915e-01" nType="1"/>
          <Node pos="r" depth="2" NCoef="0" IVar="4" Cut="1.0308794921875000e+04" cType="1" res="-9.9000000000000000e+01" rms="0.0000000000000000e+00" purity="4.7861620783805847e-01" nType="0">
            <Node pos="l" depth="3" NCoef="0" IVar="-1" Cut="0.0000000000000000e+00" cType="1" res="-9.9000000000000000e+01" rms="0.0000000000000000e+00" purity="5.6798458099365234e-01" nType="1"/>
            <Node pos="r" depth="3" NCoef="0" IVar="-1" Cut="0.0000000000000000e+00" cType="1" res="-9.9000000000000000e+01" rms="0.0000000000000000e+00" purity="4.2871627211570740e-01" nType="-1"/>
          </Node>
        </Node>
      </Node>
    </BinaryTree>
    <BinaryTree type="DecisionTree" boostWeight="1.7924487454536106e-01" itree="4">
      <Node pos="s" depth="0" NCoef="9" fC0="0.0000000000000000e+00" fC1="0.0000000000000000e+00" fC2="8.4225270979720662e-04" fC3="-4.5343791109354068e-04" fC4="-1.0763533230918190e-06" fC5="0.0000000000000000e+00" fC6="-4.8288804058973497e-04" fC7="2.1496511611775321e-03" fC8="-6.3283495306063739e-02" IVar="8" Cut="4.2528759688138962e-02" cType="0" res="-9.9000000000000000e+01" rms="0.0000000000000000e+00" purity="5.2025300264358521e-01" nType="0">
        <Node pos="l" depth="1" NCoef="0" IVar="1" Cut="1.1798688024282455e-01" cType="1" res="-9.9000000000000000e+01" rms="0.0000000000000000e+00" purity="6.5868455171585083e-01" nType="0">
          <Node pos="l" depth="2" NCoef="0" IVar="-1" Cut="1.9512496093750000e+04" cType="1" res="-9.9000000000000000e+01" rms="0.0000000000000000e+00" purity="7.6745319366455078e-01" nType="1"/>
          <Node pos="r" depth="2" NCoef="9" fC0="-3.6505008389543612e+00" fC1="0.0000000000000000e+00" fC2="-1.2924353258410501e-03" fC3="3.1150845578978548e-03" fC4="1.7717829871140068e-05" fC5="1.3764510572307522e-05" fC6="-4.3773968757786679e-03" fC7="-1.1764837678292528e-02" fC8="1.5619476941786770e-01" IVar="8" Cut="6.9208085536956787e-02" cType="0" res="-9.9000000000000000e+01" rms="0.0000000000000000e+00" purity="5.0572246313095093e-01" nType="0">
            <Node pos="l" depth="3" NCoef="0" IVar="-1" Cut="0.0000000000000000e+00" cType="1" res="-9.9000000000000000e+01" rms="0.0000000000000000e+00" purity="8.1208401918411255e-01" nType="1"/>
            <Node pos="r" depth="3" NCoef="0" IVar="-1" Cut="0.0000000000000000e+00" cType="1" res="-9.9000000000000000e+01" rms="0.0000000000000000e+00" purity="3.2951521873474121e-01" nType="-1"/>
          </Node>
        </Node>
        <Node pos="r" depth="1" NCoef="0" IVar="2" Cut="6.5948211669921875e+01" cType="0" res="-9.9000000000000000e+01" rms="0.0000000000000000e+00" purity="4.9086391925811768e-01" nType="0">
          <Node pos="l" depth="2" NCoef="0" IVar="-1" Cut="1.1748974609375000e+04" cType="1" res="-9.9000000000000000e+01" rms="0.0000000000000000e+00" purity="5.3088837862014771e-01" nType="1"/>
          <Node pos="r" depth="2" NCoef="9" fC0="0.0000000000000000e+00" fC1="0.0000000000000000e+00" fC2="-5.4608229028751927e-03" fC3="-1.5832479730575397e-04" fC4="0.0000000000000000e+00" fC5="-2.7234111651005028e-06" fC6="6.6847463107507594e-03" fC7="3.3532956087779916e-03" fC8="4.7267675191442343e-02" IVar="8" Cut="3.1217383220791817e-03" cType="0" res="-9.9000000000000000e+01" rms="0.0000000000000000e+00" purity="4.1009891033172607e-01" nType="0">
            <Node pos="l" depth="3" NCoef="0" IVar="-1" Cut="0.0000000000000000e+00" cType="1" res="-9.9000000000000000e+01" rms="0.0000000000000000e+00" purity="5.1237434148788452e-01" nType="1"/>
            <Node pos="r" depth="3" NCoef="0" IVar="-1" Cut="0.0000000000000000e+00" cType="1" res="-9.9000000000000000e+01" rms="0.0000000000000000e+00" purity="2.9894492030143738e-01" nType="-1"/>
          </Node>
        </Node>
      </Node>
    </BinaryTree>
    <BinaryTree type="DecisionTree" boostWeight="1.4097193574361358e-01" itree="5">
      <Node pos="s" depth="0" NCoef="9" fC0="0.0000000000000000e+00" fC1="0.0000000000000000e+00" fC2="7.8662670048405695e-04" fC3="-7.9116475405863098e-04" fC4="-1.2179609382799353e-06" fC5="1.0274071548246666e-06" fC6="-5.6364075667078833e-04" fC7="2.4418161483943431e-03" fC8="-5.4099023071261465e-02" IVar="8" Cut="3.2967399805784225e-02" cType="0" res="-9.9000000000000000e+01" rms="0.0000000000000000e+00" purity="4.9050995707511902e-01" nType="0">
        <Node pos="l" depth="1" NCoef="0" IVar="1" Cut="1.0054270178079605e-01" cType="1" res="-9.9000000000000000e+01" rms="0.0000000000000000e+00" purity="6.0260254144668579e-01" nType="0">
          <Node pos="l" depth="2" NCoef="9" fC0="0.0000000000000000e+00" fC1="0.0000000000000000e+00" fC2="-1.4966688919819786e-03" fC3="-6.0632590207347009e-03" fC4="0.0000000000000000e+00" fC5="0.0000000000000000e+00" fC6="2.3468649622644419e-03" fC7="8.3248519882203765e-03" fC8="1.6524982050621473e-02" IVar="-1" Cut="4.4724971055984497e-02" cType="0" res="-9.9000000000000000e+01" rms="0.0000000000000000e+00" purity="6.9169241189956665e-01" nType="1"/>
          <Node pos="r" depth="2" NCoef="9" fC0="-5.5660045720662810e+00" fC1="0.0000000000000000e+00" fC2="8.9003346390995693e-04" fC3="1.7449219528421296e-03" fC4="1.6104202473733028e-05" fC5="9.8521951061771317e-06" fC6="-3.8405181841910160e-03" fC7="-7.3159208756699255e-03" fC8="-2.1885839316766464e-02" IVar="8" Cut="4.4089823961257935e-02" cType="0" res="-9.9000000000000000e+01" rms="0.0000000000000000e+00" purity="5.1039123535156250e-01" nType="0">
            <Node pos="l" depth="3" NCoef="0" IVar="-1" Cut="0.0000000000000000e+00" cType="1" res="-9.9000000000000000e+01" rms="0.0000000000000000e+00" purity="7.6603841781616211e-01" nType="1"/>
            <Node pos="r" depth="3" NCoef="0" IVar="-1" Cut="0.0000000000000000e+00" cType="1" res="-9.9000000000000000e+01" rms="0.0000000000000000e+00" purity="3.3252462744712830e-01" nType="-1"/>
          </Node>
        </Node>
        <Node pos="r" depth="1" NCoef="0" IVar="-1" Cut="2.1019826829433441e-01" cType="1" res="-9.9000000000000000e+01" rms="0.0000000000000000e+00" purity="4.6244078874588013e-01" nType="-1"/>
      </Node>
    </BinaryTree>
    <BinaryTree type="DecisionTree" boostWeight="1.3202702568098504e-01" itree="6">
      <Node pos="s" depth="0" NCoef="0" IVar="1" Cut="1.8917843699455261e-01" cType="1" res="-9.9000000000000000e+01" rms="0.0000000000000000e+00" purity="5.1583886146545410e-01" nType="0">
        <Node pos="l" depth="1" NCoef="0" IVar="3" Cut="5.2461456298828125e+01" cType="0" res="-9.9000000000000000e+01" rms="0.0000000000000000e+00" purity="5.2876383066177368e-01" nType="0">
          <Node pos="l" depth="2" NCoef="0" IVar="-1" Cut="5.9718806296586990e-02" cType="1" res="-9.9000000000000000e+01" rms="0.0000000000000000e+00" purity="6.0355603694915771e-01" nType="1"/>
          <Node pos="r" depth="2" NCoef="9" fC0="0.0000000000000000e+00" fC1="0.0000000000000000e+00" fC2="-2.2384921744599307e-04" fC3="-6.5927610783171684e-04" fC4="-1.0635586657154038e-06" fC5="0.0000000000000000e+00" fC6="1.1102870033471166e-03" fC7="3.8530923787645261e-04" fC8="5.1757891665246240e-03" IVar="8" Cut="-2.9780654236674309e-02" cType="0" res="-9.9000000000000000e+01" rms="0.0000000000000000e+00" purity="4.9296998977661133e-01" nType="0">
            <Node pos="l" depth="3" NCoef="0" IVar="-1" Cut="0.0000000000000000e+00" cType="1" res="-9.9000000000000000e+01" rms="0.0000000000000000e+00" purity="5.1058954000473022e-01" nType="1"/>
            <Node pos="r" depth="3" NCoef="0" IVar="-1" Cut="0.0000000000000000e+00" cType="1" res="-9.9000000000000000e+01" rms="0.0000000000000000e+00" purity="3.6675837635993958e-01" nType="-1"/>
          </Node>
        </Node>
        <Node pos="r" depth="1" NCoef="9" fC0="-4.0709129714468366e+00" fC1="0.0000000000000000e+00" fC2="2.6830417067905520e-03" fC3="-8.3436014140529594e-03" fC4="1.0311679909312755e-05" fC5="2.9135267310092513e-05" fC6="-4.8690535317222842e-03" fC7="-2.2979852866624587e-03" fC8="-1.5672130433204873e-01" IVar="8" Cut="-1.0884151607751846e-01" cType="0" res="-9.9000000000000000e+01" rms="0.0000000000000000e+00" purity="3.3687478303909302e-01" nType="0">
          <Node pos="l" depth="2" NCoef="0" IVar="-1" Cut="0.0000000000000000e+00" cType="1" res="-9.9000000000000000e+01" rms="0.0000000000000000e+00" purity="6.0865050554275513e-01" nType="1"/>
          <Node pos="r" depth="2" NCoef="0" IVar="-1" Cut="0.0000000000000000e+00" cType="1" res="-9.9000000000000000e+01" rms="0.0000000000000000e+00" purity="7.1770854294300079e-02" nType="-1"/>
        </Node>
      </Node>
    </BinaryTree>
    <BinaryTree type="DecisionTree" boostWeight="1.7430778265700542e-01" itree="7">
      <Node pos="s" depth="0" NCoef="9" fC0="0.0000000000000000e+00" fC1="0.0000000000000000e+00" fC2="6.5354490572238201e-04" fC3="-8.4790115413462257e-04" fC4="-6.1934463185109866e-07" fC5="1.3251231758017227e-06" fC6="-5.3131385393665874e-04" fC7="1.9464973083303889e-03" fC8="-4.8008963252033174e-02" IVar="8" Cut="6.1012253165245056e-02" cType="0" res="-9.9000000000000000e+01" rms="0.0000000000000000e+00" purity="4.8922637104988098e-01" nType="0">
        <Node pos="l" depth="1" NCoef="9" fC0="-8.3346192278111819e-01" fC1="-4.9335319963510660e+00" fC2="3.1332241282052589e-03" fC3="-1.3462005385563115e-02" fC4="-2.8082803342459744e-06" fC5="2.8323842481339099e-05" fC6="-3.7271692028522435e-03" fC7="1.1319306289000134e-02" fC8="2.9152954334347569e-01" IVar="8" Cut="-6.4378745853900909e-02" cType="0" res="-9.9000000000000000e+01" rms="0.0000000000000000e+00" purity="6.6018915176391602e-01" nType="0">
          <Node pos="l" depth="2" NCoef="0" IVar="-1" Cut="9.5399513840675354e-02" cType="1" res="-9.9000000000000000e+01" rms="0.0000000000000000e+00" purity="8.2328730821609497e-01" nType="1"/>
          <Node pos="r" depth="2" NCoef="0" IVar="-1" Cut="0.0000000000000000e+00" cType="1" res="-9.9000000000000000e+01" rms="0.0000000000000000e+00" purity="3.1923311948776245e-01" nType="-1"/>
        </Node>
        <Node pos="r" depth="1" NCoef="0" IVar="6" Cut="1.8806404113769531e+01" cType="0" res="-9.9000000000000000e+01" rms="0.0000000000000000e+00" purity="4.7476488351821899e-01" nType="0">
          <Node pos="l" depth="2" NCoef="0" IVar="0" Cut="5.6724663823843002e-02" cType="1" res="-9.9000000000000000e+01" rms="0.0000000000000000e+00" purity="5.0238293409347534e-01" nType="0">
            <Node pos="l" depth="3" NCoef="0" IVar="-1" Cut="0.0000000000000000e+00" cType="1" res="-9.9000000000000000e+01" rms="0.0000000000000000e+00" purity="6.1204606294631958e-01" nType="1"/>
            <Node pos="r" depth="3" NCoef="0" IVar="-1" Cut="0.0000000000000000e+00" cType="1" res="-9.9000000000000000e+01" rms="0.0000000000000000e+00" purity="4.6277862787246704e-01" nType="-1"/>
          </Node>
          <Node pos="r" depth="2" NCoef="9" fC0="0.0000000000000000e+00" fC1="0.0000000000000000e+00" fC2="-7.4256540966034460e-03" fC3="2.4440406260863548e-03" fC4="2.5144900795143086e-05" fC5="-8.8262149740677251e-06" fC6="-1.9307950561257406e-02" fC7="-1.4845894608086672e-05" fC8="1.1502508376759511e-01" IVar="-1" Cut="3.1802169978618622e-03" cType="0" res="-9.9000000000000000e+01" rms="0.0000000000000000e+00" purity="3.8958272337913513e-01" nType="-1"/>
        </Node>
      </Node>
    </BinaryTree>
    <BinaryTree type="DecisionTree" boostWeight="1.2038918253426685e-01" itree="8">
      <Node pos="s" depth="0" NCoef="9" fC0="0.0000000000000000e+00" fC1="0.0000000000000000e+00" fC2="1.1806571169446814e-04" fC3="-3.5879722489079034e-04" fC4="5.2469511667771604e-07" fC5="0.0000000000000000e+00" fC6="-1.9817089051176977e-04" fC7="1.4799932674828503e-03" fC8="-3.8463317405054417e-02" IVar="8" Cut="5.2927810698747635e-02" cType="0" res="-9.9000000000000000e+01" rms="0.0000000000000000e+00" purity="5.1215535402297974e-01" nType="0">
        <Node pos="l" depth="1" NCoef="0" IVar="-1" Cut="7.7856414794921875e+01" cType="1" res="-9.9000000000000000e+01" rms="0.0000000000000000e+00" purity="7.1228420734405518e-01" nType="1"/>
        <Node pos="r" depth="1" NCoef="0" IVar="1" Cut="2.1019826829433441e-01" cType="1" res="-9.9000000000000000e+01" rms="0.0000000000000000e+00" purity="4.9977034330368042e-01" nType="0">
          <Node pos="l" depth="2" NCoef="0" IVar="6" Cut="1.8806404113769531e+01" cType="0" res="-9.9000000000000000e+01" rms="0.0000000000000000e+00" purity="5.0968855619430542e-01" nType="0">
            <Node pos="l" depth="3" NCoef="0" IVar="-1" Cut="0.0000000000000000e+00" cType="1" res="-9.9000000000000000e+01" rms="0.0000000000000000e+00" purity="5.3502064943313599e-01" nType="1"/>
            <Node pos="r" depth="3" NCoef="0" IVar="-1" Cut="0.0000000000000000e+00" cType="1" res="-9.9000000000000000e+01" rms="0.0000000000000000e+00" purity="4.3323078751564026e-01" nType="-1"/>
          </Node>
          <Node pos="r" depth="2" NCoef="0" IVar="-1" Cut="0.0000000000000000e+00" cType="1" res="-9.9000000000000000e+01" rms="0.0000000000000000e+00" purity="2.8901022672653198e-01" nType="-1"/>
        </Node>
      </Node>
    </BinaryTree>
    <BinaryTree type="DecisionTree" boostWeight="9.5701564025953728e-02" itree="9">
      <Node pos="s" depth="0" NCoef="0" IVar="0" Cut="2.4580687284469604e-01" cType="1" res="-9.9000000000000000e+01" rms="0.0000000000000000e+00" purity="4.9777102470397949e-01" nType="0">
        <Node pos="l" depth="1" NCoef="0" IVar="0" Cut="1.9888168573379517e-01" cType="0" res="-9.9000000000000000e+01" rms="0.0000000000000000e+00" purity="5.0465238094329834e-01" nType="0">
          <Node pos="l" depth="2" NCoef="0" IVar="-1" Cut="0.0000000000000000e+00" cType="1" res="-9.9000000000000000e+01" rms="0.0000000000000000e+00" purity="6.6522735357284546e-01" nType="1"/>
          <Node pos="r" depth="2" NCoef="9" fC0="0.0000000000000000e+00" fC1="0.0000000000000000e+00" fC2="3.5995450130594608e-04" fC3="1.9603170741814579e-05" fC4="0.0000000000000000e+00" fC5="0.0000000000000000e+00" fC6="-7.9928326801790260e-04" fC7="9.2342022257358998e-04" fC8="-1.9047480686002226e-02" IVar="8" Cut="2.5364495813846588e-02" cType="0" res="-9.9000000000000000e+01" rms="0.0000000000000000e+00" purity="4.9545490741729736e-01" nType="0">
            <Node pos="l" depth="3" NCoef="0" IVar="-1" Cut="0.0000000000000000e+00" cType="1" res="-9.9000000000000000e+01" rms="0.0000000000000000e+00" purity="5.8565479516983032e-01" nType="1"/>
            <Node pos="r" depth="3" NCoef="0" IVar="-1" Cut="0.0000000000000000e+00" cType="1" res="-9.9000000000000000e+01" rms="0.0000000000000000e+00" purity="4.7582435607910156e-01" nType="-1"/>
          </Node>
        </Node>
        <Node pos="r" depth="1" NCoef="0" IVar="-1" Cut="0.0000000000000000e+00" cType="1" res="-9.9000000000000000e+01" rms="0.0000000000000000e+00" purity="2.7206620573997498e-01" nType="-1"/>
      </Node>
    </BinaryTree>
    <BinaryTree type="DecisionTree" boostWeight="9.4793185635796848e-02" itree="10">
      <Node pos="s" depth="0" NCoef="0" IVar="0" Cut="2.4580687284469604e-01" cType="1" res="-9.9000000000000000e+01" rms="0.0000000000000000e+00" purity="5.1135116815567017e-01" nType="0">
        <Node pos="l" depth="1" NCoef="0" IVar="1" Cut="1.8917843699455261e-01" cType="1" res="-9.9000000000000000e+01" rms="0.0000000000000000e+00" purity="5.1793646812438965e-01" nType="0">
          <Node pos="l" depth="2" NCoef="0" IVar="-1" Cut="4.0148890625000000e+04" cType="0" res="-9.9000000000000000e+01" rms="0.0000000000000000e+00" purity="5.2721714973449707e-01" nType="1"/>
          <Node pos="r" depth="2" NCoef="9" fC0="-4.9021498451840158e+00" fC1="0.0000000000000000e+00" fC2="1.3426837563904075e-03" fC3="-7.2938450417088189e-03" fC4="1.2304542181420466e-05" fC5="2.7405582507775657e-05" fC6="-3.1994162523045567e-03" fC7="-3.1550923520802104e-03" fC8="-1.2344071610479060e-01" IVar="8" Cut="-1.2115123681724072e-02" cType="0" res="-9.9000000000000000e+01" rms="0.0000000000000000e+00" purity="3.7500885128974915e-01" nType="0">
            <Node pos="l" depth="3" NCoef="0" IVar="-1" Cut="0.0000000000000000e+00" cType="1" res="-9.9000000000000000e+01" rms="0.0000000000000000e+00" purity="6.6830962896347046e-01" nType="1"/>
            <Node pos="r" depth="3" NCoef="0" IVar="-1" Cut="0.0000000000000000e+00" cType="1" res="-9.9000000000000000e+01" rms="0.0000000000000000e+00" purity="1.3458184897899628e-01" nType="-1"/>
          </Node>
        </Node>
        <Node pos="r" depth="1" NCoef="0" IVar="-1" Cut="0.0000000000000000e+00" cType="1" res="-9.9000000000000000e+01" rms="0.0000000000000000e+00" purity="2.9142710566520691e-01" nType="-1"/>
      </Node>
    </BinaryTree>
    <BinaryTree type="DecisionTree" boostWeight="1.5307089661968182e-01" itree="11">
      <Node pos="s" depth="0" NCoef="0" IVar="5" Cut="3.0376478515625000e+04" cType="0" res="-9.9000000000000000e+01" rms="0.0000000000000000e+00" purity="4.9009743332862854e-01" nType="0">
        <Node pos="l" depth="1" NCoef="9" fC0="-4.8214853083375457e+00" fC1="0.0000000000000000e+00" fC2="3.0789355800454011e-03" fC3="1.2235864056403848e-03" fC4="7.6160840777521182e-06" fC5="0.0000000000000000e+00" fC6="-3.2590665381353629e-04" fC7="-6.7559954482337052e-03" fC8="1.0143492056444697e-01" IVar="8" Cut="4.0608230978250504e-02" cType="0" res="-9.9000000000000000e+01" rms="0.0000000000000000e+00" purity="6.0396754741668701e-01" nType="0">
          <Node pos="l" depth="2" NCoef="0" IVar="-1" Cut="0.0000000000000000e+00" cType="1" res="-9.9000000000000000e+01" rms="0.0000000000000000e+00" purity="8.7776404619216919e-01" nType="1"/>
          <Node pos="r" depth="2" NCoef="0" IVar="-1" Cut="0.0000000000000000e+00" cType="1" res="-9.9000000000000000e+01" rms="0.0000000000000000e+00" purity="3.9893457293510437e-01" nType="-1"/>
        </Node>
        <Node pos="r" depth="1" NCoef="9" fC0="0.0000000000000000e+00" fC1="0.0000000000000000e+00" fC2="-6.6246671472150486e-04" fC3="-2.8741511655475910e-03" fC4="9.0592782040871255e-07" fC5="0.0000000000000000e+00" fC6="3.8807931084466223e-04" fC7="4.1426224384625088e-03" fC8="3.9575126258233700e-02" IVar="8" Cut="6.7002192139625549e-02" cType="0" res="-9.9000000000000000e+01" rms="0.0000000000000000e+00" purity="4.8036178946495056e-01" nType="0">
          <Node pos="l" depth="2" NCoef="0" IVar="-1" Cut="0.0000000000000000e+00" cType="1" res="-9.9000000000000000e+01" rms="0.0000000000000000e+00" purity="6.9577515125274658e-01" nType="1"/>
          <Node pos="r" depth="2" NCoef="0" IVar="5" Cut="7.1281933593750000e+03" cType="1" res="-9.9000000000000000e+01" rms="0.0000000000000000e+00" purity="4.7066372632980347e-01" nType="0">
            <Node pos="l" depth="3" NCoef="0" IVar="-1" Cut="0.0000000000000000e+00" cType="1" res="-9.9000000000000000e+01" rms="0.0000000000000000e+00" purity="5.3288388252258301e-01" nType="1"/>
            <Node pos="r" depth="3" NCoef="0" IVar="-1" Cut="0.0000000000000000e+00" cType="1" res="-9.9000000000000000e+01" rms="0.0000000000000000e+00" purity="4.2342978715896606e-01" nType="-1"/>
          </Node>
        </Node>
      </Node>
    </BinaryTree>
    <BinaryTree type="DecisionTree" boostWeight="2.1376559523945265e-01" itree="12">
      <Node pos="s" depth="0" NCoef="0" IVar="7" Cut="1.2267191886901855e+01" cType="0" res="-9.9000000000000000e+01" rms="0.0000000000000000e+00" purity="4.9348747730255127e-01" nType="0">
        <Node pos="l" depth="1" NCoef="9" fC0="0.0000000000000000e+00" fC1="0.0000000000000000e+00" fC2="1.0701553413259029e-04" fC3="-2.5085616657916901e-04" fC4="-4.8193695549351814e-07" fC5="0.0000000000000000e+00" fC6="-1.8379338029867847e-04" fC7="1.4532617474215834e-04" fC8="2.5219568316522296e-02" IVar="8" Cut="1.5357975848019123e-02" cType="0" res="-9.9000000000000000e+01" rms="0.0000000000000000e+00" purity="5.3078174591064453e-01" nType="0">
          <Node pos="l" depth="2" NCoef="0" IVar="-1" Cut="0.0000000000000000e+00" cType="1" res="-9.9000000000000000e+01" rms="0.0000000000000000e+00" purity="7.2896736860275269e-01" nType="1"/>
          <Node pos="r" depth="2" NCoef="9" fC0="0.0000000000000000e+00" fC1="0.0000000000000000e+00" fC2="2.9338526211308623e-05" fC3="1.1567851384128771e-03" fC4="1.7461393531679957e-07" fC5="0.0000000000000000e+00" fC6="1.5712942637832717e-04" fC7="-1.5680839049270099e-03" fC8="-3.7111830813788729e-02" IVar="8" Cut="9.1699054464697838e-03" cType="0" res="-9.9000000000000000e+01" rms="0.0000000000000000e+00" purity="5.0305289030075073e-01" nType="0">
            <Node pos="l" depth="3" NCoef="0" IVar="-1" Cut="0.0000000000000000e+00" cType="1" res="-9.9000000000000000e+01" rms="0.0000000000000000e+00" purity="5.8674776554107666e-01" nType="1"/>
            <Node pos="r" depth="3" NCoef="0" IVar="-1" Cut="0.0000000000000000e+00" cType="1" res="-9.9000000000000000e+01" rms="0.0000000000000000e+00" purity="4.6153080463409424e-01" nType="-1"/>
          </Node>
        </Node>
        <Node pos="r" depth="1" NCoef="0" IVar="0" Cut="9.4541102647781372e-02" cType="0" res="-9.9000000000000000e+01" rms="0.0000000000000000e+00" purity="4.5129483938217163e-01" nType="0">
          <Node pos="l" depth="2" NCoef="0" IVar="3" Cut="1.4982404708862305e+01" cType="1" res="-9.9000000000000000e+01" rms="0.0000000000000000e+00" purity="5.2018475532531738e-01" nType="0">
            <Node pos="l" depth="3" NCoef="0" IVar="-1" Cut="0.0000000000000000e+00" cType="1" res="-9.9000000000000000e+01" rms="0.0000000000000000e+00" purity="6.4554393291473389e-01" nType="1"/>
            <Node pos="r" depth="3" NCoef="0" IVar="-1" Cut="0.0000000000000000e+00" cType="1" res="-9.9000000000000000e+01" rms="0.0000000000000000e+00" purity="3.4181809425354004e-01" nType="-1"/>
          </Node>
          <Node pos="r" depth="2" NCoef="0" IVar="7" Cut="1.0513066291809082e+01" cType="0" res="-9.9000000000000000e+01" rms="0.0000000000000000e+00" purity="3.9638340473175049e-01" nType="0">
            <Node pos="l" depth="3" NCoef="0" IVar="-1" Cut="0.0000000000000000e+00" cType="1" res="-9.9000000000000000e+01" rms="0.0000000000000000e+00" purity="6.0546761751174927e-01" nType="1"/>
            <Node pos="r" depth="3" NCoef="0" IVar="-1" Cut="0.0000000000000000e+00" cType="1" res="-9.9000000000000000e+01" rms="0.0000000000000000e+00" purity="3.6805412173271179e-01" nType="-1"/>
          </Node>
        </Node>
      </Node>
    </BinaryTree>
    <BinaryTree type="DecisionTree" boostWeight="1.3778045361856342e-01" itree="13">
      <Node pos="s" depth="0" NCoef="0" IVar="7" Cut="1.2267191886901855e+01" cType="0" res="-9.9000000000000000e+01" rms="0.0000000000000000e+00" purity="5.0707685947418213e-01" nType="0">
        <Node pos="l" depth="1" NCoef="0" IVar="1" Cut="2.1019826829433441e-01" cType="1" res="-9.9000000000000000e+01" rms="0.0000000000000000e+00" purity="5.4045629501342773e-01" nType="0">
          <Node pos="l" depth="2" NCoef="9" fC0="0.0000000000000000e+00" fC1="0.0000000000000000e+00" fC2="-7.7888312192366133e-06" fC3="-1.3856325801744924e-03" fC4="-7.5694849130635333e-07" fC5="0.0000000000000000e+00" fC6="-6.5074176651479408e-06" fC7="1.4203564107632192e-03" fC8="6.1047598085679979e-02" IVar="-1" Cut="2.5510251522064209e-02" cType="0" res="-9.9000000000000000e+01" rms="0.0000000000000000e+00" purity="5.5546885728836060e-01" nType="1"/>
          <Node pos="r" depth="2" NCoef="0" IVar="-1" Cut="0.0000000000000000e+00" cType="1" res="-9.9000000000000000e+01" rms="0.0000000000000000e+00" purity="3.0582696199417114e-01" nType="-1"/>
        </Node>
        <Node pos="r" depth="1" NCoef="0" IVar="3" Cut="7.5116348266601562e+00" cType="0" res="-9.9000000000000000e+01" rms="0.0000000000000000e+00" purity="4.6878367662429810e-01" nType="0">
          <Node pos="l" depth="2" NCoef="9" fC0="0.0000000000000000e+00" fC1="0.0000000000000000e+00" fC2="-6.3307780500489067e-04" fC3="0.0000000000000000e+00" fC4="3.5031266563902976e-07" fC5="0.0000000000000000e+00" fC6="8.5907357787868308e-04" fC7="0.0000000000000000e+00" fC8="8.6693731728421999e-03" IVar="8" Cut="1.4054342173039913e-02" cType="0" res="-9.9000000000000000e+01" rms="0.0000000000000000e+00" purity="4.9215093255043030e-01" nType="0">
            <Node pos="l" depth="3" NCoef="0" IVar="-1" Cut="0.0000000000000000e+00" cType="1" res="-9.9000000000000000e+01" rms="0.0000000000000000e+00" purity="6.4304059743881226e-01" nType="1"/>
            <Node pos="r" depth="3" NCoef="0" IVar="-1" Cut="0.0000000000000000e+00" cType="1" res="-9.9000000000000000e+01" rms="0.0000000000000000e+00" purity="4.6096906065940857e-01" nType="-1"/>
          </Node>
          <Node pos="r" depth="2" NCoef="0" IVar="-1" Cut="1.6307063102722168e+00" cType="1" res="-9.9000000000000000e+01" rms="0.0000000000000000e+00" purity="3.1386750936508179e-01" nType="-1"/>
        </Node>
      </Node>
    </BinaryTree>
    <BinaryTree type="DecisionTree" boostWeight="5.8920861020591221e-02" itree="14">
      <Node pos="s" depth="0" NCoef="9" fC0="0.0000000000000000e+00" fC1="0.0000000000000000e+00" fC2="8.7189506300540645e-05" fC3="-6.4021008137813101e-04" fC4="-9.8868038867865711e-08" fC5="0.0000000000000000e+00" fC6="-3.3863067803208071e-04" fC7="1.0105524538144707e-03" fC8="1.6079488504528061e-02" IVar="8" Cut="2.2393349558115005e-02" cType="0" res="-9.9000000000000000e+01" rms="0.0000000000000000e+00" purity="5.0181066989898682e-01" nType="0">
        <Node pos="l" depth="1" NCoef="0" IVar="-1" Cut="0.0000000000000000e+00" cType="1" res="-9.9000000000000000e+01" rms="0.0000000000000000e+00" purity="6.8670982122421265e-01" nType="1"/>
        <Node pos="r" depth="1" NCoef="9" fC0="0.0000000000000000e+00" fC1="0.0000000000000000e+00" fC2="-3.3374452704903562e-05" fC3="9.6651417943267989e-04" fC4="1.3567501976224232e-07" fC5="0.0000000000000000e+00" fC6="-4.6229631890360194e-05" fC7="-2.1407714456504520e-03" fC8="8.9550091741835772e-03" IVar="8" Cut="-2.4494951590895653e-02" cType="0" res="-9.9000000000000000e+01" rms="0.0000000000000000e+00" purity="4.9393934011459351e-01" nType="0">
          <Node pos="l" depth="2" NCoef="0" IVar="5" Cut="3.0490109375000000e+04" cType="0" res="-9.9000000000000000e+01" rms="0.0000000000000000e+00" purity="5.0589996576309204e-01" nType="0">
            <Node pos="l" depth="3" NCoef="0" IVar="-1" Cut="0.0000000000000000e+00" cType="1" res="-9.9000000000000000e+01" rms="0.0000000000000000e+00" purity="6.5088522434234619e-01" nType="1"/>
            <Node pos="r" depth="3" NCoef="0" IVar="-1" Cut="0.0000000000000000e+00" cType="1" res="-9.9000000000000000e+01" rms="0.0000000000000000e+00" purity="4.9679276347160339e-01" nType="-1"/>
          </Node>
          <Node pos="r" depth="2" NCoef="0" IVar="0" Cut="5.8698568493127823e-02" cType="1" res="-9.9000000000000000e+01" rms="0.0000000000000000e+00" purity="4.0379610657691956e-01" nType="0">
            <Node pos="l" depth="3" NCoef="0" IVar="-1" Cut="0.0000000000000000e+00" cType="1" res="-9.9000000000000000e+01" rms="0.0000000000000000e+00" purity="5.0846481323242188e-01" nType="1"/>
            <Node pos="r" depth="3" NCoef="0" IVar="-1" Cut="0.0000000000000000e+00" cType="1" res="-9.9000000000000000e+01" rms="0.0000000000000000e+00" purity="3.1247210502624512e-01" nType="-1"/>
          </Node>
        </Node>
      </Node>
    </BinaryTree>
    <BinaryTree type="DecisionTree" boostWeight="2.0258553378985278e-01" itree="15">
      <Node pos="s" depth="0" NCoef="9" fC0="0.0000000000000000e+00" fC1="0.0000000000000000e+00" fC2="6.1702440171043467e-05" fC3="-6.7615286329293937e-04" fC4="-1.7878017224810080e-08" fC5="0.0000000000000000e+00" fC6="-3.0626898626030205e-04" fC7="8.3865448823628613e-04" fC8="2.0381907922026765e-02" IVar="8" Cut="3.9750710129737854e-03" cType="0" res="-9.9000000000000000e+01" rms="0.0000000000000000e+00" purity="5.1233929395675659e-01" nType="0">
        <Node pos="l" depth="1" NCoef="0" IVar="4" Cut="5.7445480468750000e+04" cType="0" res="-9.9000000000000000e+01" rms="0.0000000000000000e+00" purity="5.5867516994476318e-01" nType="0">
          <Node pos="l" depth="2" NCoef="0" IVar="-1" Cut="0.0000000000000000e+00" cType="1" res="-9.9000000000000000e+01" rms="0.0000000000000000e+00" purity="8.2294768095016479e-01" nType="1"/>
          <Node pos="r" depth="2" NCoef="0" IVar="4" Cut="3.2778089843750000e+04" cType="1" res="-9.9000000000000000e+01" rms="0.0000000000000000e+00" purity="5.3459578752517700e-01" nType="0">
            <Node pos="l" depth="3" NCoef="0" IVar="-1" Cut="0.0000000000000000e+00" cType="1" res="-9.9000000000000000e+01" rms="0.0000000000000000e+00" purity="5.6556510925292969e-01" nType="1"/>
            <Node pos="r" depth="3" NCoef="0" IVar="-1" Cut="0.0000000000000000e+00" cType="1" res="-9.9000000000000000e+01" rms="0.0000000000000000e+00" purity="3.2175430655479431e-01" nType="-1"/>
          </Node>
        </Node>
        <Node pos="r" depth="1" NCoef="9" fC0="0.0000000000000000e+00" fC1="0.0000000000000000e+00" fC2="-3.8796044823472773e-04" fC3="1.2476462591458437e-03" fC4="0.0000000000000000e+00" fC5="3.5387786717822071e-06" fC6="1.2846347778818301e-03" fC7="-3.8554604502149250e-03" fC8="-6.6714967222049212e-02" IVar="8" Cut="-2.1438589319586754e-02" cType="0" res="-9.9000000000000000e+01" rms="0.0000000000000000e+00" purity="4.7061476111412048e-01" nType="0">
          <Node pos="l" depth="2" NCoef="0" IVar="0" Cut="9.4541102647781372e-02" cType="1" res="-9.9000000000000000e+01" rms="0.0000000000000000e+00" purity="5.0803369283676147e-01" nType="0">
            <Node pos="l" depth="3" NCoef="0" IVar="-1" Cut="0.0000000000000000e+00" cType="1" res="-9.9000000000000000e+01" rms="0.0000000000000000e+00" purity="5.6196564435958862e-01" nType="1"/>
            <Node pos="r" depth="3" NCoef="0" IVar="-1" Cut="0.0000000000000000e+00" cType="1" res="-9.9000000000000000e+01" rms="0.0000000000000000e+00" purity="4.5807290077209473e-01" nType="-1"/>
          </Node>
          <Node pos="r" depth="2" NCoef="9" fC0="0.0000000000000000e+00" fC1="0.0000000000000000e+00" fC2="-1.6841893322834445e-03" fC3="6.5840903917306626e-03" fC4="-4.4937425219699961e-07" fC5="0.0000000000000000e+00" fC6="6.5952354034310929e-03" fC7="-1.1645153819152923e-02" fC8="-1.7245421847428333e-01" IVar="8" Cut="4.5046299695968628e-02" cType="0" res="-9.9000000000000000e+01" rms="0.0000000000000000e+00" purity="3.8836711645126343e-01" nType="0">
            <Node pos="l" depth="3" NCoef="0" IVar="-1" Cut="0.0000000000000000e+00" cType="1" res="-9.9000000000000000e+01" rms="0.0000000000000000e+00" purity="6.6904747486114502e-01" nType="1"/>
            <Node pos="r" depth="3" NCoef="0" IVar="-1" Cut="0.0000000000000000e+00" cType="1" res="-9.9000000000000000e+01" rms="0.0000000000000000e+00" purity="2.8044420480728149e-01" nType="-1"/>
          </Node>
        </Node>
      </Node>
    </BinaryTree>
    <BinaryTree type="DecisionTree" boostWeight="9.6585450926516173e-02" itree="16">
      <Node pos="s" depth="0" NCoef="0" IVar="4" Cut="5.9538992187500000e+04" cType="0" res="-9.9000000000000000e+01" rms="0.0000000000000000e+00" purity="4.9785214662551880e-01" nType="0">
        <Node pos="l" depth="1" NCoef="0" IVar="4" Cut="7.3802789062500000e+04" cType="1" res="-9.9000000000000000e+01" rms="0.0000000000000000e+00" purity="5.7322466373443604e-01" nType="0">
          <Node pos="l" depth="2" NCoef="9" fC0="0.0000000000000000e+00" fC1="0.0000000000000000e+00" fC2="1.8920981616351827e-03" fC3="-5.5315284715379814e-03" fC4="0.0000000000000000e+00" fC5="1.5642421755067990e-05" fC6="-2.6296852499336286e-03" fC7="4.9488874476386405e-03" fC8="-1.3111001849272269e-01" IVar="-1" Cut="2.7378868311643600e-02" cType="0" res="-9.9000000000000000e+01" rms="0.0000000000000000e+00" purity="6.6173839569091797e-01" nType="1"/>
          <Node pos="r" depth="2" NCoef="0" IVar="1" Cut="6.1539739370346069e-02" cType="1" res="-9.9000000000000000e+01" rms="0.0000000000000000e+00" purity="4.5785453915596008e-01" nType="0">
            <Node pos="l" depth="3" NCoef="0" IVar="-1" Cut="0.0000000000000000e+00" cType="1" res="-9.9000000000000000e+01" rms="0.0000000000000000e+00" purity="5.3401142358779907e-01" nType="1"/>
            <Node pos="r" depth="3" NCoef="0" IVar="-1" Cut="0.0000000000000000e+00" cType="1" res="-9.9000000000000000e+01" rms="0.0000000000000000e+00" purity="3.9655834436416626e-01" nType="-1"/>
          </Node>
        </Node>
        <Node pos="r" depth="1" NCoef="9" fC0="0.0000000000000000e+00" fC1="0.0000000000000000e+00" fC2="-1.9012847016387275e-04" fC3="-9.2360399952847100e-04" fC4="0.0000000000000000e+00" fC5="0.0000000000000000e+00" fC6="9.7977879260022145e-05" fC7="1.5265321393908710e-03" fC8="1.4620127243991074e-02" IVar="8" Cut="3.1983472406864166e-02" cType="0" res="-9.9000000000000000e+01" rms="0.0000000000000000e+00" purity="4.8143884539604187e-01" nType="0">
          <Node pos="l" depth="2" NCoef="0" IVar="-1" Cut="0.0000000000000000e+00" cType="1" res="-9.9000000000000000e+01" rms="0.0000000000000000e+00" purity="6.6253089904785156e-01" nType="1"/>
          <Node pos="r" depth="2" NCoef="0" IVar="-1" Cut="1.1471111328125000e+04" cType="1" res="-9.9000000000000000e+01" rms="0.0000000000000000e+00" purity="4.7372326254844666e-01" nType="-1"/>
        </Node>
      </Node>
    </BinaryTree>
    <BinaryTree type="DecisionTree" boostWeight="1.4299800954541284e-01" itree="17">
      <Node pos="s" depth="0" NCoef="0" IVar="0" Cut="9.4541102647781372e-02" cType="0" res="-9.9000000000000000e+01" rms="0.0000000000000000e+00" purity="5.1386022567749023e-01" nType="0">
        <Node pos="l" depth="1" NCoef="0" IVar="3" Cut="1.5212974548339844e+01" cType="1" res="-9.9000000000000000e+01" rms="0.0000000000000000e+00" purity="5.4363745450973511e-01" nType="0">
          <Node pos="l" depth="2" NCoef="0" IVar="4" Cut="6.5205718750000000e+04" cType="1" res="-9.9000000000000000e+01" rms="0.0000000000000000e+00" purity="6.4638626575469971e-01" nType="0">
            <Node pos="l" depth="3" NCoef="0" IVar="-1" Cut="0.0000000000000000e+00" cType="1" res="-9.9000000000000000e+01" rms="0.0000000000000000e+00" purity="7.2967368364334106e-01" nType="1"/>
            <Node pos="r" depth="3" NCoef="0" IVar="-1" Cut="0.0000000000000000e+00" cType="1" res="-9.9000000000000000e+01" rms="0.0000000000000000e+00" purity="3.7153214216232300e-01" nType="-1"/>
          </Node>
          <Node pos="r" depth="2" NCoef="9" fC0="0.0000000000000000e+00" fC1="0.0000000000000000e+00" fC2="-1.6559301395689661e-03" fC3="2.0944165621909821e-03" fC4="2.0510450785737862e-06" fC5="0.0000000000000000e+00" fC6="1.4422226568388955e-03" fC7="-4.0211457147057298e-03" fC8="2.8383853154293565e-02" IVar="8" Cut="-6.3655517995357513e-02" cType="0" res="-9.9000000000000000e+01" rms="0.0000000000000000e+00" purity="4.9456048011779785e-01" nType="0">
            <Node pos="l" depth="3" NCoef="0" IVar="-1" Cut="0.0000000000000000e+00" cType="1" res="-9.9000000000000000e+01" rms="0.0000000000000000e+00" purity="5.2274549007415771e-01" nType="1"/>
            <Node pos="r" depth="3" NCoef="0" IVar="-1" Cut="0.0000000000000000e+00" cType="1" res="-9.9000000000000000e+01" rms="0.0000000000000000e+00" purity="2.7071371674537659e-01" nType="-1"/>
          </Node>
        </Node>
        <Node pos="r" depth="1" NCoef="0" IVar="2" Cut="4.2992321014404297e+01" cType="0" res="-9.9000000000000000e+01" rms="0.0000000000000000e+00" purity="4.9557790160179138e-01" nType="0">
          <Node pos="l" depth="2" NCoef="0" IVar="6" Cut="3.5511825561523438e+01" cType="1" res="-9.9000000000000000e+01" rms="0.0000000000000000e+00" purity="5.2697336673736572e-01" nType="0">
            <Node pos="l" depth="3" NCoef="0" IVar="-1" Cut="0.0000000000000000e+00" cType="1" res="-9.9000000000000000e+01" rms="0.0000000000000000e+00" purity="6.1016166210174561e-01" nType="1"/>
            <Node pos="r" depth="3" NCoef="0" IVar="-1" Cut="0.0000000000000000e+00" cType="1" res="-9.9000000000000000e+01" rms="0.0000000000000000e+00" purity="4.8500826954841614e-01" nType="-1"/>
          </Node>
          <Node pos="r" depth="2" NCoef="9" fC0="0.0000000000000000e+00" fC1="0.0000000000000000e+00" fC2="0.0000000000000000e+00" fC3="-1.0718611593418697e-03" fC4="0.0000000000000000e+00" fC5="-1.6212853952808968e-06" fC6="0.0000000000000000e+00" fC7="2.7710330070179361e-03" fC8="8.7532781879900989e-04" IVar="-1" Cut="-1.0308034718036652e-02" cType="0" res="-9.9000000000000000e+01" rms="0.0000000000000000e+00" purity="4.2886200547218323e-01" nType="-1"/>
        </Node>
      </Node>
    </BinaryTree>
    <BinaryTree type="DecisionTree" boostWeight="1.2151960070112459e-01" itree="18">
      <Node pos="s" depth="0" NCoef="9" fC0="0.0000000000000000e+00" fC1="0.0000000000000000e+00" fC2="1.0014249629990434e-04" fC3="-3.6874892686681400e-04" fC4="-2.2963139939037132e-07" fC5="0.0000000000000000e+00" fC6="-6.7542550136936872e-05" fC7="5.3031413681928620e-04" fC8="3.6918154119007836e-03" IVar="8" Cut="1.1287746950984001e-02" cType="0" res="-9.9000000000000000e+01" rms="0.0000000000000000e+00" purity="5.1644319295883179e-01" nType="0">
        <Node pos="l" depth="1" NCoef="0" IVar="-1" Cut="0.0000000000000000e+00" cType="1" res="-9.9000000000000000e+01" rms="0.0000000000000000e+00" purity="7.2649937868118286e-01" nType="1"/>
        <Node pos="r" depth="1" NCoef="9" fC0="0.0000000000000000e+00" fC1="0.0000000000000000e+00" fC2="-5.3066374119965906e-04" fC3="4.5531521650459997e-04" fC4="7.5818397515828822e-07" fC5="2.5656920839225239e-06" fC6="4.5968365186776507e-04" fC7="-2.3595205436938694e-03" fC8="7.9445088327127142e-03" IVar="8" Cut="-2.7628062292933464e-02" cType="0" res="-9.9000000000000000e+01" rms="0.0000000000000000e+00" purity="5.0733095407485962e-01" nType="0">
          <Node pos="l" depth="2" NCoef="0" IVar="2" Cut="7.3397750854492188e+01" cType="0" res="-9.9000000000000000e+01" rms="0.0000000000000000e+00" purity="5.2110457420349121e-01" nType="0">
            <Node pos="l" depth="3" NCoef="0" IVar="-1" Cut="0.0000000000000000e+00" cType="1" res="-9.9000000000000000e+01" rms="0.0000000000000000e+00" purity="5.4572474956512451e-01" nType="1"/>
            <Node pos="r" depth="3" NCoef="0" IVar="-1" Cut="0.0000000000000000e+00" cType="1" res="-9.9000000000000000e+01" rms="0.0000000000000000e+00" purity="4.7451588511466980e-01" nType="-1"/>
          </Node>
          <Node pos="r" depth="2" NCoef="0" IVar="1" Cut="4.2265634983778000e-02" cType="1" res="-9.9000000000000000e+01" rms="0.0000000000000000e+00" purity="4.2969000339508057e-01" nType="0">
            <Node pos="l" depth="3" NCoef="0" IVar="-1" Cut="0.0000000000000000e+00" cType="1" res="-9.9000000000000000e+01" rms="0.0000000000000000e+00" purity="6.1540627479553223e-01" nType="1"/>
            <Node pos="r" depth="3" NCoef="0" IVar="-1" Cut="0.0000000000000000e+00" cType="1" res="-9.9000000000000000e+01" rms="0.0000000000000000e+00" purity="3.5708633065223694e-01" nType="-1"/>
          </Node>
        </Node>
      </Node>
    </BinaryTree>
    <BinaryTree type="DecisionTree" boostWeight="1.7782943392885617e-01" itree="19">
      <Node pos="s" depth="0" NCoef="0" IVar="4" Cut="9.9231650390625000e+03" cType="1" res="-9.9000000000000000e+01" rms="0.0000000000000000e+00" purity="5.0946152210235596e-01" nType="0">
        <Node pos="l" depth="1" NCoef="0" IVar="0" Cut="2.7758589014410973e-02" cType="0" res="-9.9000000000000000e+01" rms="0.0000000000000000e+00" purity="5.7173699140548706e-01" nType="0">
          <Node pos="l" depth="2" NCoef="0" IVar="0" Cut="4.4856283813714981e-02" cType="0" res="-9.9000000000000000e+01" rms="0.0000000000000000e+00" purity="6.6538715362548828e-01" nType="0">
            <Node pos="l" depth="3" NCoef="0" IVar="-1" Cut="0.0000000000000000e+00" cType="1" res="-9.9000000000000000e+01" rms="0.0000000000000000e+00" purity="7.8077906370162964e-01" nType="1"/>
            <Node pos="r" depth="3" NCoef="0" IVar="-1" Cut="0.0000000000000000e+00" cType="1" res="-9.9000000000000000e+01" rms="0.0000000000000000e+00" purity="4.6067944169044495e-01" nType="-1"/>
          </Node>
          <Node pos="r" depth="2" NCoef="9" fC0="0.0000000000000000e+00" fC1="0.0000000000000000e+00" fC2="-2.1235801015976603e-03" fC3="5.8781682221919354e-03" fC4="0.0000000000000000e+00" fC5="-7.5707281035155722e-06" fC6="6.5731073546475248e-03" fC7="-5.7113209543393226e-03" fC8="-7.0998006052977902e-02" IVar="8" Cut="1.0734007693827152e-02" cType="0" res="-9.9000000000000000e+01" rms="0.0000000000000000e+00" purity="4.8113933205604553e-01" nType="0">
            <Node pos="l" depth="3" NCoef="0" IVar="-1" Cut="0.0000000000000000e+00" cType="1" res="-9.9000000000000000e+01" rms="0.0000000000000000e+00" purity="6.8346107006072998e-01" nType="1"/>
            <Node pos="r" depth="3" NCoef="0" IVar="-1" Cut="0.0000000000000000e+00" cType="1" res="-9.9000000000000000e+01" rms="0.0000000000000000e+00" purity="3.7939551472663879e-01" nType="-1"/>
          </Node>
        </Node>
        <Node pos="r" depth="1" NCoef="0" IVar="0" Cut="7.7763952314853668e-02" cType="1" res="-9.9000000000000000e+01" rms="0.0000000000000000e+00" purity="4.8822069168090820e-01" nType="0">
          <Node pos="l" depth="2" NCoef="0" IVar="2" Cut="9.8882728576660156e+01" cType="1" res="-9.9000000000000000e+01" rms="0.0000000000000000e+00" purity="5.3894090652465820e-01" nType="0">
            <Node pos="l" depth="3" NCoef="0" IVar="-1" Cut="0.0000000000000000e+00" cType="1" res="-9.9000000000000000e+01" rms="0.0000000000000000e+00" purity="5.9525042772293091e-01" nType="1"/>
            <Node pos="r" depth="3" NCoef="0" IVar="-1" Cut="0.0000000000000000e+00" cType="1" res="-9.9000000000000000e+01" rms="0.0000000000000000e+00" purity="4.4482865929603577e-01" nType="-1"/>
          </Node>
          <Node pos="r" depth="2" NCoef="9" fC0="0.0000000000000000e+00" fC1="0.0000000000000000e+00" fC2="-1.4168321973605526e-04" fC3="1.8272622983762747e-03" fC4="2.1329243615499104e-06" fC5="0.0000000000000000e+00" fC6="6.4913743995119981e-05" fC7="-3.2446926345688376e-03" fC8="-9.8328402068251108e-02" IVar="-1" Cut="-5.2229460328817368e-02" cType="0" res="-9.9000000000000000e+01" rms="0.0000000000000000e+00" purity="4.5259767770767212e-01" nType="-1"/>
        </Node>
      </Node>
    </BinaryTree>
    <BinaryTree type="DecisionTree" boostWeight="1.5681286351173365e-01" itree="20">
      <Node pos="s" depth="0" NCoef="0" IVar="4" Cut="9.9231650390625000e+03" cType="1" res="-9.9000000000000000e+01" rms="0.0000000000000000e+00" purity="5.2617084980010986e-01" nType="0">
        <Node pos="l" depth="1" NCoef="0" IVar="0" Cut="2.7758589014410973e-02" cType="0" res="-9.9000000000000000e+01" rms="0.0000000000000000e+00" purity="5.7523429393768311e-01" nType="0">
          <Node pos="l" depth="2" NCoef="0" IVar="-1" Cut="4.4856283813714981e-02" cType="0" res="-9.9000000000000000e+01" rms="0.0000000000000000e+00" purity="6.5820491313934326e-01" nType="1"/>
          <Node pos="r" depth="2" NCoef="0" IVar="4" Cut="6.0388930664062500e+03" cType="1" res="-9.9000000000000000e+01" rms="0.0000000000000000e+00" purity="4.9569812417030334e-01" nType="0">
            <Node pos="l" depth="3" NCoef="0" IVar="-1" Cut="0.0000000000000000e+00" cType="1" res="-9.9000000000000000e+01" rms="0.0000000000000000e+00" purity="5.8152109384536743e-01" nType="1"/>
            <Node pos="r" depth="3" NCoef="0" IVar="-1" Cut="0.0000000000000000e+00" cType="1" res="-9.9000000000000000e+01" rms="0.0000000000000000e+00" purity="3.4106272459030151e-01" nType="-1"/>
          </Node>
        </Node>
        <Node pos="r" depth="1" NCoef="0" IVar="6" Cut="6.4809089660644531e+01" cType="0" res="-9.9000000000000000e+01" rms="0.0000000000000000e+00" purity="5.0975292921066284e-01" nType="0">
          <Node pos="l" depth="2" NCoef="9" fC0="0.0000000000000000e+00" fC1="0.0000000000000000e+00" fC2="-6.0973009475449472e-05" fC3="2.6760532097346904e-03" fC4="0.0000000000000000e+00" fC5="0.0000000000000000e+00" fC6="-7.5886708593922631e-04" fC7="-2.7290467446326170e-03" fC8="3.7052818932171869e-02" IVar="-1" Cut="8.2809925079345703e-02" cType="0" res="-9.9000000000000000e+01" rms="0.0000000000000000e+00" purity="5.5612760782241821e-01" nType="1"/>
          <Node pos="r" depth="2" NCoef="9" fC0="0.0000000000000000e+00" fC1="0.0000000000000000e+00" fC2="-9.3922726015190398e-04" fC3="-1.4308868784306534e-03" fC4="3.3005951315373954e-06" fC5="0.0000000000000000e+00" fC6="0.0000000000000000e+00" fC7="2.0639562275570405e-03" fC8="1.8893776679907437e-03" IVar="8" Cut="4.4224530458450317e-02" cType="0" res="-9.9000000000000000e+01" rms="0.0000000000000000e+00" purity="4.7003489732742310e-01" nType="0">
            <Node pos="l" depth="3" NCoef="0" IVar="-1" Cut="0.0000000000000000e+00" cType="1" res="-9.9000000000000000e+01" rms="0.0000000000000000e+00" purity="6.0778379440307617e-01" nType="1"/>
            <Node pos="r" depth="3" NCoef="0" IVar="-1" Cut="0.0000000000000000e+00" cType="1" res="-9.9000000000000000e+01" rms="0.0000000000000000e+00" purity="4.4608271121978760e-01" nType="-1"/>
          </Node>
        </Node>
      </Node>
    </BinaryTree>
    <BinaryTree type="DecisionTree" boostWeight="1.2599235635780290e-01" itree="21">
      <Node pos="s" depth="0" NCoef="9" fC0="0.0000000000000000e+00" fC1="0.0000000000000000e+00" fC2="4.9300317333876115e-05" fC3="-9.7494813146396393e-05" fC4="8.1277049927244691e-08" fC5="0.0000000000000000e+00" fC6="-4.2448361895950086e-04" fC7="2.3701553246328666e-04" fC8="1.4564295313528264e-02" IVar="8" Cut="-2.1768851205706596e-02" cType="0" res="-9.9000000000000000e+01" rms="0.0000000000000000e+00" purity="5.1751464605331421e-01" nType="0">
        <Node pos="l" depth="1" NCoef="9" fC0="0.0000000000000000e+00" fC1="0.0000000000000000e+00" fC2="-6.1372079277549315e-04" fC3="-1.7536872640501870e-04" fC4="2.5064723869169629e-07" fC5="0.0000000000000000e+00" fC6="8.0798874250848768e-04" fC7="3.1529990799462345e-04" fC8="1.3308847449950680e-02" IVar="8" Cut="9.9406745284795761e-03" cType="0" res="-9.9000000000000000e+01" rms="0.0000000000000000e+00" purity="5.2704876661300659e-01" nType="0">
          <Node pos="l" depth="2" NCoef="0" IVar="-1" Cut="5.5610578507184982e-02" cType="1" res="-9.9000000000000000e+01" rms="0.0000000000000000e+00" purity="6.0126572847366333e-01" nType="1"/>
          <Node pos="r" depth="2" NCoef="0" IVar="1" Cut="2.0095571875572205e-02" cType="0" res="-9.9000000000000000e+01" rms="0.0000000000000000e+00" purity="4.9803248047828674e-01" nType="0">
            <Node pos="l" depth="3" NCoef="0" IVar="-1" Cut="0.0000000000000000e+00" cType="1" res="-9.9000000000000000e+01" rms="0.0000000000000000e+00" purity="5.1771396398544312e-01" nType="1"/>
            <Node pos="r" depth="3" NCoef="0" IVar="-1" Cut="0.0000000000000000e+00" cType="1" res="-9.9000000000000000e+01" rms="0.0000000000000000e+00" purity="3.7598437070846558e-01" nType="-1"/>
          </Node>
        </Node>
        <Node pos="r" depth="1" NCoef="0" IVar="0" Cut="1.5159934759140015e-01" cType="0" res="-9.9000000000000000e+01" rms="0.0000000000000000e+00" purity="4.1630733013153076e-01" nType="0">
          <Node pos="l" depth="2" NCoef="0" IVar="-1" Cut="0.0000000000000000e+00" cType="1" res="-9.9000000000000000e+01" rms="0.0000000000000000e+00" purity="6.5045362710952759e-01" nType="1"/>
          <Node pos="r" depth="2" NCoef="0" IVar="-1" Cut="3.9132863281250000e+04" cType="1" res="-9.9000000000000000e+01" rms="0.0000000000000000e+00" purity="3.0961748957633972e-01" nType="-1"/>
        </Node>
      </Node>
    </BinaryTree>
    <BinaryTree type="DecisionTree" boostWeight="1.4343197393924620e-01" itree="22">
      <Node pos="s" depth="0" NCoef="0" IVar="0" Cut="2.4580687284469604e-01" cType="1" res="-9.9000000000000000e+01" rms="0.0000000000000000e+00" purity="4.9531200528144836e-01" nType="0">
        <Node pos="l" depth="1" NCoef="0" IVar="5" Cut="1.2150591796875000e+04" cType="1" res="-9.9000000000000000e+01" rms="0.0000000000000000e+00" purity="5.0035983324050903e-01" nType="0">
          <Node pos="l" depth="2" NCoef="9" fC0="0.0000000000000000e+00" fC1="0.0000000000000000e+00" fC2="-3.9424986634805623e-04" fC3="4.7563672859937349e-05" fC4="7.1201850634114297e-07" fC5="0.0000000000000000e+00" fC6="-4.9764590051489628e-04" fC7="8.5440823321452134e-04" fC8="3.0139856850910238e-02" IVar="8" Cut="-2.3749781772494316e-02" cType="0" res="-9.9000000000000000e+01" rms="0.0000000000000000e+00" purity="5.1819294691085815e-01" nType="0">
            <Node pos="l" depth="3" NCoef="0" IVar="-1" Cut="0.0000000000000000e+00" cType="1" res="-9.9000000000000000e+01" rms="0.0000000000000000e+00" purity="5.5275934934616089e-01" nType="1"/>
            <Node pos="r" depth="3" NCoef="0" IVar="-1" Cut="0.0000000000000000e+00" cType="1" res="-9.9000000000000000e+01" rms="0.0000000000000000e+00" purity="4.0062555670738220e-01" nType="-1"/>
          </Node>
          <Node pos="r" depth="2" NCoef="9" fC0="-1.2129648318116986e+00" fC1="0.0000000000000000e+00" fC2="4.7155654385401693e-05" fC3="-2.4830495850915509e-03" fC4="2.1461549463291309e-06" fC5="8.4141247752850251e-06" fC6="5.6709360093822817e-04" fC7="6.7210838732903618e-04" fC8="-6.0027388557413963e-02" IVar="8" Cut="8.9412622153759003e-02" cType="0" res="-9.9000000000000000e+01" rms="0.0000000000000000e+00" purity="4.6536791324615479e-01" nType="0">
            <Node pos="l" depth="3" NCoef="0" IVar="-1" Cut="0.0000000000000000e+00" cType="1" res="-9.9000000000000000e+01" rms="0.0000000000000000e+00" purity="6.6175270080566406e-01" nType="1"/>
            <Node pos="r" depth="3" NCoef="0" IVar="-1" Cut="0.0000000000000000e+00" cType="1" res="-9.9000000000000000e+01" rms="0.0000000000000000e+00" purity="4.3514305353164673e-01" nType="-1"/>
          </Node>
        </Node>
        <Node pos="r" depth="1" NCoef="0" IVar="-1" Cut="0.0000000000000000e+00" cType="1" res="-9.9000000000000000e+01" rms="0.0000000000000000e+00" purity="3.3080932497978210e-01" nType="-1"/>
      </Node>
    </BinaryTree>
    <BinaryTree type="DecisionTree" boostWeight="9.5290596377706427e-02" itree="23">
      <Node pos="s" depth="0" NCoef="9" fC0="0.0000000000000000e+00" fC1="0.0000000000000000e+00" fC2="1.4195022821975853e-04" fC3="1.5475558940149066e-04" fC4="-2.9442273410540576e-07" fC5="0.0000000000000000e+00" fC6="-2.3015555066866977e-05" fC7="-5.5553475270937780e-05" fC8="-1.0029692781123202e-02" IVar="8" Cut="-5.2197985351085663e-03" cType="0" res="-9.9000000000000000e+01" rms="0.0000000000000000e+00" purity="4.9229654669761658e-01" nType="0">
        <Node pos="l" depth="1" NCoef="0" IVar="1" Cut="2.1019826829433441e-01" cType="1" res="-9.9000000000000000e+01" rms="0.0000000000000000e+00" purity="5.0730353593826294e-01" nType="0">
          <Node pos="l" depth="2" NCoef="0" IVar="-1" Cut="1.8908220529556274e-01" cType="0" res="-9.9000000000000000e+01" rms="0.0000000000000000e+00" purity="5.1565080881118774e-01" nType="1"/>
          <Node pos="r" depth="2" NCoef="0" IVar="-1" Cut="0.0000000000000000e+00" cType="1" res="-9.9000000000000000e+01" rms="0.0000000000000000e+00" purity="3.4216558933258057e-01" nType="-1"/>
        </Node>
        <Node pos="r" depth="1" NCoef="0" IVar="3" Cut="3.0475387573242188e+01" cType="1" res="-9.9000000000000000e+01" rms="0.0000000000000000e+00" purity="4.5443767309188843e-01" nType="0">
          <Node pos="l" depth="2" NCoef="0" IVar="0" Cut="5.0508949905633926e-02" cType="0" res="-9.9000000000000000e+01" rms="0.0000000000000000e+00" purity="4.8180341720581055e-01" nType="0">
            <Node pos="l" depth="3" NCoef="0" IVar="-1" Cut="0.0000000000000000e+00" cType="1" res="-9.9000000000000000e+01" rms="0.0000000000000000e+00" purity="5.5366426706314087e-01" nType="1"/>
            <Node pos="r" depth="3" NCoef="0" IVar="-1" Cut="0.0000000000000000e+00" cType="1" res="-9.9000000000000000e+01" rms="0.0000000000000000e+00" purity="3.3032888174057007e-01" nType="-1"/>
          </Node>
          <Node pos="r" depth="2" NCoef="0" IVar="-1" Cut="0.0000000000000000e+00" cType="1" res="-9.9000000000000000e+01" rms="0.0000000000000000e+00" purity="2.2516304254531860e-01" nType="-1"/>
        </Node>
      </Node>
    </BinaryTree>
    <BinaryTree type="DecisionTree" boostWeight="1.0348803461662036e-01" itree="24">
      <Node pos="s" depth="0" NCoef="9" fC0="0.0000000000000000e+00" fC1="0.0000000000000000e+00" fC2="1.8335625697316990e-05" fC3="1.2286895075123839e-04" fC4="-1.5773467700197337e-07" fC5="0.0000000000000000e+00" fC6="2.8648976901647501e-05" fC7="-6.4008954284458625e-05" fC8="-2.5683078905471930e-03" IVar="8" Cut="-7.0425542071461678e-03" cType="0" res="-9.9000000000000000e+01" rms="0.0000000000000000e+00" purity="4.7525465488433838e-01" nType="0">
        <Node pos="l" depth="1" NCoef="0" IVar="4" Cut="5.9538992187500000e+04" cType="0" res="-9.9000000000000000e+01" rms="0.0000000000000000e+00" purity="4.8095858097076416e-01" nType="0">
          <Node pos="l" depth="2" NCoef="0" IVar="5" Cut="6.0752958984375000e+03" cType="1" res="-9.9000000000000000e+01" rms="0.0000000000000000e+00" purity="5.5265986919403076e-01" nType="0">
            <Node pos="l" depth="3" NCoef="0" IVar="-1" Cut="0.0000000000000000e+00" cType="1" res="-9.9000000000000000e+01" rms="0.0000000000000000e+00" purity="7.6497215032577515e-01" nType="1"/>
            <Node pos="r" depth="3" NCoef="0" IVar="-1" Cut="0.0000000000000000e+00" cType="1" res="-9.9000000000000000e+01" rms="0.0000000000000000e+00" purity="4.8515513539314270e-01" nType="-1"/>
          </Node>
          <Node pos="r" depth="2" NCoef="0" IVar="4" Cut="5.6691069335937500e+03" cType="1" res="-9.9000000000000000e+01" rms="0.0000000000000000e+00" purity="4.6954590082168579e-01" nType="0">
            <Node pos="l" depth="3" NCoef="0" IVar="-1" Cut="0.0000000000000000e+00" cType="1" res="-9.9000000000000000e+01" rms="0.0000000000000000e+00" purity="5.4676866531372070e-01" nType="1"/>
            <Node pos="r" depth="3" NCoef="0" IVar="-1" Cut="0.0000000000000000e+00" cType="1" res="-9.9000000000000000e+01" rms="0.0000000000000000e+00" purity="4.5785629749298096e-01" nType="-1"/>
          </Node>
        </Node>
        <Node pos="r" depth="1" NCoef="0" IVar="-1" Cut="0.0000000000000000e+00" cType="1" res="-9.9000000000000000e+01" rms="0.0000000000000000e+00" purity="3.6190763115882874e-01" nType="-1"/>
      </Node>
    </BinaryTree>
    <BinaryTree type="DecisionTree" boostWeight="9.8673187416131736e-02" itree="25">
      <Node pos="s" depth="0" NCoef="0" IVar="5" Cut="2.4301183593750000e+04" cType="0" res="-9.9000000000000000e+01" rms="0.0000000000000000e+00" purity="4.9385705590248108e-01" nType="0">
        <Node pos="l" depth="1" NCoef="0" IVar="6" Cut="5.6679508209228516e+01" cType="0" res="-9.9000000000000000e+01" rms="0.0000000000000000e+00" purity="5.5881357192993164e-01" nType="0">
          <Node pos="l" depth="2" NCoef="0" IVar="-1" Cut="0.0000000000000000e+00" cType="1" res="-9.9000000000000000e+01" rms="0.0000000000000000e+00" purity="6.8590813875198364e-01" nType="1"/>
          <Node pos="r" depth="2" NCoef="9" fC0="-4.0777174865374519e+00" fC1="0.0000000000000000e+00" fC2="4.2720999578263483e-03" fC3="-3.3828345475841928e-03" fC4="-5.8477935372099108e-06" fC5="3.7192832471544095e-06" fC6="1.2696208354702037e-04" fC7="3.1017881574930861e-03" fC8="5.2064776445417876e-02" IVar="8" Cut="-3.3959053456783295e-02" cType="0" res="-9.9000000000000000e+01" rms="0.0000000000000000e+00" purity="4.8005789518356323e-01" nType="0">
            <Node pos="l" depth="3" NCoef="0" IVar="-1" Cut="0.0000000000000000e+00" cType="1" res="-9.9000000000000000e+01" rms="0.0000000000000000e+00" purity="5.6976592540740967e-01" nType="1"/>
            <Node pos="r" depth="3" NCoef="0" IVar="-1" Cut="0.0000000000000000e+00" cType="1" res="-9.9000000000000000e+01" rms="0.0000000000000000e+00" purity="3.1898009777069092e-01" nType="-1"/>
          </Node>
        </Node>
        <Node pos="r" depth="1" NCoef="0" IVar="5" Cut="2.0825384765625000e+04" cType="1" res="-9.9000000000000000e+01" rms="0.0000000000000000e+00" purity="4.8538058996200562e-01" nType="0">
          <Node pos="l" depth="2" NCoef="0" IVar="5" Cut="4.9392514648437500e+03" cType="0" res="-9.9000000000000000e+01" rms="0.0000000000000000e+00" purity="4.9541223049163818e-01" nType="0">
            <Node pos="l" depth="3" NCoef="0" IVar="-1" Cut="0.0000000000000000e+00" cType="1" res="-9.9000000000000000e+01" rms="0.0000000000000000e+00" purity="5.1580697298049927e-01" nType="1"/>
            <Node pos="r" depth="3" NCoef="0" IVar="-1" Cut="0.0000000000000000e+00" cType="1" res="-9.9000000000000000e+01" rms="0.0000000000000000e+00" purity="4.2942127585411072e-01" nType="-1"/>
          </Node>
          <Node pos="r" depth="2" NCoef="0" IVar="-1" Cut="0.0000000000000000e+00" cType="1" res="-9.9000000000000000e+01" rms="0.0000000000000000e+00" purity="3.0675178766250610e-01" nType="-1"/>
        </Node>
      </Node>
    </BinaryTree>
    <BinaryTree type="DecisionTree" boostWeight="1.3429625584343971e-01" itree="26">
      <Node pos="s" depth="0" NCoef="0" IVar="5" Cut="2.4301183593750000e+04" cType="0" res="-9.9000000000000000e+01" rms="0.0000000000000000e+00" purity="4.8236954212188721e-01" nType="0">
        <Node pos="l" depth="1" NCoef="9" fC0="-1.9331436452157646e+00" fC1="0.0000000000000000e+00" fC2="-8.1169038118807861e-04" fC3="-4.5861815023039696e-04" fC4="5.6524410709857960e-06" fC5="0.0000000000000000e+00" fC6="7.9836859796668196e-04" fC7="-7.2217681866925591e-04" fC8="1.0364928279046939e-01" IVar="8" Cut="-1.4193019829690456e-02" cType="0" res="-9.9000000000000000e+01" rms="0.0000000000000000e+00" purity="5.4567044973373413e-01" nType="0">
          <Node pos="l" depth="2" NCoef="0" IVar="-1" Cut="5.1874900817871094e+01" cType="0" res="-9.9000000000000000e+01" rms="0.0000000000000000e+00" purity="6.3942831754684448e-01" nType="1"/>
          <Node pos="r" depth="2" NCoef="0" IVar="-1" Cut="0.0000000000000000e+00" cType="1" res="-9.9000000000000000e+01" rms="0.0000000000000000e+00" purity="4.2511826753616333e-01" nType="-1"/>
        </Node>
        <Node pos="r" depth="1" NCoef="9" fC0="0.0000000000000000e+00" fC1="0.0000000000000000e+00" fC2="1.7477448693982526e-04" fC3="-1.2003208686705404e-03" fC4="-4.7822127770060544e-07" fC5="0.0000000000000000e+00" fC6="5.1395211851843345e-05" fC7="9.3598625655473685e-04" fC8="1.7743563228053351e-02" IVar="8" Cut="-5.3082471713423729e-03" cType="0" res="-9.9000000000000000e+01" rms="0.0000000000000000e+00" purity="4.7419327497482300e-01" nType="0">
          <Node pos="l" depth="2" NCoef="0" IVar="3" Cut="5.5090541839599609e+01" cType="0" res="-9.9000000000000000e+01" rms="0.0000000000000000e+00" purity="4.9850389361381531e-01" nType="0">
            <Node pos="l" depth="3" NCoef="0" IVar="-1" Cut="0.0000000000000000e+00" cType="1" res="-9.9000000000000000e+01" rms="0.0000000000000000e+00" purity="7.9498553276062012e-01" nType="1"/>
            <Node pos="r" depth="3" NCoef="0" IVar="-1" Cut="0.0000000000000000e+00" cType="1" res="-9.9000000000000000e+01" rms="0.0000000000000000e+00" purity="4.8045632243156433e-01" nType="-1"/>
          </Node>
          <Node pos="r" depth="2" NCoef="0" IVar="5" Cut="6.9417954101562500e+03" cType="1" res="-9.9000000000000000e+01" rms="0.0000000000000000e+00" purity="4.1612255573272705e-01" nType="0">
            <Node pos="l" depth="3" NCoef="0" IVar="-1" Cut="0.0000000000000000e+00" cType="1" res="-9.9000000000000000e+01" rms="0.0000000000000000e+00" purity="6.3222610950469971e-01" nType="1"/>
            <Node pos="r" depth="3" NCoef="0" IVar="-1" Cut="0.0000000000000000e+00" cType="1" res="-9.9000000000000000e+01" rms="0.0000000000000000e+00" purity="3.7939044833183289e-01" nType="-1"/>
          </Node>
        </Node>
      </Node>
    </BinaryTree>
    <BinaryTree type="DecisionTree" boostWeight="7.1899108958672894e-02" itree="27">
      <Node pos="s" depth="0" NCoef="0" IVar="4" Cut="7.9385320312500000e+04" cType="1" res="-9.9000000000000000e+01" rms="0.0000000000000000e+00" purity="5.0668710470199585e-01" nType="0">
        <Node pos="l" depth="1" NCoef="0" IVar="4" Cut="5.6687996093750000e+04" cType="0" res="-9.9000000000000000e+01" rms="0.0000000000000000e+00" purity="5.1203799247741699e-01" nType="0">
          <Node pos="l" depth="2" NCoef="9" fC0="0.0000000000000000e+00" fC1="0.0000000000000000e+00" fC2="0.0000000000000000e+00" fC3="-5.2261214021614225e-03" fC4="0.0000000000000000e+00" fC5="1.3532458062031082e-05" fC6="0.0000000000000000e+00" fC7="5.8750440156697462e-03" fC8="-5.8647134977995299e-02" IVar="-1" Cut="7.1126215159893036e-02" cType="0" res="-9.9000000000000000e+01" rms="0.0000000000000000e+00" purity="5.9530705213546753e-01" nType="1"/>
          <Node pos="r" depth="2" NCoef="9" fC0="0.0000000000000000e+00" fC1="0.0000000000000000e+00" fC2="-4.2736243005124920e-04" fC3="-2.4798583929839607e-04" fC4="0.0000000000000000e+00" fC5="0.0000000000000000e+00" fC6="4.1814418450669092e-04" fC7="2.4074416612313184e-04" fC8="2.1778359646538254e-02" IVar="8" Cut="1.5001444146037102e-02" cType="0" res="-9.9000000000000000e+01" rms="0.0000000000000000e+00" purity="4.9849289655685425e-01" nType="0">
            <Node pos="l" depth="3" NCoef="0" IVar="-1" Cut="0.0000000000000000e+00" cType="1" res="-9.9000000000000000e+01" rms="0.0000000000000000e+00" purity="5.9843820333480835e-01" nType="1"/>
            <Node pos="r" depth="3" NCoef="0" IVar="-1" Cut="0.0000000000000000e+00" cType="1" res="-9.9000000000000000e+01" rms="0.0000000000000000e+00" purity="4.8629668354988098e-01" nType="-1"/>
          </Node>
        </Node>
        <Node pos="r" depth="1" NCoef="0" IVar="-1" Cut="1.0163370117187500e+04" cType="1" res="-9.9000000000000000e+01" rms="0.0000000000000000e+00" purity="4.1591510176658630e-01" nType="-1"/>
      </Node>
    </BinaryTree>
    <BinaryTree type="DecisionTree" boostWeight="1.4853128366889976e-01" itree="28">
      <Node pos="s" depth="0" NCoef="0" IVar="1" Cut="4.2039651423692703e-02" cType="1" res="-9.9000000000000000e+01" rms="0.0000000000000000e+00" purity="5.1677250862121582e-01" nType="0">
        <Node pos="l" depth="1" NCoef="0" IVar="1" Cut="1.6000166535377502e-02" cType="0" res="-9.9000000000000000e+01" rms="0.0000000000000000e+00" purity="5.4921692609786987e-01" nType="0">
          <Node pos="l" depth="2" NCoef="0" IVar="1" Cut="3.4581217914819717e-02" cType="1" res="-9.9000000000000000e+01" rms="0.0000000000000000e+00" purity="5.8721721172332764e-01" nType="0">
            <Node pos="l" depth="3" NCoef="0" IVar="-1" Cut="0.0000000000000000e+00" cType="1" res="-9.9000000000000000e+01" rms="0.0000000000000000e+00" purity="6.2155461311340332e-01" nType="1"/>
            <Node pos="r" depth="3" NCoef="0" IVar="-1" Cut="0.0000000000000000e+00" cType="1" res="-9.9000000000000000e+01" rms="0.0000000000000000e+00" purity="4.7099712491035461e-01" nType="-1"/>
          </Node>
          <Node pos="r" depth="2" NCoef="0" IVar="0" Cut="7.3128037154674530e-02" cType="0" res="-9.9000000000000000e+01" rms="0.0000000000000000e+00" purity="4.8003980517387390e-01" nType="0">
            <Node pos="l" depth="3" NCoef="0" IVar="-1" Cut="0.0000000000000000e+00" cType="1" res="-9.9000000000000000e+01" rms="0.0000000000000000e+00" purity="5.9246546030044556e-01" nType="1"/>
            <Node pos="r" depth="3" NCoef="0" IVar="-1" Cut="0.0000000000000000e+00" cType="1" res="-9.9000000000000000e+01" rms="0.0000000000000000e+00" purity="3.6191612482070923e-01" nType="-1"/>
          </Node>
        </Node>
        <Node pos="r" depth="1" NCoef="9" fC0="0.0000000000000000e+00" fC1="0.0000000000000000e+00" fC2="8.0160440490444486e-04" fC3="-2.4164167441336265e-03" fC4="-1.3896498971936108e-06" fC5="6.0405384580655845e-06" fC6="-4.8701516441656352e-04" fC7="1.3861612742734153e-03" fC8="-2.5172415361440381e-02" IVar="8" Cut="3.8183297961950302e-02" cType="0" res="-9.9000000000000000e+01" rms="0.0000000000000000e+00" purity="5.0209361314773560e-01" nType="0">
          <Node pos="l" depth="2" NCoef="9" fC0="0.0000000000000000e+00" fC1="0.0000000000000000e+00" fC2="5.8077010441085299e-04" fC3="-6.7755558740582454e-04" fC4="-2.6817085106729925e-06" fC5="4.4056645952494787e-06" fC6="1.0480023051000880e-04" fC7="8.2116607883971212e-04" fC8="-1.2414660246804946e-01" IVar="-1" Cut="6.9446847774088383e-03" cType="0" res="-9.9000000000000000e+01" rms="0.0000000000000000e+00" purity="6.0139167308807373e-01" nType="1"/>
          <Node pos="r" depth="2" NCoef="9" fC0="0.0000000000000000e+00" fC1="0.0000000000000000e+00" fC2="3.8422326918445754e-04" fC3="-1.4448963722700310e-03" fC4="-5.9885772344813978e-07" fC5="0.0000000000000000e+00" fC6="-1.6545364437084973e-04" fC7="1.0682874557980790e-03" fC8="2.9257016072229827e-02" IVar="8" Cut="3.3783707767724991e-03" cType="0" res="-9.9000000000000000e+01" rms="0.0000000000000000e+00" purity="4.8077940940856934e-01" nType="0">
            <Node pos="l" depth="3" NCoef="0" IVar="-1" Cut="0.0000000000000000e+00" cType="1" res="-9.9000000000000000e+01" rms="0.0000000000000000e+00" purity="5.2667254209518433e-01" nType="1"/>
            <Node pos="r" depth="3" NCoef="0" IVar="-1" Cut="0.0000000000000000e+00" cType="1" res="-9.9000000000000000e+01" rms="0.0000000000000000e+00" purity="4.1661572456359863e-01" nType="-1"/>
          </Node>
        </Node>
      </Node>
    </BinaryTree>
    <BinaryTree type="DecisionTree" boostWeight="1.1544990718482417e-01" itree="29">
      <Node pos="s" depth="0" NCoef="9" fC0="0.0000000000000000e+00" fC1="0.0000000000000000e+00" fC2="-5.8675416191721023e-05" fC3="5.3946252099878491e-04" fC4="-2.4630699999458990e-07" fC5="0.0000000000000000e+00" fC6="1.7165312000760451e-04" fC7="-6.5312709154877343e-04" fC8="-3.8036800217674631e-03" IVar="8" Cut="1.5525545459240675e-03" cType="0" res="-9.9000000000000000e+01" rms="0.0000000000000000e+00" purity="5.0462871789932251e-01" nType="0">
        <Node pos="l" depth="1" NCoef="9" fC0="0.0000000000000000e+00" fC1="0.0000000000000000e+00" fC2="1.2391667772572448e-03" fC3="-1.7587790476196780e-03" fC4="0.0000000000000000e+00" fC5="1.9452357445765246e-06" fC6="-1.6528732654011655e-03" fC7="1.7919077554990005e-03" fC8="2.7199800176686689e-03" IVar="8" Cut="-5.8881477452814579e-03" cType="0" res="-9.9000000000000000e+01" rms="0.0000000000000000e+00" purity="5.4316616058349609e-01" nType="0">
          <Node pos="l" depth="2" NCoef="9" fC0="0.0000000000000000e+00" fC1="0.0000000000000000e+00" fC2="8.4358646880211584e-04" fC3="2.9440598544963289e-03" fC4="0.0000000000000000e+00" fC5="-4.7219754378870387e-06" fC6="-1.0764639374073396e-03" fC7="-7.7401264405761554e-04" fC8="-9.7762293283767926e-02" IVar="-1" Cut="4.4937316328287125e-02" cType="0" res="-9.9000000000000000e+01" rms="0.0000000000000000e+00" purity="5.8036470413208008e-01" nType="1"/>
          <Node pos="r" depth="2" NCoef="9" fC0="-2.1828520390256956e+00" fC1="0.0000000000000000e+00" fC2="-3.2234127935423990e-03" fC3="-3.3279991662047440e-04" fC4="4.3806355107455672e-06" fC5="0.0000000000000000e+00" fC6="3.7153898213150688e-03" fC7="-1.4864049868263071e-03" fC8="1.5805839932883964e-01" IVar="8" Cut="9.9250646308064461e-03" cType="0" res="-9.9000000000000000e+01" rms="0.0000000000000000e+00" purity="4.9449679255485535e-01" nType="0">
            <Node pos="l" depth="3" NCoef="0" IVar="-1" Cut="0.0000000000000000e+00" cType="1" res="-9.9000000000000000e+01" rms="0.0000000000000000e+00" purity="5.9868699312210083e-01" nType="1"/>
            <Node pos="r" depth="3" NCoef="0" IVar="-1" Cut="0.0000000000000000e+00" cType="1" res="-9.9000000000000000e+01" rms="0.0000000000000000e+00" purity="3.8529115915298462e-01" nType="-1"/>
          </Node>
        </Node>
        <Node pos="r" depth="1" NCoef="9" fC0="0.0000000000000000e+00" fC1="0.0000000000000000e+00" fC2="-2.5591403631449616e-04" fC3="-2.5631570825290495e-03" fC4="6.7994675898927407e-07" fC5="0.0000000000000000e+00" fC6="6.6118154945352575e-05" fC7="2.7104143517295916e-03" fC8="2.5384069322871877e-02" IVar="8" Cut="-3.9063356816768646e-02" cType="0" res="-9.9000000000000000e+01" rms="0.0000000000000000e+00" purity="4.8175325989723206e-01" nType="0">
          <Node pos="l" depth="2" NCoef="9" fC0="0.0000000000000000e+00" fC1="0.0000000000000000e+00" fC2="1.7959467022143945e-04" fC3="-6.2237192382132049e-06" fC4="-1.9693624057050486e-07" fC5="0.0000000000000000e+00" fC6="-8.1340780769448366e-05" fC7="6.3253057640595971e-04" fC8="-1.8654898648543632e-02" IVar="8" Cut="2.6519296690821648e-02" cType="0" res="-9.9000000000000000e+01" rms="0.0000000000000000e+00" purity="4.9121853709220886e-01" nType="0">
            <Node pos="l" depth="3" NCoef="0" IVar="-1" Cut="0.0000000000000000e+00" cType="1" res="-9.9000000000000000e+01" rms="0.0000000000000000e+00" purity="6.8071085214614868e-01" nType="1"/>
            <Node pos="r" depth="3" NCoef="0" IVar="-1" Cut="0.0000000000000000e+00" cType="1" res="-9.9000000000000000e+01" rms="0.0000000000000000e+00" purity="4.8012971878051758e-01" nType="-1"/>
          </Node>
          <Node pos="r" depth="2" NCoef="0" IVar="-1" Cut="0.0000000000000000e+00" cType="1" res="-9.9000000000000000e+01" rms="0.0000000000000000e+00" purity="3.1459155678749084e-01" nType="-1"/>
        </Node>
      </Node>
    </BinaryTree>
    <BinaryTree type="DecisionTree" boostWeight="1.1617155962725612e-01" itree="30">
      <Node pos="s" depth="0" NCoef="0" IVar="1" Cut="4.2039651423692703e-02" cType="1" res="-9.9000000000000000e+01" rms="0.0000000000000000e+00" purity="5.1468157768249512e-01" nType="0">
        <Node pos="l" depth="1" NCoef="0" IVar="6" Cut="4.9133907318115234e+01" cType="1" res="-9.9000000000000000e+01" rms="0.0000000000000000e+00" purity="5.5333727598190308e-01" nType="0">
          <Node pos="l" depth="2" NCoef="0" IVar="6" Cut="9.3552465438842773e+00" cType="0" res="-9.9000000000000000e+01" rms="0.0000000000000000e+00" purity="6.0142749547958374e-01" nType="0">
            <Node pos="l" depth="3" NCoef="0" IVar="-1" Cut="0.0000000000000000e+00" cType="1" res="-9.9000000000000000e+01" rms="0.0000000000000000e+00" purity="6.5618818998336792e-01" nType="1"/>
            <Node pos="r" depth="3" NCoef="0" IVar="-1" Cut="0.0000000000000000e+00" cType="1" res="-9.9000000000000000e+01" rms="0.0000000000000000e+00" purity="4.1784730553627014e-01" nType="-1"/>
          </Node>
          <Node pos="r" depth="2" NCoef="0" IVar="5" Cut="4.7538969726562500e+03" cType="1" res="-9.9000000000000000e+01" rms="0.0000000000000000e+00" purity="5.0384664535522461e-01" nType="0">
            <Node pos="l" depth="3" NCoef="0" IVar="-1" Cut="0.0000000000000000e+00" cType="1" res="-9.9000000000000000e+01" rms="0.0000000000000000e+00" purity="5.8012783527374268e-01" nType="1"/>
            <Node pos="r" depth="3" NCoef="0" IVar="-1" Cut="0.0000000000000000e+00" cType="1" res="-9.9000000000000000e+01" rms="0.0000000000000000e+00" purity="4.0887442231178284e-01" nType="-1"/>
          </Node>
        </Node>
        <Node pos="r" depth="1" NCoef="0" IVar="4" Cut="7.9385320312500000e+04" cType="1" res="-9.9000000000000000e+01" rms="0.0000000000000000e+00" purity="4.9722549319267273e-01" nType="0">
          <Node pos="l" depth="2" NCoef="0" IVar="4" Cut="5.6687996093750000e+04" cType="0" res="-9.9000000000000000e+01" rms="0.0000000000000000e+00" purity="5.0601005554199219e-01" nType="0">
            <Node pos="l" depth="3" NCoef="0" IVar="-1" Cut="0.0000000000000000e+00" cType="1" res="-9.9000000000000000e+01" rms="0.0000000000000000e+00" purity="6.1918771266937256e-01" nType="1"/>
            <Node pos="r" depth="3" NCoef="0" IVar="-1" Cut="0.0000000000000000e+00" cType="1" res="-9.9000000000000000e+01" rms="0.0000000000000000e+00" purity="4.8826384544372559e-01" nType="-1"/>
          </Node>
          <Node pos="r" depth="2" NCoef="0" IVar="-1" Cut="0.0000000000000000e+00" cType="1" res="-9.9000000000000000e+01" rms="0.0000000000000000e+00" purity="3.6007514595985413e-01" nType="-1"/>
        </Node>
      </Node>
    </BinaryTree>
    <BinaryTree type="DecisionTree" boostWeight="9.3340824980193388e-02" itree="31">
      <Node pos="s" depth="0" NCoef="0" IVar="0" Cut="2.4580687284469604e-01" cType="1" res="-9.9000000000000000e+01" rms="0.0000000000000000e+00" purity="5.2678841352462769e-01" nType="0">
        <Node pos="l" depth="1" NCoef="0" IVar="2" Cut="1.7314779663085938e+02" cType="1" res="-9.9000000000000000e+01" rms="0.0000000000000000e+00" purity="5.3035295009613037e-01" nType="0">
          <Node pos="l" depth="2" NCoef="0" IVar="0" Cut="4.6795301139354706e-02" cType="0" res="-9.9000000000000000e+01" rms="0.0000000000000000e+00" purity="5.4025769233703613e-01" nType="0">
            <Node pos="l" depth="3" NCoef="0" IVar="-1" Cut="0.0000000000000000e+00" cType="1" res="-9.9000000000000000e+01" rms="0.0000000000000000e+00" purity="5.6472676992416382e-01" nType="1"/>
            <Node pos="r" depth="3" NCoef="0" IVar="-1" Cut="0.0000000000000000e+00" cType="1" res="-9.9000000000000000e+01" rms="0.0000000000000000e+00" purity="4.9850574135780334e-01" nType="-1"/>
          </Node>
          <Node pos="r" depth="2" NCoef="0" IVar="1" Cut="6.3059478998184204e-02" cType="0" res="-9.9000000000000000e+01" rms="0.0000000000000000e+00" purity="4.6599182486534119e-01" nType="0">
            <Node pos="l" depth="3" NCoef="0" IVar="-1" Cut="0.0000000000000000e+00" cType="1" res="-9.9000000000000000e+01" rms="0.0000000000000000e+00" purity="5.3424662351608276e-01" nType="1"/>
            <Node pos="r" depth="3" NCoef="0" IVar="-1" Cut="0.0000000000000000e+00" cType="1" res="-9.9000000000000000e+01" rms="0.0000000000000000e+00" purity="3.9235866069793701e-01" nType="-1"/>
          </Node>
        </Node>
        <Node pos="r" depth="1" NCoef="0" IVar="-1" Cut="0.0000000000000000e+00" cType="1" res="-9.9000000000000000e+01" rms="0.0000000000000000e+00" purity="4.0527698397636414e-01" nType="-1"/>
      </Node>
    </BinaryTree>
    <BinaryTree type="DecisionTree" boostWeight="1.1821686298624914e-01" itree="32">
      <Node pos="s" depth="0" NCoef="9" fC0="0.0000000000000000e+00" fC1="0.0000000000000000e+00" fC2="-8.8325694099536506e-05" fC3="3.0112047691870764e-04" fC4="-2.5209534196136612e-07" fC5="0.0000000000000000e+00" fC6="1.6714815290192233e-05" fC7="-2.8708941845471839e-04" fC8="9.7744091305135075e-03" IVar="8" Cut="-3.4606782719492912e-03" cType="0" res="-9.9000000000000000e+01" rms="0.0000000000000000e+00" purity="5.2229207754135132e-01" nType="0">
        <Node pos="l" depth="1" NCoef="0" IVar="1" Cut="1.9703197479248047e-01" cType="1" res="-9.9000000000000000e+01" rms="0.0000000000000000e+00" purity="5.4225552082061768e-01" nType="0">
          <Node pos="l" depth="2" NCoef="0" IVar="-1" Cut="2.2942222656250000e+04" cType="0" res="-9.9000000000000000e+01" rms="0.0000000000000000e+00" purity="5.5040866136550903e-01" nType="1"/>
          <Node pos="r" depth="2" NCoef="0" IVar="-1" Cut="0.0000000000000000e+00" cType="1" res="-9.9000000000000000e+01" rms="0.0000000000000000e+00" purity="3.5427001118659973e-01" nType="-1"/>
        </Node>
        <Node pos="r" depth="1" NCoef="0" IVar="2" Cut="1.1265511322021484e+02" cType="0" res="-9.9000000000000000e+01" rms="0.0000000000000000e+00" purity="4.8289641737937927e-01" nType="0">
          <Node pos="l" depth="2" NCoef="9" fC0="0.0000000000000000e+00" fC1="0.0000000000000000e+00" fC2="-3.2311787744579028e-04" fC3="4.6350987407036445e-04" fC4="0.0000000000000000e+00" fC5="0.0000000000000000e+00" fC6="5.5496648803530894e-04" fC7="-2.1866090850351815e-03" fC8="3.4311049952331633e-02" IVar="8" Cut="-1.1378914117813110e-02" cType="0" res="-9.9000000000000000e+01" rms="0.0000000000000000e+00" purity="5.0373548269271851e-01" nType="0">
            <Node pos="l" depth="3" NCoef="0" IVar="-1" Cut="0.0000000000000000e+00" cType="1" res="-9.9000000000000000e+01" rms="0.0000000000000000e+00" purity="5.3764426708221436e-01" nType="1"/>
            <Node pos="r" depth="3" NCoef="0" IVar="-1" Cut="0.0000000000000000e+00" cType="1" res="-9.9000000000000000e+01" rms="0.0000000000000000e+00" purity="3.9546352624893188e-01" nType="-1"/>
          </Node>
          <Node pos="r" depth="2" NCoef="0" IVar="-1" Cut="0.0000000000000000e+00" cType="1" res="-9.9000000000000000e+01" rms="0.0000000000000000e+00" purity="3.2786032557487488e-01" nType="-1"/>
        </Node>
      </Node>
    </BinaryTree>
    <BinaryTree type="DecisionTree" boostWeight="1.7450249621271396e-01" itree="33">
      <Node pos="s" depth="0" NCoef="9" fC0="0.0000000000000000e+00" fC1="0.0000000000000000e+00" fC2="-2.4627714293788617e-05" fC3="1.6532481749268095e-04" fC4="-4.5425681151954085e-08" fC5="0.0000000000000000e+00" fC6="-9.8481207174887957e-05" fC7="8.7474362220692320e-05" fC8="7.2019502525404525e-05" IVar="8" Cut="-3.5320760216563940e-03" cType="0" res="-9.9000000000000000e+01" rms="0.0000000000000000e+00" purity="5.0088101625442505e-01" nType="0">
        <Node pos="l" depth="1" NCoef="9" fC0="0.0000000000000000e+00" fC1="0.0000000000000000e+00" fC2="4.6195342756108498e-04" fC3="-1.3749349266136923e-04" fC4="0.0000000000000000e+00" fC5="0.0000000000000000e+00" fC6="-3.1872995332919138e-04" fC7="-3.4860052544253542e-04" fC8="-2.4144553292511535e-03" IVar="8" Cut="6.6152703948318958e-03" cType="0" res="-9.9000000000000000e+01" rms="0.0000000000000000e+00" purity="5.2455925941467285e-01" nType="0">
          <Node pos="l" depth="2" NCoef="0" IVar="4" Cut="3.1677441406250000e+04" cType="1" res="-9.9000000000000000e+01" rms="0.0000000000000000e+00" purity="5.7911795377731323e-01" nType="0">
            <Node pos="l" depth="3" NCoef="0" IVar="-1" Cut="0.0000000000000000e+00" cType="1" res="-9.9000000000000000e+01" rms="0.0000000000000000e+00" purity="6.4425092935562134e-01" nType="1"/>
            <Node pos="r" depth="3" NCoef="0" IVar="-1" Cut="0.0000000000000000e+00" cType="1" res="-9.9000000000000000e+01" rms="0.0000000000000000e+00" purity="4.7140112519264221e-01" nType="-1"/>
          </Node>
          <Node pos="r" depth="2" NCoef="9" fC0="0.0000000000000000e+00" fC1="0.0000000000000000e+00" fC2="-3.3309748756593918e-03" fC3="-1.1739777940800645e-04" fC4="-2.4026571314210453e-07" fC5="0.0000000000000000e+00" fC6="4.2203240808041465e-03" fC7="1.3127336899113301e-03" fC8="1.3272165773104486e-02" IVar="8" Cut="-2.7392599731683731e-02" cType="0" res="-9.9000000000000000e+01" rms="0.0000000000000000e+00" purity="4.9614134430885315e-01" nType="0">
            <Node pos="l" depth="3" NCoef="0" IVar="-1" Cut="0.0000000000000000e+00" cType="1" res="-9.9000000000000000e+01" rms="0.0000000000000000e+00" purity="5.3114658594131470e-01" nType="1"/>
            <Node pos="r" depth="3" NCoef="0" IVar="-1" Cut="0.0000000000000000e+00" cType="1" res="-9.9000000000000000e+01" rms="0.0000000000000000e+00" purity="3.7606865167617798e-01" nType="-1"/>
          </Node>
        </Node>
        <Node pos="r" depth="1" NCoef="0" IVar="4" Cut="4.1334296875000000e+04" cType="0" res="-9.9000000000000000e+01" rms="0.0000000000000000e+00" purity="4.6624177694320679e-01" nType="0">
          <Node pos="l" depth="2" NCoef="9" fC0="0.0000000000000000e+00" fC1="0.0000000000000000e+00" fC2="-7.7708938407094791e-04" fC3="-5.5778521744323560e-03" fC4="0.0000000000000000e+00" fC5="0.0000000000000000e+00" fC6="5.6211744035270471e-04" fC7="5.4720447976367437e-03" fC8="1.6261484525308989e-01" IVar="8" Cut="-1.3387435115873814e-02" cType="0" res="-9.9000000000000000e+01" rms="0.0000000000000000e+00" purity="5.1924031972885132e-01" nType="0">
            <Node pos="l" depth="3" NCoef="0" IVar="-1" Cut="0.0000000000000000e+00" cType="1" res="-9.9000000000000000e+01" rms="0.0000000000000000e+00" purity="5.8085072040557861e-01" nType="1"/>
            <Node pos="r" depth="3" NCoef="0" IVar="-1" Cut="0.0000000000000000e+00" cType="1" res="-9.9000000000000000e+01" rms="0.0000000000000000e+00" purity="3.9248028397560120e-01" nType="-1"/>
          </Node>
          <Node pos="r" depth="2" NCoef="9" fC0="0.0000000000000000e+00" fC1="0.0000000000000000e+00" fC2="0.0000000000000000e+00" fC3="3.8038496881985765e-03" fC4="0.0000000000000000e+00" fC5="-1.5391722157740419e-05" fC6="0.0000000000000000e+00" fC7="4.9478389278539954e-03" fC8="-1.2016527948271780e-02" IVar="8" Cut="1.3336939737200737e-02" cType="0" res="-9.9000000000000000e+01" rms="0.0000000000000000e+00" purity="4.0609923005104065e-01" nType="0">
            <Node pos="l" depth="3" NCoef="0" IVar="-1" Cut="0.0000000000000000e+00" cType="1" res="-9.9000000000000000e+01" rms="0.0000000000000000e+00" purity="6.0283041000366211e-01" nType="1"/>
            <Node pos="r" depth="3" NCoef="0" IVar="-1" Cut="0.0000000000000000e+00" cType="1" res="-9.9000000000000000e+01" rms="0.0000000000000000e+00" purity="3.5261294245719910e-01" nType="-1"/>
          </Node>
        </Node>
      </Node>
    </BinaryTree>
    <BinaryTree type="DecisionTree" boostWeight="9.4498241798809196e-02" itree="34">
      <Node pos="s" depth="0" NCoef="0" IVar="5" Cut="2.4301183593750000e+04" cType="0" res="-9.9000000000000000e+01" rms="0.0000000000000000e+00" purity="4.9067234992980957e-01" nType="0">
        <Node pos="l" depth="1" NCoef="0" IVar="2" Cut="6.2928050994873047e+01" cType="0" res="-9.9000000000000000e+01" rms="0.0000000000000000e+00" purity="5.4698300361633301e-01" nType="0">
          <Node pos="l" depth="2" NCoef="9" fC0="0.0000000000000000e+00" fC1="0.0000000000000000e+00" fC2="-1.7655733560531474e-03" fC3="3.7623101778764883e-03" fC4="0.0000000000000000e+00" fC5="0.0000000000000000e+00" fC6="-1.2560291128481770e-04" fC7="-4.1927515968459717e-03" fC8="1.0875683832794317e-01" IVar="8" Cut="-2.3976190015673637e-02" cType="0" res="-9.9000000000000000e+01" rms="0.0000000000000000e+00" purity="6.1866348981857300e-01" nType="0">
            <Node pos="l" depth="3" NCoef="0" IVar="-1" Cut="0.0000000000000000e+00" cType="1" res="-9.9000000000000000e+01" rms="0.0000000000000000e+00" purity="7.2685992717742920e-01" nType="1"/>
            <Node pos="r" depth="3" NCoef="0" IVar="-1" Cut="0.0000000000000000e+00" cType="1" res="-9.9000000000000000e+01" rms="0.0000000000000000e+00" purity="4.1591313481330872e-01" nType="-1"/>
          </Node>
          <Node pos="r" depth="2" NCoef="0" IVar="-1" Cut="0.0000000000000000e+00" cType="1" res="-9.9000000000000000e+01" rms="0.0000000000000000e+00" purity="4.1509974002838135e-01" nType="-1"/>
        </Node>
        <Node pos="r" depth="1" NCoef="0" IVar="5" Cut="2.0825384765625000e+04" cType="1" res="-9.9000000000000000e+01" rms="0.0000000000000000e+00" purity="4.8334392905235291e-01" nType="0">
          <Node pos="l" depth="2" NCoef="0" IVar="5" Cut="1.4817753906250000e+04" cType="0" res="-9.9000000000000000e+01" rms="0.0000000000000000e+00" purity="4.9031659960746765e-01" nType="0">
            <Node pos="l" depth="3" NCoef="0" IVar="-1" Cut="0.0000000000000000e+00" cType="1" res="-9.9000000000000000e+01" rms="0.0000000000000000e+00" purity="5.7366842031478882e-01" nType="1"/>
            <Node pos="r" depth="3" NCoef="0" IVar="-1" Cut="0.0000000000000000e+00" cType="1" res="-9.9000000000000000e+01" rms="0.0000000000000000e+00" purity="4.7818017005920410e-01" nType="-1"/>
          </Node>
          <Node pos="r" depth="2" NCoef="0" IVar="-1" Cut="0.0000000000000000e+00" cType="1" res="-9.9000000000000000e+01" rms="0.0000000000000000e+00" purity="3.5603356361389160e-01" nType="-1"/>
        </Node>
      </Node>
    </BinaryTree>
    <BinaryTree type="DecisionTree" boostWeight="1.0989006363225494e-01" itree="35">
      <Node pos="s" depth="0" NCoef="0" IVar="1" Cut="4.2039651423692703e-02" cType="1" res="-9.9000000000000000e+01" rms="0.0000000000000000e+00" purity="5.0697600841522217e-01" nType="0">
        <Node pos="l" depth="1" NCoef="9" fC0="0.0000000000000000e+00" fC1="0.0000000000000000e+00" fC2="-1.2018979279600555e-03" fC3="1.1895696331570295e-03" fC4="1.6605971425133975e-06" fC5="0.0000000000000000e+00" fC6="1.1539233168271579e-03" fC7="-1.4091777263533477e-03" fC8="-2.5285462955958807e-03" IVar="8" Cut="-7.6548834331333637e-03" cType="0" res="-9.9000000000000000e+01" rms="0.0000000000000000e+00" purity="5.4142743349075317e-01" nType="0">
          <Node pos="l" depth="2" NCoef="0" IVar="-1" Cut="1.1528999358415604e-01" cType="1" res="-9.9000000000000000e+01" rms="0.0000000000000000e+00" purity="5.8476436138153076e-01" nType="1"/>
          <Node pos="r" depth="2" NCoef="9" fC0="7.0320660285409486e-01" fC1="0.0000000000000000e+00" fC2="2.5337369198394494e-03" fC3="2.7637617626322425e-03" fC4="-6.2460318655666810e-06" fC5="0.0000000000000000e+00" fC6="-1.5706897490977952e-03" fC7="-2.5965678837123365e-03" fC8="-1.1786060748579109e-01" IVar="8" Cut="-2.4237582460045815e-02" cType="0" res="-9.9000000000000000e+01" rms="0.0000000000000000e+00" purity="4.5958909392356873e-01" nType="0">
            <Node pos="l" depth="3" NCoef="0" IVar="-1" Cut="0.0000000000000000e+00" cType="1" res="-9.9000000000000000e+01" rms="0.0000000000000000e+00" purity="5.7973688840866089e-01" nType="1"/>
            <Node pos="r" depth="3" NCoef="0" IVar="-1" Cut="0.0000000000000000e+00" cType="1" res="-9.9000000000000000e+01" rms="0.0000000000000000e+00" purity="2.6597681641578674e-01" nType="-1"/>
          </Node>
        </Node>
        <Node pos="r" depth="1" NCoef="9" fC0="0.0000000000000000e+00" fC1="0.0000000000000000e+00" fC2="7.6411222672436818e-04" fC3="-1.2246996389619553e-03" fC4="-6.1413087278839407e-07" fC5="3.8578405177196960e-06" fC6="-7.7200879810983053e-04" fC7="7.9098110002387607e-04" fC8="-3.8455296921939164e-02" IVar="8" Cut="6.9597959518432617e-02" cType="0" res="-9.9000000000000000e+01" rms="0.0000000000000000e+00" purity="4.9144765734672546e-01" nType="0">
          <Node pos="l" depth="2" NCoef="0" IVar="-1" Cut="0.0000000000000000e+00" cType="1" res="-9.9000000000000000e+01" rms="0.0000000000000000e+00" purity="6.5223133563995361e-01" nType="1"/>
          <Node pos="r" depth="2" NCoef="9" fC0="0.0000000000000000e+00" fC1="0.0000000000000000e+00" fC2="4.2434077317723713e-04" fC3="-6.1251433707380624e-04" fC4="-2.8079660548052708e-07" fC5="0.0000000000000000e+00" fC6="-5.8485226078040494e-04" fC7="5.7506629789321883e-04" fC8="1.1580542264647220e-02" IVar="8" Cut="2.1692013368010521e-02" cType="0" res="-9.9000000000000000e+01" rms="0.0000000000000000e+00" purity="4.8434171080589294e-01" nType="0">
            <Node pos="l" depth="3" NCoef="0" IVar="-1" Cut="0.0000000000000000e+00" cType="1" res="-9.9000000000000000e+01" rms="0.0000000000000000e+00" purity="6.1272495985031128e-01" nType="1"/>
            <Node pos="r" depth="3" NCoef="0" IVar="-1" Cut="0.0000000000000000e+00" cType="1" res="-9.9000000000000000e+01" rms="0.0000000000000000e+00" purity="4.7724375128746033e-01" nType="-1"/>
          </Node>
        </Node>
      </Node>
    </BinaryTree>
    <BinaryTree type="DecisionTree" boostWeight="1.0796943105989923e-01" itree="36">
      <Node pos="s" depth="0" NCoef="9" fC0="0.0000000000000000e+00" fC1="0.0000000000000000e+00" fC2="-2.1853384451290490e-05" fC3="2.3113208717507621e-04" fC4="2.2825220795785427e-07" fC5="0.0000000000000000e+00" fC6="-2.1438964500290538e-05" fC7="-1.0865644204504042e-04" fC8="-1.1144060514697454e-02" IVar="8" Cut="4.2327875271439552e-03" cType="0" res="-9.9000000000000000e+01" rms="0.0000000000000000e+00" purity="5.1622259616851807e-01" nType="0">
        <Node pos="l" depth="1" NCoef="0" IVar="1" Cut="1.2307947874069214e-01" cType="0" res="-9.9000000000000000e+01" rms="0.0000000000000000e+00" purity="5.5252963304519653e-01" nType="0">
          <Node pos="l" depth="2" NCoef="9" fC0="-3.3587508249922680e+00" fC1="0.0000000000000000e+00" fC2="3.7153099767201466e-03" fC3="1.0544015717322158e-03" fC4="1.2025898949872134e-06" fC5="-8.3233594826050009e-06" fC6="-3.0692007096643601e-03" fC7="-5.5516991333193590e-04" fC8="2.3073813163906393e-01" IVar="8" Cut="-6.6394373774528503e-02" cType="0" res="-9.9000000000000000e+01" rms="0.0000000000000000e+00" purity="6.4641803503036499e-01" nType="0">
            <Node pos="l" depth="3" NCoef="0" IVar="-1" Cut="0.0000000000000000e+00" cType="1" res="-9.9000000000000000e+01" rms="0.0000000000000000e+00" purity="7.7696132659912109e-01" nType="1"/>
            <Node pos="r" depth="3" NCoef="0" IVar="-1" Cut="0.0000000000000000e+00" cType="1" res="-9.9000000000000000e+01" rms="0.0000000000000000e+00" purity="3.8563463091850281e-01" nType="-1"/>
          </Node>
          <Node pos="r" depth="2" NCoef="9" fC0="0.0000000000000000e+00" fC1="0.0000000000000000e+00" fC2="1.9601526966159637e-04" fC3="-7.2957518902621872e-04" fC4="-1.7005503464130196e-06" fC5="0.0000000000000000e+00" fC6="1.0316361896448461e-03" fC7="6.2849013511710348e-04" fC8="2.5618564871291199e-02" IVar="8" Cut="8.8205644860863686e-03" cType="0" res="-9.9000000000000000e+01" rms="0.0000000000000000e+00" purity="4.9630114436149597e-01" nType="0">
            <Node pos="l" depth="3" NCoef="0" IVar="-1" Cut="0.0000000000000000e+00" cType="1" res="-9.9000000000000000e+01" rms="0.0000000000000000e+00" purity="5.9496277570724487e-01" nType="1"/>
            <Node pos="r" depth="3" NCoef="0" IVar="-1" Cut="0.0000000000000000e+00" cType="1" res="-9.9000000000000000e+01" rms="0.0000000000000000e+00" purity="4.5423626899719238e-01" nType="-1"/>
          </Node>
        </Node>
        <Node pos="r" depth="1" NCoef="9" fC0="0.0000000000000000e+00" fC1="0.0000000000000000e+00" fC2="-3.6821828447746813e-04" fC3="1.8905999197623829e-04" fC4="0.0000000000000000e+00" fC5="0.0000000000000000e+00" fC6="3.8134062078759036e-04" fC7="-7.8943132340915097e-04" fC8="2.2045766379816995e-02" IVar="8" Cut="-7.4318060651421547e-03" cType="0" res="-9.9000000000000000e+01" rms="0.0000000000000000e+00" purity="5.0495296716690063e-01" nType="0">
          <Node pos="l" depth="2" NCoef="9" fC0="0.0000000000000000e+00" fC1="0.0000000000000000e+00" fC2="4.0831132557272797e-04" fC3="1.6488920145702063e-03" fC4="0.0000000000000000e+00" fC5="0.0000000000000000e+00" fC6="-7.1633662847515346e-04" fC7="8.6405127958385532e-04" fC8="-4.9235471109084258e-02" IVar="-1" Cut="6.3876599073410034e-02" cType="0" res="-9.9000000000000000e+01" rms="0.0000000000000000e+00" purity="5.2520215511322021e-01" nType="1"/>
          <Node pos="r" depth="2" NCoef="0" IVar="-1" Cut="1.2611895799636841e-01" cType="1" res="-9.9000000000000000e+01" rms="0.0000000000000000e+00" purity="4.4430986046791077e-01" nType="-1"/>
        </Node>
      </Node>
    </BinaryTree>
    <BinaryTree type="DecisionTree" boostWeight="1.3267797706713388e-01" itree="37">
      <Node pos="s" depth="0" NCoef="9" fC0="0.0000000000000000e+00" fC1="0.0000000000000000e+00" fC2="3.2442079908637646e-04" fC3="2.3245954126614442e-04" fC4="2.3458657863106148e-07" fC5="0.0000000000000000e+00" fC6="-4.5068241710123278e-04" fC7="2.1146243775541668e-04" fC8="-3.1358691053321626e-02" IVar="8" Cut="1.1513197794556618e-02" cType="0" res="-9.9000000000000000e+01" rms="0.0000000000000000e+00" purity="5.0676780939102173e-01" nType="0">
        <Node pos="l" depth="1" NCoef="0" IVar="1" Cut="6.3059478998184204e-02" cType="0" res="-9.9000000000000000e+01" rms="0.0000000000000000e+00" purity="5.5651044845581055e-01" nType="0">
          <Node pos="l" depth="2" NCoef="9" fC0="-1.3236733184481999e+00" fC1="0.0000000000000000e+00" fC2="-4.0153330120943053e-04" fC3="1.5955313351768479e-03" fC4="1.8071205573309768e-06" fC5="-3.6238454835646219e-06" fC6="7.8883681858984446e-04" fC7="-1.7095712758199567e-03" fC8="1.0000592200527475e-01" IVar="-1" Cut="5.3094930946826935e-02" cType="0" res="-9.9000000000000000e+01" rms="0.0000000000000000e+00" purity="6.1251890659332275e-01" nType="1"/>
          <Node pos="r" depth="2" NCoef="9" fC0="0.0000000000000000e+00" fC1="0.0000000000000000e+00" fC2="-9.2689329894607138e-04" fC3="-3.3787071356636031e-03" fC4="-3.8142027249853111e-07" fC5="0.0000000000000000e+00" fC6="1.3730564109867022e-03" fC7="4.3391741464035988e-03" fC8="1.3315334282681243e-01" IVar="8" Cut="2.1014317870140076e-02" cType="0" res="-9.9000000000000000e+01" rms="0.0000000000000000e+00" purity="4.6480366587638855e-01" nType="0">
            <Node pos="l" depth="3" NCoef="0" IVar="-1" Cut="0.0000000000000000e+00" cType="1" res="-9.9000000000000000e+01" rms="0.0000000000000000e+00" purity="6.4384639263153076e-01" nType="1"/>
            <Node pos="r" depth="3" NCoef="0" IVar="-1" Cut="0.0000000000000000e+00" cType="1" res="-9.9000000000000000e+01" rms="0.0000000000000000e+00" purity="3.5936123132705688e-01" nType="-1"/>
          </Node>
        </Node>
        <Node pos="r" depth="1" NCoef="0" IVar="3" Cut="6.3566555976867676e+00" cType="0" res="-9.9000000000000000e+01" rms="0.0000000000000000e+00" purity="4.9041646718978882e-01" nType="0">
          <Node pos="l" depth="2" NCoef="0" IVar="1" Cut="5.5509500205516815e-02" cType="1" res="-9.9000000000000000e+01" rms="0.0000000000000000e+00" purity="4.9877220392227173e-01" nType="0">
            <Node pos="l" depth="3" NCoef="0" IVar="-1" Cut="0.0000000000000000e+00" cType="1" res="-9.9000000000000000e+01" rms="0.0000000000000000e+00" purity="5.4408818483352661e-01" nType="1"/>
            <Node pos="r" depth="3" NCoef="0" IVar="-1" Cut="0.0000000000000000e+00" cType="1" res="-9.9000000000000000e+01" rms="0.0000000000000000e+00" purity="4.6163654327392578e-01" nType="-1"/>
          </Node>
          <Node pos="r" depth="2" NCoef="0" IVar="-1" Cut="0.0000000000000000e+00" cType="1" res="-9.9000000000000000e+01" rms="0.0000000000000000e+00" purity="3.5483294725418091e-01" nType="-1"/>
        </Node>
      </Node>
    </BinaryTree>
    <BinaryTree type="DecisionTree" boostWeight="1.2569232008923378e-01" itree="38">
      <Node pos="s" depth="0" NCoef="0" IVar="7" Cut="1.2267191886901855e+01" cType="0" res="-9.9000000000000000e+01" rms="0.0000000000000000e+00" purity="5.0631183385848999e-01" nType="0">
        <Node pos="l" depth="1" NCoef="0" IVar="3" Cut="3.0831830978393555e+01" cType="1" res="-9.9000000000000000e+01" rms="0.0000000000000000e+00" purity="5.3239524364471436e-01" nType="0">
          <Node pos="l" depth="2" NCoef="0" IVar="-1" Cut="6.3387119293212891e+01" cType="1" res="-9.9000000000000000e+01" rms="0.0000000000000000e+00" purity="6.6927111148834229e-01" nType="1"/>
          <Node pos="r" depth="2" NCoef="0" IVar="3" Cut="4.6952453613281250e+01" cType="0" res="-9.9000000000000000e+01" rms="0.0000000000000000e+00" purity="5.1208955049514771e-01" nType="0">
            <Node pos="l" depth="3" NCoef="0" IVar="-1" Cut="0.0000000000000000e+00" cType="1" res="-9.9000000000000000e+01" rms="0.0000000000000000e+00" purity="5.3995215892791748e-01" nType="1"/>
            <Node pos="r" depth="3" NCoef="0" IVar="-1" Cut="0.0000000000000000e+00" cType="1" res="-9.9000000000000000e+01" rms="0.0000000000000000e+00" purity="4.3240511417388916e-01" nType="-1"/>
          </Node>
        </Node>
        <Node pos="r" depth="1" NCoef="0" IVar="3" Cut="2.6753215789794922e+01" cType="0" res="-9.9000000000000000e+01" rms="0.0000000000000000e+00" purity="4.7706601023674011e-01" nType="0">
          <Node pos="l" depth="2" NCoef="9" fC0="-5.7613564270149042e-01" fC1="0.0000000000000000e+00" fC2="5.0470207385422483e-03" fC3="0.0000000000000000e+00" fC4="-5.7944731765345899e-06" fC5="0.0000000000000000e+00" fC6="-2.6584712746553166e-03" fC7="0.0000000000000000e+00" fC8="-1.4253350476812660e-01" IVar="8" Cut="-2.2398406639695168e-02" cType="0" res="-9.9000000000000000e+01" rms="0.0000000000000000e+00" purity="5.8427101373672485e-01" nType="0">
            <Node pos="l" depth="3" NCoef="0" IVar="-1" Cut="0.0000000000000000e+00" cType="1" res="-9.9000000000000000e+01" rms="0.0000000000000000e+00" purity="7.0400243997573853e-01" nType="1"/>
            <Node pos="r" depth="3" NCoef="0" IVar="-1" Cut="0.0000000000000000e+00" cType="1" res="-9.9000000000000000e+01" rms="0.0000000000000000e+00" purity="4.5156803727149963e-01" nType="-1"/>
          </Node>
          <Node pos="r" depth="2" NCoef="0" IVar="3" Cut="1.3913323402404785e+01" cType="1" res="-9.9000000000000000e+01" rms="0.0000000000000000e+00" purity="4.6292388439178467e-01" nType="0">
            <Node pos="l" depth="3" NCoef="0" IVar="-1" Cut="0.0000000000000000e+00" cType="1" res="-9.9000000000000000e+01" rms="0.0000000000000000e+00" purity="5.1459729671478271e-01" nType="1"/>
            <Node pos="r" depth="3" NCoef="0" IVar="-1" Cut="0.0000000000000000e+00" cType="1" res="-9.9000000000000000e+01" rms="0.0000000000000000e+00" purity="3.9998784661293030e-01" nType="-1"/>
          </Node>
        </Node>
      </Node>
    </BinaryTree>
    <BinaryTree type="DecisionTree" boostWeight="1.2957114894194646e-01" itree="39">
      <Node pos="s" depth="0" NCoef="9" fC0="0.0000000000000000e+00" fC1="0.0000000000000000e+00" fC2="2.0021006748922068e-04" fC3="1.5620012857773215e-04" fC4="1.7073862097622046e-07" fC5="0.0000000000000000e+00" fC6="-2.0156289309890808e-04" fC7="-1.5665483087892637e-04" fC8="-1.8062530652836604e-02" IVar="8" Cut="1.0820114985108376e-02" cType="0" res="-9.9000000000000000e+01" rms="0.0000000000000000e+00" purity="4.9578559398651123e-01" nType="0">
        <Node pos="l" depth="1" NCoef="9" fC0="0.0000000000000000e+00" fC1="0.0000000000000000e+00" fC2="-1.4241913901019043e-03" fC3="-1.0820767770460659e-03" fC4="0.0000000000000000e+00" fC5="6.1585782058887851e-06" fC6="2.1667440052682207e-03" fC7="-1.2669315003162533e-03" fC8="9.0261200761026936e-02" IVar="8" Cut="-5.1886602304875851e-03" cType="0" res="-9.9000000000000000e+01" rms="0.0000000000000000e+00" purity="5.6312257051467896e-01" nType="0">
          <Node pos="l" depth="2" NCoef="9" fC0="0.0000000000000000e+00" fC1="0.0000000000000000e+00" fC2="-3.6090524722091452e-03" fC3="-3.1336356554029030e-03" fC4="0.0000000000000000e+00" fC5="-3.5605537853231280e-06" fC6="4.2015291490029357e-03" fC7="1.1180913617410696e-02" fC8="2.6782014844160601e-01" IVar="-1" Cut="6.6212818026542664e-02" cType="0" res="-9.9000000000000000e+01" rms="0.0000000000000000e+00" purity="6.4686125516891479e-01" nType="1"/>
          <Node pos="r" depth="2" NCoef="9" fC0="0.0000000000000000e+00" fC1="2.2682440757444433e+00" fC2="2.0418065914034403e-03" fC3="1.3407511532442338e-03" fC4="0.0000000000000000e+00" fC5="-2.7014392571332363e-06" fC6="-3.5647891661694871e-03" fC7="-2.5895228308493051e-03" fC8="-2.1764771148986392e-01" IVar="8" Cut="-9.1174133121967316e-03" cType="0" res="-9.9000000000000000e+01" rms="0.0000000000000000e+00" purity="4.6029323339462280e-01" nType="0">
            <Node pos="l" depth="3" NCoef="0" IVar="-1" Cut="0.0000000000000000e+00" cType="1" res="-9.9000000000000000e+01" rms="0.0000000000000000e+00" purity="6.6593617200851440e-01" nType="1"/>
            <Node pos="r" depth="3" NCoef="0" IVar="-1" Cut="0.0000000000000000e+00" cType="1" res="-9.9000000000000000e+01" rms="0.0000000000000000e+00" purity="3.1911149621009827e-01" nType="-1"/>
          </Node>
        </Node>
        <Node pos="r" depth="1" NCoef="9" fC0="0.0000000000000000e+00" fC1="0.0000000000000000e+00" fC2="-4.1587959829013783e-04" fC3="-4.6655129136314753e-04" fC4="0.0000000000000000e+00" fC5="0.0000000000000000e+00" fC6="2.4888842204563168e-04" fC7="8.7409156891287765e-04" fC8="2.2509471333124514e-02" IVar="8" Cut="-2.3408161476254463e-02" cType="0" res="-9.9000000000000000e+01" rms="0.0000000000000000e+00" purity="4.8151350021362305e-01" nType="0">
          <Node pos="l" depth="2" NCoef="0" IVar="5" Cut="5.0278505859375000e+03" cType="0" res="-9.9000000000000000e+01" rms="0.0000000000000000e+00" purity="4.9568942189216614e-01" nType="0">
            <Node pos="l" depth="3" NCoef="0" IVar="-1" Cut="0.0000000000000000e+00" cType="1" res="-9.9000000000000000e+01" rms="0.0000000000000000e+00" purity="5.1765495538711548e-01" nType="1"/>
            <Node pos="r" depth="3" NCoef="0" IVar="-1" Cut="0.0000000000000000e+00" cType="1" res="-9.9000000000000000e+01" rms="0.0000000000000000e+00" purity="4.1341033577919006e-01" nType="-1"/>
          </Node>
          <Node pos="r" depth="2" NCoef="0" IVar="-1" Cut="2.7399515151977539e+01" cType="0" res="-9.9000000000000000e+01" rms="0.0000000000000000e+00" purity="3.0400902032852173e-01" nType="-1"/>
        </Node>
      </Node>
    </BinaryTree>
    <BinaryTree type="DecisionTree" boostWeight="9.6094966265459672e-02" itree="40">
      <Node pos="s" depth="0" NCoef="9" fC0="0.0000000000000000e+00" fC1="0.0000000000000000e+00" fC2="2.4553251054917007e-04" fC3="7.0102859341359831e-05" fC4="1.1359271241416089e-07" fC5="0.0000000000000000e+00" fC6="-1.3143764066074449e-04" fC7="-2.5782018480430898e-04" fC8="-1.8664258532572472e-02" IVar="8" Cut="3.2118584960699081e-02" cType="0" res="-9.9000000000000000e+01" rms="0.0000000000000000e+00" purity="4.8062911629676819e-01" nType="0">
        <Node pos="l" depth="1" NCoef="0" IVar="-1" Cut="0.0000000000000000e+00" cType="1" res="-9.9000000000000000e+01" rms="0.0000000000000000e+00" purity="6.4677262306213379e-01" nType="1"/>
        <Node pos="r" depth="1" NCoef="0" IVar="2" Cut="6.6380142211914062e+01" cType="0" res="-9.9000000000000000e+01" rms="0.0000000000000000e+00" purity="4.7584205865859985e-01" nType="0">
          <Node pos="l" depth="2" NCoef="0" IVar="2" Cut="9.3468788146972656e+01" cType="1" res="-9.9000000000000000e+01" rms="0.0000000000000000e+00" purity="4.9200606346130371e-01" nType="0">
            <Node pos="l" depth="3" NCoef="0" IVar="-1" Cut="0.0000000000000000e+00" cType="1" res="-9.9000000000000000e+01" rms="0.0000000000000000e+00" purity="5.5543649196624756e-01" nType="1"/>
            <Node pos="r" depth="3" NCoef="0" IVar="-1" Cut="0.0000000000000000e+00" cType="1" res="-9.9000000000000000e+01" rms="0.0000000000000000e+00" purity="4.6742302179336548e-01" nType="-1"/>
          </Node>
          <Node pos="r" depth="2" NCoef="0" IVar="-1" Cut="4.7189670562744141e+01" cType="1" res="-9.9000000000000000e+01" rms="0.0000000000000000e+00" purity="4.4231984019279480e-01" nType="-1"/>
        </Node>
      </Node>
    </BinaryTree>
    <BinaryTree type="DecisionTree" boostWeight="7.3591467598918450e-02" itree="41">
      <Node pos="s" depth="0" NCoef="9" fC0="0.0000000000000000e+00" fC1="0.0000000000000000e+00" fC2="1.3113185939435189e-04" fC3="7.9075490376721852e-05" fC4="2.7385780907909920e-07" fC5="0.0000000000000000e+00" fC6="-3.8798508724645448e-05" fC7="-2.2976762883783694e-04" fC8="-1.7886128936855331e-02" IVar="8" Cut="-1.9209811463952065e-02" cType="1" res="-9.9000000000000000e+01" rms="0.0000000000000000e+00" purity="4.9446922540664673e-01" nType="0">
        <Node pos="l" depth="1" NCoef="0" IVar="-1" Cut="0.0000000000000000e+00" cType="1" res="-9.9000000000000000e+01" rms="0.0000000000000000e+00" purity="6.5355718135833740e-01" nType="1"/>
        <Node pos="r" depth="1" NCoef="9" fC0="0.0000000000000000e+00" fC1="0.0000000000000000e+00" fC2="2.4081002250793751e-04" fC3="8.5174702821646424e-04" fC4="1.9924036862071272e-07" fC5="0.0000000000000000e+00" fC6="1.9807891712961292e-05" fC7="-1.7976720777800998e-03" fC8="-2.8755443106757275e-02" IVar="8" Cut="1.2395892292261124e-02" cType="0" res="-9.9000000000000000e+01" rms="0.0000000000000000e+00" purity="4.8943826556205750e-01" nType="0">
          <Node pos="l" depth="2" NCoef="0" IVar="-1" Cut="1.1462697386741638e-01" cType="1" res="-9.9000000000000000e+01" rms="0.0000000000000000e+00" purity="5.3669321537017822e-01" nType="1"/>
          <Node pos="r" depth="2" NCoef="0" IVar="-1" Cut="1.0658267974853516e+02" cType="1" res="-9.9000000000000000e+01" rms="0.0000000000000000e+00" purity="4.6857988834381104e-01" nType="-1"/>
        </Node>
      </Node>
    </BinaryTree>
    <BinaryTree type="DecisionTree" boostWeight="5.6098390218661115e-02" itree="42">
      <Node pos="s" depth="0" NCoef="0" IVar="0" Cut="2.2689865529537201e-01" cType="0" res="-9.9000000000000000e+01" rms="0.0000000000000000e+00" purity="5.0081413984298706e-01" nType="0">
        <Node pos="l" depth="1" NCoef="0" IVar="-1" Cut="0.0000000000000000e+00" cType="1" res="-9.9000000000000000e+01" rms="0.0000000000000000e+00" purity="5.6689786911010742e-01" nType="1"/>
        <Node pos="r" depth="1" NCoef="0" IVar="6" Cut="1.2107361602783203e+02" cType="1" res="-9.9000000000000000e+01" rms="0.0000000000000000e+00" purity="4.9711978435516357e-01" nType="0">
          <Node pos="l" depth="2" NCoef="0" IVar="6" Cut="8.0571090698242188e+01" cType="0" res="-9.9000000000000000e+01" rms="0.0000000000000000e+00" purity="5.0297045707702637e-01" nType="0">
            <Node pos="l" depth="3" NCoef="0" IVar="-1" Cut="0.0000000000000000e+00" cType="1" res="-9.9000000000000000e+01" rms="0.0000000000000000e+00" purity="5.6710314750671387e-01" nType="1"/>
            <Node pos="r" depth="3" NCoef="0" IVar="-1" Cut="0.0000000000000000e+00" cType="1" res="-9.9000000000000000e+01" rms="0.0000000000000000e+00" purity="4.8867917060852051e-01" nType="-1"/>
          </Node>
          <Node pos="r" depth="2" NCoef="9" fC0="0.0000000000000000e+00" fC1="0.0000000000000000e+00" fC2="1.0954653255503054e-03" fC3="2.8868678307142873e-03" fC4="0.0000000000000000e+00" fC5="1.2773722079536896e-06" fC6="-5.3435443649544993e-04" fC7="-5.8832350926172781e-03" fC8="-1.5737440774020778e-01" IVar="-1" Cut="7.0988992229104042e-03" cType="0" res="-9.9000000000000000e+01" rms="0.0000000000000000e+00" purity="4.0696606040000916e-01" nType="-1"/>
        </Node>
      </Node>
    </BinaryTree>
    <BinaryTree type="DecisionTree" boostWeight="6.9651164449944236e-02" itree="43">
      <Node pos="s" depth="0" NCoef="0" IVar="0" Cut="2.4580687284469604e-01" cType="1" res="-9.9000000000000000e+01" rms="0.0000000000000000e+00" purity="5.0881880521774292e-01" nType="0">
        <Node pos="l" depth="1" NCoef="0" IVar="6" Cut="1.5134201049804688e+02" cType="1" res="-9.9000000000000000e+01" rms="0.0000000000000000e+00" purity="5.1139873266220093e-01" nType="0">
          <Node pos="l" depth="2" NCoef="9" fC0="0.0000000000000000e+00" fC1="0.0000000000000000e+00" fC2="-1.9654752555832567e-05" fC3="-1.0581398419743899e-04" fC4="5.7900537865706415e-08" fC5="0.0000000000000000e+00" fC6="1.2931061544727804e-04" fC7="1.7884802379255013e-04" fC8="-5.8147442823145920e-03" IVar="8" Cut="-5.5492767132818699e-03" cType="0" res="-9.9000000000000000e+01" rms="0.0000000000000000e+00" purity="5.1502668857574463e-01" nType="0">
            <Node pos="l" depth="3" NCoef="0" IVar="-1" Cut="0.0000000000000000e+00" cType="1" res="-9.9000000000000000e+01" rms="0.0000000000000000e+00" purity="5.2640283107757568e-01" nType="1"/>
            <Node pos="r" depth="3" NCoef="0" IVar="-1" Cut="0.0000000000000000e+00" cType="1" res="-9.9000000000000000e+01" rms="0.0000000000000000e+00" purity="4.3332722783088684e-01" nType="-1"/>
          </Node>
          <Node pos="r" depth="2" NCoef="0" IVar="-1" Cut="0.0000000000000000e+00" cType="1" res="-9.9000000000000000e+01" rms="0.0000000000000000e+00" purity="4.0200325846672058e-01" nType="-1"/>
        </Node>
        <Node pos="r" depth="1" NCoef="0" IVar="-1" Cut="0.0000000000000000e+00" cType="1" res="-9.9000000000000000e+01" rms="0.0000000000000000e+00" purity="4.2065331339836121e-01" nType="-1"/>
      </Node>
    </BinaryTree>
    <BinaryTree type="DecisionTree" boostWeight="4.7560737863666956e-02" itree="44">
      <Node pos="s" depth="0" NCoef="9" fC0="0.0000000000000000e+00" fC1="0.0000000000000000e+00" fC2="-1.8715118134877165e-05" fC3="9.5459543793400360e-05" fC4="1.0481762960596697e-08" fC5="0.0000000000000000e+00" fC6="-6.5002163563879306e-06" fC7="-2.1328371990906044e-04" fC8="2.9382570851976550e-03" IVar="8" Cut="-6.1831991188228130e-03" cType="1" res="-9.9000000000000000e+01" rms="0.0000000000000000e+00" purity="4.9747851490974426e-01" nType="0">
        <Node pos="l" depth="1" NCoef="0" IVar="-1" Cut="0.0000000000000000e+00" cType="1" res="-9.9000000000000000e+01" rms="0.0000000000000000e+00" purity="6.1107105016708374e-01" nType="1"/>
        <Node pos="r" depth="1" NCoef="9" fC0="0.0000000000000000e+00" fC1="0.0000000000000000e+00" fC2="-3.2317666416804104e-04" fC3="1.0139489730060295e-03" fC4="5.0154492963576876e-07" fC5="0.0000000000000000e+00" fC6="1.9344337078134742e-04" fC7="-2.1045451883723123e-03" fC8="1.0485199380043921e-02" IVar="8" Cut="-2.3719433695077896e-02" cType="0" res="-9.9000000000000000e+01" rms="0.0000000000000000e+00" purity="4.9311932921409607e-01" nType="0">
          <Node pos="l" depth="2" NCoef="9" fC0="0.0000000000000000e+00" fC1="0.0000000000000000e+00" fC2="-2.8504352574845737e-04" fC3="-7.0791443569385916e-04" fC4="-8.0447023733840043e-09" fC5="1.5276640483591960e-06" fC6="3.6511492867721032e-04" fC7="1.2992473186364810e-03" fC8="-3.8654655274027241e-03" IVar="8" Cut="3.7798274308443069e-02" cType="0" res="-9.9000000000000000e+01" rms="0.0000000000000000e+00" purity="5.0522869825363159e-01" nType="0">
            <Node pos="l" depth="3" NCoef="0" IVar="-1" Cut="0.0000000000000000e+00" cType="1" res="-9.9000000000000000e+01" rms="0.0000000000000000e+00" purity="6.6255992650985718e-01" nType="1"/>
            <Node pos="r" depth="3" NCoef="0" IVar="-1" Cut="0.0000000000000000e+00" cType="1" res="-9.9000000000000000e+01" rms="0.0000000000000000e+00" purity="4.9908593297004700e-01" nType="-1"/>
          </Node>
          <Node pos="r" depth="2" NCoef="9" fC0="0.0000000000000000e+00" fC1="0.0000000000000000e+00" fC2="1.9429732247721360e-03" fC3="-3.2728077286439837e-03" fC4="0.0000000000000000e+00" fC5="0.0000000000000000e+00" fC6="-2.0557934033852486e-03" fC7="7.0635307039605107e-03" fC8="-2.2765396895514736e-01" IVar="8" Cut="-3.5432884469628334e-03" cType="0" res="-9.9000000000000000e+01" rms="0.0000000000000000e+00" purity="4.0861427783966064e-01" nType="0">
            <Node pos="l" depth="3" NCoef="0" IVar="-1" Cut="0.0000000000000000e+00" cType="1" res="-9.9000000000000000e+01" rms="0.0000000000000000e+00" purity="5.2486217021942139e-01" nType="1"/>
            <Node pos="r" depth="3" NCoef="0" IVar="-1" Cut="0.0000000000000000e+00" cType="1" res="-9.9000000000000000e+01" rms="0.0000000000000000e+00" purity="3.1093207001686096e-01" nType="-1"/>
          </Node>
        </Node>
      </Node>
    </BinaryTree>
    <BinaryTree type="DecisionTree" boostWeight="1.4159651670575413e-01" itree="45">
      <Node pos="s" depth="0" NCoef="0" IVar="0" Cut="3.7816442549228668e-02" cType="1" res="-9.9000000000000000e+01" rms="0.0000000000000000e+00" purity="5.0643211603164673e-01" nType="0">
        <Node pos="l" depth="1" NCoef="0" IVar="0" Cut="3.2333053648471832e-02" cType="0" res="-9.9000000000000000e+01" rms="0.0000000000000000e+00" purity="5.3703677654266357e-01" nType="0">
          <Node pos="l" depth="2" NCoef="0" IVar="-1" Cut="0.0000000000000000e+00" cType="1" res="-9.9000000000000000e+01" rms="0.0000000000000000e+00" purity="7.0001208782196045e-01" nType="1"/>
          <Node pos="r" depth="2" NCoef="0" IVar="1" Cut="3.0312612652778625e-02" cType="1" res="-9.9000000000000000e+01" rms="0.0000000000000000e+00" purity="4.9602931737899780e-01" nType="0">
            <Node pos="l" depth="3" NCoef="0" IVar="-1" Cut="0.0000000000000000e+00" cType="1" res="-9.9000000000000000e+01" rms="0.0000000000000000e+00" purity="6.3044065237045288e-01" nType="1"/>
            <Node pos="r" depth="3" NCoef="0" IVar="-1" Cut="0.0000000000000000e+00" cType="1" res="-9.9000000000000000e+01" rms="0.0000000000000000e+00" purity="4.5086821913719177e-01" nType="-1"/>
          </Node>
        </Node>
        <Node pos="r" depth="1" NCoef="9" fC0="0.0000000000000000e+00" fC1="0.0000000000000000e+00" fC2="-4.7789276986417414e-04" fC3="4.4541925650047528e-04" fC4="8.2437003224832012e-07" fC5="0.0000000000000000e+00" fC6="4.1779247602248537e-04" fC7="-9.1700368339173391e-05" fC8="-1.7137070526390019e-02" IVar="8" Cut="-1.6330206766724586e-02" cType="0" res="-9.9000000000000000e+01" rms="0.0000000000000000e+00" purity="4.9545282125473022e-01" nType="0">
          <Node pos="l" depth="2" NCoef="0" IVar="2" Cut="1.5394265747070312e+02" cType="1" res="-9.9000000000000000e+01" rms="0.0000000000000000e+00" purity="5.1894402503967285e-01" nType="0">
            <Node pos="l" depth="3" NCoef="0" IVar="-1" Cut="0.0000000000000000e+00" cType="1" res="-9.9000000000000000e+01" rms="0.0000000000000000e+00" purity="5.3812789916992188e-01" nType="1"/>
            <Node pos="r" depth="3" NCoef="0" IVar="-1" Cut="0.0000000000000000e+00" cType="1" res="-9.9000000000000000e+01" rms="0.0000000000000000e+00" purity="4.7683960199356079e-01" nType="-1"/>
          </Node>
          <Node pos="r" depth="2" NCoef="9" fC0="0.0000000000000000e+00" fC1="3.0791019696678340e-01" fC2="3.8505840544638451e-03" fC3="9.9418468369652027e-03" fC4="-2.0282136055761955e-06" fC5="-4.3357944300014239e-05" fC6="-4.8998768893779559e-03" fC7="2.4765287987724752e-03" fC8="-1.2445935641149231e-01" IVar="8" Cut="2.1504033356904984e-03" cType="0" res="-9.9000000000000000e+01" rms="0.0000000000000000e+00" purity="3.7157899141311646e-01" nType="0">
            <Node pos="l" depth="3" NCoef="0" IVar="-1" Cut="0.0000000000000000e+00" cType="1" res="-9.9000000000000000e+01" rms="0.0000000000000000e+00" purity="6.0623872280120850e-01" nType="1"/>
            <Node pos="r" depth="3" NCoef="0" IVar="-1" Cut="0.0000000000000000e+00" cType="1" res="-9.9000000000000000e+01" rms="0.0000000000000000e+00" purity="2.3244382441043854e-01" nType="-1"/>
          </Node>
        </Node>
      </Node>
    </BinaryTree>
    <BinaryTree type="DecisionTree" boostWeight="1.7770935131180318e-01" itree="46">
      <Node pos="s" depth="0" NCoef="0" IVar="0" Cut="3.7816442549228668e-02" cType="1" res="-9.9000000000000000e+01" rms="0.0000000000000000e+00" purity="5.0114995241165161e-01" nType="0">
        <Node pos="l" depth="1" NCoef="9" fC0="0.0000000000000000e+00" fC1="0.0000000000000000e+00" fC2="5.0103894123881062e-04" fC3="-2.1315671659585160e-03" fC4="0.0000000000000000e+00" fC5="4.9118055395508408e-06" fC6="-3.7926459025951551e-04" fC7="-3.5133292634372763e-04" fC8="3.1391966269594944e-02" IVar="8" Cut="-3.5455960314720869e-03" cType="0" res="-9.9000000000000000e+01" rms="0.0000000000000000e+00" purity="5.4456788301467896e-01" nType="0">
          <Node pos="l" depth="2" NCoef="9" fC0="0.0000000000000000e+00" fC1="0.0000000000000000e+00" fC2="-3.9297409866640261e-04" fC3="5.4203984732369738e-03" fC4="0.0000000000000000e+00" fC5="-6.5558937049563834e-06" fC6="2.0446458152086427e-03" fC7="-3.2030641120425014e-03" fC8="-7.4149085866031778e-02" IVar="8" Cut="-5.3751181811094284e-02" cType="0" res="-9.9000000000000000e+01" rms="0.0000000000000000e+00" purity="6.0738807916641235e-01" nType="0">
            <Node pos="l" depth="3" NCoef="0" IVar="-1" Cut="0.0000000000000000e+00" cType="1" res="-9.9000000000000000e+01" rms="0.0000000000000000e+00" purity="6.6857075691223145e-01" nType="1"/>
            <Node pos="r" depth="3" NCoef="0" IVar="-1" Cut="0.0000000000000000e+00" cType="1" res="-9.9000000000000000e+01" rms="0.0000000000000000e+00" purity="3.0031165480613708e-01" nType="-1"/>
          </Node>
          <Node pos="r" depth="2" NCoef="0" IVar="0" Cut="2.1512171253561974e-02" cType="1" res="-9.9000000000000000e+01" rms="0.0000000000000000e+00" purity="4.3418407440185547e-01" nType="0">
            <Node pos="l" depth="3" NCoef="0" IVar="-1" Cut="0.0000000000000000e+00" cType="1" res="-9.9000000000000000e+01" rms="0.0000000000000000e+00" purity="5.9413772821426392e-01" nType="1"/>
            <Node pos="r" depth="3" NCoef="0" IVar="-1" Cut="0.0000000000000000e+00" cType="1" res="-9.9000000000000000e+01" rms="0.0000000000000000e+00" purity="2.6846450567245483e-01" nType="-1"/>
          </Node>
        </Node>
        <Node pos="r" depth="1" NCoef="9" fC0="0.0000000000000000e+00" fC1="0.0000000000000000e+00" fC2="-2.6677632732586442e-04" fC3="4.0042248957059299e-04" fC4="1.0026389954651041e-06" fC5="0.0000000000000000e+00" fC6="4.5656268221798554e-04" fC7="-1.1154855837149720e-04" fC8="-5.0207495052299309e-02" IVar="8" Cut="-4.9532791599631310e-03" cType="0" res="-9.9000000000000000e+01" rms="0.0000000000000000e+00" purity="4.8565104603767395e-01" nType="0">
          <Node pos="l" depth="2" NCoef="0" IVar="-1" Cut="8.4159232676029205e-02" cType="1" res="-9.9000000000000000e+01" rms="0.0000000000000000e+00" purity="5.3050923347473145e-01" nType="1"/>
          <Node pos="r" depth="2" NCoef="9" fC0="0.0000000000000000e+00" fC1="-5.9495257301060700e-01" fC2="4.1270227320294484e-04" fC3="-1.8796789752644177e-03" fC4="0.0000000000000000e+00" fC5="3.2815639545760457e-07" fC6="-2.1770924956620954e-03" fC7="4.0438329900419397e-03" fC8="8.3703315379038745e-02" IVar="8" Cut="4.7388434410095215e-02" cType="0" res="-9.9000000000000000e+01" rms="0.0000000000000000e+00" purity="4.4201824069023132e-01" nType="0">
            <Node pos="l" depth="3" NCoef="0" IVar="-1" Cut="0.0000000000000000e+00" cType="1" res="-9.9000000000000000e+01" rms="0.0000000000000000e+00" purity="5.7943654060363770e-01" nType="1"/>
            <Node pos="r" depth="3" NCoef="0" IVar="-1" Cut="0.0000000000000000e+00" cType="1" res="-9.9000000000000000e+01" rms="0.0000000000000000e+00" purity="4.1201427578926086e-01" nType="-1"/>
          </Node>
        </Node>
      </Node>
    </BinaryTree>
    <BinaryTree type="DecisionTree" boostWeight="1.5731314286792669e-01" itree="47">
      <Node pos="s" depth="0" NCoef="9" fC0="0.0000000000000000e+00" fC1="0.0000000000000000e+00" fC2="9.6974386947412599e-05" fC3="1.6287481894209834e-05" fC4="-5.2061559684204231e-07" fC5="0.0000000000000000e+00" fC6="2.8500643216522303e-05" fC7="-4.7045092159660960e-04" fC8="1.5037760549909317e-02" IVar="8" Cut="1.7483629053458571e-03" cType="0" res="-9.9000000000000000e+01" rms="0.0000000000000000e+00" purity="4.9047073721885681e-01" nType="0">
        <Node pos="l" depth="1" NCoef="0" IVar="7" Cut="1.0018493652343750e+01" cType="0" res="-9.9000000000000000e+01" rms="0.0000000000000000e+00" purity="5.2034884691238403e-01" nType="0">
          <Node pos="l" depth="2" NCoef="9" fC0="0.0000000000000000e+00" fC1="0.0000000000000000e+00" fC2="-2.2652363078095772e-03" fC3="0.0000000000000000e+00" fC4="0.0000000000000000e+00" fC5="0.0000000000000000e+00" fC6="2.4622482723756192e-03" fC7="0.0000000000000000e+00" fC8="6.7761433970969565e-02" IVar="8" Cut="-6.1571702361106873e-02" cType="0" res="-9.9000000000000000e+01" rms="0.0000000000000000e+00" purity="5.6623595952987671e-01" nType="0">
            <Node pos="l" depth="3" NCoef="0" IVar="-1" Cut="0.0000000000000000e+00" cType="1" res="-9.9000000000000000e+01" rms="0.0000000000000000e+00" purity="6.0271745920181274e-01" nType="1"/>
            <Node pos="r" depth="3" NCoef="0" IVar="-1" Cut="0.0000000000000000e+00" cType="1" res="-9.9000000000000000e+01" rms="0.0000000000000000e+00" purity="3.2430657744407654e-01" nType="-1"/>
          </Node>
          <Node pos="r" depth="2" NCoef="9" fC0="0.0000000000000000e+00" fC1="0.0000000000000000e+00" fC2="-6.6036439571231489e-04" fC3="0.0000000000000000e+00" fC4="4.8322071575585959e-06" fC5="0.0000000000000000e+00" fC6="-8.3078386263447533e-04" fC7="0.0000000000000000e+00" fC8="-4.6462052697479883e-03" IVar="8" Cut="-5.1415193825960159e-02" cType="0" res="-9.9000000000000000e+01" rms="0.0000000000000000e+00" purity="4.8870375752449036e-01" nType="0">
            <Node pos="l" depth="3" NCoef="0" IVar="-1" Cut="0.0000000000000000e+00" cType="1" res="-9.9000000000000000e+01" rms="0.0000000000000000e+00" purity="5.2180969715118408e-01" nType="1"/>
            <Node pos="r" depth="3" NCoef="0" IVar="-1" Cut="0.0000000000000000e+00" cType="1" res="-9.9000000000000000e+01" rms="0.0000000000000000e+00" purity="2.9940170049667358e-01" nType="-1"/>
          </Node>
        </Node>
        <Node pos="r" depth="1" NCoef="9" fC0="0.0000000000000000e+00" fC1="0.0000000000000000e+00" fC2="1.3861377635264584e-03" fC3="-1.8477330022557127e-04" fC4="-1.5188933536322543e-06" fC5="0.0000000000000000e+00" fC6="-5.6852754951146464e-04" fC7="6.1535566649022785e-04" fC8="-8.4841664064039243e-02" IVar="8" Cut="-2.8120573610067368e-02" cType="0" res="-9.9000000000000000e+01" rms="0.0000000000000000e+00" purity="4.5602497458457947e-01" nType="0">
          <Node pos="l" depth="2" NCoef="9" fC0="0.0000000000000000e+00" fC1="0.0000000000000000e+00" fC2="-1.7528150512764130e-05" fC3="6.7996688611243218e-04" fC4="-1.5729851510508161e-07" fC5="0.0000000000000000e+00" fC6="-1.9083615018314915e-04" fC7="-9.7635543874307381e-04" fC8="2.1029321942429617e-02" IVar="8" Cut="-3.7485762732103467e-04" cType="0" res="-9.9000000000000000e+01" rms="0.0000000000000000e+00" purity="5.0100868940353394e-01" nType="0">
            <Node pos="l" depth="3" NCoef="0" IVar="-1" Cut="0.0000000000000000e+00" cType="1" res="-9.9000000000000000e+01" rms="0.0000000000000000e+00" purity="5.5216890573501587e-01" nType="1"/>
            <Node pos="r" depth="3" NCoef="0" IVar="-1" Cut="0.0000000000000000e+00" cType="1" res="-9.9000000000000000e+01" rms="0.0000000000000000e+00" purity="4.4852501153945923e-01" nType="-1"/>
          </Node>
          <Node pos="r" depth="2" NCoef="9" fC0="-1.9968029883632668e+00" fC1="0.0000000000000000e+00" fC2="5.7406698516452507e-04" fC3="-1.6405742236571207e-03" fC4="-1.4019458471900008e-06" fC5="0.0000000000000000e+00" fC6="4.6259528749810165e-03" fC7="2.4049848560393390e-03" fC8="5.7116426891798133e-02" IVar="-1" Cut="2.7073636651039124e-02" cType="0" res="-9.9000000000000000e+01" rms="0.0000000000000000e+00" purity="3.3964481949806213e-01" nType="-1"/>
        </Node>
      </Node>
    </BinaryTree>
    <BinaryTree type="DecisionTree" boostWeight="1.3543175186827580e-01" itree="48">
      <Node pos="s" depth="0" NCoef="0" IVar="0" Cut="3.7816442549228668e-02" cType="1" res="-9.9000000000000000e+01" rms="0.0000000000000000e+00" purity="4.8006120324134827e-01" nType="0">
        <Node pos="l" depth="1" NCoef="0" IVar="6" Cut="1.0815686225891113e+01" cType="0" res="-9.9000000000000000e+01" rms="0.0000000000000000e+00" purity="5.1382631063461304e-01" nType="0">
          <Node pos="l" depth="2" NCoef="9" fC0="0.0000000000000000e+00" fC1="0.0000000000000000e+00" fC2="-1.0497479409823549e-03" fC3="-2.2114348674943216e-03" fC4="0.0000000000000000e+00" fC5="1.0036990715961563e-05" fC6="-5.3382684498066372e-04" fC7="-1.3111095335406925e-03" fC8="1.3861698096988542e-01" IVar="8" Cut="-5.4275907576084137e-02" cType="0" res="-9.9000000000000000e+01" rms="0.0000000000000000e+00" purity="5.7946407794952393e-01" nType="0">
            <Node pos="l" depth="3" NCoef="0" IVar="-1" Cut="0.0000000000000000e+00" cType="1" res="-9.9000000000000000e+01" rms="0.0000000000000000e+00" purity="6.5681010484695435e-01" nType="1"/>
            <Node pos="r" depth="3" NCoef="0" IVar="-1" Cut="0.0000000000000000e+00" cType="1" res="-9.9000000000000000e+01" rms="0.0000000000000000e+00" purity="3.5841533541679382e-01" nType="-1"/>
          </Node>
          <Node pos="r" depth="2" NCoef="0" IVar="6" Cut="4.1134862899780273e+00" cType="1" res="-9.9000000000000000e+01" rms="0.0000000000000000e+00" purity="4.4084110856056213e-01" nType="0">
            <Node pos="l" depth="3" NCoef="0" IVar="-1" Cut="0.0000000000000000e+00" cType="1" res="-9.9000000000000000e+01" rms="0.0000000000000000e+00" purity="5.4900610446929932e-01" nType="1"/>
            <Node pos="r" depth="3" NCoef="0" IVar="-1" Cut="0.0000000000000000e+00" cType="1" res="-9.9000000000000000e+01" rms="0.0000000000000000e+00" purity="3.5450458526611328e-01" nType="-1"/>
          </Node>
        </Node>
        <Node pos="r" depth="1" NCoef="0" IVar="6" Cut="6.4673187255859375e+01" cType="0" res="-9.9000000000000000e+01" rms="0.0000000000000000e+00" purity="4.6826061606407166e-01" nType="0">
          <Node pos="l" depth="2" NCoef="9" fC0="0.0000000000000000e+00" fC1="0.0000000000000000e+00" fC2="-3.0826225362415549e-04" fC3="1.4417273658580787e-03" fC4="0.0000000000000000e+00" fC5="0.0000000000000000e+00" fC6="3.3433635766315849e-04" fC7="-1.0599309653525123e-03" fC8="-1.6464962882526177e-02" IVar="8" Cut="4.0416229516267776e-02" cType="0" res="-9.9000000000000000e+01" rms="0.0000000000000000e+00" purity="5.0859838724136353e-01" nType="0">
            <Node pos="l" depth="3" NCoef="0" IVar="-1" Cut="0.0000000000000000e+00" cType="1" res="-9.9000000000000000e+01" rms="0.0000000000000000e+00" purity="6.5219134092330933e-01" nType="1"/>
            <Node pos="r" depth="3" NCoef="0" IVar="-1" Cut="0.0000000000000000e+00" cType="1" res="-9.9000000000000000e+01" rms="0.0000000000000000e+00" purity="4.9217960238456726e-01" nType="-1"/>
          </Node>
          <Node pos="r" depth="2" NCoef="0" IVar="-1" Cut="5.6028121948242188e+01" cType="1" res="-9.9000000000000000e+01" rms="0.0000000000000000e+00" purity="4.3561443686485291e-01" nType="-1"/>
        </Node>
      </Node>
    </BinaryTree>
    <BinaryTree type="DecisionTree" boostWeight="9.0597864791905847e-02" itree="49">
      <Node pos="s" depth="0" NCoef="9" fC0="0.0000000000000000e+00" fC1="0.0000000000000000e+00" fC2="9.2536051365997837e-05" fC3="-5.7470821007866676e-04" fC4="1.1012998842306384e-07" fC5="0.0000000000000000e+00" fC6="8.5265127258869923e-05" fC7="5.5580427898430085e-04" fC8="-6.0823380624543963e-03" IVar="8" Cut="-3.4621424973011017e-02" cType="0" res="-9.9000000000000000e+01" rms="0.0000000000000000e+00" purity="5.0106739997863770e-01" nType="0">
        <Node pos="l" depth="1" NCoef="9" fC0="0.0000000000000000e+00" fC1="0.0000000000000000e+00" fC2="3.7678191296471645e-05" fC3="-2.3935250805412383e-04" fC4="1.8039832406417160e-07" fC5="0.0000000000000000e+00" fC6="1.8582143034823510e-05" fC7="4.3740427457995205e-04" fC8="-1.0998800456510749e-02" IVar="8" Cut="-9.8032373934984207e-03" cType="0" res="-9.9000000000000000e+01" rms="0.0000000000000000e+00" purity="5.0483888387680054e-01" nType="0">
          <Node pos="l" depth="2" NCoef="0" IVar="0" Cut="5.6724663823843002e-02" cType="1" res="-9.9000000000000000e+01" rms="0.0000000000000000e+00" purity="5.1343852281570435e-01" nType="0">
            <Node pos="l" depth="3" NCoef="0" IVar="-1" Cut="0.0000000000000000e+00" cType="1" res="-9.9000000000000000e+01" rms="0.0000000000000000e+00" purity="5.6051123142242432e-01" nType="1"/>
            <Node pos="r" depth="3" NCoef="0" IVar="-1" Cut="0.0000000000000000e+00" cType="1" res="-9.9000000000000000e+01" rms="0.0000000000000000e+00" purity="4.9070957303047180e-01" nType="-1"/>
          </Node>
          <Node pos="r" depth="2" NCoef="0" IVar="1" Cut="7.5781531631946564e-02" cType="0" res="-9.9000000000000000e+01" rms="0.0000000000000000e+00" purity="4.3810310959815979e-01" nType="0">
            <Node pos="l" depth="3" NCoef="0" IVar="-1" Cut="0.0000000000000000e+00" cType="1" res="-9.9000000000000000e+01" rms="0.0000000000000000e+00" purity="6.8492710590362549e-01" nType="1"/>
            <Node pos="r" depth="3" NCoef="0" IVar="-1" Cut="0.0000000000000000e+00" cType="1" res="-9.9000000000000000e+01" rms="0.0000000000000000e+00" purity="3.3210143446922302e-01" nType="-1"/>
          </Node>
        </Node>
        <Node pos="r" depth="1" NCoef="0" IVar="-1" Cut="0.0000000000000000e+00" cType="1" res="-9.9000000000000000e+01" rms="0.0000000000000000e+00" purity="3.7194138765335083e-01" nType="-1"/>
      </Node>
    </BinaryTree>
  </Weights>
</MethodSetup>
