<?xml version="1.0"?>
<MethodSetup Method="BDT::BDTG">
  <GeneralInfo>
    <Info name="TMVA Release" value="4.2.1 [262657]"/>
    <Info name="ROOT Release" value="6.04/16 [394256]"/>
    <Info name="Creator" value="anthony"/>
    <Info name="Date" value="Thu Jun 29 16:59:38 2017"/>
    <Info name="Host" value="Linux lcgapp-slc6-physical1.cern.ch 2.6.32-573.8.1.el6.x86_64 #1 SMP Wed Nov 11 15:27:45 CET 2015 x86_64 x86_64 x86_64 GNU/Linux"/>
    <Info name="Dir" value="/home/anthony/MVA_V2/TMVA"/>
    <Info name="Training events" value="690297"/>
    <Info name="TrainingTime" value="7.29881175e+02"/>
    <Info name="AnalysisType" value="Classification"/>
  </GeneralInfo>
  <Options>
    <Option name="V" modified="Yes">False</Option>
    <Option name="VerbosityLevel" modified="No">Default</Option>
    <Option name="VarTransform" modified="No">None</Option>
    <Option name="H" modified="Yes">False</Option>
    <Option name="CreateMVAPdfs" modified="No">False</Option>
    <Option name="IgnoreNegWeightsInTraining" modified="No">False</Option>
    <Option name="NTrees" modified="Yes">1000</Option>
    <Option name="MaxDepth" modified="Yes">2</Option>
    <Option name="MinNodeSize" modified="Yes">2.5%</Option>
    <Option name="nCuts" modified="Yes">20</Option>
    <Option name="BoostType" modified="Yes">Grad</Option>
    <Option name="AdaBoostR2Loss" modified="No">quadratic</Option>
    <Option name="UseBaggedBoost" modified="Yes">True</Option>
    <Option name="Shrinkage" modified="Yes">1.000000e-01</Option>
    <Option name="AdaBoostBeta" modified="No">5.000000e-01</Option>
    <Option name="UseRandomisedTrees" modified="No">False</Option>
    <Option name="UseNvars" modified="No">2</Option>
    <Option name="UsePoissonNvars" modified="No">True</Option>
    <Option name="BaggedSampleFraction" modified="Yes">5.000000e-01</Option>
    <Option name="UseYesNoLeaf" modified="No">True</Option>
    <Option name="NegWeightTreatment" modified="No">ignorenegweightsintraining</Option>
    <Option name="Css" modified="No">1.000000e+00</Option>
    <Option name="Cts_sb" modified="No">1.000000e+00</Option>
    <Option name="Ctb_ss" modified="No">1.000000e+00</Option>
    <Option name="Cbb" modified="No">1.000000e+00</Option>
    <Option name="NodePurityLimit" modified="No">5.000000e-01</Option>
    <Option name="SeparationType" modified="No">giniindex</Option>
    <Option name="DoBoostMonitor" modified="No">False</Option>
    <Option name="UseFisherCuts" modified="No">False</Option>
    <Option name="MinLinCorrForFisher" modified="No">8.000000e-01</Option>
    <Option name="UseExclusiveVars" modified="No">False</Option>
    <Option name="DoPreselection" modified="No">False</Option>
    <Option name="SigToBkgFraction" modified="No">1.000000e+00</Option>
    <Option name="PruneMethod" modified="No">nopruning</Option>
    <Option name="PruneStrength" modified="No">0.000000e+00</Option>
    <Option name="PruningValFraction" modified="No">5.000000e-01</Option>
    <Option name="nEventsMin" modified="No">0</Option>
    <Option name="UseBaggedGrad" modified="No">False</Option>
    <Option name="GradBaggingFraction" modified="No">5.000000e-01</Option>
    <Option name="UseNTrainEvents" modified="No">0</Option>
    <Option name="NNodesMax" modified="No">0</Option>
  </Options>
  <Variables NVar="4">
    <Variable VarIndex="0" Expression="Tau3_1fatjet" Label="Tau3_1fatjet" Title="Tau3_1fatjet" Unit="" Internal="Tau3_1fatjet" Type="D" Min="0.00000000e+00" Max="2.99132019e-01"/>
    <Variable VarIndex="1" Expression="m_1fatjet_st" Label="m_1fatjet_st" Title="m_1fatjet_st" Unit="" Internal="m_1fatjet_st" Type="D" Min="-1.20650399e+00" Max="1.11576160e+03"/>
    <Variable VarIndex="2" Expression="Qw_1fatjet" Label="Qw_1fatjet" Title="Qw_1fatjet" Unit="" Internal="Qw_1fatjet" Type="D" Min="0.00000000e+00" Max="4.63432156e+05"/>
    <Variable VarIndex="3" Expression="Split23_1fatjet" Label="Split23_1fatjet" Title="Split23_1fatjet" Unit="" Internal="Split23_1fatjet" Type="D" Min="0.00000000e+00" Max="3.13545471e+02"/>
  </Variables>
  <Spectators NSpec="0"/>
  <Classes NClass="2">
    <Class Name="Signal" Index="0"/>
    <Class Name="Background" Index="1"/>
  </Classes>
  <Transformations NTransformations="0"/>
  <MVAPdfs/>
  <Weights NTrees="1000" AnalysisType="1">
    <BinaryTree type="DecisionTree" boostWeight="1.0000000000000000e+00" itree="0">
      <Node pos="s" depth="0" NCoef="0" IVar="1" Cut="1.3729074096679688e+02" cType="1" res="5.8507909998297691e-03" rms="4.9996575713157654e-01" purity="5.0585079193115234e-01" nType="0">
        <Node pos="l" depth="1" NCoef="0" IVar="1" Cut="7.8027610778808594e+01" cType="1" res="-2.0298574864864349e-01" rms="4.5694288611412048e-01" purity="2.9701426625251770e-01" nType="0">
          <Node pos="l" depth="2" NCoef="0" IVar="-1" Cut="0.0000000000000000e+00" cType="1" res="-1.3558819191530347e-03" rms="3.8797596096992493e-01" purity="1.8460395932197571e-01" nType="-99"/>
          <Node pos="r" depth="2" NCoef="0" IVar="-1" Cut="0.0000000000000000e+00" cType="1" res="-2.9578778776340187e-04" rms="4.9434474110603333e-01" purity="4.2501142621040344e-01" nType="-99"/>
        </Node>
        <Node pos="r" depth="1" NCoef="0" IVar="2" Cut="5.4238683593750000e+04" cType="1" res="2.4363994598388672e-01" rms="4.3662291765213013e-01" purity="7.4363994598388672e-01" nType="0">
          <Node pos="l" depth="2" NCoef="0" IVar="-1" Cut="0.0000000000000000e+00" cType="1" res="1.5219759370665997e-04" rms="4.9442106485366821e-01" purity="5.7448369264602661e-01" nType="-99"/>
          <Node pos="r" depth="2" NCoef="0" IVar="-1" Cut="0.0000000000000000e+00" cType="1" res="6.9192348746582866e-04" rms="3.9549383521080017e-01" purity="8.0591607093811035e-01" nType="-99"/>
        </Node>
      </Node>
    </BinaryTree>
    <BinaryTree type="DecisionTree" boostWeight="1.0000000000000000e+00" itree="1">
      <Node pos="s" depth="0" NCoef="0" IVar="2" Cut="3.6123000000000000e+04" cType="1" res="-2.6731193065643311e-04" rms="4.9980244040489197e-01" purity="4.9962577223777771e-01" nType="0">
        <Node pos="l" depth="1" NCoef="0" IVar="1" Cut="6.9904861450195312e+01" cType="1" res="-1.9847647845745087e-01" rms="4.5865914225578308e-01" purity="3.0111810564994812e-01" nType="0">
          <Node pos="l" depth="2" NCoef="0" IVar="-1" Cut="0.0000000000000000e+00" cType="1" res="-2.8212976176291704e-03" rms="3.6763027310371399e-01" purity="1.6110771894454956e-01" nType="-99"/>
          <Node pos="r" depth="2" NCoef="0" IVar="-1" Cut="0.0000000000000000e+00" cType="1" res="-3.0336022609844804e-04" rms="4.9444302916526794e-01" purity="4.2578822374343872e-01" nType="-99"/>
        </Node>
        <Node pos="r" depth="1" NCoef="0" IVar="0" Cut="4.4080391526222229e-02" cType="1" res="2.2507803142070770e-01" rms="4.4630652666091919e-01" purity="7.2531050443649292e-01" nType="0">
          <Node pos="l" depth="2" NCoef="0" IVar="-1" Cut="0.0000000000000000e+00" cType="1" res="5.2175519522279501e-04" rms="3.4188622236251831e-01" purity="8.6482560634613037e-01" nType="-99"/>
          <Node pos="r" depth="2" NCoef="0" IVar="-1" Cut="0.0000000000000000e+00" cType="1" res="2.9273249674588442e-04" rms="4.8248219490051270e-01" purity="6.3093310594558716e-01" nType="-99"/>
        </Node>
      </Node>
    </BinaryTree>
    <BinaryTree type="DecisionTree" boostWeight="1.0000000000000000e+00" itree="2">
      <Node pos="s" depth="0" NCoef="0" IVar="2" Cut="5.4184500000000000e+04" cType="1" res="1.7512592021375895e-03" rms="4.9949830770492554e-01" purity="5.0133866071701050e-01" nType="0">
        <Node pos="l" depth="1" NCoef="0" IVar="1" Cut="7.1804023742675781e+01" cType="1" res="-1.6699247062206268e-01" rms="4.7065830230712891e-01" purity="3.3207145333290100e-01" nType="0">
          <Node pos="l" depth="2" NCoef="0" IVar="-1" Cut="0.0000000000000000e+00" cType="1" res="-1.2342096306383610e-03" rms="3.6823076009750366e-01" purity="1.6175709664821625e-01" nType="-99"/>
          <Node pos="r" depth="2" NCoef="0" IVar="-1" Cut="0.0000000000000000e+00" cType="1" res="-2.0622418378479779e-04" rms="4.9733239412307739e-01" purity="4.4877615571022034e-01" nType="-99"/>
        </Node>
        <Node pos="r" depth="1" NCoef="0" IVar="1" Cut="2.3073229980468750e+02" cType="1" res="3.0123358964920044e-01" rms="3.9866042137145996e-01" purity="8.0175012350082397e-01" nType="0">
          <Node pos="l" depth="2" NCoef="0" IVar="-1" Cut="0.0000000000000000e+00" cType="1" res="4.9748102901503444e-04" rms="4.3562951683998108e-01" purity="7.4536180496215820e-01" nType="-99"/>
          <Node pos="r" depth="2" NCoef="0" IVar="-1" Cut="0.0000000000000000e+00" cType="1" res="5.8144814101979136e-04" rms="2.6116093993186951e-01" purity="9.2637366056442261e-01" nType="-99"/>
        </Node>
      </Node>
    </BinaryTree>
    <BinaryTree type="DecisionTree" boostWeight="1.0000000000000000e+00" itree="3">
      <Node pos="s" depth="0" NCoef="0" IVar="1" Cut="1.0525318145751953e+02" cType="1" res="-7.4750692583620548e-03" rms="4.9925795197486877e-01" purity="4.9201193451881409e-01" nType="0">
        <Node pos="l" depth="1" NCoef="0" IVar="1" Cut="6.4731506347656250e+01" cType="1" res="-2.7064883708953857e-01" rms="4.1890695691108704e-01" purity="2.2751452028751373e-01" nType="0">
          <Node pos="l" depth="2" NCoef="0" IVar="-1" Cut="0.0000000000000000e+00" cType="1" res="-5.2782120183110237e-03" rms="3.1857332587242126e-01" purity="1.1462807655334473e-01" nType="-99"/>
          <Node pos="r" depth="2" NCoef="0" IVar="-1" Cut="0.0000000000000000e+00" cType="1" res="-5.9685687301680446e-04" rms="4.8261561989784241e-01" purity="3.6950540542602539e-01" nType="-99"/>
        </Node>
        <Node pos="r" depth="1" NCoef="0" IVar="2" Cut="6.1173269531250000e+04" cType="1" res="1.7385105788707733e-01" rms="4.6849778294563293e-01" purity="6.7425000667572021e-01" nType="0">
          <Node pos="l" depth="2" NCoef="0" IVar="-1" Cut="0.0000000000000000e+00" cType="1" res="7.5935247878078371e-05" rms="4.9915900826454163e-01" purity="5.2807337045669556e-01" nType="-99"/>
          <Node pos="r" depth="2" NCoef="0" IVar="-1" Cut="0.0000000000000000e+00" cType="1" res="6.5855297725647688e-04" rms="3.9093759655952454e-01" purity="8.1169438362121582e-01" nType="-99"/>
        </Node>
      </Node>
    </BinaryTree>
    <BinaryTree type="DecisionTree" boostWeight="1.0000000000000000e+00" itree="4">
      <Node pos="s" depth="0" NCoef="0" IVar="1" Cut="1.3836579895019531e+02" cType="1" res="-6.4616580493748188e-04" rms="4.9879473447799683e-01" purity="4.9829170107841492e-01" nType="0">
        <Node pos="l" depth="1" NCoef="0" IVar="1" Cut="6.5303314208984375e+01" cType="1" res="-2.0562566816806793e-01" rms="4.5378336310386658e-01" purity="2.9171559214591980e-01" nType="0">
          <Node pos="l" depth="2" NCoef="0" IVar="-1" Cut="0.0000000000000000e+00" cType="1" res="-3.8673407398164272e-03" rms="3.3454585075378418e-01" purity="1.2840299308300018e-01" nType="-99"/>
          <Node pos="r" depth="2" NCoef="0" IVar="-1" Cut="0.0000000000000000e+00" cType="1" res="-3.4163382952101529e-04" rms="4.9256512522697449e-01" purity="4.1461390256881714e-01" nType="-99"/>
        </Node>
        <Node pos="r" depth="1" NCoef="0" IVar="2" Cut="6.1580222656250000e+04" cType="1" res="2.3927597701549530e-01" rms="4.3845233321189880e-01" purity="7.4008268117904663e-01" nType="0">
          <Node pos="l" depth="2" NCoef="0" IVar="-1" Cut="0.0000000000000000e+00" cType="1" res="2.2182943939696997e-04" rms="4.9082660675048828e-01" purity="5.9500825405120850e-01" nType="-99"/>
          <Node pos="r" depth="2" NCoef="0" IVar="-1" Cut="0.0000000000000000e+00" cType="1" res="6.2591902678832412e-04" rms="3.8276213407516479e-01" purity="8.2169002294540405e-01" nType="-99"/>
        </Node>
      </Node>
    </BinaryTree>
    <BinaryTree type="DecisionTree" boostWeight="1.0000000000000000e+00" itree="5">
      <Node pos="s" depth="0" NCoef="0" IVar="1" Cut="1.3474693298339844e+02" cType="1" res="9.9695753306150436e-03" rms="4.9835801124572754e-01" purity="5.0854909420013428e-01" nType="0">
        <Node pos="l" depth="1" NCoef="0" IVar="1" Cut="6.3629123687744141e+01" cType="1" res="-2.0596769452095032e-01" rms="4.5298042893409729e-01" purity="2.9033598303794861e-01" nType="0">
          <Node pos="l" depth="2" NCoef="0" IVar="-1" Cut="0.0000000000000000e+00" cType="1" res="-3.1222812831401825e-03" rms="3.4246417880058289e-01" purity="1.3569439947605133e-01" nType="-99"/>
          <Node pos="r" depth="2" NCoef="0" IVar="-1" Cut="0.0000000000000000e+00" cType="1" res="-3.6324551911093295e-04" rms="4.9098250269889832e-01" purity="4.0577179193496704e-01" nType="-99"/>
        </Node>
        <Node pos="r" depth="1" NCoef="0" IVar="2" Cut="5.4184500000000000e+04" cType="1" res="2.4081373214721680e-01" rms="4.3746241927146912e-01" purity="7.4182617664337158e-01" nType="0">
          <Node pos="l" depth="2" NCoef="0" IVar="-1" Cut="0.0000000000000000e+00" cType="1" res="1.9449580577202141e-04" rms="4.9540704488754272e-01" purity="5.6752371788024902e-01" nType="-99"/>
          <Node pos="r" depth="2" NCoef="0" IVar="-1" Cut="0.0000000000000000e+00" cType="1" res="6.1535520944744349e-04" rms="3.9311319589614868e-01" purity="8.0892479419708252e-01" nType="-99"/>
        </Node>
      </Node>
    </BinaryTree>
    <BinaryTree type="DecisionTree" boostWeight="1.0000000000000000e+00" itree="6">
      <Node pos="s" depth="0" NCoef="0" IVar="1" Cut="1.0533761596679688e+02" cType="1" res="-6.7027336626779288e-05" rms="4.9819540977478027e-01" purity="4.9807411432266235e-01" nType="0">
        <Node pos="l" depth="1" NCoef="0" IVar="0" Cut="3.6266315728425980e-02" cType="1" res="-2.4410080909729004e-01" rms="4.3236550688743591e-01" purity="2.5018492341041565e-01" nType="0">
          <Node pos="l" depth="2" NCoef="0" IVar="-1" Cut="0.0000000000000000e+00" cType="1" res="-4.5264224172569811e-04" rms="4.7196421027183533e-01" purity="3.3871132135391235e-01" nType="-99"/>
          <Node pos="r" depth="2" NCoef="0" IVar="-1" Cut="0.0000000000000000e+00" cType="1" res="-6.5290550701320171e-03" rms="2.8398862481117249e-01" purity="8.8643983006477356e-02" nType="-99"/>
        </Node>
        <Node pos="r" depth="1" NCoef="0" IVar="2" Cut="6.6204593750000000e+04" cType="1" res="1.7430941760540009e-01" rms="4.6798580884933472e-01" purity="6.7520552873611450e-01" nType="0">
          <Node pos="l" depth="2" NCoef="0" IVar="-1" Cut="0.0000000000000000e+00" cType="1" res="1.5866308240219951e-04" rms="4.9599426984786987e-01" purity="5.6180810928344727e-01" nType="-99"/>
          <Node pos="r" depth="2" NCoef="0" IVar="-1" Cut="0.0000000000000000e+00" cType="1" res="5.9806468198075891e-04" rms="3.8152322173118591e-01" purity="8.2315003871917725e-01" nType="-99"/>
        </Node>
      </Node>
    </BinaryTree>
    <BinaryTree type="DecisionTree" boostWeight="1.0000000000000000e+00" itree="7">
      <Node pos="s" depth="0" NCoef="0" IVar="1" Cut="1.3953393554687500e+02" cType="1" res="4.2790207080543041e-03" rms="4.9773460626602173e-01" purity="5.0204628705978394e-01" nType="0">
        <Node pos="l" depth="1" NCoef="0" IVar="1" Cut="6.5999603271484375e+01" cType="1" res="-1.8543331325054169e-01" rms="4.6071153879165649e-01" purity="3.0925673246383667e-01" nType="0">
          <Node pos="l" depth="2" NCoef="0" IVar="-1" Cut="0.0000000000000000e+00" cType="1" res="-1.3369559310376644e-03" rms="3.6433592438697815e-01" purity="1.5776759386062622e-01" nType="-99"/>
          <Node pos="r" depth="2" NCoef="0" IVar="-1" Cut="0.0000000000000000e+00" cType="1" res="-2.7402446721680462e-04" rms="4.9361166357994080e-01" purity="4.2360788583755493e-01" nType="-99"/>
        </Node>
        <Node pos="r" depth="1" NCoef="0" IVar="2" Cut="6.6204593750000000e+04" cType="1" res="2.3458868265151978e-01" rms="4.4054824113845825e-01" purity="7.3609161376953125e-01" nType="0">
          <Node pos="l" depth="2" NCoef="0" IVar="-1" Cut="0.0000000000000000e+00" cType="1" res="2.6133109349757433e-04" rms="4.8914435505867004e-01" purity="6.0328000783920288e-01" nType="-99"/>
          <Node pos="r" depth="2" NCoef="0" IVar="-1" Cut="0.0000000000000000e+00" cType="1" res="6.2155624618753791e-04" rms="3.7422704696655273e-01" purity="8.3158063888549805e-01" nType="-99"/>
        </Node>
      </Node>
    </BinaryTree>
    <BinaryTree type="DecisionTree" boostWeight="1.0000000000000000e+00" itree="8">
      <Node pos="s" depth="0" NCoef="0" IVar="1" Cut="1.0517140960693359e+02" cType="1" res="-2.5145546533167362e-03" rms="4.9743628501892090e-01" purity="4.9518433213233948e-01" nType="0">
        <Node pos="l" depth="1" NCoef="0" IVar="1" Cut="5.9580825805664062e+01" cType="1" res="-2.6031744480133057e-01" rms="4.2093059420585632e-01" purity="2.3227219283580780e-01" nType="0">
          <Node pos="l" depth="2" NCoef="0" IVar="-1" Cut="0.0000000000000000e+00" cType="1" res="-5.6515629403293133e-03" rms="3.2136830687522888e-01" purity="1.1710228025913239e-01" nType="-99"/>
          <Node pos="r" depth="2" NCoef="0" IVar="-1" Cut="0.0000000000000000e+00" cType="1" res="-5.3691299399361014e-04" rms="4.7804084420204163e-01" purity="3.5578590631484985e-01" nType="-99"/>
        </Node>
        <Node pos="r" depth="1" NCoef="0" IVar="2" Cut="6.1173269531250000e+04" cType="1" res="1.7575192451477051e-01" rms="4.6721529960632324e-01" purity="6.7698371410369873e-01" nType="0">
          <Node pos="l" depth="2" NCoef="0" IVar="-1" Cut="0.0000000000000000e+00" cType="1" res="1.0637471132213250e-04" rms="4.9881434440612793e-01" purity="5.3243964910507202e-01" nType="-99"/>
          <Node pos="r" depth="2" NCoef="0" IVar="-1" Cut="0.0000000000000000e+00" cType="1" res="5.1524955779314041e-04" rms="3.8934126496315002e-01" purity="8.1364911794662476e-01" nType="-99"/>
        </Node>
      </Node>
    </BinaryTree>
    <BinaryTree type="DecisionTree" boostWeight="1.0000000000000000e+00" itree="9">
      <Node pos="s" depth="0" NCoef="0" IVar="1" Cut="1.3710118103027344e+02" cType="1" res="-2.7094860561192036e-03" rms="4.9692302942276001e-01" purity="4.9440529942512512e-01" nType="0">
        <Node pos="l" depth="1" NCoef="0" IVar="1" Cut="5.8067726135253906e+01" cType="1" res="-1.9970692694187164e-01" rms="4.5315468311309814e-01" purity="2.9340484738349915e-01" nType="0">
          <Node pos="l" depth="2" NCoef="0" IVar="-1" Cut="0.0000000000000000e+00" cType="1" res="-6.1675715260207653e-03" rms="2.9210355877876282e-01" purity="9.4310358166694641e-02" nType="-99"/>
          <Node pos="r" depth="2" NCoef="0" IVar="-1" Cut="0.0000000000000000e+00" cType="1" res="-3.5720880259759724e-04" rms="4.9158123135566711e-01" purity="4.1245326399803162e-01" nType="-99"/>
        </Node>
        <Node pos="r" depth="1" NCoef="0" IVar="2" Cut="6.1173269531250000e+04" cType="1" res="2.2972816228866577e-01" rms="4.4292196631431580e-01" purity="7.3156607151031494e-01" nType="0">
          <Node pos="l" depth="2" NCoef="0" IVar="-1" Cut="0.0000000000000000e+00" cType="1" res="3.0142260948196054e-04" rms="4.8535743355751038e-01" purity="6.1986565589904785e-01" nType="-99"/>
          <Node pos="r" depth="2" NCoef="0" IVar="-1" Cut="0.0000000000000000e+00" cType="1" res="5.6173669872805476e-04" rms="3.9704403281211853e-01" purity="8.0386519432067871e-01" nType="-99"/>
        </Node>
      </Node>
    </BinaryTree>
    <BinaryTree type="DecisionTree" boostWeight="1.0000000000000000e+00" itree="10">
      <Node pos="s" depth="0" NCoef="0" IVar="1" Cut="1.3930560302734375e+02" cType="1" res="5.7278592139482498e-03" rms="4.9651017785072327e-01" purity="5.0218188762664795e-01" nType="0">
        <Node pos="l" depth="1" NCoef="0" IVar="1" Cut="6.5751144409179688e+01" cType="1" res="-1.7735834419727325e-01" rms="4.6186670660972595e-01" purity="3.1455224752426147e-01" nType="0">
          <Node pos="l" depth="2" NCoef="0" IVar="-1" Cut="0.0000000000000000e+00" cType="1" res="-1.3544097309932113e-03" rms="3.5878777503967285e-01" purity="1.5206229686737061e-01" nType="-99"/>
          <Node pos="r" depth="2" NCoef="0" IVar="-1" Cut="0.0000000000000000e+00" cType="1" res="-2.5440921308472753e-04" rms="4.9523606896400452e-01" purity="4.3582299351692200e-01" nType="-99"/>
        </Node>
        <Node pos="r" depth="1" NCoef="0" IVar="2" Cut="6.6204593750000000e+04" cType="1" res="2.3465132713317871e-01" rms="4.4013348221778870e-01" purity="7.3678618669509888e-01" nType="0">
          <Node pos="l" depth="2" NCoef="0" IVar="-1" Cut="0.0000000000000000e+00" cType="1" res="2.5696679949760437e-04" rms="4.8364207148551941e-01" purity="6.2646657228469849e-01" nType="-99"/>
          <Node pos="r" depth="2" NCoef="0" IVar="-1" Cut="0.0000000000000000e+00" cType="1" res="6.3125003362074494e-04" rms="3.8049927353858948e-01" purity="8.2436221837997437e-01" nType="-99"/>
        </Node>
      </Node>
    </BinaryTree>
    <BinaryTree type="DecisionTree" boostWeight="1.0000000000000000e+00" itree="11">
      <Node pos="s" depth="0" NCoef="0" IVar="1" Cut="1.0525318145751953e+02" cType="1" res="-4.9271155148744583e-03" rms="4.9629226326942444e-01" purity="4.9141258001327515e-01" nType="0">
        <Node pos="l" depth="1" NCoef="0" IVar="1" Cut="6.9796707153320312e+01" cType="1" res="-2.5086998939514160e-01" rms="4.2384672164916992e-01" purity="2.3802036046981812e-01" nType="0">
          <Node pos="l" depth="2" NCoef="0" IVar="-1" Cut="0.0000000000000000e+00" cType="1" res="-3.4394136164337397e-03" rms="3.5594296455383301e-01" purity="1.4929160475730896e-01" nType="-99"/>
          <Node pos="r" depth="2" NCoef="0" IVar="-1" Cut="0.0000000000000000e+00" cType="1" res="-5.1802367670461535e-04" rms="4.8385411500930786e-01" purity="3.7643474340438843e-01" nType="-99"/>
        </Node>
        <Node pos="r" depth="1" NCoef="0" IVar="2" Cut="6.1173269531250000e+04" cType="1" res="1.6915625333786011e-01" rms="4.6943554282188416e-01" purity="6.7076879739761353e-01" nType="0">
          <Node pos="l" depth="2" NCoef="0" IVar="-1" Cut="0.0000000000000000e+00" cType="1" res="1.0761138400994241e-04" rms="4.9847775697708130e-01" purity="5.3742879629135132e-01" nType="-99"/>
          <Node pos="r" depth="2" NCoef="0" IVar="-1" Cut="0.0000000000000000e+00" cType="1" res="6.3536537345498800e-04" rms="3.9547079801559448e-01" purity="8.0588155984878540e-01" nType="-99"/>
        </Node>
      </Node>
    </BinaryTree>
    <BinaryTree type="DecisionTree" boostWeight="1.0000000000000000e+00" itree="12">
      <Node pos="s" depth="0" NCoef="0" IVar="1" Cut="1.3922813415527344e+02" cType="1" res="1.1006614193320274e-02" rms="4.9605232477188110e-01" purity="5.0701969861984253e-01" nType="0">
        <Node pos="l" depth="1" NCoef="0" IVar="0" Cut="3.8617823272943497e-02" cType="1" res="-1.7658564448356628e-01" rms="4.6167549490928650e-01" purity="3.1401059031486511e-01" nType="0">
          <Node pos="l" depth="2" NCoef="0" IVar="-1" Cut="0.0000000000000000e+00" cType="1" res="-1.9257163512520492e-04" rms="4.8891752958297729e-01" purity="4.1254714131355286e-01" nType="-99"/>
          <Node pos="r" depth="2" NCoef="0" IVar="-1" Cut="0.0000000000000000e+00" cType="1" res="-4.6176090836524963e-03" rms="3.4794437885284424e-01" purity="1.4254665374755859e-01" nType="-99"/>
        </Node>
        <Node pos="r" depth="1" NCoef="0" IVar="2" Cut="6.6204593750000000e+04" cType="1" res="2.3989243805408478e-01" rms="4.3693581223487854e-01" purity="7.4251478910446167e-01" nType="0">
          <Node pos="l" depth="2" NCoef="0" IVar="-1" Cut="0.0000000000000000e+00" cType="1" res="3.3731260919012129e-04" rms="4.8521861433982849e-01" purity="6.2021040916442871e-01" nType="-99"/>
          <Node pos="r" depth="2" NCoef="0" IVar="-1" Cut="0.0000000000000000e+00" cType="1" res="5.5896013509482145e-04" rms="3.7316530942916870e-01" purity="8.3277392387390137e-01" nType="-99"/>
        </Node>
      </Node>
    </BinaryTree>
    <BinaryTree type="DecisionTree" boostWeight="1.0000000000000000e+00" itree="13">
      <Node pos="s" depth="0" NCoef="0" IVar="1" Cut="1.3740696716308594e+02" cType="1" res="-2.9146154411137104e-03" rms="4.9531796574592590e-01" purity="4.9281919002532959e-01" nType="0">
        <Node pos="l" depth="1" NCoef="0" IVar="1" Cut="7.8153213500976562e+01" cType="1" res="-2.1181648969650269e-01" rms="4.4475445151329041e-01" purity="2.7777129411697388e-01" nType="0">
          <Node pos="l" depth="2" NCoef="0" IVar="-1" Cut="0.0000000000000000e+00" cType="1" res="-3.0183135531842709e-03" rms="3.4824049472808838e-01" purity="1.4256827533245087e-01" nType="-99"/>
          <Node pos="r" depth="2" NCoef="0" IVar="-1" Cut="0.0000000000000000e+00" cType="1" res="-2.5417696451768279e-04" rms="4.9391037225723267e-01" purity="4.2833313345909119e-01" nType="-99"/>
        </Node>
        <Node pos="r" depth="1" NCoef="0" IVar="2" Cut="7.2246000000000000e+04" cType="1" res="2.3571276664733887e-01" rms="4.3914037942886353e-01" purity="7.3846715688705444e-01" nType="0">
          <Node pos="l" depth="2" NCoef="0" IVar="-1" Cut="0.0000000000000000e+00" cType="1" res="3.6544163594953716e-04" rms="4.7720149159431458e-01" purity="6.4866918325424194e-01" nType="-99"/>
          <Node pos="r" depth="2" NCoef="0" IVar="-1" Cut="0.0000000000000000e+00" cType="1" res="5.5151100968942046e-04" rms="3.5521030426025391e-01" purity="8.5187792778015137e-01" nType="-99"/>
        </Node>
      </Node>
    </BinaryTree>
    <BinaryTree type="DecisionTree" boostWeight="1.0000000000000000e+00" itree="14">
      <Node pos="s" depth="0" NCoef="0" IVar="1" Cut="1.3922813415527344e+02" cType="1" res="1.7218368127942085e-02" rms="4.9513575434684753e-01" purity="5.1260197162628174e-01" nType="0">
        <Node pos="l" depth="1" NCoef="0" IVar="0" Cut="3.8617823272943497e-02" cType="1" res="-1.8723452091217041e-01" rms="4.5611414313316345e-01" purity="3.0135807394981384e-01" nType="0">
          <Node pos="l" depth="2" NCoef="0" IVar="-1" Cut="0.0000000000000000e+00" cType="1" res="-2.0837358897551894e-04" rms="4.8629575967788696e-01" purity="3.9990890026092529e-01" nType="-99"/>
          <Node pos="r" depth="2" NCoef="0" IVar="-1" Cut="0.0000000000000000e+00" cType="1" res="-4.6303225681185722e-03" rms="3.3326333761215210e-01" purity="1.2826934456825256e-01" nType="-99"/>
        </Node>
        <Node pos="r" depth="1" NCoef="0" IVar="2" Cut="6.6204593750000000e+04" cType="1" res="2.4983790516853333e-01" rms="4.3095350265502930e-01" purity="7.5294816493988037e-01" nType="0">
          <Node pos="l" depth="2" NCoef="0" IVar="-1" Cut="0.0000000000000000e+00" cType="1" res="3.0060895369388163e-04" rms="4.8358932137489319e-01" purity="6.2657994031906128e-01" nType="-99"/>
          <Node pos="r" depth="2" NCoef="0" IVar="-1" Cut="0.0000000000000000e+00" cType="1" res="5.9856841107830405e-04" rms="3.6455321311950684e-01" purity="8.4218281507492065e-01" nType="-99"/>
        </Node>
      </Node>
    </BinaryTree>
    <BinaryTree type="DecisionTree" boostWeight="1.0000000000000000e+00" itree="15">
      <Node pos="s" depth="0" NCoef="0" IVar="1" Cut="1.2484600830078125e+02" cType="1" res="1.2809316627681255e-02" rms="4.9509650468826294e-01" purity="5.0747954845428467e-01" nType="0">
        <Node pos="l" depth="1" NCoef="0" IVar="0" Cut="3.7411056458950043e-02" cType="1" res="-1.9544613361358643e-01" rms="4.5160898566246033e-01" purity="2.9116332530975342e-01" nType="0">
          <Node pos="l" depth="2" NCoef="0" IVar="-1" Cut="0.0000000000000000e+00" cType="1" res="-1.9226333824917674e-04" rms="4.8512166738510132e-01" purity="3.9163988828659058e-01" nType="-99"/>
          <Node pos="r" depth="2" NCoef="0" IVar="-1" Cut="0.0000000000000000e+00" cType="1" res="-4.7724875621497631e-03" rms="3.1585264205932617e-01" purity="1.1335508525371552e-01" nType="-99"/>
        </Node>
        <Node pos="r" depth="1" NCoef="0" IVar="2" Cut="5.3826414062500000e+04" cType="1" res="2.1532812714576721e-01" rms="4.4940721988677979e-01" purity="7.1783709526062012e-01" nType="0">
          <Node pos="l" depth="2" NCoef="0" IVar="-1" Cut="0.0000000000000000e+00" cType="1" res="2.0286442304495722e-04" rms="4.9481216073036194e-01" purity="5.6995010375976562e-01" nType="-99"/>
          <Node pos="r" depth="2" NCoef="0" IVar="-1" Cut="0.0000000000000000e+00" cType="1" res="6.3105823937803507e-04" rms="4.0551024675369263e-01" purity="7.9219567775726318e-01" nType="-99"/>
        </Node>
      </Node>
    </BinaryTree>
    <BinaryTree type="DecisionTree" boostWeight="1.0000000000000000e+00" itree="16">
      <Node pos="s" depth="0" NCoef="0" IVar="1" Cut="1.0517140960693359e+02" cType="1" res="-3.1942520290613174e-03" rms="4.9438777565956116e-01" purity="4.9124988913536072e-01" nType="0">
        <Node pos="l" depth="1" NCoef="0" IVar="1" Cut="6.4645553588867188e+01" cType="1" res="-2.5638890266418457e-01" rms="4.1629111766815186e-01" purity="2.2748905420303345e-01" nType="0">
          <Node pos="l" depth="2" NCoef="0" IVar="-1" Cut="0.0000000000000000e+00" cType="1" res="-2.1643203217536211e-03" rms="3.4351271390914917e-01" purity="1.3716825842857361e-01" nType="-99"/>
          <Node pos="r" depth="2" NCoef="0" IVar="-1" Cut="0.0000000000000000e+00" cType="1" res="-7.7130348654463887e-04" rms="4.7348633408546448e-01" purity="3.4593743085861206e-01" nType="-99"/>
        </Node>
        <Node pos="r" depth="1" NCoef="0" IVar="2" Cut="7.1197562500000000e+04" cType="1" res="1.7326658964157104e-01" rms="4.6708542108535767e-01" purity="6.7507463693618774e-01" nType="0">
          <Node pos="l" depth="2" NCoef="0" IVar="-1" Cut="0.0000000000000000e+00" cType="1" res="2.1045265020802617e-04" rms="4.9390298128128052e-01" purity="5.7163071632385254e-01" nType="-99"/>
          <Node pos="r" depth="2" NCoef="0" IVar="-1" Cut="0.0000000000000000e+00" cType="1" res="6.5942801302298903e-04" rms="3.5879009962081909e-01" purity="8.4820604324340820e-01" nType="-99"/>
        </Node>
      </Node>
    </BinaryTree>
    <BinaryTree type="DecisionTree" boostWeight="1.0000000000000000e+00" itree="17">
      <Node pos="s" depth="0" NCoef="0" IVar="1" Cut="1.3836579895019531e+02" cType="1" res="3.9148577488958836e-03" rms="4.9426713585853577e-01" purity="4.9809131026268005e-01" nType="0">
        <Node pos="l" depth="1" NCoef="0" IVar="1" Cut="7.8587608337402344e+01" cType="1" res="-1.8706735968589783e-01" rms="4.5424005389213562e-01" purity="2.9913812875747681e-01" nType="0">
          <Node pos="l" depth="2" NCoef="0" IVar="-1" Cut="0.0000000000000000e+00" cType="1" res="-1.0579550871625543e-03" rms="3.8821187615394592e-01" purity="1.8707904219627380e-01" nType="-99"/>
          <Node pos="r" depth="2" NCoef="0" IVar="-1" Cut="0.0000000000000000e+00" cType="1" res="-2.6733442791737616e-04" rms="4.9346742033958435e-01" purity="4.3137621879577637e-01" nType="-99"/>
        </Node>
        <Node pos="r" depth="1" NCoef="0" IVar="2" Cut="7.1059968750000000e+04" cType="1" res="2.3254045844078064e-01" rms="4.4024556875228882e-01" purity="7.3625898361206055e-01" nType="0">
          <Node pos="l" depth="2" NCoef="0" IVar="-1" Cut="0.0000000000000000e+00" cType="1" res="3.1988948467187583e-04" rms="4.8212587833404541e-01" purity="6.3183420896530151e-01" nType="-99"/>
          <Node pos="r" depth="2" NCoef="0" IVar="-1" Cut="0.0000000000000000e+00" cType="1" res="6.8024540087208152e-04" rms="3.5752528905868530e-01" purity="8.4952253103256226e-01" nType="-99"/>
        </Node>
      </Node>
    </BinaryTree>
    <BinaryTree type="DecisionTree" boostWeight="1.0000000000000000e+00" itree="18">
      <Node pos="s" depth="0" NCoef="0" IVar="1" Cut="1.3862570190429688e+02" cType="1" res="1.4460301026701927e-02" rms="4.9411505460739136e-01" purity="5.0872790813446045e-01" nType="0">
        <Node pos="l" depth="1" NCoef="0" IVar="1" Cut="7.8865631103515625e+01" cType="1" res="-1.7026145756244659e-01" rms="4.6107971668243408e-01" purity="3.1589889526367188e-01" nType="0">
          <Node pos="l" depth="2" NCoef="0" IVar="-1" Cut="0.0000000000000000e+00" cType="1" res="-7.5027981074526906e-04" rms="3.9251044392585754e-01" purity="1.9211120903491974e-01" nType="-99"/>
          <Node pos="r" depth="2" NCoef="0" IVar="-1" Cut="0.0000000000000000e+00" cType="1" res="-1.3150082668289542e-04" rms="4.9614462256431580e-01" purity="4.5652425289154053e-01" nType="-99"/>
        </Node>
        <Node pos="r" depth="1" NCoef="0" IVar="2" Cut="6.2013781250000000e+04" cType="1" res="2.3637269437313080e-01" rms="4.3797355890274048e-01" purity="7.4037981033325195e-01" nType="0">
          <Node pos="l" depth="2" NCoef="0" IVar="-1" Cut="0.0000000000000000e+00" cType="1" res="2.3453177709598094e-04" rms="4.9063959717750549e-01" purity="5.9578597545623779e-01" nType="-99"/>
          <Node pos="r" depth="2" NCoef="0" IVar="-1" Cut="0.0000000000000000e+00" cType="1" res="6.4491090597584844e-04" rms="3.8128247857093811e-01" purity="8.2337480783462524e-01" nType="-99"/>
        </Node>
      </Node>
    </BinaryTree>
    <BinaryTree type="DecisionTree" boostWeight="1.0000000000000000e+00" itree="19">
      <Node pos="s" depth="0" NCoef="0" IVar="2" Cut="4.0782179687500000e+04" cType="1" res="4.9070301465690136e-03" rms="4.9424970149993896e-01" purity="4.9887102842330933e-01" nType="0">
        <Node pos="l" depth="1" NCoef="0" IVar="0" Cut="3.4942522644996643e-02" cType="1" res="-1.5569460391998291e-01" rms="4.6677365899085999e-01" purity="3.3148854970932007e-01" nType="0">
          <Node pos="l" depth="2" NCoef="0" IVar="-1" Cut="0.0000000000000000e+00" cType="1" res="-1.4309243124444038e-04" rms="4.9114137887954712e-01" purity="4.3117240071296692e-01" nType="-99"/>
          <Node pos="r" depth="2" NCoef="0" IVar="-1" Cut="0.0000000000000000e+00" cType="1" res="-2.2510089911520481e-03" rms="3.7770113348960876e-01" purity="1.7587070167064667e-01" nType="-99"/>
        </Node>
        <Node pos="r" depth="1" NCoef="0" IVar="2" Cut="7.7680882812500000e+04" cType="1" res="2.2999209165573120e-01" rms="4.4099605083465576e-01" purity="7.3345965147018433e-01" nType="0">
          <Node pos="l" depth="2" NCoef="0" IVar="-1" Cut="0.0000000000000000e+00" cType="1" res="4.1571934707462788e-04" rms="4.7207424044609070e-01" purity="6.6145539283752441e-01" nType="-99"/>
          <Node pos="r" depth="2" NCoef="0" IVar="-1" Cut="0.0000000000000000e+00" cType="1" res="6.7741214297711849e-04" rms="3.3993789553642273e-01" purity="8.6665385961532593e-01" nType="-99"/>
        </Node>
      </Node>
    </BinaryTree>
    <BinaryTree type="DecisionTree" boostWeight="1.0000000000000000e+00" itree="20">
      <Node pos="s" depth="0" NCoef="0" IVar="1" Cut="1.3166255187988281e+02" cType="1" res="2.0824002567678690e-03" rms="4.9375391006469727e-01" purity="4.9608001112937927e-01" nType="0">
        <Node pos="l" depth="1" NCoef="0" IVar="0" Cut="3.5119626671075821e-02" cType="1" res="-1.9788944721221924e-01" rms="4.4846096634864807e-01" purity="2.8694659471511841e-01" nType="0">
          <Node pos="l" depth="2" NCoef="0" IVar="-1" Cut="0.0000000000000000e+00" cType="1" res="-2.7600329485721886e-04" rms="4.8253110051155090e-01" purity="3.8447424769401550e-01" nType="-99"/>
          <Node pos="r" depth="2" NCoef="0" IVar="-1" Cut="0.0000000000000000e+00" cType="1" res="-4.0523479692637920e-03" rms="3.4817633032798767e-01" purity="1.4373998343944550e-01" nType="-99"/>
        </Node>
        <Node pos="r" depth="1" NCoef="0" IVar="2" Cut="6.1173269531250000e+04" cType="1" res="2.1826772391796112e-01" rms="4.4717067480087280e-01" purity="7.2216963768005371e-01" nType="0">
          <Node pos="l" depth="2" NCoef="0" IVar="-1" Cut="0.0000000000000000e+00" cType="1" res="2.4352011678274721e-04" rms="4.9252060055732727e-01" purity="5.8402085304260254e-01" nType="-99"/>
          <Node pos="r" depth="2" NCoef="0" IVar="-1" Cut="0.0000000000000000e+00" cType="1" res="5.6997564388439059e-04" rms="3.9050346612930298e-01" purity="8.1210368871688843e-01" nType="-99"/>
        </Node>
      </Node>
    </BinaryTree>
    <BinaryTree type="DecisionTree" boostWeight="1.0000000000000000e+00" itree="21">
      <Node pos="s" depth="0" NCoef="0" IVar="1" Cut="1.0537150573730469e+02" cType="1" res="4.7434467705897987e-04" rms="4.9374976754188538e-01" purity="4.9366083741188049e-01" nType="0">
        <Node pos="l" depth="1" NCoef="0" IVar="0" Cut="3.7699569016695023e-02" cType="1" res="-2.1643383800983429e-01" rms="4.3786385655403137e-01" purity="2.6481580734252930e-01" nType="0">
          <Node pos="l" depth="2" NCoef="0" IVar="-1" Cut="0.0000000000000000e+00" cType="1" res="-2.3278027947526425e-04" rms="4.7562283277511597e-01" purity="3.5506743192672729e-01" nType="-99"/>
          <Node pos="r" depth="2" NCoef="0" IVar="-1" Cut="0.0000000000000000e+00" cType="1" res="-6.7711398005485535e-03" rms="2.7889215946197510e-01" purity="8.5648320615291595e-02" nType="-99"/>
        </Node>
        <Node pos="r" depth="1" NCoef="0" IVar="2" Cut="6.1173269531250000e+04" cType="1" res="1.6409660875797272e-01" rms="4.6989312767982483e-01" purity="6.6628760099411011e-01" nType="0">
          <Node pos="l" depth="2" NCoef="0" IVar="-1" Cut="0.0000000000000000e+00" cType="1" res="1.6080317436717451e-04" rms="4.9626436829566956e-01" purity="5.4958468675613403e-01" nType="-99"/>
          <Node pos="r" depth="2" NCoef="0" IVar="-1" Cut="0.0000000000000000e+00" cType="1" res="6.3459301600232720e-04" rms="4.0680956840515137e-01" purity="7.9041415452957153e-01" nType="-99"/>
        </Node>
      </Node>
    </BinaryTree>
    <BinaryTree type="DecisionTree" boostWeight="1.0000000000000000e+00" itree="22">
      <Node pos="s" depth="0" NCoef="0" IVar="2" Cut="5.4184500000000000e+04" cType="1" res="1.7886223504319787e-03" rms="4.9272808432579041e-01" purity="4.9523133039474487e-01" nType="0">
        <Node pos="l" depth="1" NCoef="0" IVar="1" Cut="7.8285812377929688e+01" cType="1" res="-1.6411034762859344e-01" rms="4.6240797638893127e-01" purity="3.2236999273300171e-01" nType="0">
          <Node pos="l" depth="2" NCoef="0" IVar="-1" Cut="0.0000000000000000e+00" cType="1" res="-2.3738066665828228e-03" rms="3.7577939033508301e-01" purity="1.7287951707839966e-01" nType="-99"/>
          <Node pos="r" depth="2" NCoef="0" IVar="-1" Cut="0.0000000000000000e+00" cType="1" res="-1.8413369252812117e-04" rms="4.9468320608139038e-01" purity="4.4682076573371887e-01" nType="-99"/>
        </Node>
        <Node pos="r" depth="1" NCoef="0" IVar="1" Cut="2.1932717895507812e+02" cType="1" res="2.9129227995872498e-01" rms="4.0184184908866882e-01" purity="7.9688465595245361e-01" nType="0">
          <Node pos="l" depth="2" NCoef="0" IVar="-1" Cut="0.0000000000000000e+00" cType="1" res="5.0847633974626660e-04" rms="4.4001114368438721e-01" purity="7.3664188385009766e-01" nType="-99"/>
          <Node pos="r" depth="2" NCoef="0" IVar="-1" Cut="0.0000000000000000e+00" cType="1" res="6.1285588890314102e-04" rms="2.8319188952445984e-01" purity="9.1200131177902222e-01" nType="-99"/>
        </Node>
      </Node>
    </BinaryTree>
    <BinaryTree type="DecisionTree" boostWeight="1.0000000000000000e+00" itree="23">
      <Node pos="s" depth="0" NCoef="0" IVar="1" Cut="1.0517140960693359e+02" cType="1" res="-2.9335790313780308e-03" rms="4.9270001053810120e-01" purity="4.8992809653282166e-01" nType="0">
        <Node pos="l" depth="1" NCoef="0" IVar="1" Cut="5.9579055786132812e+01" cType="1" res="-2.5391817092895508e-01" rms="4.1403001546859741e-01" purity="2.2491414844989777e-01" nType="0">
          <Node pos="l" depth="2" NCoef="0" IVar="-1" Cut="0.0000000000000000e+00" cType="1" res="-2.9234797693789005e-03" rms="3.4419372677803040e-01" purity="1.3789784908294678e-01" nType="-99"/>
          <Node pos="r" depth="2" NCoef="0" IVar="-1" Cut="0.0000000000000000e+00" cType="1" res="-6.8621494574472308e-04" rms="4.6513777971267700e-01" purity="3.2575982809066772e-01" nType="-99"/>
        </Node>
        <Node pos="r" depth="1" NCoef="0" IVar="2" Cut="7.2246000000000000e+04" cType="1" res="1.6961231827735901e-01" rms="4.6766892075538635e-01" purity="6.7211878299713135e-01" nType="0">
          <Node pos="l" depth="2" NCoef="0" IVar="-1" Cut="0.0000000000000000e+00" cType="1" res="2.4453803780488670e-04" rms="4.9156925082206726e-01" purity="5.8372431993484497e-01" nType="-99"/>
          <Node pos="r" depth="2" NCoef="0" IVar="-1" Cut="0.0000000000000000e+00" cType="1" res="6.0316774761304259e-04" rms="3.6191374063491821e-01" purity="8.4495884180068970e-01" nType="-99"/>
        </Node>
      </Node>
    </BinaryTree>
    <BinaryTree type="DecisionTree" boostWeight="1.0000000000000000e+00" itree="24">
      <Node pos="s" depth="0" NCoef="0" IVar="1" Cut="1.3922813415527344e+02" cType="1" res="-3.8373784627765417e-03" rms="4.9234676361083984e-01" purity="4.8869016766548157e-01" nType="0">
        <Node pos="l" depth="1" NCoef="0" IVar="1" Cut="7.9041328430175781e+01" cType="1" res="-1.8898190557956696e-01" rms="4.5051300525665283e-01" purity="2.9322114586830139e-01" nType="0">
          <Node pos="l" depth="2" NCoef="0" IVar="-1" Cut="0.0000000000000000e+00" cType="1" res="-1.3704494340345263e-03" rms="3.7128925323486328e-01" purity="1.6690853238105774e-01" nType="-99"/>
          <Node pos="r" depth="2" NCoef="0" IVar="-1" Cut="0.0000000000000000e+00" cType="1" res="-1.8737105710897595e-04" rms="4.9322205781936646e-01" purity="4.3651863932609558e-01" nType="-99"/>
        </Node>
        <Node pos="r" depth="1" NCoef="0" IVar="2" Cut="6.6204593750000000e+04" cType="1" res="2.2429639101028442e-01" rms="4.4353631138801575e-01" purity="7.2954577207565308e-01" nType="0">
          <Node pos="l" depth="2" NCoef="0" IVar="-1" Cut="0.0000000000000000e+00" cType="1" res="2.4935381952673197e-04" rms="4.8877197504043579e-01" purity="6.0405915975570679e-01" nType="-99"/>
          <Node pos="r" depth="2" NCoef="0" IVar="-1" Cut="0.0000000000000000e+00" cType="1" res="5.7797902263700962e-04" rms="3.8088864088058472e-01" purity="8.2385528087615967e-01" nType="-99"/>
        </Node>
      </Node>
    </BinaryTree>
    <BinaryTree type="DecisionTree" boostWeight="1.0000000000000000e+00" itree="25">
      <Node pos="s" depth="0" NCoef="0" IVar="1" Cut="1.3844578552246094e+02" cType="1" res="1.3624426210299134e-03" rms="4.9219357967376709e-01" purity="4.9382820725440979e-01" nType="0">
        <Node pos="l" depth="1" NCoef="0" IVar="1" Cut="7.8673477172851562e+01" cType="1" res="-1.8606820702552795e-01" rms="4.5142182707786560e-01" purity="2.9571846127510071e-01" nType="0">
          <Node pos="l" depth="2" NCoef="0" IVar="-1" Cut="0.0000000000000000e+00" cType="1" res="-1.5378117095679045e-03" rms="3.8247394561767578e-01" purity="1.8077845871448517e-01" nType="-99"/>
          <Node pos="r" depth="2" NCoef="0" IVar="-1" Cut="0.0000000000000000e+00" cType="1" res="-2.6104410062544048e-04" rms="4.9210923910140991e-01" purity="4.2925682663917542e-01" nType="-99"/>
        </Node>
        <Node pos="r" depth="1" NCoef="0" IVar="2" Cut="7.3261218750000000e+04" cType="1" res="2.2812284529209137e-01" rms="4.4145017862319946e-01" purity="7.3350846767425537e-01" nType="0">
          <Node pos="l" depth="2" NCoef="0" IVar="-1" Cut="0.0000000000000000e+00" cType="1" res="3.6185150383971632e-04" rms="4.7884598374366760e-01" purity="6.4259213209152222e-01" nType="-99"/>
          <Node pos="r" depth="2" NCoef="0" IVar="-1" Cut="0.0000000000000000e+00" cType="1" res="5.4759503109380603e-04" rms="3.5320070385932922e-01" purity="8.5388535261154175e-01" nType="-99"/>
        </Node>
      </Node>
    </BinaryTree>
    <BinaryTree type="DecisionTree" boostWeight="1.0000000000000000e+00" itree="26">
      <Node pos="s" depth="0" NCoef="0" IVar="2" Cut="5.4184500000000000e+04" cType="1" res="-5.7334532029926777e-03" rms="4.9214732646942139e-01" purity="4.8629346489906311e-01" nType="0">
        <Node pos="l" depth="1" NCoef="0" IVar="1" Cut="7.1541755676269531e+01" cType="1" res="-1.4458061754703522e-01" rms="4.6841016411781311e-01" purity="3.4017816185951233e-01" nType="0">
          <Node pos="l" depth="2" NCoef="0" IVar="-1" Cut="0.0000000000000000e+00" cType="1" res="-1.3958269264549017e-03" rms="3.8323917984962463e-01" purity="1.8082930147647858e-01" nType="-99"/>
          <Node pos="r" depth="2" NCoef="0" IVar="-1" Cut="0.0000000000000000e+00" cType="1" res="-1.6929116100072861e-04" rms="4.9448883533477783e-01" purity="4.4881919026374817e-01" nType="-99"/>
        </Node>
        <Node pos="r" depth="1" NCoef="0" IVar="1" Cut="2.3191941833496094e+02" cType="1" res="2.6969495415687561e-01" rms="4.1633576154708862e-01" purity="7.7613961696624756e-01" nType="0">
          <Node pos="l" depth="2" NCoef="0" IVar="-1" Cut="0.0000000000000000e+00" cType="1" res="5.2111514378339052e-04" rms="4.4878780841827393e-01" purity="7.1956533193588257e-01" nType="-99"/>
          <Node pos="r" depth="2" NCoef="0" IVar="-1" Cut="0.0000000000000000e+00" cType="1" res="8.1654009409248829e-04" rms="2.8039291501045227e-01" purity="9.1392540931701660e-01" nType="-99"/>
        </Node>
      </Node>
    </BinaryTree>
    <BinaryTree type="DecisionTree" boostWeight="1.0000000000000000e+00" itree="27">
      <Node pos="s" depth="0" NCoef="0" IVar="1" Cut="1.3922813415527344e+02" cType="1" res="1.1925485916435719e-02" rms="4.9185916781425476e-01" purity="5.0414389371871948e-01" nType="0">
        <Node pos="l" depth="1" NCoef="0" IVar="0" Cut="3.7699569016695023e-02" cType="1" res="-1.8138165771961212e-01" rms="4.5319625735282898e-01" purity="2.9939401149749756e-01" nType="0">
          <Node pos="l" depth="2" NCoef="0" IVar="-1" Cut="0.0000000000000000e+00" cType="1" res="-2.8314252267591655e-04" rms="4.8538511991500854e-01" purity="4.0001097321510315e-01" nType="-99"/>
          <Node pos="r" depth="2" NCoef="0" IVar="-1" Cut="0.0000000000000000e+00" cType="1" res="-3.9914185181260109e-03" rms="3.3756971359252930e-01" purity="1.3393321633338928e-01" nType="-99"/>
        </Node>
        <Node pos="r" depth="1" NCoef="0" IVar="2" Cut="6.6611546875000000e+04" cType="1" res="2.4193385243415833e-01" rms="4.3363016843795776e-01" purity="7.4776738882064819e-01" nType="0">
          <Node pos="l" depth="2" NCoef="0" IVar="-1" Cut="0.0000000000000000e+00" cType="1" res="2.8116535395383835e-04" rms="4.8000320792198181e-01" purity="6.3913357257843018e-01" nType="-99"/>
          <Node pos="r" depth="2" NCoef="0" IVar="-1" Cut="0.0000000000000000e+00" cType="1" res="6.1054935213178396e-04" rms="3.7254172563552856e-01" purity="8.3340817689895630e-01" nType="-99"/>
        </Node>
      </Node>
    </BinaryTree>
    <BinaryTree type="DecisionTree" boostWeight="1.0000000000000000e+00" itree="28">
      <Node pos="s" depth="0" NCoef="0" IVar="1" Cut="1.3938558959960938e+02" cType="1" res="7.9741831868886948e-03" rms="4.9156129360198975e-01" purity="4.9980491399765015e-01" nType="0">
        <Node pos="l" depth="1" NCoef="0" IVar="1" Cut="6.5838233947753906e+01" cType="1" res="-1.7447313666343689e-01" rms="4.5537093281745911e-01" purity="3.0576765537261963e-01" nType="0">
          <Node pos="l" depth="2" NCoef="0" IVar="-1" Cut="0.0000000000000000e+00" cType="1" res="-1.0596488136798143e-03" rms="3.6992999911308289e-01" purity="1.6544356942176819e-01" nType="-99"/>
          <Node pos="r" depth="2" NCoef="0" IVar="-1" Cut="0.0000000000000000e+00" cType="1" res="-2.9828044353052974e-04" rms="4.8915749788284302e-01" purity="4.1564950346946716e-01" nType="-99"/>
        </Node>
        <Node pos="r" depth="1" NCoef="0" IVar="2" Cut="6.6611546875000000e+04" cType="1" res="2.3253305256366730e-01" rms="4.3865188956260681e-01" purity="7.3862880468368530e-01" nType="0">
          <Node pos="l" depth="2" NCoef="0" IVar="-1" Cut="0.0000000000000000e+00" cType="1" res="3.0080816941335797e-04" rms="4.8499166965484619e-01" purity="6.2054574489593506e-01" nType="-99"/>
          <Node pos="r" depth="2" NCoef="0" IVar="-1" Cut="0.0000000000000000e+00" cType="1" res="6.1663583619520068e-04" rms="3.7521862983703613e-01" purity="8.3037918806076050e-01" nType="-99"/>
        </Node>
      </Node>
    </BinaryTree>
    <BinaryTree type="DecisionTree" boostWeight="1.0000000000000000e+00" itree="29">
      <Node pos="s" depth="0" NCoef="0" IVar="1" Cut="1.3710118103027344e+02" cType="1" res="1.6368037089705467e-02" rms="4.9159479141235352e-01" purity="5.0804162025451660e-01" nType="0">
        <Node pos="l" depth="1" NCoef="0" IVar="0" Cut="3.8101427257061005e-02" cType="1" res="-1.6610957682132721e-01" rms="4.5887389779090881e-01" purity="3.1333568692207336e-01" nType="0">
          <Node pos="l" depth="2" NCoef="0" IVar="-1" Cut="0.0000000000000000e+00" cType="1" res="-1.9321661966387182e-04" rms="4.8636043071746826e-01" purity="4.0387830138206482e-01" nType="-99"/>
          <Node pos="r" depth="2" NCoef="0" IVar="-1" Cut="0.0000000000000000e+00" cType="1" res="-3.0762404203414917e-03" rms="3.6554679274559021e-01" purity="1.6279947757720947e-01" nType="-99"/>
        </Node>
        <Node pos="r" depth="1" NCoef="0" IVar="2" Cut="6.1173269531250000e+04" cType="1" res="2.3238283395767212e-01" rms="4.3863558769226074e-01" purity="7.3853212594985962e-01" nType="0">
          <Node pos="l" depth="2" NCoef="0" IVar="-1" Cut="0.0000000000000000e+00" cType="1" res="2.4151107936631888e-04" rms="4.8804092407226562e-01" purity="6.0745346546173096e-01" nType="-99"/>
          <Node pos="r" depth="2" NCoef="0" IVar="-1" Cut="0.0000000000000000e+00" cType="1" res="5.3938076598569751e-04" rms="3.8892820477485657e-01" purity="8.1404453516006470e-01" nType="-99"/>
        </Node>
      </Node>
    </BinaryTree>
    <BinaryTree type="DecisionTree" boostWeight="1.0000000000000000e+00" itree="30">
      <Node pos="s" depth="0" NCoef="0" IVar="2" Cut="4.0782179687500000e+04" cType="1" res="8.1315645948052406e-03" rms="4.9103522300720215e-01" purity="4.9992221593856812e-01" nType="0">
        <Node pos="l" depth="1" NCoef="0" IVar="0" Cut="3.6551970988512039e-02" cType="1" res="-1.8728552758693695e-01" rms="4.5010569691658020e-01" purity="2.9328790307044983e-01" nType="0">
          <Node pos="l" depth="2" NCoef="0" IVar="-1" Cut="0.0000000000000000e+00" cType="1" res="-4.0134272421710193e-04" rms="4.8066881299018860e-01" purity="3.7994524836540222e-01" nType="-99"/>
          <Node pos="r" depth="2" NCoef="0" IVar="-1" Cut="0.0000000000000000e+00" cType="1" res="-3.2405310776084661e-03" rms="3.5448285937309265e-01" purity="1.5061540901660919e-01" nType="-99"/>
        </Node>
        <Node pos="r" depth="1" NCoef="0" IVar="0" Cut="3.9251808077096939e-02" cType="1" res="2.5018194317817688e-01" rms="4.2771387100219727e-01" purity="7.5586658716201782e-01" nType="0">
          <Node pos="l" depth="2" NCoef="0" IVar="-1" Cut="0.0000000000000000e+00" cType="1" res="6.2938034534454346e-04" rms="3.0796965956687927e-01" purity="8.9357566833496094e-01" nType="-99"/>
          <Node pos="r" depth="2" NCoef="0" IVar="-1" Cut="0.0000000000000000e+00" cType="1" res="3.9094523526728153e-04" rms="4.5956608653068542e-01" purity="6.9144344329833984e-01" nType="-99"/>
        </Node>
      </Node>
    </BinaryTree>
    <BinaryTree type="DecisionTree" boostWeight="1.0000000000000000e+00" itree="31">
      <Node pos="s" depth="0" NCoef="0" IVar="1" Cut="1.0525318145751953e+02" cType="1" res="6.1555352294817567e-04" rms="4.9068465828895569e-01" purity="4.9190822243690491e-01" nType="0">
        <Node pos="l" depth="1" NCoef="0" IVar="0" Cut="3.7699569016695023e-02" cType="1" res="-2.4128697812557220e-01" rms="4.1797244548797607e-01" purity="2.3271255195140839e-01" nType="0">
          <Node pos="l" depth="2" NCoef="0" IVar="-1" Cut="0.0000000000000000e+00" cType="1" res="-8.9307577582076192e-04" rms="4.5916417241096497e-01" purity="3.1081593036651611e-01" nType="-99"/>
          <Node pos="r" depth="2" NCoef="0" IVar="-1" Cut="0.0000000000000000e+00" cType="1" res="-6.1335093341767788e-03" rms="2.8101390600204468e-01" purity="8.7162226438522339e-02" nType="-99"/>
        </Node>
        <Node pos="r" depth="1" NCoef="0" IVar="2" Cut="6.6204593750000000e+04" cType="1" res="1.7027378082275391e-01" rms="4.6613866090774536e-01" purity="6.7369496822357178e-01" nType="0">
          <Node pos="l" depth="2" NCoef="0" IVar="-1" Cut="0.0000000000000000e+00" cType="1" res="1.5575875295326114e-04" rms="4.9566709995269775e-01" purity="5.4772543907165527e-01" nType="-99"/>
          <Node pos="r" depth="2" NCoef="0" IVar="-1" Cut="0.0000000000000000e+00" cType="1" res="5.9799564769491553e-04" rms="3.7797757983207703e-01" purity="8.2710266113281250e-01" nType="-99"/>
        </Node>
      </Node>
    </BinaryTree>
    <BinaryTree type="DecisionTree" boostWeight="1.0000000000000000e+00" itree="32">
      <Node pos="s" depth="0" NCoef="0" IVar="1" Cut="1.0517140960693359e+02" cType="1" res="1.0124669410288334e-02" rms="4.9022433161735535e-01" purity="5.0118213891983032e-01" nType="0">
        <Node pos="l" depth="1" NCoef="0" IVar="1" Cut="6.9711868286132812e+01" cType="1" res="-2.3580014705657959e-01" rms="4.1985049843788147e-01" purity="2.3725676536560059e-01" nType="0">
          <Node pos="l" depth="2" NCoef="0" IVar="-1" Cut="0.0000000000000000e+00" cType="1" res="-2.7476036921143532e-03" rms="3.4009715914726257e-01" purity="1.3524918258190155e-01" nType="-99"/>
          <Node pos="r" depth="2" NCoef="0" IVar="-1" Cut="0.0000000000000000e+00" cType="1" res="-3.6764686228707433e-04" rms="4.8279690742492676e-01" purity="3.9114448428153992e-01" nType="-99"/>
        </Node>
        <Node pos="r" depth="1" NCoef="0" IVar="2" Cut="5.1204988281250000e+04" cType="1" res="1.7966350913047791e-01" rms="4.6263930201530457e-01" purity="6.8313050270080566e-01" nType="0">
          <Node pos="l" depth="2" NCoef="0" IVar="-1" Cut="0.0000000000000000e+00" cType="1" res="9.1645866632461548e-05" rms="4.9731346964836121e-01" purity="5.2538645267486572e-01" nType="-99"/>
          <Node pos="r" depth="2" NCoef="0" IVar="-1" Cut="0.0000000000000000e+00" cType="1" res="6.2756438273936510e-04" rms="4.1272398829460144e-01" purity="7.8103107213973999e-01" nType="-99"/>
        </Node>
      </Node>
    </BinaryTree>
    <BinaryTree type="DecisionTree" boostWeight="1.0000000000000000e+00" itree="33">
      <Node pos="s" depth="0" NCoef="0" IVar="1" Cut="1.0547126770019531e+02" cType="1" res="1.2875584885478020e-02" rms="4.9028834700584412e-01" purity="5.0330811738967896e-01" nType="0">
        <Node pos="l" depth="1" NCoef="0" IVar="0" Cut="3.7699569016695023e-02" cType="1" res="-2.2289849817752838e-01" rms="4.2743679881095886e-01" purity="2.4898150563240051e-01" nType="0">
          <Node pos="l" depth="2" NCoef="0" IVar="-1" Cut="0.0000000000000000e+00" cType="1" res="-5.8100867317989469e-04" rms="4.6781519055366516e-01" purity="3.3366325497627258e-01" nType="-99"/>
          <Node pos="r" depth="2" NCoef="0" IVar="-1" Cut="0.0000000000000000e+00" cType="1" res="-6.6732955165207386e-03" rms="2.7533924579620361e-01" purity="8.2937441766262054e-02" nType="-99"/>
        </Node>
        <Node pos="r" depth="1" NCoef="0" IVar="2" Cut="6.6204593750000000e+04" cType="1" res="1.8000631034374237e-01" rms="4.6252810955047607e-01" purity="6.8358993530273438e-01" nType="0">
          <Node pos="l" depth="2" NCoef="0" IVar="-1" Cut="0.0000000000000000e+00" cType="1" res="1.8517443095333874e-04" rms="4.9379065632820129e-01" purity="5.6673967838287354e-01" nType="-99"/>
          <Node pos="r" depth="2" NCoef="0" IVar="-1" Cut="0.0000000000000000e+00" cType="1" res="6.1944505432620645e-04" rms="3.7578833103179932e-01" purity="8.2964688539505005e-01" nType="-99"/>
        </Node>
      </Node>
    </BinaryTree>
    <BinaryTree type="DecisionTree" boostWeight="1.0000000000000000e+00" itree="34">
      <Node pos="s" depth="0" NCoef="0" IVar="2" Cut="5.2699613281250000e+04" cType="1" res="3.6570299416780472e-03" rms="4.8958724737167358e-01" purity="4.9382397532463074e-01" nType="0">
        <Node pos="l" depth="1" NCoef="0" IVar="1" Cut="7.1804023742675781e+01" cType="1" res="-1.5110999345779419e-01" rms="4.6264865994453430e-01" purity="3.2884293794631958e-01" nType="0">
          <Node pos="l" depth="2" NCoef="0" IVar="-1" Cut="0.0000000000000000e+00" cType="1" res="-1.4287848025560379e-03" rms="3.7246617674827576e-01" purity="1.6951003670692444e-01" nType="-99"/>
          <Node pos="r" depth="2" NCoef="0" IVar="-1" Cut="0.0000000000000000e+00" cType="1" res="-1.7569218471180648e-04" rms="4.9210864305496216e-01" purity="4.4136795401573181e-01" nType="-99"/>
        </Node>
        <Node pos="r" depth="1" NCoef="0" IVar="1" Cut="2.1932717895507812e+02" cType="1" res="2.7796655893325806e-01" rms="4.0922045707702637e-01" purity="7.8623682260513306e-01" nType="0">
          <Node pos="l" depth="2" NCoef="0" IVar="-1" Cut="0.0000000000000000e+00" cType="1" res="4.8257588059641421e-04" rms="4.4210615754127502e-01" purity="7.3225212097167969e-01" nType="-99"/>
          <Node pos="r" depth="2" NCoef="0" IVar="-1" Cut="0.0000000000000000e+00" cType="1" res="6.4891303190961480e-04" rms="2.9562065005302429e-01" purity="9.0314871072769165e-01" nType="-99"/>
        </Node>
      </Node>
    </BinaryTree>
    <BinaryTree type="DecisionTree" boostWeight="1.0000000000000000e+00" itree="35">
      <Node pos="s" depth="0" NCoef="0" IVar="2" Cut="3.6123000000000000e+04" cType="1" res="1.1805824935436249e-02" rms="4.8948633670806885e-01" purity="5.0204586982727051e-01" nType="0">
        <Node pos="l" depth="1" NCoef="0" IVar="0" Cut="3.7628732621669769e-02" cType="1" res="-1.8889130651950836e-01" rms="4.4631913304328918e-01" purity="2.8732699155807495e-01" nType="0">
          <Node pos="l" depth="2" NCoef="0" IVar="-1" Cut="0.0000000000000000e+00" cType="1" res="-2.1367425506468862e-04" rms="4.8031905293464661e-01" purity="3.7884664535522461e-01" nType="-99"/>
          <Node pos="r" depth="2" NCoef="0" IVar="-1" Cut="0.0000000000000000e+00" cType="1" res="-5.9101609513163567e-03" rms="3.0789190530776978e-01" purity="1.0833298414945602e-01" nType="-99"/>
        </Node>
        <Node pos="r" depth="1" NCoef="0" IVar="2" Cut="6.8805734375000000e+04" cType="1" res="2.2948184609413147e-01" rms="4.3856662511825562e-01" purity="7.3492985963821411e-01" nType="0">
          <Node pos="l" depth="2" NCoef="0" IVar="-1" Cut="0.0000000000000000e+00" cType="1" res="2.8748987824656069e-04" rms="4.8638483881950378e-01" purity="6.0413599014282227e-01" nType="-99"/>
          <Node pos="r" depth="2" NCoef="0" IVar="-1" Cut="0.0000000000000000e+00" cType="1" res="6.0981250135228038e-04" rms="3.5913938283920288e-01" purity="8.4775221347808838e-01" nType="-99"/>
        </Node>
      </Node>
    </BinaryTree>
    <BinaryTree type="DecisionTree" boostWeight="1.0000000000000000e+00" itree="36">
      <Node pos="s" depth="0" NCoef="0" IVar="1" Cut="1.0533761596679688e+02" cType="1" res="2.2289969027042389e-02" rms="4.8903656005859375e-01" purity="5.1205277442932129e-01" nType="0">
        <Node pos="l" depth="1" NCoef="0" IVar="0" Cut="2.4940703064203262e-02" cType="1" res="-2.1462374925613403e-01" rms="4.2984625697135925e-01" purity="2.5453963875770569e-01" nType="0">
          <Node pos="l" depth="2" NCoef="0" IVar="-1" Cut="0.0000000000000000e+00" cType="1" res="-1.3271335046738386e-04" rms="4.8332178592681885e-01" purity="3.8859009742736816e-01" nType="-99"/>
          <Node pos="r" depth="2" NCoef="0" IVar="-1" Cut="0.0000000000000000e+00" cType="1" res="-4.5231245458126068e-03" rms="3.2194420695304871e-01" purity="1.2054532021284103e-01" nType="-99"/>
        </Node>
        <Node pos="r" depth="1" NCoef="0" IVar="2" Cut="6.6204593750000000e+04" cType="1" res="1.8533244729042053e-01" rms="4.5975756645202637e-01" purity="6.8927162885665894e-01" nType="0">
          <Node pos="l" depth="2" NCoef="0" IVar="-1" Cut="0.0000000000000000e+00" cType="1" res="1.7633230891078711e-04" rms="4.9312099814414978e-01" purity="5.6767761707305908e-01" nType="-99"/>
          <Node pos="r" depth="2" NCoef="0" IVar="-1" Cut="0.0000000000000000e+00" cType="1" res="5.0854787696152925e-04" rms="3.7016624212265015e-01" purity="8.3595651388168335e-01" nType="-99"/>
        </Node>
      </Node>
    </BinaryTree>
    <BinaryTree type="DecisionTree" boostWeight="1.0000000000000000e+00" itree="37">
      <Node pos="s" depth="0" NCoef="0" IVar="1" Cut="1.3710118103027344e+02" cType="1" res="9.3216132372617722e-03" rms="4.8847323656082153e-01" purity="4.9859386682510376e-01" nType="0">
        <Node pos="l" depth="1" NCoef="0" IVar="1" Cut="6.4653755187988281e+01" cType="1" res="-1.8173180520534515e-01" rms="4.4707974791526794e-01" purity="2.9169434309005737e-01" nType="0">
          <Node pos="l" depth="2" NCoef="0" IVar="-1" Cut="0.0000000000000000e+00" cType="1" res="-1.9314375240355730e-03" rms="3.3787378668785095e-01" purity="1.3369525969028473e-01" nType="-99"/>
          <Node pos="r" depth="2" NCoef="0" IVar="-1" Cut="0.0000000000000000e+00" cType="1" res="-3.0907592736184597e-04" rms="4.8604708909988403e-01" purity="4.0986815094947815e-01" nType="-99"/>
        </Node>
        <Node pos="r" depth="1" NCoef="0" IVar="2" Cut="6.1173269531250000e+04" cType="1" res="2.2956030070781708e-01" rms="4.3893641233444214e-01" purity="7.3709923028945923e-01" nType="0">
          <Node pos="l" depth="2" NCoef="0" IVar="-1" Cut="0.0000000000000000e+00" cType="1" res="3.0830901232548058e-04" rms="4.8913213610649109e-01" purity="6.0010451078414917e-01" nType="-99"/>
          <Node pos="r" depth="2" NCoef="0" IVar="-1" Cut="0.0000000000000000e+00" cType="1" res="5.3313764510676265e-04" rms="3.8831737637519836e-01" purity="8.1472933292388916e-01" nType="-99"/>
        </Node>
      </Node>
    </BinaryTree>
    <BinaryTree type="DecisionTree" boostWeight="1.0000000000000000e+00" itree="38">
      <Node pos="s" depth="0" NCoef="0" IVar="2" Cut="4.4136394531250000e+04" cType="1" res="5.7609085924923420e-03" rms="4.8888155817985535e-01" purity="4.9415966868400574e-01" nType="0">
        <Node pos="l" depth="1" NCoef="0" IVar="0" Cut="3.8101427257061005e-02" cType="1" res="-1.4913374185562134e-01" rms="4.6153187751770020e-01" purity="3.2651495933532715e-01" nType="0">
          <Node pos="l" depth="2" NCoef="0" IVar="-1" Cut="0.0000000000000000e+00" cType="1" res="-1.7802987713366747e-04" rms="4.8721635341644287e-01" purity="4.1600993275642395e-01" nType="-99"/>
          <Node pos="r" depth="2" NCoef="0" IVar="-1" Cut="0.0000000000000000e+00" cType="1" res="-2.8991498984396458e-03" rms="3.7049236893653870e-01" purity="1.7048369348049164e-01" nType="-99"/>
        </Node>
        <Node pos="r" depth="1" NCoef="0" IVar="0" Cut="4.2839553207159042e-02" cType="1" res="2.4004393815994263e-01" rms="4.3260079622268677e-01" purity="7.4772757291793823e-01" nType="0">
          <Node pos="l" depth="2" NCoef="0" IVar="-1" Cut="0.0000000000000000e+00" cType="1" res="6.3111685449257493e-04" rms="3.2573595643043518e-01" purity="8.7891286611557007e-01" nType="-99"/>
          <Node pos="r" depth="2" NCoef="0" IVar="-1" Cut="0.0000000000000000e+00" cType="1" res="4.0057548903860152e-04" rms="4.6717110276222229e-01" purity="6.7221117019653320e-01" nType="-99"/>
        </Node>
      </Node>
    </BinaryTree>
    <BinaryTree type="DecisionTree" boostWeight="1.0000000000000000e+00" itree="39">
      <Node pos="s" depth="0" NCoef="0" IVar="1" Cut="1.0517140960693359e+02" cType="1" res="6.9272490218281746e-03" rms="4.8803588747978210e-01" purity="4.9586001038551331e-01" nType="0">
        <Node pos="l" depth="1" NCoef="0" IVar="0" Cut="3.7411056458950043e-02" cType="1" res="-2.4329318106174469e-01" rms="4.1042754054069519e-01" purity="2.2315241396427155e-01" nType="0">
          <Node pos="l" depth="2" NCoef="0" IVar="-1" Cut="0.0000000000000000e+00" cType="1" res="-5.7095882948487997e-04" rms="4.5250782370567322e-01" purity="2.9606935381889343e-01" nType="-99"/>
          <Node pos="r" depth="2" NCoef="0" IVar="-1" Cut="0.0000000000000000e+00" cType="1" res="-6.4140590839087963e-03" rms="2.8416958451271057e-01" purity="8.9811354875564575e-02" nType="-99"/>
        </Node>
        <Node pos="r" depth="1" NCoef="0" IVar="2" Cut="5.4184500000000000e+04" cType="1" res="1.7630617320537567e-01" rms="4.6293422579765320e-01" purity="6.8046092987060547e-01" nType="0">
          <Node pos="l" depth="2" NCoef="0" IVar="-1" Cut="0.0000000000000000e+00" cType="1" res="7.6920659921597689e-05" rms="4.9714475870132446e-01" purity="5.2034932374954224e-01" nType="-99"/>
          <Node pos="r" depth="2" NCoef="0" IVar="-1" Cut="0.0000000000000000e+00" cType="1" res="5.0405191723257303e-04" rms="4.0487214922904968e-01" purity="7.9232448339462280e-01" nType="-99"/>
        </Node>
      </Node>
    </BinaryTree>
    <BinaryTree type="DecisionTree" boostWeight="1.0000000000000000e+00" itree="40">
      <Node pos="s" depth="0" NCoef="0" IVar="1" Cut="1.3828833007812500e+02" cType="1" res="-2.7599565219134092e-03" rms="4.8753085732460022e-01" purity="4.8526680469512939e-01" nType="0">
        <Node pos="l" depth="1" NCoef="0" IVar="1" Cut="7.1862091064453125e+01" cType="1" res="-1.7750540375709534e-01" rms="4.4737356901168823e-01" purity="2.9443252086639404e-01" nType="0">
          <Node pos="l" depth="2" NCoef="0" IVar="-1" Cut="0.0000000000000000e+00" cType="1" res="-3.5203415900468826e-03" rms="3.4352320432662964e-01" purity="1.3927371799945831e-01" nType="-99"/>
          <Node pos="r" depth="2" NCoef="0" IVar="-1" Cut="0.0000000000000000e+00" cType="1" res="-2.0258319273125380e-04" rms="4.8868256807327271e-01" purity="4.3074738979339600e-01" nType="-99"/>
        </Node>
        <Node pos="r" depth="1" NCoef="0" IVar="2" Cut="6.2013781250000000e+04" cType="1" res="2.1517649292945862e-01" rms="4.4601491093635559e-01" purity="7.2326868772506714e-01" nType="0">
          <Node pos="l" depth="2" NCoef="0" IVar="-1" Cut="0.0000000000000000e+00" cType="1" res="2.2944207012187690e-04" rms="4.9249118566513062e-01" purity="5.8182245492935181e-01" nType="-99"/>
          <Node pos="r" depth="2" NCoef="0" IVar="-1" Cut="0.0000000000000000e+00" cType="1" res="5.6189717724919319e-04" rms="3.9551863074302673e-01" purity="8.0565690994262695e-01" nType="-99"/>
        </Node>
      </Node>
    </BinaryTree>
    <BinaryTree type="DecisionTree" boostWeight="1.0000000000000000e+00" itree="41">
      <Node pos="s" depth="0" NCoef="0" IVar="1" Cut="1.3951222229003906e+02" cType="1" res="7.5032538734376431e-03" rms="4.8756322264671326e-01" purity="4.9533611536026001e-01" nType="0">
        <Node pos="l" depth="1" NCoef="0" IVar="1" Cut="6.5975730895996094e+01" cType="1" res="-1.7299492657184601e-01" rms="4.4944876432418823e-01" purity="2.9798305034637451e-01" nType="0">
          <Node pos="l" depth="2" NCoef="0" IVar="-1" Cut="0.0000000000000000e+00" cType="1" res="-1.1317782336845994e-03" rms="3.6016795039176941e-01" purity="1.5618656575679779e-01" nType="-99"/>
          <Node pos="r" depth="2" NCoef="0" IVar="-1" Cut="0.0000000000000000e+00" cType="1" res="-3.0188218806870282e-04" rms="4.8485177755355835e-01" purity="4.0638533234596252e-01" nType="-99"/>
        </Node>
        <Node pos="r" depth="1" NCoef="0" IVar="2" Cut="6.6204593750000000e+04" cType="1" res="2.2799552977085114e-01" rms="4.3923753499984741e-01" purity="7.3641800880432129e-01" nType="0">
          <Node pos="l" depth="2" NCoef="0" IVar="-1" Cut="0.0000000000000000e+00" cType="1" res="2.8517917962744832e-04" rms="4.8784345388412476e-01" purity="6.0654145479202271e-01" nType="-99"/>
          <Node pos="r" depth="2" NCoef="0" IVar="-1" Cut="0.0000000000000000e+00" cType="1" res="5.9089006390422583e-04" rms="3.7518078088760376e-01" purity="8.3039700984954834e-01" nType="-99"/>
        </Node>
      </Node>
    </BinaryTree>
    <BinaryTree type="DecisionTree" boostWeight="1.0000000000000000e+00" itree="42">
      <Node pos="s" depth="0" NCoef="0" IVar="2" Cut="5.3826414062500000e+04" cType="1" res="1.6159564256668091e-02" rms="4.8715242743492126e-01" purity="5.0446128845214844e-01" nType="0">
        <Node pos="l" depth="1" NCoef="0" IVar="1" Cut="6.9904861450195312e+01" cType="1" res="-1.3595302402973175e-01" rms="4.6474555134773254e-01" purity="3.3972120285034180e-01" nType="0">
          <Node pos="l" depth="2" NCoef="0" IVar="-1" Cut="0.0000000000000000e+00" cType="1" res="-9.8116160370409489e-04" rms="3.7335467338562012e-01" purity="1.7126984894275665e-01" nType="-99"/>
          <Node pos="r" depth="2" NCoef="0" IVar="-1" Cut="0.0000000000000000e+00" cType="1" res="-1.4966622984502465e-04" rms="4.9160125851631165e-01" purity="4.4962409138679504e-01" nType="-99"/>
        </Node>
        <Node pos="r" depth="1" NCoef="0" IVar="2" Cut="6.9205679687500000e+04" cType="1" res="2.8522568941116333e-01" rms="4.0214514732360840e-01" purity="7.9586374759674072e-01" nType="0">
          <Node pos="l" depth="2" NCoef="0" IVar="-1" Cut="0.0000000000000000e+00" cType="1" res="4.1861869976855814e-04" rms="4.7160965204238892e-01" purity="6.6308426856994629e-01" nType="-99"/>
          <Node pos="r" depth="2" NCoef="0" IVar="-1" Cut="0.0000000000000000e+00" cType="1" res="6.0454418417066336e-04" rms="3.5490262508392334e-01" purity="8.5207200050354004e-01" nType="-99"/>
        </Node>
      </Node>
    </BinaryTree>
    <BinaryTree type="DecisionTree" boostWeight="1.0000000000000000e+00" itree="43">
      <Node pos="s" depth="0" NCoef="0" IVar="2" Cut="4.4136394531250000e+04" cType="1" res="1.4816154725849628e-02" rms="4.8732888698577881e-01" purity="5.0281536579132080e-01" nType="0">
        <Node pos="l" depth="1" NCoef="0" IVar="1" Cut="7.1804023742675781e+01" cType="1" res="-1.4988097548484802e-01" rms="4.5925709605216980e-01" purity="3.2356035709381104e-01" nType="0">
          <Node pos="l" depth="2" NCoef="0" IVar="-1" Cut="0.0000000000000000e+00" cType="1" res="-2.0548473112285137e-03" rms="3.7043380737304688e-01" purity="1.6748125851154327e-01" nType="-99"/>
          <Node pos="r" depth="2" NCoef="0" IVar="-1" Cut="0.0000000000000000e+00" cType="1" res="-1.5377550153061748e-04" rms="4.9126595258712769e-01" purity="4.4544696807861328e-01" nType="-99"/>
        </Node>
        <Node pos="r" depth="1" NCoef="0" IVar="1" Cut="2.1030009460449219e+02" cType="1" res="2.5063565373420715e-01" rms="4.2554330825805664e-01" purity="7.5947946310043335e-01" nType="0">
          <Node pos="l" depth="2" NCoef="0" IVar="-1" Cut="0.0000000000000000e+00" cType="1" res="4.7021106001920998e-04" rms="4.5992517471313477e-01" purity="6.9195330142974854e-01" nType="-99"/>
          <Node pos="r" depth="2" NCoef="0" IVar="-1" Cut="0.0000000000000000e+00" cType="1" res="6.2416936270892620e-04" rms="3.0642804503440857e-01" purity="8.9480489492416382e-01" nType="-99"/>
        </Node>
      </Node>
    </BinaryTree>
    <BinaryTree type="DecisionTree" boostWeight="1.0000000000000000e+00" itree="44">
      <Node pos="s" depth="0" NCoef="0" IVar="2" Cut="5.4184500000000000e+04" cType="1" res="1.5376432798802853e-02" rms="4.8673781752586365e-01" purity="5.0330293178558350e-01" nType="0">
        <Node pos="l" depth="1" NCoef="0" IVar="1" Cut="7.8370239257812500e+01" cType="1" res="-1.2706524133682251e-01" rms="4.6678015589714050e-01" purity="3.4852963685989380e-01" nType="0">
          <Node pos="l" depth="2" NCoef="0" IVar="-1" Cut="0.0000000000000000e+00" cType="1" res="-2.3117689415812492e-03" rms="3.8054430484771729e-01" purity="1.8160678446292877e-01" nType="-99"/>
          <Node pos="r" depth="2" NCoef="0" IVar="-1" Cut="0.0000000000000000e+00" cType="1" res="-3.1112558644963428e-05" rms="4.9419668316841125e-01" purity="4.8051628470420837e-01" nType="-99"/>
        </Node>
        <Node pos="r" depth="1" NCoef="0" IVar="0" Cut="4.2839553207159042e-02" cType="1" res="2.8245231509208679e-01" rms="4.0400791168212891e-01" purity="7.9350042343139648e-01" nType="0">
          <Node pos="l" depth="2" NCoef="0" IVar="-1" Cut="0.0000000000000000e+00" cType="1" res="6.1919738072901964e-04" rms="3.0129390954971313e-01" purity="8.9880681037902832e-01" nType="-99"/>
          <Node pos="r" depth="2" NCoef="0" IVar="-1" Cut="0.0000000000000000e+00" cType="1" res="4.8411579336971045e-04" rms="4.4111937284469604e-01" purity="7.3354971408843994e-01" nType="-99"/>
        </Node>
      </Node>
    </BinaryTree>
    <BinaryTree type="DecisionTree" boostWeight="1.0000000000000000e+00" itree="45">
      <Node pos="s" depth="0" NCoef="0" IVar="2" Cut="4.0782179687500000e+04" cType="1" res="-2.5452803820371628e-03" rms="4.8694095015525818e-01" purity="4.8405560851097107e-01" nType="0">
        <Node pos="l" depth="1" NCoef="0" IVar="1" Cut="7.8404129028320312e+01" cType="1" res="-1.6230323910713196e-01" rms="4.5367050170898438e-01" purity="3.0868113040924072e-01" nType="0">
          <Node pos="l" depth="2" NCoef="0" IVar="-1" Cut="0.0000000000000000e+00" cType="1" res="-1.5447438927367330e-03" rms="3.9195358753204346e-01" purity="1.9451877474784851e-01" nType="-99"/>
          <Node pos="r" depth="2" NCoef="0" IVar="-1" Cut="0.0000000000000000e+00" cType="1" res="-2.1729241416323930e-04" rms="4.9008640646934509e-01" purity="4.3283554911613464e-01" nType="-99"/>
        </Node>
        <Node pos="r" depth="1" NCoef="0" IVar="0" Cut="4.4180817902088165e-02" cType="1" res="2.2029162943363190e-01" rms="4.4216081500053406e-01" purity="7.2867500782012939e-01" nType="0">
          <Node pos="l" depth="2" NCoef="0" IVar="-1" Cut="0.0000000000000000e+00" cType="1" res="6.6112884087488055e-04" rms="3.4198203682899475e-01" purity="8.6401867866516113e-01" nType="-99"/>
          <Node pos="r" depth="2" NCoef="0" IVar="-1" Cut="0.0000000000000000e+00" cType="1" res="3.1270796898752451e-04" rms="4.7574806213378906e-01" purity="6.4355665445327759e-01" nType="-99"/>
        </Node>
      </Node>
    </BinaryTree>
    <BinaryTree type="DecisionTree" boostWeight="1.0000000000000000e+00" itree="46">
      <Node pos="s" depth="0" NCoef="0" IVar="1" Cut="1.3836579895019531e+02" cType="1" res="1.4682050794363022e-02" rms="4.8646470904350281e-01" purity="5.0200766324996948e-01" nType="0">
        <Node pos="l" depth="1" NCoef="0" IVar="1" Cut="7.1945259094238281e+01" cType="1" res="-1.6999702155590057e-01" rms="4.4905093312263489e-01" purity="2.9860618710517883e-01" nType="0">
          <Node pos="l" depth="2" NCoef="0" IVar="-1" Cut="0.0000000000000000e+00" cType="1" res="-2.0940823014825583e-03" rms="3.6606830358505249e-01" purity="1.6305753588676453e-01" nType="-99"/>
          <Node pos="r" depth="2" NCoef="0" IVar="-1" Cut="0.0000000000000000e+00" cType="1" res="-2.4998959270305932e-04" rms="4.8813036084175110e-01" purity="4.2442709207534790e-01" nType="-99"/>
        </Node>
        <Node pos="r" depth="1" NCoef="0" IVar="2" Cut="5.4721933593750000e+04" cType="1" res="2.3148342967033386e-01" rms="4.3668702244758606e-01" purity="7.4078798294067383e-01" nType="0">
          <Node pos="l" depth="2" NCoef="0" IVar="-1" Cut="0.0000000000000000e+00" cType="1" res="2.0992997451685369e-04" rms="4.9373590946197510e-01" purity="5.7287377119064331e-01" nType="-99"/>
          <Node pos="r" depth="2" NCoef="0" IVar="-1" Cut="0.0000000000000000e+00" cType="1" res="5.5794406216591597e-04" rms="3.9720472693443298e-01" purity="8.0329531431198120e-01" nType="-99"/>
        </Node>
      </Node>
    </BinaryTree>
    <BinaryTree type="DecisionTree" boostWeight="1.0000000000000000e+00" itree="47">
      <Node pos="s" depth="0" NCoef="0" IVar="2" Cut="4.4136394531250000e+04" cType="1" res="2.0829029381275177e-02" rms="4.8548537492752075e-01" purity="5.0890678167343140e-01" nType="0">
        <Node pos="l" depth="1" NCoef="0" IVar="1" Cut="7.8204040527343750e+01" cType="1" res="-1.6260534524917603e-01" rms="4.5231887698173523e-01" purity="3.0892291665077209e-01" nType="0">
          <Node pos="l" depth="2" NCoef="0" IVar="-1" Cut="0.0000000000000000e+00" cType="1" res="-3.5185217857360840e-03" rms="3.5835897922515869e-01" purity="1.5550096333026886e-01" nType="-99"/>
          <Node pos="r" depth="2" NCoef="0" IVar="-1" Cut="0.0000000000000000e+00" cType="1" res="-1.1728645040420815e-04" rms="4.9198892712593079e-01" purity="4.5080944895744324e-01" nType="-99"/>
        </Node>
        <Node pos="r" depth="1" NCoef="0" IVar="1" Cut="1.5687582397460938e+02" cType="1" res="2.6475867629051208e-01" rms="4.1570514440536499e-01" purity="7.7484393119812012e-01" nType="0">
          <Node pos="l" depth="2" NCoef="0" IVar="-1" Cut="0.0000000000000000e+00" cType="1" res="2.6069817249663174e-04" rms="4.9009531736373901e-01" purity="5.8313482999801636e-01" nType="-99"/>
          <Node pos="r" depth="2" NCoef="0" IVar="-1" Cut="0.0000000000000000e+00" cType="1" res="5.5853911908343434e-04" rms="3.8293826580047607e-01" purity="8.2088118791580200e-01" nType="-99"/>
        </Node>
      </Node>
    </BinaryTree>
    <BinaryTree type="DecisionTree" boostWeight="1.0000000000000000e+00" itree="48">
      <Node pos="s" depth="0" NCoef="0" IVar="1" Cut="1.3174255371093750e+02" cType="1" res="1.2009395286440849e-03" rms="4.8545485734939575e-01" purity="4.8802608251571655e-01" nType="0">
        <Node pos="l" depth="1" NCoef="0" IVar="1" Cut="6.8520759582519531e+01" cType="1" res="-2.0035837590694427e-01" rms="4.3238824605941772e-01" purity="2.6548057794570923e-01" nType="0">
          <Node pos="l" depth="2" NCoef="0" IVar="-1" Cut="0.0000000000000000e+00" cType="1" res="-4.6956967562437057e-03" rms="3.2458466291427612e-01" purity="1.2223285436630249e-01" nType="-99"/>
          <Node pos="r" depth="2" NCoef="0" IVar="-1" Cut="0.0000000000000000e+00" cType="1" res="-3.6550924414768815e-04" rms="4.8203903436660767e-01" purity="3.9452874660491943e-01" nType="-99"/>
        </Node>
        <Node pos="r" depth="1" NCoef="0" IVar="2" Cut="7.1581906250000000e+04" cType="1" res="2.1052211523056030e-01" rms="4.4748508930206299e-01" purity="7.1914166212081909e-01" nType="0">
          <Node pos="l" depth="2" NCoef="0" IVar="-1" Cut="0.0000000000000000e+00" cType="1" res="3.1154384487308562e-04" rms="4.8233446478843689e-01" purity="6.2660574913024902e-01" nType="-99"/>
          <Node pos="r" depth="2" NCoef="0" IVar="-1" Cut="0.0000000000000000e+00" cType="1" res="6.7942932946607471e-04" rms="3.6466315388679504e-01" purity="8.4195786714553833e-01" nType="-99"/>
        </Node>
      </Node>
    </BinaryTree>
    <BinaryTree type="DecisionTree" boostWeight="1.0000000000000000e+00" itree="49">
      <Node pos="s" depth="0" NCoef="0" IVar="1" Cut="1.3930560302734375e+02" cType="1" res="1.2738256715238094e-02" rms="4.8531854152679443e-01" purity="4.9901780486106873e-01" nType="0">
        <Node pos="l" depth="1" NCoef="0" IVar="1" Cut="6.5751342773437500e+01" cType="1" res="-1.7108570039272308e-01" rms="4.4682008028030396e-01" purity="2.9499304294586182e-01" nType="0">
          <Node pos="l" depth="2" NCoef="0" IVar="-1" Cut="0.0000000000000000e+00" cType="1" res="-3.2477220520377159e-03" rms="3.6008504033088684e-01" purity="1.5592859685420990e-01" nType="-99"/>
          <Node pos="r" depth="2" NCoef="0" IVar="-1" Cut="0.0000000000000000e+00" cType="1" res="-3.0373534536920488e-04" rms="4.8367029428482056e-01" purity="4.0375262498855591e-01" nType="-99"/>
        </Node>
        <Node pos="r" depth="1" NCoef="0" IVar="2" Cut="6.6204593750000000e+04" cType="1" res="2.3046697676181793e-01" rms="4.3658822774887085e-01" purity="7.4067324399948120e-01" nType="0">
          <Node pos="l" depth="2" NCoef="0" IVar="-1" Cut="0.0000000000000000e+00" cType="1" res="2.6576247182674706e-04" rms="4.8666241765022278e-01" purity="6.0994559526443481e-01" nType="-99"/>
          <Node pos="r" depth="2" NCoef="0" IVar="-1" Cut="0.0000000000000000e+00" cType="1" res="6.6230708034709096e-04" rms="3.7006139755249023e-01" purity="8.3609730005264282e-01" nType="-99"/>
        </Node>
      </Node>
    </BinaryTree>
    <BinaryTree type="DecisionTree" boostWeight="1.0000000000000000e+00" itree="50">
      <Node pos="s" depth="0" NCoef="0" IVar="1" Cut="1.3738525390625000e+02" cType="1" res="-3.5187939647585154e-04" rms="4.8499238491058350e-01" purity="4.8495516180992126e-01" nType="0">
        <Node pos="l" depth="1" NCoef="0" IVar="1" Cut="3.8627712249755859e+01" cType="1" res="-1.7922633886337280e-01" rms="4.4218289852142334e-01" purity="2.8572157025337219e-01" nType="0">
          <Node pos="l" depth="2" NCoef="0" IVar="-1" Cut="0.0000000000000000e+00" cType="1" res="-5.7150288484990597e-03" rms="2.7910909056663513e-01" purity="8.5808567702770233e-02" nType="-99"/>
          <Node pos="r" depth="2" NCoef="0" IVar="-1" Cut="0.0000000000000000e+00" cType="1" res="-5.0019979244098067e-04" rms="4.7119158506393433e-01" purity="3.6061146855354309e-01" nType="-99"/>
        </Node>
        <Node pos="r" depth="1" NCoef="0" IVar="2" Cut="7.3039820312500000e+04" cType="1" res="2.1474790573120117e-01" rms="4.4520115852355957e-01" purity="7.2453725337982178e-01" nType="0">
          <Node pos="l" depth="2" NCoef="0" IVar="-1" Cut="0.0000000000000000e+00" cType="1" res="3.1869430677033961e-04" rms="4.7779241204261780e-01" purity="6.4382940530776978e-01" nType="-99"/>
          <Node pos="r" depth="2" NCoef="0" IVar="-1" Cut="0.0000000000000000e+00" cType="1" res="5.8893405366688967e-04" rms="3.6519631743431091e-01" purity="8.4143400192260742e-01" nType="-99"/>
        </Node>
      </Node>
    </BinaryTree>
    <BinaryTree type="DecisionTree" boostWeight="1.0000000000000000e+00" itree="51">
      <Node pos="s" depth="0" NCoef="0" IVar="1" Cut="1.2372009277343750e+02" cType="1" res="2.2686479613184929e-02" rms="4.8496451973915100e-01" purity="5.0818222761154175e-01" nType="0">
        <Node pos="l" depth="1" NCoef="0" IVar="0" Cut="3.7411056458950043e-02" cType="1" res="-1.8587917089462280e-01" rms="4.3800958991050720e-01" purity="2.7457147836685181e-01" nType="0">
          <Node pos="l" depth="2" NCoef="0" IVar="-1" Cut="0.0000000000000000e+00" cType="1" res="-2.8522190405055881e-04" rms="4.7514045238494873e-01" purity="3.6803859472274780e-01" nType="-99"/>
          <Node pos="r" depth="2" NCoef="0" IVar="-1" Cut="0.0000000000000000e+00" cType="1" res="-4.9014436081051826e-03" rms="3.1613293290138245e-01" purity="1.1525127291679382e-01" nType="-99"/>
        </Node>
        <Node pos="r" depth="1" NCoef="0" IVar="2" Cut="6.1173269531250000e+04" cType="1" res="2.1229273080825806e-01" rms="4.4619873166084290e-01" purity="7.2055679559707642e-01" nType="0">
          <Node pos="l" depth="2" NCoef="0" IVar="-1" Cut="0.0000000000000000e+00" cType="1" res="2.1628166723530740e-04" rms="4.8986038565635681e-01" purity="5.9229111671447754e-01" nType="-99"/>
          <Node pos="r" depth="2" NCoef="0" IVar="-1" Cut="0.0000000000000000e+00" cType="1" res="5.0432642456144094e-04" rms="3.8696062564849854e-01" purity="8.1609100103378296e-01" nType="-99"/>
        </Node>
      </Node>
    </BinaryTree>
    <BinaryTree type="DecisionTree" boostWeight="1.0000000000000000e+00" itree="52">
      <Node pos="s" depth="0" NCoef="0" IVar="2" Cut="4.4136394531250000e+04" cType="1" res="1.4667761512100697e-02" rms="4.8469293117523193e-01" purity="4.9945062398910522e-01" nType="0">
        <Node pos="l" depth="1" NCoef="0" IVar="0" Cut="3.8101427257061005e-02" cType="1" res="-1.4614252746105194e-01" rms="4.5680648088455200e-01" purity="3.2055243849754333e-01" nType="0">
          <Node pos="l" depth="2" NCoef="0" IVar="-1" Cut="0.0000000000000000e+00" cType="1" res="-1.8144772911909968e-04" rms="4.8395103216171265e-01" purity="4.1396802663803101e-01" nType="-99"/>
          <Node pos="r" depth="2" NCoef="0" IVar="-1" Cut="0.0000000000000000e+00" cType="1" res="-2.8698067180812359e-03" rms="3.5826495289802551e-01" purity="1.5753680467605591e-01" nType="-99"/>
        </Node>
        <Node pos="r" depth="1" NCoef="0" IVar="0" Cut="4.2733144015073776e-02" cType="1" res="2.4759535491466522e-01" rms="4.2572796344757080e-01" purity="7.5857794284820557e-01" nType="0">
          <Node pos="l" depth="2" NCoef="0" IVar="-1" Cut="0.0000000000000000e+00" cType="1" res="5.8301544049754739e-04" rms="3.2038524746894836e-01" purity="8.8323444128036499e-01" nType="-99"/>
          <Node pos="r" depth="2" NCoef="0" IVar="-1" Cut="0.0000000000000000e+00" cType="1" res="4.1242007864639163e-04" rms="4.6199491620063782e-01" purity="6.8442767858505249e-01" nType="-99"/>
        </Node>
      </Node>
    </BinaryTree>
    <BinaryTree type="DecisionTree" boostWeight="1.0000000000000000e+00" itree="53">
      <Node pos="s" depth="0" NCoef="0" IVar="1" Cut="1.3938558959960938e+02" cType="1" res="1.8389642238616943e-02" rms="4.8396471142768860e-01" purity="5.0341868400573730e-01" nType="0">
        <Node pos="l" depth="1" NCoef="0" IVar="1" Cut="6.5837669372558594e+01" cType="1" res="-1.6568116843700409e-01" rms="4.4689172506332397e-01" purity="2.9731702804565430e-01" nType="0">
          <Node pos="l" depth="2" NCoef="0" IVar="-1" Cut="0.0000000000000000e+00" cType="1" res="-3.0768413562327623e-03" rms="3.4636268019676208e-01" purity="1.4210264384746552e-01" nType="-99"/>
          <Node pos="r" depth="2" NCoef="0" IVar="-1" Cut="0.0000000000000000e+00" cType="1" res="-2.3901622625999153e-04" rms="4.8565766215324402e-01" purity="4.1572526097297668e-01" nType="-99"/>
        </Node>
        <Node pos="r" depth="1" NCoef="0" IVar="2" Cut="6.6204593750000000e+04" cType="1" res="2.3444171249866486e-01" rms="4.3391239643096924e-01" purity="7.4532938003540039e-01" nType="0">
          <Node pos="l" depth="2" NCoef="0" IVar="-1" Cut="0.0000000000000000e+00" cType="1" res="3.1506433151662350e-04" rms="4.8459118604660034e-01" purity="6.1897474527359009e-01" nType="-99"/>
          <Node pos="r" depth="2" NCoef="0" IVar="-1" Cut="0.0000000000000000e+00" cType="1" res="5.4228806402534246e-04" rms="3.6927923560142517e-01" purity="8.3691471815109253e-01" nType="-99"/>
        </Node>
      </Node>
    </BinaryTree>
    <BinaryTree type="DecisionTree" boostWeight="1.0000000000000000e+00" itree="54">
      <Node pos="s" depth="0" NCoef="0" IVar="2" Cut="6.1173269531250000e+04" cType="1" res="2.1723933517932892e-02" rms="4.8373869061470032e-01" purity="5.0649589300155640e-01" nType="0">
        <Node pos="l" depth="1" NCoef="0" IVar="1" Cut="7.8370239257812500e+01" cType="1" res="-1.0871114581823349e-01" rms="4.6899214386940002e-01" purity="3.6263558268547058e-01" nType="0">
          <Node pos="l" depth="2" NCoef="0" IVar="-1" Cut="0.0000000000000000e+00" cType="1" res="-1.1172180529683828e-03" rms="3.7493276596069336e-01" purity="1.7522168159484863e-01" nType="-99"/>
          <Node pos="r" depth="2" NCoef="0" IVar="-1" Cut="0.0000000000000000e+00" cType="1" res="1.3857639714842662e-05" rms="4.9453833699226379e-01" purity="4.9380701780319214e-01" nType="-99"/>
        </Node>
        <Node pos="r" depth="1" NCoef="0" IVar="1" Cut="2.2627468872070312e+02" cType="1" res="3.1052029132843018e-01" rms="3.7952283024787903e-01" purity="8.2501703500747681e-01" nType="0">
          <Node pos="l" depth="2" NCoef="0" IVar="-1" Cut="0.0000000000000000e+00" cType="1" res="5.1211839308962226e-04" rms="4.1943952441215515e-01" purity="7.7158433198928833e-01" nType="-99"/>
          <Node pos="r" depth="2" NCoef="0" IVar="-1" Cut="0.0000000000000000e+00" cType="1" res="6.6663505276665092e-04" rms="2.6178428530693054e-01" purity="9.2595165967941284e-01" nType="-99"/>
        </Node>
      </Node>
    </BinaryTree>
    <BinaryTree type="DecisionTree" boostWeight="1.0000000000000000e+00" itree="55">
      <Node pos="s" depth="0" NCoef="0" IVar="2" Cut="3.5598781250000000e+04" cType="1" res="2.5633076205849648e-02" rms="4.8373904824256897e-01" purity="5.1036620140075684e-01" nType="0">
        <Node pos="l" depth="1" NCoef="0" IVar="0" Cut="3.7628732621669769e-02" cType="1" res="-1.5662498772144318e-01" rms="4.5070821046829224e-01" purity="3.0657893419265747e-01" nType="0">
          <Node pos="l" depth="2" NCoef="0" IVar="-1" Cut="0.0000000000000000e+00" cType="1" res="-2.2636522771790624e-04" rms="4.8072287440299988e-01" purity="3.9783900976181030e-01" nType="-99"/>
          <Node pos="r" depth="2" NCoef="0" IVar="-1" Cut="0.0000000000000000e+00" cType="1" res="-4.3255211785435677e-03" rms="3.2597362995147705e-01" purity="1.2471234798431396e-01" nType="-99"/>
        </Node>
        <Node pos="r" depth="1" NCoef="0" IVar="2" Cut="6.7807250000000000e+04" cType="1" res="2.2690360248088837e-01" rms="4.3691623210906982e-01" purity="7.3541164398193359e-01" nType="0">
          <Node pos="l" depth="2" NCoef="0" IVar="-1" Cut="0.0000000000000000e+00" cType="1" res="3.0564004555344582e-04" rms="4.8420882225036621e-01" purity="6.0714346170425415e-01" nType="-99"/>
          <Node pos="r" depth="2" NCoef="0" IVar="-1" Cut="0.0000000000000000e+00" cType="1" res="5.2721577230840921e-04" rms="3.6300319433212280e-01" purity="8.4363657236099243e-01" nType="-99"/>
        </Node>
      </Node>
    </BinaryTree>
    <BinaryTree type="DecisionTree" boostWeight="1.0000000000000000e+00" itree="56">
      <Node pos="s" depth="0" NCoef="0" IVar="1" Cut="1.3938558959960938e+02" cType="1" res="2.1714171394705772e-02" rms="4.8393306136131287e-01" purity="5.0529229640960693e-01" nType="0">
        <Node pos="l" depth="1" NCoef="0" IVar="0" Cut="3.8101427257061005e-02" cType="1" res="-1.4239089190959930e-01" rms="4.5572385191917419e-01" purity="3.1910160183906555e-01" nType="0">
          <Node pos="l" depth="2" NCoef="0" IVar="-1" Cut="0.0000000000000000e+00" cType="1" res="-1.2004478776361793e-04" rms="4.8528549075126648e-01" purity="4.2001351714134216e-01" nType="-99"/>
          <Node pos="r" depth="2" NCoef="0" IVar="-1" Cut="0.0000000000000000e+00" cType="1" res="-3.3603052143007517e-03" rms="3.4607112407684326e-01" purity="1.4654210209846497e-01" nType="-99"/>
        </Node>
        <Node pos="r" depth="1" NCoef="0" IVar="2" Cut="6.6204593750000000e+04" cType="1" res="2.2770573198795319e-01" rms="4.3729522824287415e-01" purity="7.3900669813156128e-01" nType="0">
          <Node pos="l" depth="2" NCoef="0" IVar="-1" Cut="0.0000000000000000e+00" cType="1" res="2.7473617228679359e-04" rms="4.8376071453094482e-01" purity="6.2150472402572632e-01" nType="-99"/>
          <Node pos="r" depth="2" NCoef="0" IVar="-1" Cut="0.0000000000000000e+00" cType="1" res="5.9714965755119920e-04" rms="3.7713876366615295e-01" purity="8.2807826995849609e-01" nType="-99"/>
        </Node>
      </Node>
    </BinaryTree>
    <BinaryTree type="DecisionTree" boostWeight="1.0000000000000000e+00" itree="57">
      <Node pos="s" depth="0" NCoef="0" IVar="1" Cut="1.5843783569335938e+02" cType="1" res="2.3075329139828682e-02" rms="4.8404741287231445e-01" purity="5.0627553462982178e-01" nType="0">
        <Node pos="l" depth="1" NCoef="0" IVar="0" Cut="3.6551970988512039e-02" cType="1" res="-1.0780087858438492e-01" rms="4.6835970878601074e-01" purity="3.5900849103927612e-01" nType="0">
          <Node pos="l" depth="2" NCoef="0" IVar="-1" Cut="0.0000000000000000e+00" cType="1" res="-1.4911953257978894e-05" rms="4.8912915587425232e-01" purity="4.6585506200790405e-01" nType="-99"/>
          <Node pos="r" depth="2" NCoef="0" IVar="-1" Cut="0.0000000000000000e+00" cType="1" res="-2.2626700811088085e-03" rms="3.9162430167198181e-01" purity="2.0226326584815979e-01" nType="-99"/>
        </Node>
        <Node pos="r" depth="1" NCoef="0" IVar="2" Cut="6.1580222656250000e+04" cType="1" res="2.5944074988365173e-01" rms="4.1771113872528076e-01" purity="7.7224320173263550e-01" nType="0">
          <Node pos="l" depth="2" NCoef="0" IVar="-1" Cut="0.0000000000000000e+00" cType="1" res="3.3107560011558235e-04" rms="4.8592025041580200e-01" purity="6.1241245269775391e-01" nType="-99"/>
          <Node pos="r" depth="2" NCoef="0" IVar="-1" Cut="0.0000000000000000e+00" cType="1" res="5.5389973567798734e-04" rms="3.7415117025375366e-01" purity="8.3143556118011475e-01" nType="-99"/>
        </Node>
      </Node>
    </BinaryTree>
    <BinaryTree type="DecisionTree" boostWeight="1.0000000000000000e+00" itree="58">
      <Node pos="s" depth="0" NCoef="0" IVar="2" Cut="4.4136394531250000e+04" cType="1" res="2.4066884070634842e-02" rms="4.8309215903282166e-01" purity="5.0767946243286133e-01" nType="0">
        <Node pos="l" depth="1" NCoef="0" IVar="0" Cut="3.8101427257061005e-02" cType="1" res="-1.4047266542911530e-01" rms="4.5692574977874756e-01" purity="3.2286432385444641e-01" nType="0">
          <Node pos="l" depth="2" NCoef="0" IVar="-1" Cut="0.0000000000000000e+00" cType="1" res="-9.8549222457222641e-05" rms="4.8505085706710815e-01" purity="4.1958427429199219e-01" nType="-99"/>
          <Node pos="r" depth="2" NCoef="0" IVar="-1" Cut="0.0000000000000000e+00" cType="1" res="-3.6459227558225393e-03" rms="3.4831938147544861e-01" purity="1.4787086844444275e-01" nType="-99"/>
        </Node>
        <Node pos="r" depth="1" NCoef="0" IVar="0" Cut="4.1265200823545456e-02" cType="1" res="2.5466144084930420e-01" rms="4.2039704322814941e-01" purity="7.6668924093246460e-01" nType="0">
          <Node pos="l" depth="2" NCoef="0" IVar="-1" Cut="0.0000000000000000e+00" cType="1" res="5.3452840074896812e-04" rms="3.0775710940361023e-01" purity="8.9346522092819214e-01" nType="-99"/>
          <Node pos="r" depth="2" NCoef="0" IVar="-1" Cut="0.0000000000000000e+00" cType="1" res="4.2967032641172409e-04" rms="4.5747485756874084e-01" purity="6.9438672065734863e-01" nType="-99"/>
        </Node>
      </Node>
    </BinaryTree>
    <BinaryTree type="DecisionTree" boostWeight="1.0000000000000000e+00" itree="59">
      <Node pos="s" depth="0" NCoef="0" IVar="1" Cut="1.3941770935058594e+02" cType="1" res="1.0540993884205818e-02" rms="4.8283571004867554e-01" purity="4.9345853924751282e-01" nType="0">
        <Node pos="l" depth="1" NCoef="0" IVar="0" Cut="2.5745216757059097e-02" cType="1" res="-1.6434024274349213e-01" rms="4.4540774822235107e-01" purity="2.9509016871452332e-01" nType="0">
          <Node pos="l" depth="2" NCoef="0" IVar="-1" Cut="0.0000000000000000e+00" cType="1" res="-1.0449962428538129e-04" rms="4.8523321747779846e-01" purity="4.2548185586929321e-01" nType="-99"/>
          <Node pos="r" depth="2" NCoef="0" IVar="-1" Cut="0.0000000000000000e+00" cType="1" res="-2.6720864698290825e-03" rms="3.7822687625885010e-01" purity="1.8386651575565338e-01" nType="-99"/>
        </Node>
        <Node pos="r" depth="1" NCoef="0" IVar="2" Cut="6.6204593750000000e+04" cType="1" res="2.2417314350605011e-01" rms="4.3883019685745239e-01" purity="7.3578214645385742e-01" nType="0">
          <Node pos="l" depth="2" NCoef="0" IVar="-1" Cut="0.0000000000000000e+00" cType="1" res="3.0241938657127321e-04" rms="4.8514893651008606e-01" purity="6.1540442705154419e-01" nType="-99"/>
          <Node pos="r" depth="2" NCoef="0" IVar="-1" Cut="0.0000000000000000e+00" cType="1" res="6.1207736143842340e-04" rms="3.7835082411766052e-01" purity="8.2663094997406006e-01" nType="-99"/>
        </Node>
      </Node>
    </BinaryTree>
    <BinaryTree type="DecisionTree" boostWeight="1.0000000000000000e+00" itree="60">
      <Node pos="s" depth="0" NCoef="0" IVar="2" Cut="5.4184500000000000e+04" cType="1" res="2.8431506827473640e-02" rms="4.8275578022003174e-01" purity="5.1127815246582031e-01" nType="0">
        <Node pos="l" depth="1" NCoef="0" IVar="1" Cut="7.8204040527343750e+01" cType="1" res="-9.9709875881671906e-02" rms="4.6948084235191345e-01" purity="3.6662104725837708e-01" nType="0">
          <Node pos="l" depth="2" NCoef="0" IVar="-1" Cut="0.0000000000000000e+00" cType="1" res="-8.8129297364503145e-04" rms="4.0021830797195435e-01" purity="2.0911057293415070e-01" nType="-99"/>
          <Node pos="r" depth="2" NCoef="0" IVar="-1" Cut="0.0000000000000000e+00" cType="1" res="2.4022616344154812e-05" rms="4.9285200238227844e-01" purity="4.9281907081604004e-01" nType="-99"/>
        </Node>
        <Node pos="r" depth="1" NCoef="0" IVar="0" Cut="4.1265200823545456e-02" cType="1" res="2.7606865763664246e-01" rms="4.0549397468566895e-01" purity="7.9083240032196045e-01" nType="0">
          <Node pos="l" depth="2" NCoef="0" IVar="-1" Cut="0.0000000000000000e+00" cType="1" res="6.0180650325492024e-04" rms="2.9572415351867676e-01" purity="9.0290051698684692e-01" nType="-99"/>
          <Node pos="r" depth="2" NCoef="0" IVar="-1" Cut="0.0000000000000000e+00" cType="1" res="5.2732403855770826e-04" rms="4.4188857078552246e-01" purity="7.3104172945022583e-01" nType="-99"/>
        </Node>
      </Node>
    </BinaryTree>
    <BinaryTree type="DecisionTree" boostWeight="1.0000000000000000e+00" itree="61">
      <Node pos="s" depth="0" NCoef="0" IVar="2" Cut="5.4184500000000000e+04" cType="1" res="1.3077784329652786e-02" rms="4.8326098918914795e-01" purity="4.9499949812889099e-01" nType="0">
        <Node pos="l" depth="1" NCoef="0" IVar="0" Cut="3.7411056458950043e-02" cType="1" res="-1.1704625934362411e-01" rms="4.6523511409759521e-01" purity="3.4803822636604309e-01" nType="0">
          <Node pos="l" depth="2" NCoef="0" IVar="-1" Cut="0.0000000000000000e+00" cType="1" res="-6.8968656705692410e-05" rms="4.8736011981964111e-01" purity="4.4037911295890808e-01" nType="-99"/>
          <Node pos="r" depth="2" NCoef="0" IVar="-1" Cut="0.0000000000000000e+00" cType="1" res="-2.0332983694970608e-03" rms="3.9705595374107361e-01" purity="2.0882692933082581e-01" nType="-99"/>
        </Node>
        <Node pos="r" depth="1" NCoef="0" IVar="1" Cut="2.1932717895507812e+02" cType="1" res="2.6836284995079041e-01" rms="4.1072478890419006e-01" purity="7.8331685066223145e-01" nType="0">
          <Node pos="l" depth="2" NCoef="0" IVar="-1" Cut="0.0000000000000000e+00" cType="1" res="4.5475072693079710e-04" rms="4.5072025060653687e-01" purity="7.1398937702178955e-01" nType="-99"/>
          <Node pos="r" depth="2" NCoef="0" IVar="-1" Cut="0.0000000000000000e+00" cType="1" res="6.7803228739649057e-04" rms="2.8458887338638306e-01" purity="9.1098147630691528e-01" nType="-99"/>
        </Node>
      </Node>
    </BinaryTree>
    <BinaryTree type="DecisionTree" boostWeight="1.0000000000000000e+00" itree="62">
      <Node pos="s" depth="0" NCoef="0" IVar="2" Cut="4.4136394531250000e+04" cType="1" res="2.7688380330801010e-02" rms="4.8261412978172302e-01" purity="5.1040196418762207e-01" nType="0">
        <Node pos="l" depth="1" NCoef="0" IVar="1" Cut="6.4366424560546875e+01" cType="1" res="-1.2852019071578979e-01" rms="4.6050602197647095e-01" purity="3.3309012651443481e-01" nType="0">
          <Node pos="l" depth="2" NCoef="0" IVar="-1" Cut="0.0000000000000000e+00" cType="1" res="-6.7521102027967572e-04" rms="3.8435593247413635e-01" purity="1.8357729911804199e-01" nType="-99"/>
          <Node pos="r" depth="2" NCoef="0" IVar="-1" Cut="0.0000000000000000e+00" cType="1" res="-1.6202857659664005e-04" rms="4.8716974258422852e-01" purity="4.3313851952552795e-01" nType="-99"/>
        </Node>
        <Node pos="r" depth="1" NCoef="0" IVar="1" Cut="2.0856367492675781e+02" cType="1" res="2.5060275197029114e-01" rms="4.2208868265151978e-01" purity="7.6343137025833130e-01" nType="0">
          <Node pos="l" depth="2" NCoef="0" IVar="-1" Cut="0.0000000000000000e+00" cType="1" res="4.0438637370243669e-04" rms="4.6003609895706177e-01" purity="6.8894904851913452e-01" nType="-99"/>
          <Node pos="r" depth="2" NCoef="0" IVar="-1" Cut="0.0000000000000000e+00" cType="1" res="5.4253067355602980e-04" rms="2.9770368337631226e-01" purity="9.0137684345245361e-01" nType="-99"/>
        </Node>
      </Node>
    </BinaryTree>
    <BinaryTree type="DecisionTree" boostWeight="1.0000000000000000e+00" itree="63">
      <Node pos="s" depth="0" NCoef="0" IVar="1" Cut="1.0554890441894531e+02" cType="1" res="1.3951327651739120e-02" rms="4.8153355717658997e-01" purity="4.9688225984573364e-01" nType="0">
        <Node pos="l" depth="1" NCoef="0" IVar="1" Cut="5.4910499572753906e+01" cType="1" res="-2.2748810052871704e-01" rms="4.0563246607780457e-01" purity="2.2142024338245392e-01" nType="0">
          <Node pos="l" depth="2" NCoef="0" IVar="-1" Cut="0.0000000000000000e+00" cType="1" res="-4.4321664609014988e-03" rms="3.1358835101127625e-01" purity="1.1221972107887268e-01" nType="-99"/>
          <Node pos="r" depth="2" NCoef="0" IVar="-1" Cut="0.0000000000000000e+00" cType="1" res="-6.1520584858953953e-04" rms="4.5778319239616394e-01" purity="3.2607832551002502e-01" nType="-99"/>
        </Node>
        <Node pos="r" depth="1" NCoef="0" IVar="2" Cut="6.6204593750000000e+04" cType="1" res="1.7843218147754669e-01" rms="4.5932748913764954e-01" purity="6.8454098701477051e-01" nType="0">
          <Node pos="l" depth="2" NCoef="0" IVar="-1" Cut="0.0000000000000000e+00" cType="1" res="2.0894288900308311e-04" rms="4.8983716964721680e-01" purity="5.7570385932922363e-01" nType="-99"/>
          <Node pos="r" depth="2" NCoef="0" IVar="-1" Cut="0.0000000000000000e+00" cType="1" res="6.1903835739940405e-04" rms="3.7876203656196594e-01" purity="8.2594716548919678e-01" nType="-99"/>
        </Node>
      </Node>
    </BinaryTree>
    <BinaryTree type="DecisionTree" boostWeight="1.0000000000000000e+00" itree="64">
      <Node pos="s" depth="0" NCoef="0" IVar="1" Cut="1.3729074096679688e+02" cType="1" res="2.6141000911593437e-02" rms="4.8222479224205017e-01" purity="5.0811755657196045e-01" nType="0">
        <Node pos="l" depth="1" NCoef="0" IVar="0" Cut="3.7411056458950043e-02" cType="1" res="-1.4401660859584808e-01" rms="4.5268359780311584e-01" purity="3.1261804699897766e-01" nType="0">
          <Node pos="l" depth="2" NCoef="0" IVar="-1" Cut="0.0000000000000000e+00" cType="1" res="-9.2651367594953626e-05" rms="4.8395276069641113e-01" purity="4.1399458050727844e-01" nType="-99"/>
          <Node pos="r" depth="2" NCoef="0" IVar="-1" Cut="0.0000000000000000e+00" cType="1" res="-3.8905262481421232e-03" rms="3.4464552998542786e-01" purity="1.4319315552711487e-01" nType="-99"/>
        </Node>
        <Node pos="r" depth="1" NCoef="0" IVar="2" Cut="6.2547605468750000e+04" cType="1" res="2.2848367691040039e-01" rms="4.3590176105499268e-01" purity="7.4059545993804932e-01" nType="0">
          <Node pos="l" depth="2" NCoef="0" IVar="-1" Cut="0.0000000000000000e+00" cType="1" res="2.8825059416703880e-04" rms="4.8542639613151550e-01" purity="6.1335784196853638e-01" nType="-99"/>
          <Node pos="r" depth="2" NCoef="0" IVar="-1" Cut="0.0000000000000000e+00" cType="1" res="5.5584422079846263e-04" rms="3.8365098834037781e-01" purity="8.2018840312957764e-01" nType="-99"/>
        </Node>
      </Node>
    </BinaryTree>
    <BinaryTree type="DecisionTree" boostWeight="1.0000000000000000e+00" itree="65">
      <Node pos="s" depth="0" NCoef="0" IVar="2" Cut="5.4184500000000000e+04" cType="1" res="2.2428335621953011e-02" rms="4.8120668530464172e-01" purity="5.0454020500183105e-01" nType="0">
        <Node pos="l" depth="1" NCoef="0" IVar="1" Cut="6.9904861450195312e+01" cType="1" res="-1.1384791880846024e-01" rms="4.6359044313430786e-01" purity="3.5032999515533447e-01" nType="0">
          <Node pos="l" depth="2" NCoef="0" IVar="-1" Cut="0.0000000000000000e+00" cType="1" res="-1.0975606273859739e-03" rms="3.7158766388893127e-01" purity="1.7079488933086395e-01" nType="-99"/>
          <Node pos="r" depth="2" NCoef="0" IVar="-1" Cut="0.0000000000000000e+00" cType="1" res="-6.1890976212453097e-05" rms="4.8976537585258484e-01" purity="4.6477422118186951e-01" nType="-99"/>
        </Node>
        <Node pos="r" depth="1" NCoef="0" IVar="1" Cut="2.3056416320800781e+02" cType="1" res="2.7860489487648010e-01" rms="4.0287739038467407e-01" purity="7.9442948102951050e-01" nType="0">
          <Node pos="l" depth="2" NCoef="0" IVar="-1" Cut="0.0000000000000000e+00" cType="1" res="5.2428501658141613e-04" rms="4.3717089295387268e-01" purity="7.4063879251480103e-01" nType="-99"/>
          <Node pos="r" depth="2" NCoef="0" IVar="-1" Cut="0.0000000000000000e+00" cType="1" res="7.3797616641968489e-04" rms="2.7240732312202454e-01" purity="9.1915041208267212e-01" nType="-99"/>
        </Node>
      </Node>
    </BinaryTree>
    <BinaryTree type="DecisionTree" boostWeight="1.0000000000000000e+00" itree="66">
      <Node pos="s" depth="0" NCoef="0" IVar="1" Cut="1.0525318145751953e+02" cType="1" res="1.4188230969011784e-02" rms="4.8137766122817993e-01" purity="4.9608886241912842e-01" nType="0">
        <Node pos="l" depth="1" NCoef="0" IVar="1" Cut="5.4601100921630859e+01" cType="1" res="-2.1165822446346283e-01" rms="4.1443485021591187e-01" purity="2.3520694673061371e-01" nType="0">
          <Node pos="l" depth="2" NCoef="0" IVar="-1" Cut="0.0000000000000000e+00" cType="1" res="-4.1453521698713303e-03" rms="3.3334070444107056e-01" purity="1.2868852913379669e-01" nType="-99"/>
          <Node pos="r" depth="2" NCoef="0" IVar="-1" Cut="0.0000000000000000e+00" cType="1" res="-6.8087747786194086e-04" rms="4.6028575301170349e-01" purity="3.3426347374916077e-01" nType="-99"/>
        </Node>
        <Node pos="r" depth="1" NCoef="0" IVar="2" Cut="7.1768554687500000e+04" cType="1" res="1.7121013998985291e-01" rms="4.6184328198432922e-01" purity="6.7746949195861816e-01" nType="0">
          <Node pos="l" depth="2" NCoef="0" IVar="-1" Cut="0.0000000000000000e+00" cType="1" res="2.5134914903901517e-04" rms="4.8745623230934143e-01" purity="5.8812141418457031e-01" nType="-99"/>
          <Node pos="r" depth="2" NCoef="0" IVar="-1" Cut="0.0000000000000000e+00" cType="1" res="6.2739918939769268e-04" rms="3.6373665928840637e-01" purity="8.4287130832672119e-01" nType="-99"/>
        </Node>
      </Node>
    </BinaryTree>
    <BinaryTree type="DecisionTree" boostWeight="1.0000000000000000e+00" itree="67">
      <Node pos="s" depth="0" NCoef="0" IVar="2" Cut="4.4136394531250000e+04" cType="1" res="1.2363287620246410e-02" rms="4.8089364171028137e-01" purity="4.9361726641654968e-01" nType="0">
        <Node pos="l" depth="1" NCoef="0" IVar="1" Cut="8.2890830993652344e+01" cType="1" res="-1.4252303540706635e-01" rms="4.5248171687126160e-01" purity="3.1662473082542419e-01" nType="0">
          <Node pos="l" depth="2" NCoef="0" IVar="-1" Cut="0.0000000000000000e+00" cType="1" res="-1.5660775825381279e-03" rms="3.8462311029434204e-01" purity="1.8872821331024170e-01" nType="-99"/>
          <Node pos="r" depth="2" NCoef="0" IVar="-1" Cut="0.0000000000000000e+00" cType="1" res="-7.6036099926568568e-05" rms="4.9099206924438477e-01" purity="4.6021339297294617e-01" nType="-99"/>
        </Node>
        <Node pos="r" depth="1" NCoef="0" IVar="1" Cut="2.5747207641601562e+02" cType="1" res="2.3926790058612823e-01" rms="4.2834362387657166e-01" purity="7.5290703773498535e-01" nType="0">
          <Node pos="l" depth="2" NCoef="0" IVar="-1" Cut="0.0000000000000000e+00" cType="1" res="4.1359459282830358e-04" rms="4.5530104637145996e-01" purity="7.0045834779739380e-01" nType="-99"/>
          <Node pos="r" depth="2" NCoef="0" IVar="-1" Cut="0.0000000000000000e+00" cType="1" res="7.2229671059176326e-04" rms="2.3991884291172028e-01" purity="9.3850266933441162e-01" nType="-99"/>
        </Node>
      </Node>
    </BinaryTree>
    <BinaryTree type="DecisionTree" boostWeight="1.0000000000000000e+00" itree="68">
      <Node pos="s" depth="0" NCoef="0" IVar="2" Cut="5.4184500000000000e+04" cType="1" res="1.3560253195464611e-02" rms="4.8132258653640747e-01" purity="4.9447163939476013e-01" nType="0">
        <Node pos="l" depth="1" NCoef="0" IVar="1" Cut="7.8285812377929688e+01" cType="1" res="-1.1780312657356262e-01" rms="4.6246039867401123e-01" purity="3.4451776742935181e-01" nType="0">
          <Node pos="l" depth="2" NCoef="0" IVar="-1" Cut="0.0000000000000000e+00" cType="1" res="-8.2725769607350230e-04" rms="3.9251914620399475e-01" purity="1.9778811931610107e-01" nType="-99"/>
          <Node pos="r" depth="2" NCoef="0" IVar="-1" Cut="0.0000000000000000e+00" cType="1" res="-6.3236460846383125e-05" rms="4.9125215411186218e-01" purity="4.6561399102210999e-01" nType="-99"/>
        </Node>
        <Node pos="r" depth="1" NCoef="0" IVar="1" Cut="2.3519653320312500e+02" cType="1" res="2.6628366112709045e-01" rms="4.1091570258140564e-01" purity="7.8296041488647461e-01" nType="0">
          <Node pos="l" depth="2" NCoef="0" IVar="-1" Cut="0.0000000000000000e+00" cType="1" res="4.8930553020909429e-04" rms="4.4355916976928711e-01" purity="7.2858071327209473e-01" nType="-99"/>
          <Node pos="r" depth="2" NCoef="0" IVar="-1" Cut="0.0000000000000000e+00" cType="1" res="6.1712670139968395e-04" rms="2.6922085881233215e-01" purity="9.2118090391159058e-01" nType="-99"/>
        </Node>
      </Node>
    </BinaryTree>
    <BinaryTree type="DecisionTree" boostWeight="1.0000000000000000e+00" itree="69">
      <Node pos="s" depth="0" NCoef="0" IVar="1" Cut="1.3938558959960938e+02" cType="1" res="2.3033648729324341e-02" rms="4.8148015141487122e-01" purity="5.0392323732376099e-01" nType="0">
        <Node pos="l" depth="1" NCoef="0" IVar="0" Cut="2.5745216757059097e-02" cType="1" res="-1.3912747800350189e-01" rms="4.5338317751884460e-01" purity="3.1524351239204407e-01" nType="0">
          <Node pos="l" depth="2" NCoef="0" IVar="-1" Cut="0.0000000000000000e+00" cType="1" res="-4.4638869439950213e-05" rms="4.8612210154533386e-01" purity="4.3545651435852051e-01" nType="-99"/>
          <Node pos="r" depth="2" NCoef="0" IVar="-1" Cut="0.0000000000000000e+00" cType="1" res="-1.7925470601767302e-03" rms="4.0162375569343567e-01" purity="2.1611203253269196e-01" nType="-99"/>
        </Node>
        <Node pos="r" depth="1" NCoef="0" IVar="2" Cut="6.6204593750000000e+04" cType="1" res="2.2315475344657898e-01" rms="4.3787941336631775e-01" purity="7.3677068948745728e-01" nType="0">
          <Node pos="l" depth="2" NCoef="0" IVar="-1" Cut="0.0000000000000000e+00" cType="1" res="2.4211491108871996e-04" rms="4.8811763525009155e-01" purity="6.0222476720809937e-01" nType="-99"/>
          <Node pos="r" depth="2" NCoef="0" IVar="-1" Cut="0.0000000000000000e+00" cType="1" res="5.2412884542718530e-04" rms="3.7324595451354980e-01" purity="8.3235073089599609e-01" nType="-99"/>
        </Node>
      </Node>
    </BinaryTree>
    <BinaryTree type="DecisionTree" boostWeight="1.0000000000000000e+00" itree="70">
      <Node pos="s" depth="0" NCoef="0" IVar="1" Cut="1.3941770935058594e+02" cType="1" res="1.8631495535373688e-02" rms="4.8011928796768188e-01" purity="5.0005477666854858e-01" nType="0">
        <Node pos="l" depth="1" NCoef="0" IVar="1" Cut="6.5873153686523438e+01" cType="1" res="-1.5530981123447418e-01" rms="4.4504213333129883e-01" purity="2.9929468035697937e-01" nType="0">
          <Node pos="l" depth="2" NCoef="0" IVar="-1" Cut="0.0000000000000000e+00" cType="1" res="-2.5918362662196159e-03" rms="3.4275496006011963e-01" purity="1.3978390395641327e-01" nType="-99"/>
          <Node pos="r" depth="2" NCoef="0" IVar="-1" Cut="0.0000000000000000e+00" cType="1" res="-2.0516544464044273e-04" rms="4.8381757736206055e-01" purity="4.1958063840866089e-01" nType="-99"/>
        </Node>
        <Node pos="r" depth="1" NCoef="0" IVar="1" Cut="2.5976443481445312e+02" cType="1" res="2.2835974395275116e-01" rms="4.3494474887847900e-01" purity="7.4211955070495605e-01" nType="0">
          <Node pos="l" depth="2" NCoef="0" IVar="-1" Cut="0.0000000000000000e+00" cType="1" res="4.1928875725716352e-04" rms="4.5916870236396790e-01" purity="6.9285976886749268e-01" nType="-99"/>
          <Node pos="r" depth="2" NCoef="0" IVar="-1" Cut="0.0000000000000000e+00" cType="1" res="6.3139514531940222e-04" rms="2.5102540850639343e-01" purity="9.3179631233215332e-01" nType="-99"/>
        </Node>
      </Node>
    </BinaryTree>
    <BinaryTree type="DecisionTree" boostWeight="1.0000000000000000e+00" itree="71">
      <Node pos="s" depth="0" NCoef="0" IVar="1" Cut="1.3938558959960938e+02" cType="1" res="2.0139534026384354e-02" rms="4.7976624965667725e-01" purity="5.0150191783905029e-01" nType="0">
        <Node pos="l" depth="1" NCoef="0" IVar="1" Cut="7.2524337768554688e+01" cType="1" res="-1.5655043721199036e-01" rms="4.4402989745140076e-01" purity="2.9720911383628845e-01" nType="0">
          <Node pos="l" depth="2" NCoef="0" IVar="-1" Cut="0.0000000000000000e+00" cType="1" res="-2.5629042647778988e-03" rms="3.4677156805992126e-01" purity="1.4383783936500549e-01" nType="-99"/>
          <Node pos="r" depth="2" NCoef="0" IVar="-1" Cut="0.0000000000000000e+00" cType="1" res="-1.4072422345634550e-04" rms="4.8686373233795166e-01" purity="4.3542358279228210e-01" nType="-99"/>
        </Node>
        <Node pos="r" depth="1" NCoef="0" IVar="2" Cut="6.6204593750000000e+04" cType="1" res="2.2974234819412231e-01" rms="4.3401634693145752e-01" purity="7.4384921789169312e-01" nType="0">
          <Node pos="l" depth="2" NCoef="0" IVar="-1" Cut="0.0000000000000000e+00" cType="1" res="3.2587119494564831e-04" rms="4.7992947697639465e-01" purity="6.3339459896087646e-01" nType="-99"/>
          <Node pos="r" depth="2" NCoef="0" IVar="-1" Cut="0.0000000000000000e+00" cType="1" res="5.3062051301822066e-04" rms="3.7588116526603699e-01" purity="8.2940006256103516e-01" nType="-99"/>
        </Node>
      </Node>
    </BinaryTree>
    <BinaryTree type="DecisionTree" boostWeight="1.0000000000000000e+00" itree="72">
      <Node pos="s" depth="0" NCoef="0" IVar="1" Cut="1.3930560302734375e+02" cType="1" res="1.5166924335062504e-02" rms="4.7994634509086609e-01" purity="4.9562796950340271e-01" nType="0">
        <Node pos="l" depth="1" NCoef="0" IVar="1" Cut="6.5751144409179688e+01" cType="1" res="-1.5186744928359985e-01" rms="4.4602322578430176e-01" purity="3.0117848515510559e-01" nType="0">
          <Node pos="l" depth="2" NCoef="0" IVar="-1" Cut="0.0000000000000000e+00" cType="1" res="-1.6837116563692689e-03" rms="3.6176502704620361e-01" purity="1.5906305611133575e-01" nType="-99"/>
          <Node pos="r" depth="2" NCoef="0" IVar="-1" Cut="0.0000000000000000e+00" cType="1" res="-2.5091951829381287e-04" rms="4.8209926486015320e-01" purity="4.1125601530075073e-01" nType="-99"/>
        </Node>
        <Node pos="r" depth="1" NCoef="0" IVar="2" Cut="6.6204593750000000e+04" cType="1" res="2.2110691666603088e-01" rms="4.3848186731338501e-01" purity="7.3536860942840576e-01" nType="0">
          <Node pos="l" depth="2" NCoef="0" IVar="-1" Cut="0.0000000000000000e+00" cType="1" res="2.4892840883694589e-04" rms="4.8805764317512512e-01" purity="6.0088437795639038e-01" nType="-99"/>
          <Node pos="r" depth="2" NCoef="0" IVar="-1" Cut="0.0000000000000000e+00" cType="1" res="6.4184272196143866e-04" rms="3.7253734469413757e-01" purity="8.3318156003952026e-01" nType="-99"/>
        </Node>
      </Node>
    </BinaryTree>
    <BinaryTree type="DecisionTree" boostWeight="1.0000000000000000e+00" itree="73">
      <Node pos="s" depth="0" NCoef="0" IVar="1" Cut="1.3922813415527344e+02" cType="1" res="1.8890712410211563e-02" rms="4.8036074638366699e-01" purity="4.9901941418647766e-01" nType="0">
        <Node pos="l" depth="1" NCoef="0" IVar="0" Cut="3.8617823272943497e-02" cType="1" res="-1.3931936025619507e-01" rms="4.5106884837150574e-01" purity="3.1369295716285706e-01" nType="0">
          <Node pos="l" depth="2" NCoef="0" IVar="-1" Cut="0.0000000000000000e+00" cType="1" res="-1.5299164806492627e-04" rms="4.7984614968299866e-01" purity="4.0831863880157471e-01" nType="-99"/>
          <Node pos="r" depth="2" NCoef="0" IVar="-1" Cut="0.0000000000000000e+00" cType="1" res="-3.1687982846051455e-03" rms="3.5124179720878601e-01" purity="1.4992545545101166e-01" nType="-99"/>
        </Node>
        <Node pos="r" depth="1" NCoef="0" IVar="2" Cut="6.6204593750000000e+04" cType="1" res="2.1765077114105225e-01" rms="4.4053512811660767e-01" purity="7.3184585571289062e-01" nType="0">
          <Node pos="l" depth="2" NCoef="0" IVar="-1" Cut="0.0000000000000000e+00" cType="1" res="2.7893652440980077e-04" rms="4.8442068696022034e-01" purity="6.1752438545227051e-01" nType="-99"/>
          <Node pos="r" depth="2" NCoef="0" IVar="-1" Cut="0.0000000000000000e+00" cType="1" res="5.9679360128939152e-04" rms="3.8289976119995117e-01" purity="8.2119822502136230e-01" nType="-99"/>
        </Node>
      </Node>
    </BinaryTree>
    <BinaryTree type="DecisionTree" boostWeight="1.0000000000000000e+00" itree="74">
      <Node pos="s" depth="0" NCoef="0" IVar="1" Cut="1.3474693298339844e+02" cType="1" res="2.5094954296946526e-02" rms="4.7907444834709167e-01" purity="5.0616025924682617e-01" nType="0">
        <Node pos="l" depth="1" NCoef="0" IVar="0" Cut="3.6551970988512039e-02" cType="1" res="-1.6366028785705566e-01" rms="4.3961733579635620e-01" purity="2.8684914112091064e-01" nType="0">
          <Node pos="l" depth="2" NCoef="0" IVar="-1" Cut="0.0000000000000000e+00" cType="1" res="-3.3588445512577891e-04" rms="4.7444713115692139e-01" purity="3.8091006875038147e-01" nType="-99"/>
          <Node pos="r" depth="2" NCoef="0" IVar="-1" Cut="0.0000000000000000e+00" cType="1" res="-3.1308743637055159e-03" rms="3.4162834286689758e-01" purity="1.4068657159805298e-01" nType="-99"/>
        </Node>
        <Node pos="r" depth="1" NCoef="0" IVar="2" Cut="6.1580222656250000e+04" cType="1" res="2.2751602530479431e-01" rms="4.3497508764266968e-01" purity="7.4134939908981323e-01" nType="0">
          <Node pos="l" depth="2" NCoef="0" IVar="-1" Cut="0.0000000000000000e+00" cType="1" res="2.8235124773345888e-04" rms="4.8741093277931213e-01" purity="6.0360306501388550e-01" nType="-99"/>
          <Node pos="r" depth="2" NCoef="0" IVar="-1" Cut="0.0000000000000000e+00" cType="1" res="4.9977225717157125e-04" rms="3.8201597332954407e-01" purity="8.2194602489471436e-01" nType="-99"/>
        </Node>
      </Node>
    </BinaryTree>
    <BinaryTree type="DecisionTree" boostWeight="1.0000000000000000e+00" itree="75">
      <Node pos="s" depth="0" NCoef="0" IVar="1" Cut="1.3844578552246094e+02" cType="1" res="2.0364196971058846e-02" rms="4.7914251685142517e-01" purity="5.0047308206558228e-01" nType="0">
        <Node pos="l" depth="1" NCoef="0" IVar="1" Cut="5.8749282836914062e+01" cType="1" res="-1.5520620346069336e-01" rms="4.4360458850860596e-01" purity="2.9543969035148621e-01" nType="0">
          <Node pos="l" depth="2" NCoef="0" IVar="-1" Cut="0.0000000000000000e+00" cType="1" res="-1.8021577270701528e-03" rms="3.5034966468811035e-01" purity="1.4573054015636444e-01" nType="-99"/>
          <Node pos="r" depth="2" NCoef="0" IVar="-1" Cut="0.0000000000000000e+00" cType="1" res="-2.8149847639724612e-04" rms="4.7751414775848389e-01" purity="3.9386010169982910e-01" nType="-99"/>
        </Node>
        <Node pos="r" depth="1" NCoef="0" IVar="2" Cut="7.2152898437500000e+04" cType="1" res="2.2701589763164520e-01" rms="4.3495807051658630e-01" purity="7.4180370569229126e-01" nType="0">
          <Node pos="l" depth="2" NCoef="0" IVar="-1" Cut="0.0000000000000000e+00" cType="1" res="3.2357414602302015e-04" rms="4.7738873958587646e-01" purity="6.4218956232070923e-01" nType="-99"/>
          <Node pos="r" depth="2" NCoef="0" IVar="-1" Cut="0.0000000000000000e+00" cType="1" res="5.7322124484926462e-04" rms="3.5003596544265747e-01" purity="8.5686153173446655e-01" nType="-99"/>
        </Node>
      </Node>
    </BinaryTree>
    <BinaryTree type="DecisionTree" boostWeight="1.0000000000000000e+00" itree="76">
      <Node pos="s" depth="0" NCoef="0" IVar="1" Cut="1.1882591247558594e+02" cType="1" res="1.9778238609433174e-02" rms="4.7937682271003723e-01" purity="4.9932903051376343e-01" nType="0">
        <Node pos="l" depth="1" NCoef="0" IVar="0" Cut="3.7699569016695023e-02" cType="1" res="-1.7060440778732300e-01" rms="4.3448287248611450e-01" purity="2.7423152327537537e-01" nType="0">
          <Node pos="l" depth="2" NCoef="0" IVar="-1" Cut="0.0000000000000000e+00" cType="1" res="-2.6438376517035067e-04" rms="4.7097843885421753e-01" purity="3.6202520132064819e-01" nType="-99"/>
          <Node pos="r" depth="2" NCoef="0" IVar="-1" Cut="0.0000000000000000e+00" cType="1" res="-3.4097973257303238e-03" rms="3.1899210810661316e-01" purity="1.1744266748428345e-01" nType="-99"/>
        </Node>
        <Node pos="r" depth="1" NCoef="0" IVar="2" Cut="6.1173269531250000e+04" cType="1" res="1.8973864614963531e-01" rms="4.5297235250473022e-01" purity="7.0028042793273926e-01" nType="0">
          <Node pos="l" depth="2" NCoef="0" IVar="-1" Cut="0.0000000000000000e+00" cType="1" res="1.6235696966759861e-04" rms="4.9283719062805176e-01" purity="5.5601787567138672e-01" nType="-99"/>
          <Node pos="r" depth="2" NCoef="0" IVar="-1" Cut="0.0000000000000000e+00" cType="1" res="5.1243155030533671e-04" rms="3.9004814624786377e-01" purity="8.1187945604324341e-01" nType="-99"/>
        </Node>
      </Node>
    </BinaryTree>
    <BinaryTree type="DecisionTree" boostWeight="1.0000000000000000e+00" itree="77">
      <Node pos="s" depth="0" NCoef="0" IVar="1" Cut="1.3836579895019531e+02" cType="1" res="2.6076424866914749e-02" rms="4.7877997159957886e-01" purity="5.0612771511077881e-01" nType="0">
        <Node pos="l" depth="1" NCoef="0" IVar="1" Cut="7.1945358276367188e+01" cType="1" res="-1.3694283366203308e-01" rms="4.4975557923316956e-01" purity="3.1409785151481628e-01" nType="0">
          <Node pos="l" depth="2" NCoef="0" IVar="-1" Cut="0.0000000000000000e+00" cType="1" res="-1.5547258080914617e-03" rms="3.7117633223533630e-01" purity="1.7168150842189789e-01" nType="-99"/>
          <Node pos="r" depth="2" NCoef="0" IVar="-1" Cut="0.0000000000000000e+00" cType="1" res="-1.0843158088391647e-04" rms="4.8566955327987671e-01" purity="4.4098666310310364e-01" nType="-99"/>
        </Node>
        <Node pos="r" depth="1" NCoef="0" IVar="2" Cut="7.2246000000000000e+04" cType="1" res="2.2316671907901764e-01" rms="4.3685114383697510e-01" purity="7.3829174041748047e-01" nType="0">
          <Node pos="l" depth="2" NCoef="0" IVar="-1" Cut="0.0000000000000000e+00" cType="1" res="3.4203880932182074e-04" rms="4.7543281316757202e-01" purity="6.4803057909011841e-01" nType="-99"/>
          <Node pos="r" depth="2" NCoef="0" IVar="-1" Cut="0.0000000000000000e+00" cType="1" res="5.6105497060343623e-04" rms="3.5706621408462524e-01" purity="8.4982645511627197e-01" nType="-99"/>
        </Node>
      </Node>
    </BinaryTree>
    <BinaryTree type="DecisionTree" boostWeight="1.0000000000000000e+00" itree="78">
      <Node pos="s" depth="0" NCoef="0" IVar="2" Cut="4.4136394531250000e+04" cType="1" res="1.7091656103730202e-02" rms="4.7945451736450195e-01" purity="4.9602356553077698e-01" nType="0">
        <Node pos="l" depth="1" NCoef="0" IVar="0" Cut="3.7411056458950043e-02" cType="1" res="-1.2705034017562866e-01" rms="4.5569348335266113e-01" purity="3.2746940851211548e-01" nType="0">
          <Node pos="l" depth="2" NCoef="0" IVar="-1" Cut="0.0000000000000000e+00" cType="1" res="-1.1694450222421438e-04" rms="4.8276317119598389e-01" purity="4.2204672098159790e-01" nType="-99"/>
          <Node pos="r" depth="2" NCoef="0" IVar="-1" Cut="0.0000000000000000e+00" cType="1" res="-2.6796220336109400e-03" rms="3.6505624651908875e-01" purity="1.6815792024135590e-01" nType="-99"/>
        </Node>
        <Node pos="r" depth="1" NCoef="0" IVar="0" Cut="4.4180817902088165e-02" cType="1" res="2.3264998197555542e-01" rms="4.3077769875526428e-01" purity="7.4808925390243530e-01" nType="0">
          <Node pos="l" depth="2" NCoef="0" IVar="-1" Cut="0.0000000000000000e+00" cType="1" res="6.3994148513302207e-04" rms="3.3466699719429016e-01" purity="8.7060701847076416e-01" nType="-99"/>
          <Node pos="r" depth="2" NCoef="0" IVar="-1" Cut="0.0000000000000000e+00" cType="1" res="3.8787894300185144e-04" rms="4.6587172150611877e-01" purity="6.6986310482025146e-01" nType="-99"/>
        </Node>
      </Node>
    </BinaryTree>
    <BinaryTree type="DecisionTree" boostWeight="1.0000000000000000e+00" itree="79">
      <Node pos="s" depth="0" NCoef="0" IVar="2" Cut="4.4136394531250000e+04" cType="1" res="2.6919262483716011e-02" rms="4.7832828760147095e-01" purity="5.0692307949066162e-01" nType="0">
        <Node pos="l" depth="1" NCoef="0" IVar="1" Cut="6.4450851440429688e+01" cType="1" res="-1.2619049847126007e-01" rms="4.5484435558319092e-01" purity="3.2857993245124817e-01" nType="0">
          <Node pos="l" depth="2" NCoef="0" IVar="-1" Cut="0.0000000000000000e+00" cType="1" res="-2.2189647424966097e-03" rms="3.5201033949851990e-01" purity="1.4814150333404541e-01" nType="-99"/>
          <Node pos="r" depth="2" NCoef="0" IVar="-1" Cut="0.0000000000000000e+00" cType="1" res="-1.0722142906161025e-04" rms="4.8586577177047729e-01" purity="4.4333004951477051e-01" nType="-99"/>
        </Node>
        <Node pos="r" depth="1" NCoef="0" IVar="2" Cut="6.4102890625000000e+04" cType="1" res="2.4502481520175934e-01" rms="4.2314442992210388e-01" purity="7.6097375154495239e-01" nType="0">
          <Node pos="l" depth="2" NCoef="0" IVar="-1" Cut="0.0000000000000000e+00" cType="1" res="3.0315603362396359e-04" rms="4.8537588119506836e-01" purity="6.0597831010818481e-01" nType="-99"/>
          <Node pos="r" depth="2" NCoef="0" IVar="-1" Cut="0.0000000000000000e+00" cType="1" res="5.4137880215421319e-04" rms="3.7673225998878479e-01" purity="8.2813131809234619e-01" nType="-99"/>
        </Node>
      </Node>
    </BinaryTree>
    <BinaryTree type="DecisionTree" boostWeight="1.0000000000000000e+00" itree="80">
      <Node pos="s" depth="0" NCoef="0" IVar="2" Cut="5.4184500000000000e+04" cType="1" res="2.0556142553687096e-02" rms="4.7856280207633972e-01" purity="4.9954369664192200e-01" nType="0">
        <Node pos="l" depth="1" NCoef="0" IVar="1" Cut="7.1623527526855469e+01" cType="1" res="-1.1805055290460587e-01" rms="4.5934170484542847e-01" purity="3.3889693021774292e-01" nType="0">
          <Node pos="l" depth="2" NCoef="0" IVar="-1" Cut="0.0000000000000000e+00" cType="1" res="-2.1345873828977346e-03" rms="3.7833112478256226e-01" purity="1.7839185893535614e-01" nType="-99"/>
          <Node pos="r" depth="2" NCoef="0" IVar="-1" Cut="0.0000000000000000e+00" cType="1" res="-1.1362864461261779e-04" rms="4.8840367794036865e-01" purity="4.4976025819778442e-01" nType="-99"/>
        </Node>
        <Node pos="r" depth="1" NCoef="0" IVar="0" Cut="3.9251808077096939e-02" cType="1" res="2.7431061863899231e-01" rms="4.0306693315505981e-01" purity="7.9364812374114990e-01" nType="0">
          <Node pos="l" depth="2" NCoef="0" IVar="-1" Cut="0.0000000000000000e+00" cType="1" res="7.0113118272274733e-04" rms="2.8268539905548096e-01" purity="9.1218137741088867e-01" nType="-99"/>
          <Node pos="r" depth="2" NCoef="0" IVar="-1" Cut="0.0000000000000000e+00" cType="1" res="5.0686992472037673e-04" rms="4.3812325596809387e-01" purity="7.3728656768798828e-01" nType="-99"/>
        </Node>
      </Node>
    </BinaryTree>
    <BinaryTree type="DecisionTree" boostWeight="1.0000000000000000e+00" itree="81">
      <Node pos="s" depth="0" NCoef="0" IVar="2" Cut="4.4136394531250000e+04" cType="1" res="1.2502937577664852e-02" rms="4.7754117846488953e-01" purity="4.9166741967201233e-01" nType="0">
        <Node pos="l" depth="1" NCoef="0" IVar="1" Cut="7.8285812377929688e+01" cType="1" res="-1.4470532536506653e-01" rms="4.4699966907501221e-01" purity="3.0836093425750732e-01" nType="0">
          <Node pos="l" depth="2" NCoef="0" IVar="-1" Cut="0.0000000000000000e+00" cType="1" res="-1.9614202901721001e-03" rms="3.6752021312713623e-01" purity="1.6842196881771088e-01" nType="-99"/>
          <Node pos="r" depth="2" NCoef="0" IVar="-1" Cut="0.0000000000000000e+00" cType="1" res="-1.3081928773317486e-04" rms="4.8768457770347595e-01" purity="4.4371342658996582e-01" nType="-99"/>
        </Node>
        <Node pos="r" depth="1" NCoef="0" IVar="0" Cut="3.9873994886875153e-02" cType="1" res="2.3778994381427765e-01" rms="4.2701187729835510e-01" purity="7.5435441732406616e-01" nType="0">
          <Node pos="l" depth="2" NCoef="0" IVar="-1" Cut="0.0000000000000000e+00" cType="1" res="6.1081006424501538e-04" rms="3.0729895830154419e-01" purity="8.9373964071273804e-01" nType="-99"/>
          <Node pos="r" depth="2" NCoef="0" IVar="-1" Cut="0.0000000000000000e+00" cType="1" res="3.8655046955682337e-04" rms="4.6080181002616882e-01" purity="6.8350780010223389e-01" nType="-99"/>
        </Node>
      </Node>
    </BinaryTree>
    <BinaryTree type="DecisionTree" boostWeight="1.0000000000000000e+00" itree="82">
      <Node pos="s" depth="0" NCoef="0" IVar="2" Cut="4.4136394531250000e+04" cType="1" res="2.3216756060719490e-02" rms="4.7813671827316284e-01" purity="5.0175595283508301e-01" nType="0">
        <Node pos="l" depth="1" NCoef="0" IVar="0" Cut="2.5400951504707336e-02" cType="1" res="-1.3253620266914368e-01" rms="4.5287352800369263e-01" purity="3.1911310553550720e-01" nType="0">
          <Node pos="l" depth="2" NCoef="0" IVar="-1" Cut="0.0000000000000000e+00" cType="1" res="-4.5732129365205765e-05" rms="4.8450666666030884e-01" purity="4.4085010886192322e-01" nType="-99"/>
          <Node pos="r" depth="2" NCoef="0" IVar="-1" Cut="0.0000000000000000e+00" cType="1" res="-1.7303242348134518e-03" rms="4.0302112698554993e-01" purity="2.2051638364791870e-01" nType="-99"/>
        </Node>
        <Node pos="r" depth="1" NCoef="0" IVar="0" Cut="4.1265200823545456e-02" cType="1" res="2.4557837843894958e-01" rms="4.2203724384307861e-01" purity="7.6250720024108887e-01" nType="0">
          <Node pos="l" depth="2" NCoef="0" IVar="-1" Cut="0.0000000000000000e+00" cType="1" res="6.7807524465024471e-04" rms="3.0862167477607727e-01" purity="8.9263474941253662e-01" nType="-99"/>
          <Node pos="r" depth="2" NCoef="0" IVar="-1" Cut="0.0000000000000000e+00" cType="1" res="3.6648687091656029e-04" rms="4.5752510428428650e-01" purity="6.9131398200988770e-01" nType="-99"/>
        </Node>
      </Node>
    </BinaryTree>
    <BinaryTree type="DecisionTree" boostWeight="1.0000000000000000e+00" itree="83">
      <Node pos="s" depth="0" NCoef="0" IVar="1" Cut="1.0554890441894531e+02" cType="1" res="1.8988519906997681e-02" rms="4.7800227999687195e-01" purity="4.9716505408287048e-01" nType="0">
        <Node pos="l" depth="1" NCoef="0" IVar="1" Cut="6.5036941528320312e+01" cType="1" res="-1.8949027359485626e-01" rms="4.2008960247039795e-01" purity="2.4686001241207123e-01" nType="0">
          <Node pos="l" depth="2" NCoef="0" IVar="-1" Cut="0.0000000000000000e+00" cType="1" res="-1.0394065175205469e-03" rms="3.5562917590141296e-01" purity="1.5264050662517548e-01" nType="-99"/>
          <Node pos="r" depth="2" NCoef="0" IVar="-1" Cut="0.0000000000000000e+00" cType="1" res="-4.4623346184380352e-04" rms="4.7187173366546631e-01" purity="3.6956998705863953e-01" nType="-99"/>
        </Node>
        <Node pos="r" depth="1" NCoef="0" IVar="2" Cut="7.1768554687500000e+04" cType="1" res="1.6816766560077667e-01" rms="4.6081233024597168e-01" purity="6.7627340555191040e-01" nType="0">
          <Node pos="l" depth="2" NCoef="0" IVar="-1" Cut="0.0000000000000000e+00" cType="1" res="2.3048066941555589e-04" rms="4.8771816492080688e-01" purity="5.7966053485870361e-01" nType="-99"/>
          <Node pos="r" depth="2" NCoef="0" IVar="-1" Cut="0.0000000000000000e+00" cType="1" res="5.9088872512802482e-04" rms="3.5830423235893250e-01" purity="8.4847688674926758e-01" nType="-99"/>
        </Node>
      </Node>
    </BinaryTree>
    <BinaryTree type="DecisionTree" boostWeight="1.0000000000000000e+00" itree="84">
      <Node pos="s" depth="0" NCoef="0" IVar="2" Cut="6.1173269531250000e+04" cType="1" res="2.3270606994628906e-02" rms="4.7931200265884399e-01" purity="5.0034207105636597e-01" nType="0">
        <Node pos="l" depth="1" NCoef="0" IVar="0" Cut="3.8101427257061005e-02" cType="1" res="-7.9351194202899933e-02" rms="4.7051581740379333e-01" purity="3.7991714477539062e-01" nType="0">
          <Node pos="l" depth="2" NCoef="0" IVar="-1" Cut="0.0000000000000000e+00" cType="1" res="1.6948109987424687e-05" rms="4.8650667071342468e-01" purity="4.7484210133552551e-01" nType="-99"/>
          <Node pos="r" depth="2" NCoef="0" IVar="-1" Cut="0.0000000000000000e+00" cType="1" res="-1.5048554632812738e-03" rms="4.1252383589744568e-01" purity="2.3823705315589905e-01" nType="-99"/>
        </Node>
        <Node pos="r" depth="1" NCoef="0" IVar="1" Cut="2.4399609375000000e+02" cType="1" res="2.8060838580131531e-01" rms="3.9756730198860168e-01" purity="8.0232363939285278e-01" nType="0">
          <Node pos="l" depth="2" NCoef="0" IVar="-1" Cut="0.0000000000000000e+00" cType="1" res="4.7546313726343215e-04" rms="4.2955148220062256e-01" purity="7.5505119562149048e-01" nType="-99"/>
          <Node pos="r" depth="2" NCoef="0" IVar="-1" Cut="0.0000000000000000e+00" cType="1" res="8.1263179890811443e-04" rms="2.6727128028869629e-01" purity="9.2251455783843994e-01" nType="-99"/>
        </Node>
      </Node>
    </BinaryTree>
    <BinaryTree type="DecisionTree" boostWeight="1.0000000000000000e+00" itree="85">
      <Node pos="s" depth="0" NCoef="0" IVar="1" Cut="1.3922813415527344e+02" cType="1" res="3.4351050853729248e-02" rms="4.7761359810829163e-01" purity="5.1295197010040283e-01" nType="0">
        <Node pos="l" depth="1" NCoef="0" IVar="0" Cut="3.7411056458950043e-02" cType="1" res="-1.2899512052536011e-01" rms="4.5162844657897949e-01" purity="3.1833249330520630e-01" nType="0">
          <Node pos="l" depth="2" NCoef="0" IVar="-1" Cut="0.0000000000000000e+00" cType="1" res="-8.9245942945126444e-05" rms="4.8193916678428650e-01" purity="4.1838449239730835e-01" nType="-99"/>
          <Node pos="r" depth="2" NCoef="0" IVar="-1" Cut="0.0000000000000000e+00" cType="1" res="-2.8962499927729368e-03" rms="3.5307595133781433e-01" purity="1.5517595410346985e-01" nType="-99"/>
        </Node>
        <Node pos="r" depth="1" NCoef="0" IVar="2" Cut="6.6204593750000000e+04" cType="1" res="2.3109310865402222e-01" rms="4.3168672919273376e-01" purity="7.4736112356185913e-01" nType="0">
          <Node pos="l" depth="2" NCoef="0" IVar="-1" Cut="0.0000000000000000e+00" cType="1" res="2.5325408205389977e-04" rms="4.7875446081161499e-01" purity="6.3781666755676270e-01" nType="-99"/>
          <Node pos="r" depth="2" NCoef="0" IVar="-1" Cut="0.0000000000000000e+00" cType="1" res="6.1067793285474181e-04" rms="3.7284818291664124e-01" purity="8.3277481794357300e-01" nType="-99"/>
        </Node>
      </Node>
    </BinaryTree>
    <BinaryTree type="DecisionTree" boostWeight="1.0000000000000000e+00" itree="86">
      <Node pos="s" depth="0" NCoef="0" IVar="1" Cut="1.0537150573730469e+02" cType="1" res="1.9802721217274666e-02" rms="4.7822433710098267e-01" purity="4.9735119938850403e-01" nType="0">
        <Node pos="l" depth="1" NCoef="0" IVar="0" Cut="1.2566522695124149e-02" cType="1" res="-1.8233270943164825e-01" rms="4.2399773001670837e-01" purity="2.5265306234359741e-01" nType="0">
          <Node pos="l" depth="2" NCoef="0" IVar="-1" Cut="0.0000000000000000e+00" cType="1" res="-4.4887652620673180e-05" rms="4.8449233174324036e-01" purity="4.1758868098258972e-01" nType="-99"/>
          <Node pos="r" depth="2" NCoef="0" IVar="-1" Cut="0.0000000000000000e+00" cType="1" res="-1.5196832828223705e-03" rms="3.8065016269683838e-01" purity="1.8746577203273773e-01" nType="-99"/>
        </Node>
        <Node pos="r" depth="1" NCoef="0" IVar="2" Cut="6.8965093750000000e+04" cType="1" res="1.6445371508598328e-01" rms="4.6211096644401550e-01" purity="6.7246055603027344e-01" nType="0">
          <Node pos="l" depth="2" NCoef="0" IVar="-1" Cut="0.0000000000000000e+00" cType="1" res="1.9053999858442694e-04" rms="4.8936781287193298e-01" purity="5.6958943605422974e-01" nType="-99"/>
          <Node pos="r" depth="2" NCoef="0" IVar="-1" Cut="0.0000000000000000e+00" cType="1" res="5.7458429364487529e-04" rms="3.7519454956054688e-01" purity="8.2997202873229980e-01" nType="-99"/>
        </Node>
      </Node>
    </BinaryTree>
    <BinaryTree type="DecisionTree" boostWeight="1.0000000000000000e+00" itree="87">
      <Node pos="s" depth="0" NCoef="0" IVar="2" Cut="4.4136394531250000e+04" cType="1" res="2.5862118229269981e-02" rms="4.7695538401603699e-01" purity="5.0424337387084961e-01" nType="0">
        <Node pos="l" depth="1" NCoef="0" IVar="0" Cut="3.8101427257061005e-02" cType="1" res="-1.2726590037345886e-01" rms="4.5278751850128174e-01" purity="3.2379651069641113e-01" nType="0">
          <Node pos="l" depth="2" NCoef="0" IVar="-1" Cut="0.0000000000000000e+00" cType="1" res="-1.3249545008875430e-04" rms="4.8017361760139465e-01" purity="4.1425907611846924e-01" nType="-99"/>
          <Node pos="r" depth="2" NCoef="0" IVar="-1" Cut="0.0000000000000000e+00" cType="1" res="-2.7812083717435598e-03" rms="3.6169293522834778e-01" purity="1.6561925411224365e-01" nType="-99"/>
        </Node>
        <Node pos="r" depth="1" NCoef="0" IVar="1" Cut="1.6310131835937500e+02" cType="1" res="2.4424596130847931e-01" rms="4.2237392067909241e-01" purity="7.6158821582794189e-01" nType="0">
          <Node pos="l" depth="2" NCoef="0" IVar="-1" Cut="0.0000000000000000e+00" cType="1" res="3.0280466307885945e-04" rms="4.8670366406440735e-01" purity="5.9405010938644409e-01" nType="-99"/>
          <Node pos="r" depth="2" NCoef="0" IVar="-1" Cut="0.0000000000000000e+00" cType="1" res="6.2191183678805828e-04" rms="3.8237851858139038e-01" purity="8.2106614112854004e-01" nType="-99"/>
        </Node>
      </Node>
    </BinaryTree>
    <BinaryTree type="DecisionTree" boostWeight="1.0000000000000000e+00" itree="88">
      <Node pos="s" depth="0" NCoef="0" IVar="2" Cut="4.4136394531250000e+04" cType="1" res="2.9650209471583366e-02" rms="4.7842496633529663e-01" purity="5.0641858577728271e-01" nType="0">
        <Node pos="l" depth="1" NCoef="0" IVar="1" Cut="3.1797121047973633e+01" cType="1" res="-1.0486446321010590e-01" rms="4.6141266822814941e-01" purity="3.4526541829109192e-01" nType="0">
          <Node pos="l" depth="2" NCoef="0" IVar="-1" Cut="0.0000000000000000e+00" cType="1" res="-2.4393007624894381e-03" rms="3.2858204841613770e-01" purity="1.2377330660820007e-01" nType="-99"/>
          <Node pos="r" depth="2" NCoef="0" IVar="-1" Cut="0.0000000000000000e+00" cType="1" res="-1.2733048060908914e-04" rms="4.7704887390136719e-01" purity="4.0400525927543640e-01" nType="-99"/>
        </Node>
        <Node pos="r" depth="1" NCoef="0" IVar="1" Cut="2.3230152893066406e+02" cType="1" res="2.3347589373588562e-01" rms="4.2913317680358887e-01" purity="7.5060880184173584e-01" nType="0">
          <Node pos="l" depth="2" NCoef="0" IVar="-1" Cut="0.0000000000000000e+00" cType="1" res="4.1954845073632896e-04" rms="4.6005532145500183e-01" purity="6.8855845928192139e-01" nType="-99"/>
          <Node pos="r" depth="2" NCoef="0" IVar="-1" Cut="0.0000000000000000e+00" cType="1" res="5.9375498676672578e-04" rms="2.7544739842414856e-01" purity="9.1689211130142212e-01" nType="-99"/>
        </Node>
      </Node>
    </BinaryTree>
    <BinaryTree type="DecisionTree" boostWeight="1.0000000000000000e+00" itree="89">
      <Node pos="s" depth="0" NCoef="0" IVar="2" Cut="4.4136394531250000e+04" cType="1" res="2.0523719489574432e-02" rms="4.7669067978858948e-01" purity="4.9832358956336975e-01" nType="0">
        <Node pos="l" depth="1" NCoef="0" IVar="1" Cut="7.8560157775878906e+01" cType="1" res="-1.2790898978710175e-01" rms="4.5173078775405884e-01" purity="3.2242053747177124e-01" nType="0">
          <Node pos="l" depth="2" NCoef="0" IVar="-1" Cut="0.0000000000000000e+00" cType="1" res="-9.8976609297096729e-04" rms="3.8222044706344604e-01" purity="1.8626146018505096e-01" nType="-99"/>
          <Node pos="r" depth="2" NCoef="0" IVar="-1" Cut="0.0000000000000000e+00" cType="1" res="-6.9845533289480954e-05" rms="4.8766157031059265e-01" purity="4.5598173141479492e-01" nType="-99"/>
        </Node>
        <Node pos="r" depth="1" NCoef="0" IVar="1" Cut="2.5781115722656250e+02" cType="1" res="2.3617556691169739e-01" rms="4.2706680297851562e-01" purity="7.5388598442077637e-01" nType="0">
          <Node pos="l" depth="2" NCoef="0" IVar="-1" Cut="0.0000000000000000e+00" cType="1" res="4.7004292719066143e-04" rms="4.5312523841857910e-01" purity="7.0417422056198120e-01" nType="-99"/>
          <Node pos="r" depth="2" NCoef="0" IVar="-1" Cut="0.0000000000000000e+00" cType="1" res="4.7331230598501861e-04" rms="2.4133704602718353e-01" purity="9.3762880563735962e-01" nType="-99"/>
        </Node>
      </Node>
    </BinaryTree>
    <BinaryTree type="DecisionTree" boostWeight="1.0000000000000000e+00" itree="90">
      <Node pos="s" depth="0" NCoef="0" IVar="1" Cut="1.3847789001464844e+02" cType="1" res="1.7760816961526871e-02" rms="4.7660636901855469e-01" purity="4.9511143565177917e-01" nType="0">
        <Node pos="l" depth="1" NCoef="0" IVar="1" Cut="5.2143157958984375e+01" cType="1" res="-1.4489772915840149e-01" rms="4.4349765777587891e-01" purity="2.9977035522460938e-01" nType="0">
          <Node pos="l" depth="2" NCoef="0" IVar="-1" Cut="0.0000000000000000e+00" cType="1" res="-2.1488794591277838e-03" rms="3.3650061488151550e-01" purity="1.3195322453975677e-01" nType="-99"/>
          <Node pos="r" depth="2" NCoef="0" IVar="-1" Cut="0.0000000000000000e+00" cType="1" res="-2.7370965108275414e-04" rms="4.7465518116950989e-01" purity="3.9264145493507385e-01" nType="-99"/>
        </Node>
        <Node pos="r" depth="1" NCoef="0" IVar="2" Cut="6.2013781250000000e+04" cType="1" res="2.1561399102210999e-01" rms="4.3918117880821228e-01" purity="7.3271870613098145e-01" nType="0">
          <Node pos="l" depth="2" NCoef="0" IVar="-1" Cut="0.0000000000000000e+00" cType="1" res="2.7122220490127802e-04" rms="4.8992428183555603e-01" purity="5.8926630020141602e-01" nType="-99"/>
          <Node pos="r" depth="2" NCoef="0" IVar="-1" Cut="0.0000000000000000e+00" cType="1" res="5.4148177150636911e-04" rms="3.8755288720130920e-01" purity="8.1524646282196045e-01" nType="-99"/>
        </Node>
      </Node>
    </BinaryTree>
    <BinaryTree type="DecisionTree" boostWeight="1.0000000000000000e+00" itree="91">
      <Node pos="s" depth="0" NCoef="0" IVar="2" Cut="4.4136394531250000e+04" cType="1" res="2.1049967035651207e-02" rms="4.7635689377784729e-01" purity="4.9847042560577393e-01" nType="0">
        <Node pos="l" depth="1" NCoef="0" IVar="1" Cut="7.1885795593261719e+01" cType="1" res="-1.2848961353302002e-01" rms="4.5129367709159851e-01" purity="3.2104530930519104e-01" nType="0">
          <Node pos="l" depth="2" NCoef="0" IVar="-1" Cut="0.0000000000000000e+00" cType="1" res="-7.4355618562549353e-04" rms="3.7033012509346008e-01" purity="1.7028203606605530e-01" nType="-99"/>
          <Node pos="r" depth="2" NCoef="0" IVar="-1" Cut="0.0000000000000000e+00" cType="1" res="-1.2362224515527487e-04" rms="4.8587831854820251e-01" purity="4.4142830371856689e-01" nType="-99"/>
        </Node>
        <Node pos="r" depth="1" NCoef="0" IVar="0" Cut="4.2839553207159042e-02" cType="1" res="2.3959092795848846e-01" rms="4.2479789257049561e-01" purity="7.5776404142379761e-01" nType="0">
          <Node pos="l" depth="2" NCoef="0" IVar="-1" Cut="0.0000000000000000e+00" cType="1" res="6.4447778277099133e-04" rms="3.1507685780525208e-01" purity="8.8739556074142456e-01" nType="-99"/>
          <Node pos="r" depth="2" NCoef="0" IVar="-1" Cut="0.0000000000000000e+00" cType="1" res="3.8612476782873273e-04" rms="4.6271905303001404e-01" purity="6.7786800861358643e-01" nType="-99"/>
        </Node>
      </Node>
    </BinaryTree>
    <BinaryTree type="DecisionTree" boostWeight="1.0000000000000000e+00" itree="92">
      <Node pos="s" depth="0" NCoef="0" IVar="1" Cut="1.3922813415527344e+02" cType="1" res="2.0078731700778008e-02" rms="4.7739338874816895e-01" purity="4.9641460180282593e-01" nType="0">
        <Node pos="l" depth="1" NCoef="0" IVar="1" Cut="7.9041328430175781e+01" cType="1" res="-1.3349828124046326e-01" rms="4.4904202222824097e-01" purity="3.1002542376518250e-01" nType="0">
          <Node pos="l" depth="2" NCoef="0" IVar="-1" Cut="0.0000000000000000e+00" cType="1" res="-9.0963736874982715e-04" rms="3.9742267131805420e-01" purity="2.0490379631519318e-01" nType="-99"/>
          <Node pos="r" depth="2" NCoef="0" IVar="-1" Cut="0.0000000000000000e+00" cType="1" res="-1.3180694077163935e-04" rms="4.8558676242828369e-01" purity="4.3557390570640564e-01" nType="-99"/>
        </Node>
        <Node pos="r" depth="1" NCoef="0" IVar="2" Cut="6.6204593750000000e+04" cType="1" res="2.1247459948062897e-01" rms="4.4073280692100525e-01" purity="7.2991633415222168e-01" nType="0">
          <Node pos="l" depth="2" NCoef="0" IVar="-1" Cut="0.0000000000000000e+00" cType="1" res="2.4935440160334110e-04" rms="4.8695322871208191e-01" purity="6.0464245080947876e-01" nType="-99"/>
          <Node pos="r" depth="2" NCoef="0" IVar="-1" Cut="0.0000000000000000e+00" cType="1" res="6.3556194072589278e-04" rms="3.7924146652221680e-01" purity="8.2544022798538208e-01" nType="-99"/>
        </Node>
      </Node>
    </BinaryTree>
    <BinaryTree type="DecisionTree" boostWeight="1.0000000000000000e+00" itree="93">
      <Node pos="s" depth="0" NCoef="0" IVar="2" Cut="5.3398167968750000e+04" cType="1" res="1.7482072114944458e-02" rms="4.7668546438217163e-01" purity="4.9425446987152100e-01" nType="0">
        <Node pos="l" depth="1" NCoef="0" IVar="1" Cut="7.8204040527343750e+01" cType="1" res="-1.0887365788221359e-01" rms="4.5928061008453369e-01" purity="3.4413486719131470e-01" nType="0">
          <Node pos="l" depth="2" NCoef="0" IVar="-1" Cut="0.0000000000000000e+00" cType="1" res="-1.1917549418285489e-03" rms="3.8581705093383789e-01" purity="1.9001622498035431e-01" nType="-99"/>
          <Node pos="r" depth="2" NCoef="0" IVar="-1" Cut="0.0000000000000000e+00" cType="1" res="-3.1367610063171014e-05" rms="4.8942071199417114e-01" purity="4.6989539265632629e-01" nType="-99"/>
        </Node>
        <Node pos="r" depth="1" NCoef="0" IVar="1" Cut="2.4236637878417969e+02" cType="1" res="2.5836801528930664e-01" rms="4.1209438443183899e-01" purity="7.8044414520263672e-01" nType="0">
          <Node pos="l" depth="2" NCoef="0" IVar="-1" Cut="0.0000000000000000e+00" cType="1" res="4.8248548409901559e-04" rms="4.4261878728866577e-01" purity="7.2942745685577393e-01" nType="-99"/>
          <Node pos="r" depth="2" NCoef="0" IVar="-1" Cut="0.0000000000000000e+00" cType="1" res="6.7711184965446591e-04" rms="2.6450493931770325e-01" purity="9.2412567138671875e-01" nType="-99"/>
        </Node>
      </Node>
    </BinaryTree>
    <BinaryTree type="DecisionTree" boostWeight="1.0000000000000000e+00" itree="94">
      <Node pos="s" depth="0" NCoef="0" IVar="2" Cut="6.1173269531250000e+04" cType="1" res="2.6879221200942993e-02" rms="4.7696396708488464e-01" purity="5.0372612476348877e-01" nType="0">
        <Node pos="l" depth="1" NCoef="0" IVar="1" Cut="7.8404129028320312e+01" cType="1" res="-8.3909898996353149e-02" rms="4.6719077229499817e-01" purity="3.7282317876815796e-01" nType="0">
          <Node pos="l" depth="2" NCoef="0" IVar="-1" Cut="0.0000000000000000e+00" cType="1" res="-5.0551182357594371e-04" rms="4.0640208125114441e-01" purity="2.2048474848270416e-01" nType="-99"/>
          <Node pos="r" depth="2" NCoef="0" IVar="-1" Cut="0.0000000000000000e+00" cType="1" res="1.4492020454781596e-05" rms="4.9005511403083801e-01" purity="4.8764422535896301e-01" nType="-99"/>
        </Node>
        <Node pos="r" depth="1" NCoef="0" IVar="1" Cut="2.2346327209472656e+02" cType="1" res="2.8715991973876953e-01" rms="3.9062845706939697e-01" purity="8.1126093864440918e-01" nType="0">
          <Node pos="l" depth="2" NCoef="0" IVar="-1" Cut="0.0000000000000000e+00" cType="1" res="5.3828628733754158e-04" rms="4.2911827564239502e-01" purity="7.5601387023925781e-01" nType="-99"/>
          <Node pos="r" depth="2" NCoef="0" IVar="-1" Cut="0.0000000000000000e+00" cType="1" res="5.8016483671963215e-04" rms="2.8048008680343628e-01" purity="9.1381728649139404e-01" nType="-99"/>
        </Node>
      </Node>
    </BinaryTree>
    <BinaryTree type="DecisionTree" boostWeight="1.0000000000000000e+00" itree="95">
      <Node pos="s" depth="0" NCoef="0" IVar="2" Cut="3.5884277343750000e+04" cType="1" res="1.6563031822443008e-02" rms="4.7554615139961243e-01" purity="4.9370977282524109e-01" nType="0">
        <Node pos="l" depth="1" NCoef="0" IVar="0" Cut="3.6551970988512039e-02" cType="1" res="-1.6028341650962830e-01" rms="4.3603208661079407e-01" purity="2.8426158428192139e-01" nType="0">
          <Node pos="l" depth="2" NCoef="0" IVar="-1" Cut="0.0000000000000000e+00" cType="1" res="-3.4166808472946286e-04" rms="4.7181373834609985e-01" purity="3.7589576840400696e-01" nType="-99"/>
          <Node pos="r" depth="2" NCoef="0" IVar="-1" Cut="0.0000000000000000e+00" cType="1" res="-4.0286872535943985e-03" rms="3.2372227311134338e-01" purity="1.2456506490707397e-01" nType="-99"/>
        </Node>
        <Node pos="r" depth="1" NCoef="0" IVar="0" Cut="4.2839553207159042e-02" cType="1" res="2.1362772583961487e-01" rms="4.3885952234268188e-01" purity="7.2710341215133667e-01" nType="0">
          <Node pos="l" depth="2" NCoef="0" IVar="-1" Cut="0.0000000000000000e+00" cType="1" res="5.1801180234178901e-04" rms="3.4113183617591858e-01" purity="8.6318546533584595e-01" nType="-99"/>
          <Node pos="r" depth="2" NCoef="0" IVar="-1" Cut="0.0000000000000000e+00" cType="1" res="3.4450026578269899e-04" rms="4.6947968006134033e-01" purity="6.4922243356704712e-01" nType="-99"/>
        </Node>
      </Node>
    </BinaryTree>
    <BinaryTree type="DecisionTree" boostWeight="1.0000000000000000e+00" itree="96">
      <Node pos="s" depth="0" NCoef="0" IVar="2" Cut="5.2699613281250000e+04" cType="1" res="2.7486508712172508e-02" rms="4.7678324580192566e-01" purity="5.0355434417724609e-01" nType="0">
        <Node pos="l" depth="1" NCoef="0" IVar="1" Cut="7.8370239257812500e+01" cType="1" res="-9.1723755002021790e-02" rms="4.6436050534248352e-01" purity="3.5995832085609436e-01" nType="0">
          <Node pos="l" depth="2" NCoef="0" IVar="-1" Cut="0.0000000000000000e+00" cType="1" res="-5.5364333093166351e-04" rms="4.0977829694747925e-01" purity="2.2377482056617737e-01" nType="-99"/>
          <Node pos="r" depth="2" NCoef="0" IVar="-1" Cut="0.0000000000000000e+00" cType="1" res="-8.9222048700321466e-06" rms="4.8915761709213257e-01" purity="4.7674223780632019e-01" nType="-99"/>
        </Node>
        <Node pos="r" depth="1" NCoef="0" IVar="0" Cut="4.2712874710559845e-02" cType="1" res="2.5672820210456848e-01" rms="4.1222018003463745e-01" purity="7.7968996763229370e-01" nType="0">
          <Node pos="l" depth="2" NCoef="0" IVar="-1" Cut="0.0000000000000000e+00" cType="1" res="6.8529922282323241e-04" rms="3.1383416056632996e-01" purity="8.8868343830108643e-01" nType="-99"/>
          <Node pos="r" depth="2" NCoef="0" IVar="-1" Cut="0.0000000000000000e+00" cType="1" res="3.9568482316099107e-04" rms="4.4646853208541870e-01" purity="7.1946156024932861e-01" nType="-99"/>
        </Node>
      </Node>
    </BinaryTree>
    <BinaryTree type="DecisionTree" boostWeight="1.0000000000000000e+00" itree="97">
      <Node pos="s" depth="0" NCoef="0" IVar="1" Cut="1.0525318145751953e+02" cType="1" res="3.2606311142444611e-02" rms="4.7602427005767822e-01" purity="5.0960010290145874e-01" nType="0">
        <Node pos="l" depth="1" NCoef="0" IVar="0" Cut="1.2566522695124149e-02" cType="1" res="-1.7251342535018921e-01" rms="4.2540746927261353e-01" purity="2.5879094004631042e-01" nType="0">
          <Node pos="l" depth="2" NCoef="0" IVar="-1" Cut="0.0000000000000000e+00" cType="1" res="5.7018532970687374e-06" rms="4.8851022124290466e-01" purity="4.4494235515594482e-01" nType="-99"/>
          <Node pos="r" depth="2" NCoef="0" IVar="-1" Cut="0.0000000000000000e+00" cType="1" res="-2.0583886653184891e-03" rms="3.7188720703125000e-01" purity="1.8073652684688568e-01" nType="-99"/>
        </Node>
        <Node pos="r" depth="1" NCoef="0" IVar="2" Cut="6.1173269531250000e+04" cType="1" res="1.7687894403934479e-01" rms="4.5638129115104675e-01" purity="6.8600875139236450e-01" nType="0">
          <Node pos="l" depth="2" NCoef="0" IVar="-1" Cut="0.0000000000000000e+00" cType="1" res="1.5044616884551942e-04" rms="4.9111089110374451e-01" purity="5.5503123998641968e-01" nType="-99"/>
          <Node pos="r" depth="2" NCoef="0" IVar="-1" Cut="0.0000000000000000e+00" cType="1" res="5.5717409122735262e-04" rms="3.8750484585762024e-01" purity="8.1498438119888306e-01" nType="-99"/>
        </Node>
      </Node>
    </BinaryTree>
    <BinaryTree type="DecisionTree" boostWeight="1.0000000000000000e+00" itree="98">
      <Node pos="s" depth="0" NCoef="0" IVar="1" Cut="1.3930560302734375e+02" cType="1" res="3.3036001026630402e-02" rms="4.7583228349685669e-01" purity="5.0966268777847290e-01" nType="0">
        <Node pos="l" depth="1" NCoef="0" IVar="0" Cut="3.7699569016695023e-02" cType="1" res="-1.2000293284654617e-01" rms="4.5226329565048218e-01" purity="3.2270884513854980e-01" nType="0">
          <Node pos="l" depth="2" NCoef="0" IVar="-1" Cut="0.0000000000000000e+00" cType="1" res="-6.9482674007304013e-05" rms="4.8097422719001770e-01" purity="4.2058548331260681e-01" nType="-99"/>
          <Node pos="r" depth="2" NCoef="0" IVar="-1" Cut="0.0000000000000000e+00" cType="1" res="-2.7523424942046404e-03" rms="3.6046576499938965e-01" purity="1.6258645057678223e-01" nType="-99"/>
        </Node>
        <Node pos="r" depth="1" NCoef="0" IVar="2" Cut="6.6204593750000000e+04" cType="1" res="2.2322276234626770e-01" rms="4.3396231532096863e-01" purity="7.4199676513671875e-01" nType="0">
          <Node pos="l" depth="2" NCoef="0" IVar="-1" Cut="0.0000000000000000e+00" cType="1" res="2.7296424377709627e-04" rms="4.8472484946250916e-01" purity="6.1350250244140625e-01" nType="-99"/>
          <Node pos="r" depth="2" NCoef="0" IVar="-1" Cut="0.0000000000000000e+00" cType="1" res="6.0109770856797695e-04" rms="3.6997321248054504e-01" purity="8.3589440584182739e-01" nType="-99"/>
        </Node>
      </Node>
    </BinaryTree>
    <BinaryTree type="DecisionTree" boostWeight="1.0000000000000000e+00" itree="99">
      <Node pos="s" depth="0" NCoef="0" IVar="1" Cut="1.3710118103027344e+02" cType="1" res="3.0461799353361130e-02" rms="4.7485485672950745e-01" purity="5.0775247812271118e-01" nType="0">
        <Node pos="l" depth="1" NCoef="0" IVar="1" Cut="5.8067726135253906e+01" cType="1" res="-1.3944563269615173e-01" rms="4.4331210851669312e-01" purity="3.0189111828804016e-01" nType="0">
          <Node pos="l" depth="2" NCoef="0" IVar="-1" Cut="0.0000000000000000e+00" cType="1" res="-3.0010356567800045e-03" rms="3.4163680672645569e-01" purity="1.3714414834976196e-01" nType="-99"/>
          <Node pos="r" depth="2" NCoef="0" IVar="-1" Cut="0.0000000000000000e+00" cType="1" res="-2.0375067833811045e-04" rms="4.7716441750526428e-01" purity="4.0683552622795105e-01" nType="-99"/>
        </Node>
        <Node pos="r" depth="1" NCoef="0" IVar="2" Cut="7.2043328125000000e+04" cType="1" res="2.2422800958156586e-01" rms="4.3364483118057251e-01" purity="7.4252128601074219e-01" nType="0">
          <Node pos="l" depth="2" NCoef="0" IVar="-1" Cut="0.0000000000000000e+00" cType="1" res="3.2303662737831473e-04" rms="4.7605153918266296e-01" purity="6.4512521028518677e-01" nType="-99"/>
          <Node pos="r" depth="2" NCoef="0" IVar="-1" Cut="0.0000000000000000e+00" cType="1" res="4.6188407577574253e-04" rms="3.4894576668739319e-01" purity="8.5780721902847290e-01" nType="-99"/>
        </Node>
      </Node>
    </BinaryTree>
    <BinaryTree type="DecisionTree" boostWeight="1.0000000000000000e+00" itree="100">
      <Node pos="s" depth="0" NCoef="0" IVar="1" Cut="1.3836579895019531e+02" cType="1" res="2.2778531536459923e-02" rms="4.7545146942138672e-01" purity="4.9889287352561951e-01" nType="0">
        <Node pos="l" depth="1" NCoef="0" IVar="1" Cut="5.8661670684814453e+01" cType="1" res="-1.3418881595134735e-01" rms="4.4598940014839172e-01" purity="3.0670204758644104e-01" nType="0">
          <Node pos="l" depth="2" NCoef="0" IVar="-1" Cut="0.0000000000000000e+00" cType="1" res="-1.9926633685827255e-03" rms="3.4263554215431213e-01" purity="1.3991704583168030e-01" nType="-99"/>
          <Node pos="r" depth="2" NCoef="0" IVar="-1" Cut="0.0000000000000000e+00" cType="1" res="-1.9168373546563089e-04" rms="4.8003196716308594e-01" purity="4.1199454665184021e-01" nType="-99"/>
        </Node>
        <Node pos="r" depth="1" NCoef="0" IVar="2" Cut="7.2246000000000000e+04" cType="1" res="2.1356257796287537e-01" rms="4.3898159265518188e-01" purity="7.3248887062072754e-01" nType="0">
          <Node pos="l" depth="2" NCoef="0" IVar="-1" Cut="0.0000000000000000e+00" cType="1" res="3.2036320772022009e-04" rms="4.7838789224624634e-01" purity="6.3595134019851685e-01" nType="-99"/>
          <Node pos="r" depth="2" NCoef="0" IVar="-1" Cut="0.0000000000000000e+00" cType="1" res="6.1388977337628603e-04" rms="3.5724082589149475e-01" purity="8.4953886270523071e-01" nType="-99"/>
        </Node>
      </Node>
    </BinaryTree>
    <BinaryTree type="DecisionTree" boostWeight="1.0000000000000000e+00" itree="101">
      <Node pos="s" depth="0" NCoef="0" IVar="1" Cut="1.3938558959960938e+02" cType="1" res="3.3464804291725159e-02" rms="4.7384312748908997e-01" purity="5.1115822792053223e-01" nType="0">
        <Node pos="l" depth="1" NCoef="0" IVar="1" Cut="7.2524055480957031e+01" cType="1" res="-1.3457424938678741e-01" rms="4.4453904032707214e-01" purity="3.0705562233924866e-01" nType="0">
          <Node pos="l" depth="2" NCoef="0" IVar="-1" Cut="0.0000000000000000e+00" cType="1" res="-2.7449196204543114e-03" rms="3.6279529333114624e-01" purity="1.6131874918937683e-01" nType="-99"/>
          <Node pos="r" depth="2" NCoef="0" IVar="-1" Cut="0.0000000000000000e+00" cType="1" res="-9.5404597232118249e-05" rms="4.8308628797531128e-01" purity="4.3728861212730408e-01" nType="-99"/>
        </Node>
        <Node pos="r" depth="1" NCoef="0" IVar="2" Cut="6.6204593750000000e+04" cType="1" res="2.2992850840091705e-01" rms="4.2939546704292297e-01" purity="7.4978584051132202e-01" nType="0">
          <Node pos="l" depth="2" NCoef="0" IVar="-1" Cut="0.0000000000000000e+00" cType="1" res="2.4063682940322906e-04" rms="4.8461243510246277e-01" purity="6.1338323354721069e-01" nType="-99"/>
          <Node pos="r" depth="2" NCoef="0" IVar="-1" Cut="0.0000000000000000e+00" cType="1" res="5.7776324683800340e-04" rms="3.6303183436393738e-01" purity="8.4335768222808838e-01" nType="-99"/>
        </Node>
      </Node>
    </BinaryTree>
    <BinaryTree type="DecisionTree" boostWeight="1.0000000000000000e+00" itree="102">
      <Node pos="s" depth="0" NCoef="0" IVar="1" Cut="1.3938558959960938e+02" cType="1" res="2.7473712339997292e-02" rms="4.7400057315826416e-01" purity="5.0427764654159546e-01" nType="0">
        <Node pos="l" depth="1" NCoef="0" IVar="1" Cut="7.2524337768554688e+01" cType="1" res="-1.3908086717128754e-01" rms="4.4261607527732849e-01" purity="3.0141815543174744e-01" nType="0">
          <Node pos="l" depth="2" NCoef="0" IVar="-1" Cut="0.0000000000000000e+00" cType="1" res="-2.0587816834449768e-03" rms="3.5325485467910767e-01" purity="1.5124268829822540e-01" nType="-99"/>
          <Node pos="r" depth="2" NCoef="0" IVar="-1" Cut="0.0000000000000000e+00" cType="1" res="-1.1102423013653606e-04" rms="4.8412230610847473e-01" purity="4.3463054299354553e-01" nType="-99"/>
        </Node>
        <Node pos="r" depth="1" NCoef="0" IVar="2" Cut="6.6204593750000000e+04" cType="1" res="2.2505533695220947e-01" rms="4.3226906657218933e-01" purity="7.4492740631103516e-01" nType="0">
          <Node pos="l" depth="2" NCoef="0" IVar="-1" Cut="0.0000000000000000e+00" cType="1" res="2.9365203226916492e-04" rms="4.8140841722488403e-01" purity="6.2551683187484741e-01" nType="-99"/>
          <Node pos="r" depth="2" NCoef="0" IVar="-1" Cut="0.0000000000000000e+00" cType="1" res="6.2717800028622150e-04" rms="3.7156698107719421e-01" purity="8.3407020568847656e-01" nType="-99"/>
        </Node>
      </Node>
    </BinaryTree>
    <BinaryTree type="DecisionTree" boostWeight="1.0000000000000000e+00" itree="103">
      <Node pos="s" depth="0" NCoef="0" IVar="1" Cut="1.3828833007812500e+02" cType="1" res="2.7256768196821213e-02" rms="4.7426658868789673e-01" purity="5.0330370664596558e-01" nType="0">
        <Node pos="l" depth="1" NCoef="0" IVar="0" Cut="2.5133045390248299e-02" cType="1" res="-1.4118042588233948e-01" rms="4.4178125262260437e-01" purity="2.9735910892486572e-01" nType="0">
          <Node pos="l" depth="2" NCoef="0" IVar="-1" Cut="0.0000000000000000e+00" cType="1" res="-7.5710857345256954e-05" rms="4.8066100478172302e-01" purity="4.2370459437370300e-01" nType="-99"/>
          <Node pos="r" depth="2" NCoef="0" IVar="-1" Cut="0.0000000000000000e+00" cType="1" res="-2.1659939084202051e-03" rms="3.8309091329574585e-01" purity="1.9546385109424591e-01" nType="-99"/>
        </Node>
        <Node pos="r" depth="1" NCoef="0" IVar="2" Cut="6.1173269531250000e+04" cType="1" res="2.2220739722251892e-01" rms="4.3419852852821350e-01" purity="7.4166566133499146e-01" nType="0">
          <Node pos="l" depth="2" NCoef="0" IVar="-1" Cut="0.0000000000000000e+00" cType="1" res="2.3071223404258490e-04" rms="4.8708283901214600e-01" purity="6.0457742214202881e-01" nType="-99"/>
          <Node pos="r" depth="2" NCoef="0" IVar="-1" Cut="0.0000000000000000e+00" cType="1" res="5.7452276814728975e-04" rms="3.8459703326225281e-01" purity="8.1872981786727905e-01" nType="-99"/>
        </Node>
      </Node>
    </BinaryTree>
    <BinaryTree type="DecisionTree" boostWeight="1.0000000000000000e+00" itree="104">
      <Node pos="s" depth="0" NCoef="0" IVar="2" Cut="3.6123000000000000e+04" cType="1" res="2.1941926330327988e-02" rms="4.7434422373771667e-01" purity="4.9725973606109619e-01" nType="0">
        <Node pos="l" depth="1" NCoef="0" IVar="0" Cut="3.6551970988512039e-02" cType="1" res="-1.3863028585910797e-01" rms="4.4338828325271606e-01" purity="3.0200532078742981e-01" nType="0">
          <Node pos="l" depth="2" NCoef="0" IVar="-1" Cut="0.0000000000000000e+00" cType="1" res="-2.2750451171305031e-04" rms="4.7495257854461670e-01" purity="3.9194276928901672e-01" nType="-99"/>
          <Node pos="r" depth="2" NCoef="0" IVar="-1" Cut="0.0000000000000000e+00" cType="1" res="-3.1914978753775358e-03" rms="3.4082412719726562e-01" purity="1.4017172157764435e-01" nType="-99"/>
        </Node>
        <Node pos="r" depth="1" NCoef="0" IVar="2" Cut="6.8805734375000000e+04" cType="1" res="2.0827820897102356e-01" rms="4.3969124555587769e-01" purity="7.2384297847747803e-01" nType="0">
          <Node pos="l" depth="2" NCoef="0" IVar="-1" Cut="0.0000000000000000e+00" cType="1" res="2.4787394795566797e-04" rms="4.8517608642578125e-01" purity="5.9011799097061157e-01" nType="-99"/>
          <Node pos="r" depth="2" NCoef="0" IVar="-1" Cut="0.0000000000000000e+00" cType="1" res="5.8539520250633359e-04" rms="3.6385524272918701e-01" purity="8.4244501590728760e-01" nType="-99"/>
        </Node>
      </Node>
    </BinaryTree>
    <BinaryTree type="DecisionTree" boostWeight="1.0000000000000000e+00" itree="105">
      <Node pos="s" depth="0" NCoef="0" IVar="2" Cut="4.4136394531250000e+04" cType="1" res="2.2192597389221191e-02" rms="4.7409853339195251e-01" purity="4.9726080894470215e-01" nType="0">
        <Node pos="l" depth="1" NCoef="0" IVar="1" Cut="7.8204040527343750e+01" cType="1" res="-1.2013320624828339e-01" rms="4.5107880234718323e-01" purity="3.2395493984222412e-01" nType="0">
          <Node pos="l" depth="2" NCoef="0" IVar="-1" Cut="0.0000000000000000e+00" cType="1" res="-1.5051332302391529e-03" rms="3.8383921980857849e-01" purity="1.8856169283390045e-01" nType="-99"/>
          <Node pos="r" depth="2" NCoef="0" IVar="-1" Cut="0.0000000000000000e+00" cType="1" res="-7.4381336162332445e-05" rms="4.8661214113235474e-01" purity="4.5335173606872559e-01" nType="-99"/>
        </Node>
        <Node pos="r" depth="1" NCoef="0" IVar="1" Cut="2.0856367492675781e+02" cType="1" res="2.3322750627994537e-01" rms="4.2635288834571838e-01" purity="7.5423163175582886e-01" nType="0">
          <Node pos="l" depth="2" NCoef="0" IVar="-1" Cut="0.0000000000000000e+00" cType="1" res="4.1939041693694890e-04" rms="4.5800325274467468e-01" purity="6.9107639789581299e-01" nType="-99"/>
          <Node pos="r" depth="2" NCoef="0" IVar="-1" Cut="0.0000000000000000e+00" cType="1" res="6.9487484870478511e-04" rms="3.1444451212882996e-01" purity="8.8813489675521851e-01" nType="-99"/>
        </Node>
      </Node>
    </BinaryTree>
    <BinaryTree type="DecisionTree" boostWeight="1.0000000000000000e+00" itree="106">
      <Node pos="s" depth="0" NCoef="0" IVar="1" Cut="1.0517140960693359e+02" cType="1" res="2.6660719886422157e-02" rms="4.7302767634391785e-01" purity="5.0284707546234131e-01" nType="0">
        <Node pos="l" depth="1" NCoef="0" IVar="1" Cut="6.9712051391601562e+01" cType="1" res="-1.9064122438430786e-01" rms="4.0965545177459717e-01" purity="2.3484237492084503e-01" nType="0">
          <Node pos="l" depth="2" NCoef="0" IVar="-1" Cut="0.0000000000000000e+00" cType="1" res="-2.2732985671609640e-03" rms="3.4799700975418091e-01" purity="1.4576475322246552e-01" nType="-99"/>
          <Node pos="r" depth="2" NCoef="0" IVar="-1" Cut="0.0000000000000000e+00" cType="1" res="-3.6375343916006386e-04" rms="4.6875396370887756e-01" purity="3.7272244691848755e-01" nType="-99"/>
        </Node>
        <Node pos="r" depth="1" NCoef="0" IVar="2" Cut="6.1755609375000000e+04" cType="1" res="1.7427839338779449e-01" rms="4.5594537258148193e-01" purity="6.8490809202194214e-01" nType="0">
          <Node pos="l" depth="2" NCoef="0" IVar="-1" Cut="0.0000000000000000e+00" cType="1" res="1.4180352445691824e-04" rms="4.9100238084793091e-01" purity="5.4876393079757690e-01" nType="-99"/>
          <Node pos="r" depth="2" NCoef="0" IVar="-1" Cut="0.0000000000000000e+00" cType="1" res="5.1889888709411025e-04" rms="3.8582971692085266e-01" purity="8.1689912080764771e-01" nType="-99"/>
        </Node>
      </Node>
    </BinaryTree>
    <BinaryTree type="DecisionTree" boostWeight="1.0000000000000000e+00" itree="107">
      <Node pos="s" depth="0" NCoef="0" IVar="1" Cut="1.0537150573730469e+02" cType="1" res="1.8239278346300125e-02" rms="4.7330546379089355e-01" purity="4.9294796586036682e-01" nType="0">
        <Node pos="l" depth="1" NCoef="0" IVar="1" Cut="6.4854225158691406e+01" cType="1" res="-1.8434315919876099e-01" rms="4.1301175951957703e-01" purity="2.4019777774810791e-01" nType="0">
          <Node pos="l" depth="2" NCoef="0" IVar="-1" Cut="0.0000000000000000e+00" cType="1" res="-1.6550661530345678e-03" rms="3.4612724184989929e-01" purity="1.4332552254199982e-01" nType="-99"/>
          <Node pos="r" depth="2" NCoef="0" IVar="-1" Cut="0.0000000000000000e+00" cType="1" res="-3.3543561585247517e-04" rms="4.6693375706672668e-01" purity="3.6611253023147583e-01" nType="-99"/>
        </Node>
        <Node pos="r" depth="1" NCoef="0" IVar="2" Cut="6.6204593750000000e+04" cType="1" res="1.6261163353919983e-01" rms="4.6044698357582092e-01" purity="6.7307287454605103e-01" nType="0">
          <Node pos="l" depth="2" NCoef="0" IVar="-1" Cut="0.0000000000000000e+00" cType="1" res="1.8347823061048985e-04" rms="4.8993998765945435e-01" purity="5.5763018131256104e-01" nType="-99"/>
          <Node pos="r" depth="2" NCoef="0" IVar="-1" Cut="0.0000000000000000e+00" cType="1" res="5.7891389587894082e-04" rms="3.8240239024162292e-01" purity="8.2132840156555176e-01" nType="-99"/>
        </Node>
      </Node>
    </BinaryTree>
    <BinaryTree type="DecisionTree" boostWeight="1.0000000000000000e+00" itree="108">
      <Node pos="s" depth="0" NCoef="0" IVar="1" Cut="1.5836036682128906e+02" cType="1" res="1.5387523919343948e-02" rms="4.7415104508399963e-01" purity="4.8887705802917480e-01" nType="0">
        <Node pos="l" depth="1" NCoef="0" IVar="0" Cut="3.7699569016695023e-02" cType="1" res="-1.0820175707340240e-01" rms="4.5527130365371704e-01" purity="3.3816343545913696e-01" nType="0">
          <Node pos="l" depth="2" NCoef="0" IVar="-1" Cut="0.0000000000000000e+00" cType="1" res="-7.0609050453640521e-05" rms="4.8050478100776672e-01" purity="4.3281799554824829e-01" nType="-99"/>
          <Node pos="r" depth="2" NCoef="0" IVar="-1" Cut="0.0000000000000000e+00" cType="1" res="-1.9277964020147920e-03" rms="3.8223257660865784e-01" purity="1.9884395599365234e-01" nType="-99"/>
        </Node>
        <Node pos="r" depth="1" NCoef="0" IVar="1" Cut="2.4954165649414062e+02" cType="1" res="2.3993360996246338e-01" rms="4.2252561450004578e-01" purity="7.6270461082458496e-01" nType="0">
          <Node pos="l" depth="2" NCoef="0" IVar="-1" Cut="0.0000000000000000e+00" cType="1" res="4.0996418101713061e-04" rms="4.5218279957771301e-01" purity="7.0851594209671021e-01" nType="-99"/>
          <Node pos="r" depth="2" NCoef="0" IVar="-1" Cut="0.0000000000000000e+00" cType="1" res="7.4269814649596810e-04" rms="2.8239199519157410e-01" purity="9.1124761104583740e-01" nType="-99"/>
        </Node>
      </Node>
    </BinaryTree>
    <BinaryTree type="DecisionTree" boostWeight="1.0000000000000000e+00" itree="109">
      <Node pos="s" depth="0" NCoef="0" IVar="1" Cut="1.3862570190429688e+02" cType="1" res="3.1751945614814758e-02" rms="4.7346416115760803e-01" purity="5.0642323493957520e-01" nType="0">
        <Node pos="l" depth="1" NCoef="0" IVar="0" Cut="2.5745216757059097e-02" cType="1" res="-1.2312778830528259e-01" rms="4.4757336378097534e-01" purity="3.1357058882713318e-01" nType="0">
          <Node pos="l" depth="2" NCoef="0" IVar="-1" Cut="0.0000000000000000e+00" cType="1" res="-1.0558705980656669e-05" rms="4.8234081268310547e-01" purity="4.4278770685195923e-01" nType="-99"/>
          <Node pos="r" depth="2" NCoef="0" IVar="-1" Cut="0.0000000000000000e+00" cType="1" res="-1.8634034786373377e-03" rms="3.8840866088867188e-01" purity="2.0309589803218842e-01" nType="-99"/>
        </Node>
        <Node pos="r" depth="1" NCoef="0" IVar="2" Cut="6.1173269531250000e+04" cType="1" res="2.1984758973121643e-01" rms="4.3430018424987793e-01" purity="7.4063557386398315e-01" nType="0">
          <Node pos="l" depth="2" NCoef="0" IVar="-1" Cut="0.0000000000000000e+00" cType="1" res="2.1621186169795692e-04" rms="4.8565226793289185e-01" purity="6.0660731792449951e-01" nType="-99"/>
          <Node pos="r" depth="2" NCoef="0" IVar="-1" Cut="0.0000000000000000e+00" cType="1" res="6.1743514379486442e-04" rms="3.8640809059143066e-01" purity="8.1639462709426880e-01" nType="-99"/>
        </Node>
      </Node>
    </BinaryTree>
    <BinaryTree type="DecisionTree" boostWeight="1.0000000000000000e+00" itree="110">
      <Node pos="s" depth="0" NCoef="0" IVar="2" Cut="5.4184500000000000e+04" cType="1" res="2.7624264359474182e-02" rms="4.7354510426521301e-01" purity="5.0193768739700317e-01" nType="0">
        <Node pos="l" depth="1" NCoef="0" IVar="1" Cut="7.2126808166503906e+01" cType="1" res="-1.0094640403985977e-01" rms="4.5833599567413330e-01" purity="3.4542202949523926e-01" nType="0">
          <Node pos="l" depth="2" NCoef="0" IVar="-1" Cut="0.0000000000000000e+00" cType="1" res="-8.1506755668669939e-04" rms="3.8603657484054565e-01" purity="1.9056321680545807e-01" nType="-99"/>
          <Node pos="r" depth="2" NCoef="0" IVar="-1" Cut="0.0000000000000000e+00" cType="1" res="-7.7173237514216453e-05" rms="4.8652559518814087e-01" purity="4.5336082577705383e-01" nType="-99"/>
        </Node>
        <Node pos="r" depth="1" NCoef="0" IVar="1" Cut="2.1315205383300781e+02" cType="1" res="2.6577222347259521e-01" rms="4.0393579006195068e-01" purity="7.9184728860855103e-01" nType="0">
          <Node pos="l" depth="2" NCoef="0" IVar="-1" Cut="0.0000000000000000e+00" cType="1" res="4.4429057743400335e-04" rms="4.4228106737136841e-01" purity="7.2977960109710693e-01" nType="-99"/>
          <Node pos="r" depth="2" NCoef="0" IVar="-1" Cut="0.0000000000000000e+00" cType="1" res="6.7599152680486441e-04" rms="2.9328051209449768e-01" purity="9.0466433763504028e-01" nType="-99"/>
        </Node>
      </Node>
    </BinaryTree>
    <BinaryTree type="DecisionTree" boostWeight="1.0000000000000000e+00" itree="111">
      <Node pos="s" depth="0" NCoef="0" IVar="1" Cut="1.3828833007812500e+02" cType="1" res="2.9135212302207947e-02" rms="4.7230097651481628e-01" purity="5.0478184223175049e-01" nType="0">
        <Node pos="l" depth="1" NCoef="0" IVar="1" Cut="7.8504692077636719e+01" cType="1" res="-1.4224836230278015e-01" rms="4.3838694691658020e-01" purity="2.9377475380897522e-01" nType="0">
          <Node pos="l" depth="2" NCoef="0" IVar="-1" Cut="0.0000000000000000e+00" cType="1" res="-1.2489822693169117e-03" rms="3.6558941006660461e-01" purity="1.6615314781665802e-01" nType="-99"/>
          <Node pos="r" depth="2" NCoef="0" IVar="-1" Cut="0.0000000000000000e+00" cType="1" res="-1.1279180034762248e-04" rms="4.8333755135536194e-01" purity="4.3654254078865051e-01" nType="-99"/>
        </Node>
        <Node pos="r" depth="1" NCoef="0" IVar="1" Cut="2.5785540771484375e+02" cType="1" res="2.2433096170425415e-01" rms="4.3207615613937378e-01" purity="7.4510645866394043e-01" nType="0">
          <Node pos="l" depth="2" NCoef="0" IVar="-1" Cut="0.0000000000000000e+00" cType="1" res="3.7877360591664910e-04" rms="4.5397028326988220e-01" purity="7.0273387432098389e-01" nType="-99"/>
          <Node pos="r" depth="2" NCoef="0" IVar="-1" Cut="0.0000000000000000e+00" cType="1" res="8.0065673682838678e-04" rms="2.6294162869453430e-01" purity="9.2422133684158325e-01" nType="-99"/>
        </Node>
      </Node>
    </BinaryTree>
    <BinaryTree type="DecisionTree" boostWeight="1.0000000000000000e+00" itree="112">
      <Node pos="s" depth="0" NCoef="0" IVar="1" Cut="1.3710118103027344e+02" cType="1" res="2.5134511291980743e-02" rms="4.7277522087097168e-01" purity="4.9985057115554810e-01" nType="0">
        <Node pos="l" depth="1" NCoef="0" IVar="1" Cut="6.4653259277343750e+01" cType="1" res="-1.3754798471927643e-01" rms="4.4087648391723633e-01" purity="2.9717031121253967e-01" nType="0">
          <Node pos="l" depth="2" NCoef="0" IVar="-1" Cut="0.0000000000000000e+00" cType="1" res="-1.2193821603432298e-03" rms="3.5501050949096680e-01" purity="1.5227776765823364e-01" nType="-99"/>
          <Node pos="r" depth="2" NCoef="0" IVar="-1" Cut="0.0000000000000000e+00" cType="1" res="-2.1888756600674242e-04" rms="4.7828859090805054e-01" purity="4.0755406022071838e-01" nType="-99"/>
        </Node>
        <Node pos="r" depth="1" NCoef="0" IVar="2" Cut="6.1580222656250000e+04" cType="1" res="2.1379671990871429e-01" rms="4.3706917762756348e-01" purity="7.3489797115325928e-01" nType="0">
          <Node pos="l" depth="2" NCoef="0" IVar="-1" Cut="0.0000000000000000e+00" cType="1" res="2.1954039402771741e-04" rms="4.8921206593513489e-01" purity="5.8840197324752808e-01" nType="-99"/>
          <Node pos="r" depth="2" NCoef="0" IVar="-1" Cut="0.0000000000000000e+00" cType="1" res="5.8087927754968405e-04" rms="3.8452753424644470e-01" purity="8.1875675916671753e-01" nType="-99"/>
        </Node>
      </Node>
    </BinaryTree>
    <BinaryTree type="DecisionTree" boostWeight="1.0000000000000000e+00" itree="113">
      <Node pos="s" depth="0" NCoef="0" IVar="1" Cut="1.3857240295410156e+02" cType="1" res="1.8427982926368713e-02" rms="4.7119194269180298e-01" purity="4.9401846528053284e-01" nType="0">
        <Node pos="l" depth="1" NCoef="0" IVar="1" Cut="3.8967037200927734e+01" cType="1" res="-1.6455915570259094e-01" rms="4.2749822139739990e-01" purity="2.6936191320419312e-01" nType="0">
          <Node pos="l" depth="2" NCoef="0" IVar="-1" Cut="0.0000000000000000e+00" cType="1" res="-6.4315199851989746e-03" rms="2.8132864832878113e-01" purity="8.7974272668361664e-02" nType="-99"/>
          <Node pos="r" depth="2" NCoef="0" IVar="-1" Cut="0.0000000000000000e+00" cType="1" res="-4.6325827133841813e-04" rms="4.5844206213951111e-01" purity="3.4075981378555298e-01" nType="-99"/>
        </Node>
        <Node pos="r" depth="1" NCoef="0" IVar="2" Cut="6.2013781250000000e+04" cType="1" res="2.2180253267288208e-01" rms="4.3253642320632935e-01" purity="7.4370497465133667e-01" nType="0">
          <Node pos="l" depth="2" NCoef="0" IVar="-1" Cut="0.0000000000000000e+00" cType="1" res="2.1650925918947905e-04" rms="4.8688656091690063e-01" purity="6.0259896516799927e-01" nType="-99"/>
          <Node pos="r" depth="2" NCoef="0" IVar="-1" Cut="0.0000000000000000e+00" cType="1" res="5.5109598906710744e-04" rms="3.8154819607734680e-01" purity="8.2222294807434082e-01" nType="-99"/>
        </Node>
      </Node>
    </BinaryTree>
    <BinaryTree type="DecisionTree" boostWeight="1.0000000000000000e+00" itree="114">
      <Node pos="s" depth="0" NCoef="0" IVar="1" Cut="1.3941770935058594e+02" cType="1" res="3.3852163702249527e-02" rms="4.7196894884109497e-01" purity="5.0879585742950439e-01" nType="0">
        <Node pos="l" depth="1" NCoef="0" IVar="1" Cut="7.2558425903320312e+01" cType="1" res="-1.2447024881839752e-01" rms="4.4520938396453857e-01" purity="3.1077826023101807e-01" nType="0">
          <Node pos="l" depth="2" NCoef="0" IVar="-1" Cut="0.0000000000000000e+00" cType="1" res="-1.9160626688972116e-03" rms="3.6116749048233032e-01" purity="1.6040584444999695e-01" nType="-99"/>
          <Node pos="r" depth="2" NCoef="0" IVar="-1" Cut="0.0000000000000000e+00" cType="1" res="-7.4453892011661083e-05" rms="4.8461022973060608e-01" purity="4.4457057118415833e-01" nType="-99"/>
        </Node>
        <Node pos="r" depth="1" NCoef="0" IVar="2" Cut="6.6204593750000000e+04" cType="1" res="2.2233982384204865e-01" rms="4.3197774887084961e-01" purity="7.4454182386398315e-01" nType="0">
          <Node pos="l" depth="2" NCoef="0" IVar="-1" Cut="0.0000000000000000e+00" cType="1" res="3.1371772638522089e-04" rms="4.8176530003547668e-01" purity="6.2265098094940186e-01" nType="-99"/>
          <Node pos="r" depth="2" NCoef="0" IVar="-1" Cut="0.0000000000000000e+00" cType="1" res="5.5447401246055961e-04" rms="3.6951369047164917e-01" purity="8.3626639842987061e-01" nType="-99"/>
        </Node>
      </Node>
    </BinaryTree>
    <BinaryTree type="DecisionTree" boostWeight="1.0000000000000000e+00" itree="115">
      <Node pos="s" depth="0" NCoef="0" IVar="2" Cut="4.0782179687500000e+04" cType="1" res="2.8616327792406082e-02" rms="4.7203868627548218e-01" purity="5.0318521261215210e-01" nType="0">
        <Node pos="l" depth="1" NCoef="0" IVar="1" Cut="6.9904861450195312e+01" cType="1" res="-1.2376034259796143e-01" rms="4.4647926092147827e-01" purity="3.1507000327110291e-01" nType="0">
          <Node pos="l" depth="2" NCoef="0" IVar="-1" Cut="0.0000000000000000e+00" cType="1" res="-9.4442110275849700e-04" rms="3.5683456063270569e-01" purity="1.5545618534088135e-01" nType="-99"/>
          <Node pos="r" depth="2" NCoef="0" IVar="-1" Cut="0.0000000000000000e+00" cType="1" res="-1.0727384506026283e-04" rms="4.8436951637268066e-01" purity="4.4003528356552124e-01" nType="-99"/>
        </Node>
        <Node pos="r" depth="1" NCoef="0" IVar="0" Cut="4.2839553207159042e-02" cType="1" res="2.2591647505760193e-01" rms="4.2921724915504456e-01" purity="7.4676036834716797e-01" nType="0">
          <Node pos="l" depth="2" NCoef="0" IVar="-1" Cut="0.0000000000000000e+00" cType="1" res="5.8939249720424414e-04" rms="3.2877135276794434e-01" purity="8.7503933906555176e-01" nType="-99"/>
          <Node pos="r" depth="2" NCoef="0" IVar="-1" Cut="0.0000000000000000e+00" cType="1" res="3.8063293322920799e-04" rms="4.6253898739814758e-01" purity="6.7220461368560791e-01" nType="-99"/>
        </Node>
      </Node>
    </BinaryTree>
    <BinaryTree type="DecisionTree" boostWeight="1.0000000000000000e+00" itree="116">
      <Node pos="s" depth="0" NCoef="0" IVar="1" Cut="1.3710118103027344e+02" cType="1" res="2.5047510862350464e-02" rms="4.7150593996047974e-01" purity="4.9925962090492249e-01" nType="0">
        <Node pos="l" depth="1" NCoef="0" IVar="1" Cut="5.8067512512207031e+01" cType="1" res="-1.3559791445732117e-01" rms="4.3954023718833923e-01" purity="2.9798203706741333e-01" nType="0">
          <Node pos="l" depth="2" NCoef="0" IVar="-1" Cut="0.0000000000000000e+00" cType="1" res="-2.0553215872496367e-03" rms="3.3823552727699280e-01" purity="1.3401433825492859e-01" nType="-99"/>
          <Node pos="r" depth="2" NCoef="0" IVar="-1" Cut="0.0000000000000000e+00" cType="1" res="-1.8844616715796292e-04" rms="4.7465151548385620e-01" purity="4.0135696530342102e-01" nType="-99"/>
        </Node>
        <Node pos="r" depth="1" NCoef="0" IVar="2" Cut="7.2246000000000000e+04" cType="1" res="2.1412476897239685e-01" rms="4.3642830848693848e-01" purity="7.3616039752960205e-01" nType="0">
          <Node pos="l" depth="2" NCoef="0" IVar="-1" Cut="0.0000000000000000e+00" cType="1" res="3.3678766340017319e-04" rms="4.7559949755668640e-01" purity="6.4329659938812256e-01" nType="-99"/>
          <Node pos="r" depth="2" NCoef="0" IVar="-1" Cut="0.0000000000000000e+00" cType="1" res="5.0860363990068436e-04" rms="3.5659056901931763e-01" purity="8.5014218091964722e-01" nType="-99"/>
        </Node>
      </Node>
    </BinaryTree>
    <BinaryTree type="DecisionTree" boostWeight="1.0000000000000000e+00" itree="117">
      <Node pos="s" depth="0" NCoef="0" IVar="2" Cut="4.4136394531250000e+04" cType="1" res="1.3450844213366508e-02" rms="4.6985298395156860e-01" purity="4.8792511224746704e-01" nType="0">
        <Node pos="l" depth="1" NCoef="0" IVar="0" Cut="3.7411056458950043e-02" cType="1" res="-1.4006842672824860e-01" rms="4.3814998865127563e-01" purity="2.9959678649902344e-01" nType="0">
          <Node pos="l" depth="2" NCoef="0" IVar="-1" Cut="0.0000000000000000e+00" cType="1" res="-2.1768744045402855e-04" rms="4.7177699208259583e-01" purity="3.9595395326614380e-01" nType="-99"/>
          <Node pos="r" depth="2" NCoef="0" IVar="-1" Cut="0.0000000000000000e+00" cType="1" res="-3.3183102495968342e-03" rms="3.3145889639854431e-01" purity="1.3780163228511810e-01" nType="-99"/>
        </Node>
        <Node pos="r" depth="1" NCoef="0" IVar="0" Cut="4.4180817902088165e-02" cType="1" res="2.3190201818943024e-01" rms="4.2481321096420288e-01" purity="7.5590801239013672e-01" nType="0">
          <Node pos="l" depth="2" NCoef="0" IVar="-1" Cut="0.0000000000000000e+00" cType="1" res="5.8613409055396914e-04" rms="3.3324569463729858e-01" purity="8.7118625640869141e-01" nType="-99"/>
          <Node pos="r" depth="2" NCoef="0" IVar="-1" Cut="0.0000000000000000e+00" cType="1" res="4.0211188024841249e-04" rms="4.5826923847198486e-01" purity="6.8597280979156494e-01" nType="-99"/>
        </Node>
      </Node>
    </BinaryTree>
    <BinaryTree type="DecisionTree" boostWeight="1.0000000000000000e+00" itree="118">
      <Node pos="s" depth="0" NCoef="0" IVar="1" Cut="1.3717864990234375e+02" cType="1" res="2.5378268212080002e-02" rms="4.7117802500724792e-01" purity="4.9876379966735840e-01" nType="0">
        <Node pos="l" depth="1" NCoef="0" IVar="0" Cut="3.8101427257061005e-02" cType="1" res="-1.3293394446372986e-01" rms="4.4014915823936462e-01" purity="2.9920846223831177e-01" nType="0">
          <Node pos="l" depth="2" NCoef="0" IVar="-1" Cut="0.0000000000000000e+00" cType="1" res="-1.6778825374785811e-04" rms="4.7449278831481934e-01" purity="3.9986947178840637e-01" nType="-99"/>
          <Node pos="r" depth="2" NCoef="0" IVar="-1" Cut="0.0000000000000000e+00" cType="1" res="-3.3278253395110369e-03" rms="3.2572710514068604e-01" purity="1.2790030241012573e-01" nType="-99"/>
        </Node>
        <Node pos="r" depth="1" NCoef="0" IVar="2" Cut="7.1197562500000000e+04" cType="1" res="2.1298006176948547e-01" rms="4.3660479784011841e-01" purity="7.3523920774459839e-01" nType="0">
          <Node pos="l" depth="2" NCoef="0" IVar="-1" Cut="0.0000000000000000e+00" cType="1" res="3.1093950383365154e-04" rms="4.7992259263992310e-01" purity="6.2786519527435303e-01" nType="-99"/>
          <Node pos="r" depth="2" NCoef="0" IVar="-1" Cut="0.0000000000000000e+00" cType="1" res="5.7003390975296497e-04" rms="3.5558912158012390e-01" purity="8.5110139846801758e-01" nType="-99"/>
        </Node>
      </Node>
    </BinaryTree>
    <BinaryTree type="DecisionTree" boostWeight="1.0000000000000000e+00" itree="119">
      <Node pos="s" depth="0" NCoef="0" IVar="2" Cut="5.3826414062500000e+04" cType="1" res="2.4531599134206772e-02" rms="4.7148784995079041e-01" purity="4.9721276760101318e-01" nType="0">
        <Node pos="l" depth="1" NCoef="0" IVar="0" Cut="3.7628732621669769e-02" cType="1" res="-1.0075139254331589e-01" rms="4.5541429519653320e-01" purity="3.4236642718315125e-01" nType="0">
          <Node pos="l" depth="2" NCoef="0" IVar="-1" Cut="0.0000000000000000e+00" cType="1" res="-5.4142910812515765e-05" rms="4.7922712564468384e-01" purity="4.4060540199279785e-01" nType="-99"/>
          <Node pos="r" depth="2" NCoef="0" IVar="-1" Cut="0.0000000000000000e+00" cType="1" res="-2.2548777051270008e-03" rms="3.8167405128479004e-01" purity="1.9340434670448303e-01" nType="-99"/>
        </Node>
        <Node pos="r" depth="1" NCoef="0" IVar="1" Cut="2.4892790222167969e+02" cType="1" res="2.5908997654914856e-01" rms="4.0717396140098572e-01" purity="7.8712052106857300e-01" nType="0">
          <Node pos="l" depth="2" NCoef="0" IVar="-1" Cut="0.0000000000000000e+00" cType="1" res="4.2395674972794950e-04" rms="4.3886271119117737e-01" purity="7.3632621765136719e-01" nType="-99"/>
          <Node pos="r" depth="2" NCoef="0" IVar="-1" Cut="0.0000000000000000e+00" cType="1" res="6.3666870119050145e-04" rms="2.5131037831306458e-01" purity="9.3204998970031738e-01" nType="-99"/>
        </Node>
      </Node>
    </BinaryTree>
    <BinaryTree type="DecisionTree" boostWeight="1.0000000000000000e+00" itree="120">
      <Node pos="s" depth="0" NCoef="0" IVar="2" Cut="5.4184500000000000e+04" cType="1" res="2.7889661490917206e-02" rms="4.7197237610816956e-01" purity="4.9980056285858154e-01" nType="0">
        <Node pos="l" depth="1" NCoef="0" IVar="1" Cut="7.8204040527343750e+01" cType="1" res="-8.6088538169860840e-02" rms="4.5985224843025208e-01" purity="3.5716003179550171e-01" nType="0">
          <Node pos="l" depth="2" NCoef="0" IVar="-1" Cut="0.0000000000000000e+00" cType="1" res="-6.8845431087538600e-04" rms="3.9344087243080139e-01" purity="2.0111428201198578e-01" nType="-99"/>
          <Node pos="r" depth="2" NCoef="0" IVar="-1" Cut="0.0000000000000000e+00" cType="1" res="2.9294758860487491e-05" rms="4.8756840825080872e-01" purity="4.8369833827018738e-01" nType="-99"/>
        </Node>
        <Node pos="r" depth="1" NCoef="0" IVar="0" Cut="4.1265200823545456e-02" cType="1" res="2.5301530957221985e-01" rms="4.1076043248176575e-01" purity="7.8153908252716064e-01" nType="0">
          <Node pos="l" depth="2" NCoef="0" IVar="-1" Cut="0.0000000000000000e+00" cType="1" res="6.7942199530079961e-04" rms="3.0341985821723938e-01" purity="8.9701664447784424e-01" nType="-99"/>
          <Node pos="r" depth="2" NCoef="0" IVar="-1" Cut="0.0000000000000000e+00" cType="1" res="4.3129533878527582e-04" rms="4.4527041912078857e-01" purity="7.2117340564727783e-01" nType="-99"/>
        </Node>
      </Node>
    </BinaryTree>
    <BinaryTree type="DecisionTree" boostWeight="1.0000000000000000e+00" itree="121">
      <Node pos="s" depth="0" NCoef="0" IVar="2" Cut="6.1173269531250000e+04" cType="1" res="1.8610980361700058e-02" rms="4.7062981128692627e-01" purity="4.9118360877037048e-01" nType="0">
        <Node pos="l" depth="1" NCoef="0" IVar="1" Cut="7.1804023742675781e+01" cType="1" res="-9.2730507254600525e-02" rms="4.5777404308319092e-01" purity="3.5457289218902588e-01" nType="0">
          <Node pos="l" depth="2" NCoef="0" IVar="-1" Cut="0.0000000000000000e+00" cType="1" res="-1.7287483206018806e-03" rms="3.6242061853408813e-01" purity="1.6085860133171082e-01" nType="-99"/>
          <Node pos="r" depth="2" NCoef="0" IVar="-1" Cut="0.0000000000000000e+00" cType="1" res="-1.4360118257172871e-05" rms="4.8622119426727295e-01" purity="4.7245463728904724e-01" nType="-99"/>
        </Node>
        <Node pos="r" depth="1" NCoef="0" IVar="1" Cut="2.2627468872070312e+02" cType="1" res="2.7837580442428589e-01" rms="3.9107257127761841e-01" purity="8.0990260839462280e-01" nType="0">
          <Node pos="l" depth="2" NCoef="0" IVar="-1" Cut="0.0000000000000000e+00" cType="1" res="4.8745993990451097e-04" rms="4.3049249053001404e-01" purity="7.5226116180419922e-01" nType="-99"/>
          <Node pos="r" depth="2" NCoef="0" IVar="-1" Cut="0.0000000000000000e+00" cType="1" res="5.2938156295567751e-04" rms="2.7407157421112061e-01" purity="9.1806542873382568e-01" nType="-99"/>
        </Node>
      </Node>
    </BinaryTree>
    <BinaryTree type="DecisionTree" boostWeight="1.0000000000000000e+00" itree="122">
      <Node pos="s" depth="0" NCoef="0" IVar="2" Cut="6.1173269531250000e+04" cType="1" res="2.3490021005272865e-02" rms="4.7072842717170715e-01" purity="4.9609684944152832e-01" nType="0">
        <Node pos="l" depth="1" NCoef="0" IVar="1" Cut="6.9904861450195312e+01" cType="1" res="-8.6600579321384430e-02" rms="4.5950043201446533e-01" purity="3.6064872145652771e-01" nType="0">
          <Node pos="l" depth="2" NCoef="0" IVar="-1" Cut="0.0000000000000000e+00" cType="1" res="-2.2192054893821478e-03" rms="3.5726878046989441e-01" purity="1.5583564341068268e-01" nType="-99"/>
          <Node pos="r" depth="2" NCoef="0" IVar="-1" Cut="0.0000000000000000e+00" cType="1" res="5.9042672546638642e-06" rms="4.8680770397186279e-01" purity="4.7687038779258728e-01" nType="-99"/>
        </Node>
        <Node pos="r" depth="1" NCoef="0" IVar="1" Cut="2.4123907470703125e+02" cType="1" res="2.7960732579231262e-01" rms="3.8998922705650330e-01" purity="8.1120657920837402e-01" nType="0">
          <Node pos="l" depth="2" NCoef="0" IVar="-1" Cut="0.0000000000000000e+00" cType="1" res="4.6809919876977801e-04" rms="4.2650133371353149e-01" purity="7.5894427299499512e-01" nType="-99"/>
          <Node pos="r" depth="2" NCoef="0" IVar="-1" Cut="0.0000000000000000e+00" cType="1" res="8.0989027628675103e-04" rms="2.5325223803520203e-01" purity="9.3105894327163696e-01" nType="-99"/>
        </Node>
      </Node>
    </BinaryTree>
    <BinaryTree type="DecisionTree" boostWeight="1.0000000000000000e+00" itree="123">
      <Node pos="s" depth="0" NCoef="0" IVar="2" Cut="4.4136394531250000e+04" cType="1" res="2.7963470667600632e-02" rms="4.7133770585060120e-01" purity="4.9996247887611389e-01" nType="0">
        <Node pos="l" depth="1" NCoef="0" IVar="0" Cut="3.8101427257061005e-02" cType="1" res="-1.1346889287233353e-01" rms="4.5052215456962585e-01" purity="3.2190212607383728e-01" nType="0">
          <Node pos="l" depth="2" NCoef="0" IVar="-1" Cut="0.0000000000000000e+00" cType="1" res="-9.2919806775171310e-05" rms="4.7795999050140381e-01" purity="4.1158655285835266e-01" nType="-99"/>
          <Node pos="r" depth="2" NCoef="0" IVar="-1" Cut="0.0000000000000000e+00" cType="1" res="-2.3957630619406700e-03" rms="3.6377039551734924e-01" purity="1.6788104176521301e-01" nType="-99"/>
        </Node>
        <Node pos="r" depth="1" NCoef="0" IVar="0" Cut="4.2839553207159042e-02" cType="1" res="2.3293100297451019e-01" rms="4.2304578423500061e-01" purity="7.5801229476928711e-01" nType="0">
          <Node pos="l" depth="2" NCoef="0" IVar="-1" Cut="0.0000000000000000e+00" cType="1" res="5.3180661052465439e-04" rms="3.1449571251869202e-01" purity="8.8730347156524658e-01" nType="-99"/>
          <Node pos="r" depth="2" NCoef="0" IVar="-1" Cut="0.0000000000000000e+00" cType="1" res="3.1655334169045091e-04" rms="4.6016269922256470e-01" purity="6.7968249320983887e-01" nType="-99"/>
        </Node>
      </Node>
    </BinaryTree>
    <BinaryTree type="DecisionTree" boostWeight="1.0000000000000000e+00" itree="124">
      <Node pos="s" depth="0" NCoef="0" IVar="1" Cut="1.0517140960693359e+02" cType="1" res="2.3547153919935226e-02" rms="4.7090247273445129e-01" purity="4.9480873346328735e-01" nType="0">
        <Node pos="l" depth="1" NCoef="0" IVar="0" Cut="2.2755855694413185e-02" cType="1" res="-1.6903562843799591e-01" rms="4.1625434160232544e-01" purity="2.4656358361244202e-01" nType="0">
          <Node pos="l" depth="2" NCoef="0" IVar="-1" Cut="0.0000000000000000e+00" cType="1" res="-1.7064329585991800e-04" rms="4.6726757287979126e-01" purity="3.6269524693489075e-01" nType="-99"/>
          <Node pos="r" depth="2" NCoef="0" IVar="-1" Cut="0.0000000000000000e+00" cType="1" res="-2.2446520160883665e-03" rms="3.4998846054077148e-01" purity="1.5291973948478699e-01" nType="-99"/>
        </Node>
        <Node pos="r" depth="1" NCoef="0" IVar="2" Cut="6.6204593750000000e+04" cType="1" res="1.6211244463920593e-01" rms="4.5907124876976013e-01" purity="6.7342364788055420e-01" nType="0">
          <Node pos="l" depth="2" NCoef="0" IVar="-1" Cut="0.0000000000000000e+00" cType="1" res="1.7301681509707123e-04" rms="4.8948797583580017e-01" purity="5.5569052696228027e-01" nType="-99"/>
          <Node pos="r" depth="2" NCoef="0" IVar="-1" Cut="0.0000000000000000e+00" cType="1" res="5.7361210929229856e-04" rms="3.7942206859588623e-01" purity="8.2478636503219604e-01" nType="-99"/>
        </Node>
      </Node>
    </BinaryTree>
    <BinaryTree type="DecisionTree" boostWeight="1.0000000000000000e+00" itree="125">
      <Node pos="s" depth="0" NCoef="0" IVar="2" Cut="6.1173269531250000e+04" cType="1" res="3.4593019634485245e-02" rms="4.7046634554862976e-01" purity="5.0708413124084473e-01" nType="0">
        <Node pos="l" depth="1" NCoef="0" IVar="0" Cut="3.7699569016695023e-02" cType="1" res="-8.8516935706138611e-02" rms="4.6007373929023743e-01" purity="3.5580462217330933e-01" nType="0">
          <Node pos="l" depth="2" NCoef="0" IVar="-1" Cut="0.0000000000000000e+00" cType="1" res="-1.6051886632340029e-05" rms="4.8113182187080383e-01" purity="4.4732716679573059e-01" nType="-99"/>
          <Node pos="r" depth="2" NCoef="0" IVar="-1" Cut="0.0000000000000000e+00" cType="1" res="-1.6965775284916162e-03" rms="4.0111091732978821e-01" purity="2.2630894184112549e-01" nType="-99"/>
        </Node>
        <Node pos="r" depth="1" NCoef="0" IVar="1" Cut="2.4123907470703125e+02" cType="1" res="2.9614970088005066e-01" rms="3.7586259841918945e-01" purity="8.2848918437957764e-01" nType="0">
          <Node pos="l" depth="2" NCoef="0" IVar="-1" Cut="0.0000000000000000e+00" cType="1" res="4.0545157389715314e-04" rms="4.1399773955345154e-01" purity="7.7914679050445557e-01" nType="-99"/>
          <Node pos="r" depth="2" NCoef="0" IVar="-1" Cut="0.0000000000000000e+00" cType="1" res="5.9383525513112545e-04" rms="2.3895068466663361e-01" purity="9.3912613391876221e-01" nType="-99"/>
        </Node>
      </Node>
    </BinaryTree>
    <BinaryTree type="DecisionTree" boostWeight="1.0000000000000000e+00" itree="126">
      <Node pos="s" depth="0" NCoef="0" IVar="1" Cut="1.2379756164550781e+02" cType="1" res="4.4348701834678650e-02" rms="4.7116902470588684e-01" purity="5.1570713520050049e-01" nType="0">
        <Node pos="l" depth="1" NCoef="0" IVar="0" Cut="2.4177541956305504e-02" cType="1" res="-1.2866844236850739e-01" rms="4.4014149904251099e-01" purity="2.9366344213485718e-01" nType="0">
          <Node pos="l" depth="2" NCoef="0" IVar="-1" Cut="0.0000000000000000e+00" cType="1" res="-1.2546112884592731e-05" rms="4.8290589451789856e-01" purity="4.2666736245155334e-01" nType="-99"/>
          <Node pos="r" depth="2" NCoef="0" IVar="-1" Cut="0.0000000000000000e+00" cType="1" res="-2.2061965428292751e-03" rms="3.7121835350990295e-01" purity="1.8074266612529755e-01" nType="-99"/>
        </Node>
        <Node pos="r" depth="1" NCoef="0" IVar="2" Cut="6.8965093750000000e+04" cType="1" res="2.0690384507179260e-01" rms="4.4047382473945618e-01" purity="7.2432422637939453e-01" nType="0">
          <Node pos="l" depth="2" NCoef="0" IVar="-1" Cut="0.0000000000000000e+00" cType="1" res="3.0678554321639240e-04" rms="4.8092457652091980e-01" purity="6.2097615003585815e-01" nType="-99"/>
          <Node pos="r" depth="2" NCoef="0" IVar="-1" Cut="0.0000000000000000e+00" cType="1" res="5.3153937915340066e-04" rms="3.6077335476875305e-01" purity="8.4560042619705200e-01" nType="-99"/>
        </Node>
      </Node>
    </BinaryTree>
    <BinaryTree type="DecisionTree" boostWeight="1.0000000000000000e+00" itree="127">
      <Node pos="s" depth="0" NCoef="0" IVar="1" Cut="1.3938558959960938e+02" cType="1" res="2.8806565329432487e-02" rms="4.6962517499923706e-01" purity="5.0123941898345947e-01" nType="0">
        <Node pos="l" depth="1" NCoef="0" IVar="1" Cut="7.2524177551269531e+01" cType="1" res="-1.2376777082681656e-01" rms="4.4115749001502991e-01" purity="3.0614069104194641e-01" nType="0">
          <Node pos="l" depth="2" NCoef="0" IVar="-1" Cut="0.0000000000000000e+00" cType="1" res="-8.9552020654082298e-04" rms="3.5971483588218689e-01" purity="1.6122446954250336e-01" nType="-99"/>
          <Node pos="r" depth="2" NCoef="0" IVar="-1" Cut="0.0000000000000000e+00" cType="1" res="-7.1945556555874646e-05" rms="4.8188120126724243e-01" purity="4.3831419944763184e-01" nType="-99"/>
        </Node>
        <Node pos="r" depth="1" NCoef="0" IVar="2" Cut="6.6204593750000000e+04" cType="1" res="2.1355728805065155e-01" rms="4.3545675277709961e-01" purity="7.3748254776000977e-01" nType="0">
          <Node pos="l" depth="2" NCoef="0" IVar="-1" Cut="0.0000000000000000e+00" cType="1" res="2.5799300055950880e-04" rms="4.8273524641990662e-01" purity="6.1794185638427734e-01" nType="-99"/>
          <Node pos="r" depth="2" NCoef="0" IVar="-1" Cut="0.0000000000000000e+00" cType="1" res="4.7444528900086880e-04" rms="3.7693494558334351e-01" purity="8.2783752679824829e-01" nType="-99"/>
        </Node>
      </Node>
    </BinaryTree>
    <BinaryTree type="DecisionTree" boostWeight="1.0000000000000000e+00" itree="128">
      <Node pos="s" depth="0" NCoef="0" IVar="2" Cut="4.4136394531250000e+04" cType="1" res="2.9873540624976158e-02" rms="4.6915322542190552e-01" purity="5.0304728746414185e-01" nType="0">
        <Node pos="l" depth="1" NCoef="0" IVar="0" Cut="3.7699569016695023e-02" cType="1" res="-1.1410256475210190e-01" rms="4.4671803712844849e-01" purity="3.2192498445510864e-01" nType="0">
          <Node pos="l" depth="2" NCoef="0" IVar="-1" Cut="0.0000000000000000e+00" cType="1" res="-1.1684521450661123e-04" rms="4.7567939758300781e-01" purity="4.1868099570274353e-01" nType="-99"/>
          <Node pos="r" depth="2" NCoef="0" IVar="-1" Cut="0.0000000000000000e+00" cType="1" res="-2.8865602798759937e-03" rms="3.4725603461265564e-01" purity="1.5151220560073853e-01" nType="-99"/>
        </Node>
        <Node pos="r" depth="1" NCoef="0" IVar="0" Cut="4.2712874710559845e-02" cType="1" res="2.3284280300140381e-01" rms="4.2267304658889771e-01" purity="7.5838315486907959e-01" nType="0">
          <Node pos="l" depth="2" NCoef="0" IVar="-1" Cut="0.0000000000000000e+00" cType="1" res="6.5433845156803727e-04" rms="3.1894677877426147e-01" purity="8.8372600078582764e-01" nType="-99"/>
          <Node pos="r" depth="2" NCoef="0" IVar="-1" Cut="0.0000000000000000e+00" cType="1" res="3.6177772562950850e-04" rms="4.5815885066986084e-01" purity="6.8338453769683838e-01" nType="-99"/>
        </Node>
      </Node>
    </BinaryTree>
    <BinaryTree type="DecisionTree" boostWeight="1.0000000000000000e+00" itree="129">
      <Node pos="s" depth="0" NCoef="0" IVar="1" Cut="1.3951222229003906e+02" cType="1" res="2.0857289433479309e-02" rms="4.6927800774574280e-01" purity="4.9205207824707031e-01" nType="0">
        <Node pos="l" depth="1" NCoef="0" IVar="1" Cut="6.5975730895996094e+01" cType="1" res="-1.4036244153976440e-01" rms="4.3496739864349365e-01" purity="2.8616821765899658e-01" nType="0">
          <Node pos="l" depth="2" NCoef="0" IVar="-1" Cut="0.0000000000000000e+00" cType="1" res="-1.1823644163087010e-03" rms="3.5722580552101135e-01" purity="1.5498243272304535e-01" nType="-99"/>
          <Node pos="r" depth="2" NCoef="0" IVar="-1" Cut="0.0000000000000000e+00" cType="1" res="-2.6016682386398315e-04" rms="4.7421368956565857e-01" purity="3.9234530925750732e-01" nType="-99"/>
        </Node>
        <Node pos="r" depth="1" NCoef="0" IVar="2" Cut="6.6611546875000000e+04" cType="1" res="2.1297910809516907e-01" rms="4.3509683012962341e-01" purity="7.3739904165267944e-01" nType="0">
          <Node pos="l" depth="2" NCoef="0" IVar="-1" Cut="0.0000000000000000e+00" cType="1" res="2.7839993708766997e-04" rms="4.8365333676338196e-01" purity="6.1173456907272339e-01" nType="-99"/>
          <Node pos="r" depth="2" NCoef="0" IVar="-1" Cut="0.0000000000000000e+00" cType="1" res="5.1255058497190475e-04" rms="3.7337291240692139e-01" purity="8.3191537857055664e-01" nType="-99"/>
        </Node>
      </Node>
    </BinaryTree>
    <BinaryTree type="DecisionTree" boostWeight="1.0000000000000000e+00" itree="130">
      <Node pos="s" depth="0" NCoef="0" IVar="1" Cut="1.3956552124023438e+02" cType="1" res="2.2152317687869072e-02" rms="4.7030773758888245e-01" purity="4.9246850609779358e-01" nType="0">
        <Node pos="l" depth="1" NCoef="0" IVar="1" Cut="3.2610328674316406e+01" cType="1" res="-1.1997326463460922e-01" rms="4.4285753369331360e-01" purity="3.0876848101615906e-01" nType="0">
          <Node pos="l" depth="2" NCoef="0" IVar="-1" Cut="0.0000000000000000e+00" cType="1" res="-7.1665155701339245e-03" rms="2.5645375251770020e-01" purity="7.1003302931785583e-02" nType="-99"/>
          <Node pos="r" depth="2" NCoef="0" IVar="-1" Cut="0.0000000000000000e+00" cType="1" res="-1.6957658226601779e-04" rms="4.6630874276161194e-01" purity="3.7714907526969910e-01" nType="-99"/>
        </Node>
        <Node pos="r" depth="1" NCoef="0" IVar="2" Cut="6.7045109375000000e+04" cType="1" res="2.0411911606788635e-01" rms="4.4080460071563721e-01" purity="7.2766393423080444e-01" nType="0">
          <Node pos="l" depth="2" NCoef="0" IVar="-1" Cut="0.0000000000000000e+00" cType="1" res="2.6524829445406795e-04" rms="4.8255562782287598e-01" purity="6.2032264471054077e-01" nType="-99"/>
          <Node pos="r" depth="2" NCoef="0" IVar="-1" Cut="0.0000000000000000e+00" cType="1" res="5.2046834025532007e-04" rms="3.8341483473777771e-01" purity="8.2023167610168457e-01" nType="-99"/>
        </Node>
      </Node>
    </BinaryTree>
    <BinaryTree type="DecisionTree" boostWeight="1.0000000000000000e+00" itree="131">
      <Node pos="s" depth="0" NCoef="0" IVar="2" Cut="4.4136394531250000e+04" cType="1" res="3.5496242344379425e-02" rms="4.6899867057800293e-01" purity="5.0711542367935181e-01" nType="0">
        <Node pos="l" depth="1" NCoef="0" IVar="1" Cut="7.8404129028320312e+01" cType="1" res="-1.0843247175216675e-01" rms="4.4883209466934204e-01" purity="3.2450309395790100e-01" nType="0">
          <Node pos="l" depth="2" NCoef="0" IVar="-1" Cut="0.0000000000000000e+00" cType="1" res="-7.8355381265282631e-04" rms="3.8313081860542297e-01" purity="1.8739163875579834e-01" nType="-99"/>
          <Node pos="r" depth="2" NCoef="0" IVar="-1" Cut="0.0000000000000000e+00" cType="1" res="-3.7449721276061609e-05" rms="4.8516216874122620e-01" purity="4.5810237526893616e-01" nType="-99"/>
        </Node>
        <Node pos="r" depth="1" NCoef="0" IVar="0" Cut="3.9251808077096939e-02" cType="1" res="2.3804587125778198e-01" rms="4.1931965947151184e-01" purity="7.6410418748855591e-01" nType="0">
          <Node pos="l" depth="2" NCoef="0" IVar="-1" Cut="0.0000000000000000e+00" cType="1" res="7.4177386704832315e-04" rms="3.0653703212738037e-01" purity="8.9409142732620239e-01" nType="-99"/>
          <Node pos="r" depth="2" NCoef="0" IVar="-1" Cut="0.0000000000000000e+00" cType="1" res="4.2784091783687472e-04" rms="4.4975233078002930e-01" purity="7.0497316122055054e-01" nType="-99"/>
        </Node>
      </Node>
    </BinaryTree>
    <BinaryTree type="DecisionTree" boostWeight="1.0000000000000000e+00" itree="132">
      <Node pos="s" depth="0" NCoef="0" IVar="1" Cut="1.5836036682128906e+02" cType="1" res="2.8870772570371628e-02" rms="4.7050237655639648e-01" purity="4.9854132533073425e-01" nType="0">
        <Node pos="l" depth="1" NCoef="0" IVar="1" Cut="7.4777671813964844e+01" cType="1" res="-8.6163714528083801e-02" rms="4.5716843008995056e-01" purity="3.5194569826126099e-01" nType="0">
          <Node pos="l" depth="2" NCoef="0" IVar="-1" Cut="0.0000000000000000e+00" cType="1" res="-5.9028749819844961e-04" rms="3.9004850387573242e-01" purity="1.9433231651782990e-01" nType="-99"/>
          <Node pos="r" depth="2" NCoef="0" IVar="-1" Cut="0.0000000000000000e+00" cType="1" res="-1.1059448752348544e-06" rms="4.8482191562652588e-01" purity="4.7152444720268250e-01" nType="-99"/>
        </Node>
        <Node pos="r" depth="1" NCoef="0" IVar="1" Cut="2.4954237365722656e+02" cType="1" res="2.4039371311664581e-01" rms="4.1838124394416809e-01" purity="7.6809829473495483e-01" nType="0">
          <Node pos="l" depth="2" NCoef="0" IVar="-1" Cut="0.0000000000000000e+00" cType="1" res="4.1357069858349860e-04" rms="4.4807615876197815e-01" purity="7.1577703952789307e-01" nType="-99"/>
          <Node pos="r" depth="2" NCoef="0" IVar="-1" Cut="0.0000000000000000e+00" cType="1" res="7.9746311530470848e-04" rms="2.7859732508659363e-01" purity="9.1364294290542603e-01" nType="-99"/>
        </Node>
      </Node>
    </BinaryTree>
    <BinaryTree type="DecisionTree" boostWeight="1.0000000000000000e+00" itree="133">
      <Node pos="s" depth="0" NCoef="0" IVar="2" Cut="4.4136394531250000e+04" cType="1" res="3.0140161514282227e-02" rms="4.6830472350120544e-01" purity="5.0197321176528931e-01" nType="0">
        <Node pos="l" depth="1" NCoef="0" IVar="1" Cut="7.1885795593261719e+01" cType="1" res="-1.1903439462184906e-01" rms="4.4429600238800049e-01" purity="3.1330972909927368e-01" nType="0">
          <Node pos="l" depth="2" NCoef="0" IVar="-1" Cut="0.0000000000000000e+00" cType="1" res="-2.1820978727191687e-03" rms="3.6018207669258118e-01" purity="1.5880773961544037e-01" nType="-99"/>
          <Node pos="r" depth="2" NCoef="0" IVar="-1" Cut="0.0000000000000000e+00" cType="1" res="-1.0522430238779634e-04" rms="4.8260718584060669e-01" purity="4.3777999281883240e-01" nType="-99"/>
        </Node>
        <Node pos="r" depth="1" NCoef="0" IVar="1" Cut="2.3345391845703125e+02" cType="1" res="2.3722207546234131e-01" rms="4.1946479678153992e-01" purity="7.6387304067611694e-01" nType="0">
          <Node pos="l" depth="2" NCoef="0" IVar="-1" Cut="0.0000000000000000e+00" cType="1" res="3.9300986099988222e-04" rms="4.5427945256233215e-01" purity="6.9828319549560547e-01" nType="-99"/>
          <Node pos="r" depth="2" NCoef="0" IVar="-1" Cut="0.0000000000000000e+00" cType="1" res="3.9935481618158519e-04" rms="2.6192256808280945e-01" purity="9.2545723915100098e-01" nType="-99"/>
        </Node>
      </Node>
    </BinaryTree>
    <BinaryTree type="DecisionTree" boostWeight="1.0000000000000000e+00" itree="134">
      <Node pos="s" depth="0" NCoef="0" IVar="2" Cut="4.7459929687500000e+04" cType="1" res="2.9570283368229866e-02" rms="4.6886637806892395e-01" purity="5.0027185678482056e-01" nType="0">
        <Node pos="l" depth="1" NCoef="0" IVar="1" Cut="3.4435253143310547e+01" cType="1" res="-1.0833134502172470e-01" rms="4.4900515675544739e-01" purity="3.2527476549148560e-01" nType="0">
          <Node pos="l" depth="2" NCoef="0" IVar="-1" Cut="0.0000000000000000e+00" cType="1" res="-2.0414895843714476e-03" rms="3.1498062610626221e-01" purity="1.1238410323858261e-01" nType="-99"/>
          <Node pos="r" depth="2" NCoef="0" IVar="-1" Cut="0.0000000000000000e+00" cType="1" res="-1.8242695659864694e-04" rms="4.6874687075614929e-01" purity="3.8588291406631470e-01" nType="-99"/>
        </Node>
        <Node pos="r" depth="1" NCoef="0" IVar="0" Cut="4.1265200823545456e-02" cType="1" res="2.4273779988288879e-01" rms="4.1614782810211182e-01" purity="7.7078127861022949e-01" nType="0">
          <Node pos="l" depth="2" NCoef="0" IVar="-1" Cut="0.0000000000000000e+00" cType="1" res="5.5605324450880289e-04" rms="3.0320209264755249e-01" purity="8.9666855335235596e-01" nType="-99"/>
          <Node pos="r" depth="2" NCoef="0" IVar="-1" Cut="0.0000000000000000e+00" cType="1" res="4.1355224675498903e-04" rms="4.5227664709091187e-01" purity="7.0214271545410156e-01" nType="-99"/>
        </Node>
      </Node>
    </BinaryTree>
    <BinaryTree type="DecisionTree" boostWeight="1.0000000000000000e+00" itree="135">
      <Node pos="s" depth="0" NCoef="0" IVar="1" Cut="1.0517140960693359e+02" cType="1" res="3.6372873932123184e-02" rms="4.6830904483795166e-01" purity="5.0764364004135132e-01" nType="0">
        <Node pos="l" depth="1" NCoef="0" IVar="0" Cut="3.6551970988512039e-02" cType="1" res="-1.6675546765327454e-01" rms="4.1344538331031799e-01" purity="2.4350243806838989e-01" nType="0">
          <Node pos="l" depth="2" NCoef="0" IVar="-1" Cut="0.0000000000000000e+00" cType="1" res="-2.5824233307503164e-04" rms="4.5908337831497192e-01" purity="3.3321231603622437e-01" nType="-99"/>
          <Node pos="r" depth="2" NCoef="0" IVar="-1" Cut="0.0000000000000000e+00" cType="1" res="-6.2682083807885647e-03" rms="2.6417869329452515e-01" purity="7.6907992362976074e-02" nType="-99"/>
        </Node>
        <Node pos="r" depth="1" NCoef="0" IVar="2" Cut="6.6204593750000000e+04" cType="1" res="1.7542760074138641e-01" rms="4.5260131359100342e-01" purity="6.8846571445465088e-01" nType="0">
          <Node pos="l" depth="2" NCoef="0" IVar="-1" Cut="0.0000000000000000e+00" cType="1" res="2.0183810556773096e-04" rms="4.8571702837944031e-01" purity="5.7651638984680176e-01" nType="-99"/>
          <Node pos="r" depth="2" NCoef="0" IVar="-1" Cut="0.0000000000000000e+00" cType="1" res="6.3321739435195923e-04" rms="3.7397369742393494e-01" purity="8.3094418048858643e-01" nType="-99"/>
        </Node>
      </Node>
    </BinaryTree>
    <BinaryTree type="DecisionTree" boostWeight="1.0000000000000000e+00" itree="136">
      <Node pos="s" depth="0" NCoef="0" IVar="1" Cut="1.0517140960693359e+02" cType="1" res="3.6775853484869003e-02" rms="4.6711835265159607e-01" purity="5.0901764631271362e-01" nType="0">
        <Node pos="l" depth="1" NCoef="0" IVar="1" Cut="5.4515216827392578e+01" cType="1" res="-1.7562457919120789e-01" rms="4.0625557303428650e-01" purity="2.3421902954578400e-01" nType="0">
          <Node pos="l" depth="2" NCoef="0" IVar="-1" Cut="0.0000000000000000e+00" cType="1" res="-3.7922691553831100e-03" rms="3.1964126229286194e-01" purity="1.1791353672742844e-01" nType="-99"/>
          <Node pos="r" depth="2" NCoef="0" IVar="-1" Cut="0.0000000000000000e+00" cType="1" res="-3.6942135193385184e-04" rms="4.5483097434043884e-01" purity="3.4080666303634644e-01" nType="-99"/>
        </Node>
        <Node pos="r" depth="1" NCoef="0" IVar="2" Cut="6.6204593750000000e+04" cType="1" res="1.7793253064155579e-01" rms="4.5124152302742004e-01" purity="6.9164276123046875e-01" nType="0">
          <Node pos="l" depth="2" NCoef="0" IVar="-1" Cut="0.0000000000000000e+00" cType="1" res="2.2441851615440100e-04" rms="4.8451307415962219e-01" purity="5.8221524953842163e-01" nType="-99"/>
          <Node pos="r" depth="2" NCoef="0" IVar="-1" Cut="0.0000000000000000e+00" cType="1" res="6.1032891971990466e-04" rms="3.7321281433105469e-01" purity="8.3174026012420654e-01" nType="-99"/>
        </Node>
      </Node>
    </BinaryTree>
    <BinaryTree type="DecisionTree" boostWeight="1.0000000000000000e+00" itree="137">
      <Node pos="s" depth="0" NCoef="0" IVar="1" Cut="1.3717864990234375e+02" cType="1" res="3.3463239669799805e-02" rms="4.6687904000282288e-01" purity="5.0541150569915771e-01" nType="0">
        <Node pos="l" depth="1" NCoef="0" IVar="1" Cut="7.1322860717773438e+01" cType="1" res="-1.3087970018386841e-01" rms="4.3468832969665527e-01" purity="2.9320183396339417e-01" nType="0">
          <Node pos="l" depth="2" NCoef="0" IVar="-1" Cut="0.0000000000000000e+00" cType="1" res="-2.9995257500559092e-03" rms="3.4032085537910461e-01" purity="1.3850274682044983e-01" nType="-99"/>
          <Node pos="r" depth="2" NCoef="0" IVar="-1" Cut="0.0000000000000000e+00" cType="1" res="-1.1272908159298822e-04" rms="4.7960290312767029e-01" purity="4.2826604843139648e-01" nType="-99"/>
        </Node>
        <Node pos="r" depth="1" NCoef="0" IVar="2" Cut="6.1580222656250000e+04" cType="1" res="2.1741680800914764e-01" rms="4.3173012137413025e-01" purity="7.4294352531433105e-01" nType="0">
          <Node pos="l" depth="2" NCoef="0" IVar="-1" Cut="0.0000000000000000e+00" cType="1" res="1.9174905901309103e-04" rms="4.8809051513671875e-01" purity="5.9100162982940674e-01" nType="-99"/>
          <Node pos="r" depth="2" NCoef="0" IVar="-1" Cut="0.0000000000000000e+00" cType="1" res="5.5274274200201035e-04" rms="3.7929180264472961e-01" purity="8.2480871677398682e-01" nType="-99"/>
        </Node>
      </Node>
    </BinaryTree>
    <BinaryTree type="DecisionTree" boostWeight="1.0000000000000000e+00" itree="138">
      <Node pos="s" depth="0" NCoef="0" IVar="2" Cut="4.4136394531250000e+04" cType="1" res="2.0472291857004166e-02" rms="4.6798145771026611e-01" purity="4.8910123109817505e-01" nType="0">
        <Node pos="l" depth="1" NCoef="0" IVar="0" Cut="3.7699569016695023e-02" cType="1" res="-1.0829315334558487e-01" rms="4.4639393687248230e-01" purity="3.2183998823165894e-01" nType="0">
          <Node pos="l" depth="2" NCoef="0" IVar="-1" Cut="0.0000000000000000e+00" cType="1" res="-7.7291901106946170e-05" rms="4.7536742687225342e-01" purity="4.1732028126716614e-01" nType="-99"/>
          <Node pos="r" depth="2" NCoef="0" IVar="-1" Cut="0.0000000000000000e+00" cType="1" res="-2.8455941937863827e-03" rms="3.5187011957168579e-01" purity="1.5777897834777832e-01" nType="-99"/>
        </Node>
        <Node pos="r" depth="1" NCoef="0" IVar="0" Cut="3.8821943104267120e-02" cType="1" res="2.1763055026531219e-01" rms="4.3008303642272949e-01" purity="7.4520200490951538e-01" nType="0">
          <Node pos="l" depth="2" NCoef="0" IVar="-1" Cut="0.0000000000000000e+00" cType="1" res="6.9443054962903261e-04" rms="3.0467805266380310e-01" purity="8.9533466100692749e-01" nType="-99"/>
          <Node pos="r" depth="2" NCoef="0" IVar="-1" Cut="0.0000000000000000e+00" cType="1" res="3.6190505488775671e-04" rms="4.6172064542770386e-01" purity="6.7481565475463867e-01" nType="-99"/>
        </Node>
      </Node>
    </BinaryTree>
    <BinaryTree type="DecisionTree" boostWeight="1.0000000000000000e+00" itree="139">
      <Node pos="s" depth="0" NCoef="0" IVar="2" Cut="4.4136394531250000e+04" cType="1" res="3.2263651490211487e-02" rms="4.6864461898803711e-01" purity="5.0072222948074341e-01" nType="0">
        <Node pos="l" depth="1" NCoef="0" IVar="0" Cut="3.8101427257061005e-02" cType="1" res="-9.4040840864181519e-02" rms="4.5165324211120605e-01" purity="3.3576989173889160e-01" nType="0">
          <Node pos="l" depth="2" NCoef="0" IVar="-1" Cut="0.0000000000000000e+00" cType="1" res="-5.3885854867985472e-05" rms="4.7750705480575562e-01" purity="4.2633980512619019e-01" nType="-99"/>
          <Node pos="r" depth="2" NCoef="0" IVar="-1" Cut="0.0000000000000000e+00" cType="1" res="-1.9810420926660299e-03" rms="3.6706975102424622e-01" purity="1.7742566764354706e-01" nType="-99"/>
        </Node>
        <Node pos="r" depth="1" NCoef="0" IVar="0" Cut="4.0675096213817596e-02" cType="1" res="2.2423264384269714e-01" rms="4.2696121335029602e-01" purity="7.5143176317214966e-01" nType="0">
          <Node pos="l" depth="2" NCoef="0" IVar="-1" Cut="0.0000000000000000e+00" cType="1" res="7.2418618947267532e-04" rms="3.1517523527145386e-01" purity="8.8705706596374512e-01" nType="-99"/>
          <Node pos="r" depth="2" NCoef="0" IVar="-1" Cut="0.0000000000000000e+00" cType="1" res="4.1225017048418522e-04" rms="4.5858439803123474e-01" purity="6.8406784534454346e-01" nType="-99"/>
        </Node>
      </Node>
    </BinaryTree>
    <BinaryTree type="DecisionTree" boostWeight="1.0000000000000000e+00" itree="140">
      <Node pos="s" depth="0" NCoef="0" IVar="2" Cut="5.3826414062500000e+04" cType="1" res="3.4117940813302994e-02" rms="4.6804523468017578e-01" purity="5.0372684001922607e-01" nType="0">
        <Node pos="l" depth="1" NCoef="0" IVar="1" Cut="6.4230911254882812e+01" cType="1" res="-8.7600693106651306e-02" rms="4.5528110861778259e-01" purity="3.4743359684944153e-01" nType="0">
          <Node pos="l" depth="2" NCoef="0" IVar="-1" Cut="0.0000000000000000e+00" cType="1" res="-1.5688781859353185e-03" rms="3.7117329239845276e-01" purity="1.7142835259437561e-01" nType="-99"/>
          <Node pos="r" depth="2" NCoef="0" IVar="-1" Cut="0.0000000000000000e+00" cType="1" res="-6.6518136009108275e-05" rms="4.8236548900604248e-01" purity="4.4749465584754944e-01" nType="-99"/>
        </Node>
        <Node pos="r" depth="1" NCoef="0" IVar="1" Cut="2.3342872619628906e+02" cType="1" res="2.5673139095306396e-01" rms="4.0492963790893555e-01" purity="7.8957438468933105e-01" nType="0">
          <Node pos="l" depth="2" NCoef="0" IVar="-1" Cut="0.0000000000000000e+00" cType="1" res="4.5373334432952106e-04" rms="4.3836084008216858e-01" purity="7.3621374368667603e-01" nType="-99"/>
          <Node pos="r" depth="2" NCoef="0" IVar="-1" Cut="0.0000000000000000e+00" cType="1" res="6.9772882852703333e-04" rms="2.7024817466735840e-01" purity="9.2036074399948120e-01" nType="-99"/>
        </Node>
      </Node>
    </BinaryTree>
    <BinaryTree type="DecisionTree" boostWeight="1.0000000000000000e+00" itree="141">
      <Node pos="s" depth="0" NCoef="0" IVar="1" Cut="9.1298477172851562e+01" cType="1" res="2.1491361781954765e-02" rms="4.6734267473220825e-01" purity="4.9014118313789368e-01" nType="0">
        <Node pos="l" depth="1" NCoef="0" IVar="0" Cut="2.4367978796362877e-02" cType="1" res="-1.9433791935443878e-01" rms="3.8929495215415955e-01" purity="2.0607744157314301e-01" nType="0">
          <Node pos="l" depth="2" NCoef="0" IVar="-1" Cut="0.0000000000000000e+00" cType="1" res="-7.7731325291097164e-04" rms="4.4606739282608032e-01" purity="2.9941383004188538e-01" nType="-99"/>
          <Node pos="r" depth="2" NCoef="0" IVar="-1" Cut="0.0000000000000000e+00" cType="1" res="-3.8096965290606022e-03" rms="3.0635753273963928e-01" purity="1.1429959535598755e-01" nType="-99"/>
        </Node>
        <Node pos="r" depth="1" NCoef="0" IVar="2" Cut="7.2246000000000000e+04" cType="1" res="1.4100693166255951e-01" rms="4.6406167745590210e-01" purity="6.4744162559509277e-01" nType="0">
          <Node pos="l" depth="2" NCoef="0" IVar="-1" Cut="0.0000000000000000e+00" cType="1" res="2.0734476856887341e-04" rms="4.8525384068489075e-01" purity="5.5970382690429688e-01" nType="-99"/>
          <Node pos="r" depth="2" NCoef="0" IVar="-1" Cut="0.0000000000000000e+00" cType="1" res="5.6276674149557948e-04" rms="3.6332258582115173e-01" purity="8.4290808439254761e-01" nType="-99"/>
        </Node>
      </Node>
    </BinaryTree>
    <BinaryTree type="DecisionTree" boostWeight="1.0000000000000000e+00" itree="142">
      <Node pos="s" depth="0" NCoef="0" IVar="2" Cut="6.1173269531250000e+04" cType="1" res="3.5483412444591522e-02" rms="4.6667814254760742e-01" purity="5.0566798448562622e-01" nType="0">
        <Node pos="l" depth="1" NCoef="0" IVar="1" Cut="7.8285812377929688e+01" cType="1" res="-7.4562773108482361e-02" rms="4.5819753408432007e-01" purity="3.6604893207550049e-01" nType="0">
          <Node pos="l" depth="2" NCoef="0" IVar="-1" Cut="0.0000000000000000e+00" cType="1" res="-7.2267308132722974e-04" rms="3.7859755754470825e-01" purity="1.8565326929092407e-01" nType="-99"/>
          <Node pos="r" depth="2" NCoef="0" IVar="-1" Cut="0.0000000000000000e+00" cType="1" res="4.8911602789303288e-05" rms="4.8675858974456787e-01" purity="4.9259305000305176e-01" nType="-99"/>
        </Node>
        <Node pos="r" depth="1" NCoef="0" IVar="1" Cut="2.2627468872070312e+02" cType="1" res="2.8217786550521851e-01" rms="3.8388231396675110e-01" purity="8.1865704059600830e-01" nType="0">
          <Node pos="l" depth="2" NCoef="0" IVar="-1" Cut="0.0000000000000000e+00" cType="1" res="4.8446867731399834e-04" rms="4.2631849646568298e-01" purity="7.5925940275192261e-01" nType="-99"/>
          <Node pos="r" depth="2" NCoef="0" IVar="-1" Cut="0.0000000000000000e+00" cType="1" res="6.9749105023220181e-04" rms="2.6288533210754395e-01" purity="9.2517799139022827e-01" nType="-99"/>
        </Node>
      </Node>
    </BinaryTree>
    <BinaryTree type="DecisionTree" boostWeight="1.0000000000000000e+00" itree="143">
      <Node pos="s" depth="0" NCoef="0" IVar="1" Cut="1.0525318145751953e+02" cType="1" res="2.8277687728404999e-02" rms="4.6667218208312988e-01" purity="4.9770662188529968e-01" nType="0">
        <Node pos="l" depth="1" NCoef="0" IVar="0" Cut="1.2566522695124149e-02" cType="1" res="-1.7377655208110809e-01" rms="4.0496462583541870e-01" purity="2.3032078146934509e-01" nType="0">
          <Node pos="l" depth="2" NCoef="0" IVar="-1" Cut="0.0000000000000000e+00" cType="1" res="-8.7170650658663362e-05" rms="4.6926316618919373e-01" purity="3.7136125564575195e-01" nType="-99"/>
          <Node pos="r" depth="2" NCoef="0" IVar="-1" Cut="0.0000000000000000e+00" cType="1" res="-2.1802021656185389e-03" rms="3.6625289916992188e-01" purity="1.7687433958053589e-01" nType="-99"/>
        </Node>
        <Node pos="r" depth="1" NCoef="0" IVar="2" Cut="6.6204593750000000e+04" cType="1" res="1.6555693745613098e-01" rms="4.5578837394714355e-01" purity="6.7937332391738892e-01" nType="0">
          <Node pos="l" depth="2" NCoef="0" IVar="-1" Cut="0.0000000000000000e+00" cType="1" res="1.9490685372147709e-04" rms="4.8550358414649963e-01" purity="5.7351475954055786e-01" nType="-99"/>
          <Node pos="r" depth="2" NCoef="0" IVar="-1" Cut="0.0000000000000000e+00" cType="1" res="6.1748077860102057e-04" rms="3.8215795159339905e-01" purity="8.2142138481140137e-01" nType="-99"/>
        </Node>
      </Node>
    </BinaryTree>
    <BinaryTree type="DecisionTree" boostWeight="1.0000000000000000e+00" itree="144">
      <Node pos="s" depth="0" NCoef="0" IVar="1" Cut="1.3865666198730469e+02" cType="1" res="2.5233108550310135e-02" rms="4.6604400873184204e-01" purity="4.9410241842269897e-01" nType="0">
        <Node pos="l" depth="1" NCoef="0" IVar="1" Cut="6.5620018005371094e+01" cType="1" res="-1.2386373430490494e-01" rms="4.3549460172653198e-01" purity="2.9777050018310547e-01" nType="0">
          <Node pos="l" depth="2" NCoef="0" IVar="-1" Cut="0.0000000000000000e+00" cType="1" res="-2.7108530048280954e-03" rms="3.3484917879104614e-01" purity="1.3355645537376404e-01" nType="-99"/>
          <Node pos="r" depth="2" NCoef="0" IVar="-1" Cut="0.0000000000000000e+00" cType="1" res="-1.1283852654742077e-04" rms="4.7681283950805664e-01" purity="4.1994366049766541e-01" nType="-99"/>
        </Node>
        <Node pos="r" depth="1" NCoef="0" IVar="2" Cut="6.1173269531250000e+04" cType="1" res="2.0745462179183960e-01" rms="4.3644475936889648e-01" purity="7.3405313491821289e-01" nType="0">
          <Node pos="l" depth="2" NCoef="0" IVar="-1" Cut="0.0000000000000000e+00" cType="1" res="2.2907688980922103e-04" rms="4.8600766062736511e-01" purity="5.9944117069244385e-01" nType="-99"/>
          <Node pos="r" depth="2" NCoef="0" IVar="-1" Cut="0.0000000000000000e+00" cType="1" res="5.8773625642061234e-04" rms="3.9004230499267578e-01" purity="8.1158512830734253e-01" nType="-99"/>
        </Node>
      </Node>
    </BinaryTree>
    <BinaryTree type="DecisionTree" boostWeight="1.0000000000000000e+00" itree="145">
      <Node pos="s" depth="0" NCoef="0" IVar="2" Cut="5.3826414062500000e+04" cType="1" res="3.1806088984012604e-02" rms="4.6702671051025391e-01" purity="4.9983426928520203e-01" nType="0">
        <Node pos="l" depth="1" NCoef="0" IVar="1" Cut="7.8285812377929688e+01" cType="1" res="-8.4641724824905396e-02" rms="4.5446386933326721e-01" purity="3.4858360886573792e-01" nType="0">
          <Node pos="l" depth="2" NCoef="0" IVar="-1" Cut="0.0000000000000000e+00" cType="1" res="-7.0163898635655642e-04" rms="3.8255950808525085e-01" purity="1.9072663784027100e-01" nType="-99"/>
          <Node pos="r" depth="2" NCoef="0" IVar="-1" Cut="0.0000000000000000e+00" cType="1" res="2.1304515030351467e-05" rms="4.8687949776649475e-01" purity="4.7663104534149170e-01" nType="-99"/>
        </Node>
        <Node pos="r" depth="1" NCoef="0" IVar="1" Cut="2.2627468872070312e+02" cType="1" res="2.5262895226478577e-01" rms="4.0692719817161560e-01" purity="7.8665477037429810e-01" nType="0">
          <Node pos="l" depth="2" NCoef="0" IVar="-1" Cut="0.0000000000000000e+00" cType="1" res="4.2807598947547376e-04" rms="4.4321116805076599e-01" purity="7.2701317071914673e-01" nType="-99"/>
          <Node pos="r" depth="2" NCoef="0" IVar="-1" Cut="0.0000000000000000e+00" cType="1" res="5.9757661074399948e-04" rms="2.7775636315345764e-01" purity="9.1531956195831299e-01" nType="-99"/>
        </Node>
      </Node>
    </BinaryTree>
    <BinaryTree type="DecisionTree" boostWeight="1.0000000000000000e+00" itree="146">
      <Node pos="s" depth="0" NCoef="0" IVar="2" Cut="4.4136394531250000e+04" cType="1" res="3.0772596597671509e-02" rms="4.6593171358108521e-01" purity="4.9973550438880920e-01" nType="0">
        <Node pos="l" depth="1" NCoef="0" IVar="1" Cut="7.1804023742675781e+01" cType="1" res="-1.0576435178518295e-01" rms="4.4491869211196899e-01" purity="3.2122078537940979e-01" nType="0">
          <Node pos="l" depth="2" NCoef="0" IVar="-1" Cut="0.0000000000000000e+00" cType="1" res="-2.4933370295912027e-03" rms="3.5129779577255249e-01" purity="1.5211600065231323e-01" nType="-99"/>
          <Node pos="r" depth="2" NCoef="0" IVar="-1" Cut="0.0000000000000000e+00" cType="1" res="-3.6802848626393825e-05" rms="4.8413553833961487e-01" purity="4.5208391547203064e-01" nType="-99"/>
        </Node>
        <Node pos="r" depth="1" NCoef="0" IVar="1" Cut="2.3345391845703125e+02" cType="1" res="2.2798916697502136e-01" rms="4.2298507690429688e-01" purity="7.5758552551269531e-01" nType="0">
          <Node pos="l" depth="2" NCoef="0" IVar="-1" Cut="0.0000000000000000e+00" cType="1" res="4.6793167712166905e-04" rms="4.5646199584007263e-01" purity="6.9293880462646484e-01" nType="-99"/>
          <Node pos="r" depth="2" NCoef="0" IVar="-1" Cut="0.0000000000000000e+00" cType="1" res="5.8870518114417791e-04" rms="2.6249819993972778e-01" purity="9.2488217353820801e-01" nType="-99"/>
        </Node>
      </Node>
    </BinaryTree>
    <BinaryTree type="DecisionTree" boostWeight="1.0000000000000000e+00" itree="147">
      <Node pos="s" depth="0" NCoef="0" IVar="1" Cut="1.0517140960693359e+02" cType="1" res="3.3439893275499344e-02" rms="4.6836164593696594e-01" purity="4.9999532103538513e-01" nType="0">
        <Node pos="l" depth="1" NCoef="0" IVar="0" Cut="3.7411056458950043e-02" cType="1" res="-1.3772514462471008e-01" rms="4.2538860440254211e-01" purity="2.6432031393051147e-01" nType="0">
          <Node pos="l" depth="2" NCoef="0" IVar="-1" Cut="0.0000000000000000e+00" cType="1" res="-1.2182781938463449e-04" rms="4.6614181995391846e-01" purity="3.5336029529571533e-01" nType="-99"/>
          <Node pos="r" depth="2" NCoef="0" IVar="-1" Cut="0.0000000000000000e+00" cType="1" res="-4.7227009199559689e-03" rms="2.8572592139244080e-01" purity="8.9978501200675964e-02" nType="-99"/>
        </Node>
        <Node pos="r" depth="1" NCoef="0" IVar="2" Cut="6.6204593750000000e+04" cType="1" res="1.5841720998287201e-01" rms="4.5868811011314392e-01" purity="6.7207503318786621e-01" nType="0">
          <Node pos="l" depth="2" NCoef="0" IVar="-1" Cut="0.0000000000000000e+00" cType="1" res="1.9335607066750526e-04" rms="4.8743197321891785e-01" purity="5.6445723772048950e-01" nType="-99"/>
          <Node pos="r" depth="2" NCoef="0" IVar="-1" Cut="0.0000000000000000e+00" cType="1" res="6.1852444196119905e-04" rms="3.8639149069786072e-01" purity="8.1636655330657959e-01" nType="-99"/>
        </Node>
      </Node>
    </BinaryTree>
    <BinaryTree type="DecisionTree" boostWeight="1.0000000000000000e+00" itree="148">
      <Node pos="s" depth="0" NCoef="0" IVar="2" Cut="4.0782179687500000e+04" cType="1" res="4.0967844426631927e-02" rms="4.6665620803833008e-01" purity="5.0926011800765991e-01" nType="0">
        <Node pos="l" depth="1" NCoef="0" IVar="0" Cut="3.7699569016695023e-02" cType="1" res="-9.8470456898212433e-02" rms="4.4809636473655701e-01" purity="3.2511761784553528e-01" nType="0">
          <Node pos="l" depth="2" NCoef="0" IVar="-1" Cut="0.0000000000000000e+00" cType="1" res="-1.0961681255139410e-04" rms="4.7431418299674988e-01" purity="4.1216698288917542e-01" nType="-99"/>
          <Node pos="r" depth="2" NCoef="0" IVar="-1" Cut="0.0000000000000000e+00" cType="1" res="-1.4959630789235234e-03" rms="3.6813226342201233e-01" purity="1.7249409854412079e-01" nType="-99"/>
        </Node>
        <Node pos="r" depth="1" NCoef="0" IVar="0" Cut="4.0675096213817596e-02" cType="1" res="2.2345946729183197e-01" rms="4.2572084069252014e-01" purity="7.5025898218154907e-01" nType="0">
          <Node pos="l" depth="2" NCoef="0" IVar="-1" Cut="0.0000000000000000e+00" cType="1" res="6.5928976982831955e-04" rms="3.0809748172760010e-01" purity="8.9252483844757080e-01" nType="-99"/>
          <Node pos="r" depth="2" NCoef="0" IVar="-1" Cut="0.0000000000000000e+00" cType="1" res="3.4749522455967963e-04" rms="4.6002128720283508e-01" purity="6.7369747161865234e-01" nType="-99"/>
        </Node>
      </Node>
    </BinaryTree>
    <BinaryTree type="DecisionTree" boostWeight="1.0000000000000000e+00" itree="149">
      <Node pos="s" depth="0" NCoef="0" IVar="2" Cut="5.3398167968750000e+04" cType="1" res="3.7403695285320282e-02" rms="4.6697479486465454e-01" purity="5.0483316183090210e-01" nType="0">
        <Node pos="l" depth="1" NCoef="0" IVar="0" Cut="3.7628732621669769e-02" cType="1" res="-7.6968468725681305e-02" rms="4.5684373378753662e-01" purity="3.5482013225555420e-01" nType="0">
          <Node pos="l" depth="2" NCoef="0" IVar="-1" Cut="0.0000000000000000e+00" cType="1" res="-6.2233345943241147e-07" rms="4.7755756974220276e-01" purity="4.4542214274406433e-01" nType="-99"/>
          <Node pos="r" depth="2" NCoef="0" IVar="-1" Cut="0.0000000000000000e+00" cType="1" res="-1.6065334202721715e-03" rms="3.9490872621536255e-01" purity="2.1551688015460968e-01" nType="-99"/>
        </Node>
        <Node pos="r" depth="1" NCoef="0" IVar="1" Cut="2.0930497741699219e+02" cType="1" res="2.5415816903114319e-01" rms="4.0500569343566895e-01" purity="7.8913295269012451e-01" nType="0">
          <Node pos="l" depth="2" NCoef="0" IVar="-1" Cut="0.0000000000000000e+00" cType="1" res="4.7295971307903528e-04" rms="4.4760504364967346e-01" purity="7.1749061346054077e-01" nType="-99"/>
          <Node pos="r" depth="2" NCoef="0" IVar="-1" Cut="0.0000000000000000e+00" cType="1" res="5.7903095148503780e-04" rms="2.9442524909973145e-01" purity="9.0363526344299316e-01" nType="-99"/>
        </Node>
      </Node>
    </BinaryTree>
    <BinaryTree type="DecisionTree" boostWeight="1.0000000000000000e+00" itree="150">
      <Node pos="s" depth="0" NCoef="0" IVar="1" Cut="1.3922813415527344e+02" cType="1" res="4.4607717543840408e-02" rms="4.6489191055297852e-01" purity="5.1421070098876953e-01" nType="0">
        <Node pos="l" depth="1" NCoef="0" IVar="1" Cut="7.2354011535644531e+01" cType="1" res="-1.1228613555431366e-01" rms="4.4042053818702698e-01" purity="3.0625963211059570e-01" nType="0">
          <Node pos="l" depth="2" NCoef="0" IVar="-1" Cut="0.0000000000000000e+00" cType="1" res="-1.1965765152126551e-03" rms="3.6570271849632263e-01" purity="1.6730150580406189e-01" nType="-99"/>
          <Node pos="r" depth="2" NCoef="0" IVar="-1" Cut="0.0000000000000000e+00" cType="1" res="-7.7425866038538516e-05" rms="4.8103210330009460e-01" purity="4.3369486927986145e-01" nType="-99"/>
        </Node>
        <Node pos="r" depth="1" NCoef="0" IVar="2" Cut="6.7279531250000000e+04" cType="1" res="2.2577592730522156e-01" rms="4.2480620741844177e-01" purity="7.5433564186096191e-01" nType="0">
          <Node pos="l" depth="2" NCoef="0" IVar="-1" Cut="0.0000000000000000e+00" cType="1" res="3.0235757003538311e-04" rms="4.7661375999450684e-01" purity="6.3615697622299194e-01" nType="-99"/>
          <Node pos="r" depth="2" NCoef="0" IVar="-1" Cut="0.0000000000000000e+00" cType="1" res="5.2749068709090352e-04" rms="3.6032384634017944e-01" purity="8.4593689441680908e-01" nType="-99"/>
        </Node>
      </Node>
    </BinaryTree>
    <BinaryTree type="DecisionTree" boostWeight="1.0000000000000000e+00" itree="151">
      <Node pos="s" depth="0" NCoef="0" IVar="1" Cut="1.2500346374511719e+02" cType="1" res="3.6070950329303741e-02" rms="4.6604362130165100e-01" purity="5.0416076183319092e-01" nType="0">
        <Node pos="l" depth="1" NCoef="0" IVar="0" Cut="2.4367978796362877e-02" cType="1" res="-1.3112814724445343e-01" rms="4.3023446202278137e-01" purity="2.8005412220954895e-01" nType="0">
          <Node pos="l" depth="2" NCoef="0" IVar="-1" Cut="0.0000000000000000e+00" cType="1" res="-6.9914480263832957e-05" rms="4.7226303815841675e-01" purity="3.9933130145072937e-01" nType="-99"/>
          <Node pos="r" depth="2" NCoef="0" IVar="-1" Cut="0.0000000000000000e+00" cType="1" res="-1.9971476867794991e-03" rms="3.7268039584159851e-01" purity="1.8328905105590820e-01" nType="-99"/>
        </Node>
        <Node pos="r" depth="1" NCoef="0" IVar="2" Cut="7.1768554687500000e+04" cType="1" res="1.9512431323528290e-01" rms="4.4253414869308472e-01" purity="7.1734923124313354e-01" nType="0">
          <Node pos="l" depth="2" NCoef="0" IVar="-1" Cut="0.0000000000000000e+00" cType="1" res="2.9422476654872298e-04" rms="4.7920560836791992e-01" purity="6.2124502658843994e-01" nType="-99"/>
          <Node pos="r" depth="2" NCoef="0" IVar="-1" Cut="0.0000000000000000e+00" cType="1" res="5.3308228962123394e-04" rms="3.5458496212959290e-01" purity="8.5190194845199585e-01" nType="-99"/>
        </Node>
      </Node>
    </BinaryTree>
    <BinaryTree type="DecisionTree" boostWeight="1.0000000000000000e+00" itree="152">
      <Node pos="s" depth="0" NCoef="0" IVar="2" Cut="4.4136394531250000e+04" cType="1" res="2.3609993979334831e-02" rms="4.6559190750122070e-01" purity="4.9069824814796448e-01" nType="0">
        <Node pos="l" depth="1" NCoef="0" IVar="0" Cut="3.8101427257061005e-02" cType="1" res="-1.1414618790149689e-01" rms="4.4187024235725403e-01" purity="3.0891835689544678e-01" nType="0">
          <Node pos="l" depth="2" NCoef="0" IVar="-1" Cut="0.0000000000000000e+00" cType="1" res="-1.2711908493656665e-04" rms="4.7217637300491333e-01" purity="3.9652621746063232e-01" nType="-99"/>
          <Node pos="r" depth="2" NCoef="0" IVar="-1" Cut="0.0000000000000000e+00" cType="1" res="-2.5216946378350258e-03" rms="3.5448777675628662e-01" purity="1.6072805225849152e-01" nType="-99"/>
        </Node>
        <Node pos="r" depth="1" NCoef="0" IVar="1" Cut="2.5747207641601562e+02" cType="1" res="2.2235158085823059e-01" rms="4.2538934946060181e-01" purity="7.5295311212539673e-01" nType="0">
          <Node pos="l" depth="2" NCoef="0" IVar="-1" Cut="0.0000000000000000e+00" cType="1" res="4.0547442040406168e-04" rms="4.5347097516059875e-01" purity="6.9891804456710815e-01" nType="-99"/>
          <Node pos="r" depth="2" NCoef="0" IVar="-1" Cut="0.0000000000000000e+00" cType="1" res="5.6046876125037670e-04" rms="2.3894427716732025e-01" purity="9.3875855207443237e-01" nType="-99"/>
        </Node>
      </Node>
    </BinaryTree>
    <BinaryTree type="DecisionTree" boostWeight="1.0000000000000000e+00" itree="153">
      <Node pos="s" depth="0" NCoef="0" IVar="1" Cut="1.3738525390625000e+02" cType="1" res="2.7669565752148628e-02" rms="4.6308407187461853e-01" purity="4.9669298529624939e-01" nType="0">
        <Node pos="l" depth="1" NCoef="0" IVar="1" Cut="6.4962974548339844e+01" cType="1" res="-1.3925205171108246e-01" rms="4.2526146769523621e-01" purity="2.7662637829780579e-01" nType="0">
          <Node pos="l" depth="2" NCoef="0" IVar="-1" Cut="0.0000000000000000e+00" cType="1" res="-3.4379977732896805e-03" rms="3.2324171066284180e-01" purity="1.2409260869026184e-01" nType="-99"/>
          <Node pos="r" depth="2" NCoef="0" IVar="-1" Cut="0.0000000000000000e+00" cType="1" res="-2.1238203044049442e-04" rms="4.7216597199440002e-01" purity="3.9654320478439331e-01" nType="-99"/>
        </Node>
        <Node pos="r" depth="1" NCoef="0" IVar="2" Cut="6.1173269531250000e+04" cType="1" res="2.1375127136707306e-01" rms="4.3152710795402527e-01" purity="7.4201983213424683e-01" nType="0">
          <Node pos="l" depth="2" NCoef="0" IVar="-1" Cut="0.0000000000000000e+00" cType="1" res="1.9535486353561282e-04" rms="4.8954844474792480e-01" purity="5.8272933959960938e-01" nType="-99"/>
          <Node pos="r" depth="2" NCoef="0" IVar="-1" Cut="0.0000000000000000e+00" cType="1" res="5.1190564408898354e-04" rms="3.7834557890892029e-01" purity="8.2568824291229248e-01" nType="-99"/>
        </Node>
      </Node>
    </BinaryTree>
    <BinaryTree type="DecisionTree" boostWeight="1.0000000000000000e+00" itree="154">
      <Node pos="s" depth="0" NCoef="0" IVar="2" Cut="3.6123000000000000e+04" cType="1" res="2.2823387756943703e-02" rms="4.6408745646476746e-01" purity="4.9036720395088196e-01" nType="0">
        <Node pos="l" depth="1" NCoef="0" IVar="0" Cut="2.5085821747779846e-02" cType="1" res="-1.3504403829574585e-01" rms="4.2865443229675293e-01" purity="2.8388938307762146e-01" nType="0">
          <Node pos="l" depth="2" NCoef="0" IVar="-1" Cut="0.0000000000000000e+00" cType="1" res="-1.2659750063903630e-04" rms="4.7044363617897034e-01" purity="4.0681123733520508e-01" nType="-99"/>
          <Node pos="r" depth="2" NCoef="0" IVar="-1" Cut="0.0000000000000000e+00" cType="1" res="-2.1483881864696741e-03" rms="3.6339780688285828e-01" purity="1.7562495172023773e-01" nType="-99"/>
        </Node>
        <Node pos="r" depth="1" NCoef="0" IVar="2" Cut="6.8805875000000000e+04" cType="1" res="2.0086611807346344e-01" rms="4.3731674551963806e-01" purity="7.2323268651962280e-01" nType="0">
          <Node pos="l" depth="2" NCoef="0" IVar="-1" Cut="0.0000000000000000e+00" cType="1" res="2.2162316599860787e-04" rms="4.8321497440338135e-01" purity="5.9068685770034790e-01" nType="-99"/>
          <Node pos="r" depth="2" NCoef="0" IVar="-1" Cut="0.0000000000000000e+00" cType="1" res="5.4442661348730326e-04" rms="3.6450487375259399e-01" purity="8.4142667055130005e-01" nType="-99"/>
        </Node>
      </Node>
    </BinaryTree>
    <BinaryTree type="DecisionTree" boostWeight="1.0000000000000000e+00" itree="155">
      <Node pos="s" depth="0" NCoef="0" IVar="2" Cut="5.4184500000000000e+04" cType="1" res="3.3795025199651718e-02" rms="4.6421703696250916e-01" purity="5.0156599283218384e-01" nType="0">
        <Node pos="l" depth="1" NCoef="0" IVar="1" Cut="7.2103881835937500e+01" cType="1" res="-8.7301589548587799e-02" rms="4.5041358470916748e-01" purity="3.4319058060646057e-01" nType="0">
          <Node pos="l" depth="2" NCoef="0" IVar="-1" Cut="0.0000000000000000e+00" cType="1" res="-1.6480641206726432e-03" rms="3.6043909192085266e-01" purity="1.6050513088703156e-01" nType="-99"/>
          <Node pos="r" depth="2" NCoef="0" IVar="-1" Cut="0.0000000000000000e+00" cType="1" res="-4.2428891902090982e-06" rms="4.8292750120162964e-01" purity="4.6536651253700256e-01" nType="-99"/>
        </Node>
        <Node pos="r" depth="1" NCoef="0" IVar="0" Cut="4.1265200823545456e-02" cType="1" res="2.5671932101249695e-01" rms="4.0255197882652283e-01" purity="7.9311609268188477e-01" nType="0">
          <Node pos="l" depth="2" NCoef="0" IVar="-1" Cut="0.0000000000000000e+00" cType="1" res="4.6671662130393088e-04" rms="2.8016212582588196e-01" purity="9.1376036405563354e-01" nType="-99"/>
          <Node pos="r" depth="2" NCoef="0" IVar="-1" Cut="0.0000000000000000e+00" cType="1" res="4.3722821283154190e-04" rms="4.4574540853500366e-01" purity="7.2020334005355835e-01" nType="-99"/>
        </Node>
      </Node>
    </BinaryTree>
    <BinaryTree type="DecisionTree" boostWeight="1.0000000000000000e+00" itree="156">
      <Node pos="s" depth="0" NCoef="0" IVar="1" Cut="1.5836036682128906e+02" cType="1" res="2.1340690553188324e-02" rms="4.6435311436653137e-01" purity="4.8706775903701782e-01" nType="0">
        <Node pos="l" depth="1" NCoef="0" IVar="0" Cut="3.8101427257061005e-02" cType="1" res="-9.5747388899326324e-02" rms="4.4634684920310974e-01" purity="3.3296158909797668e-01" nType="0">
          <Node pos="l" depth="2" NCoef="0" IVar="-1" Cut="0.0000000000000000e+00" cType="1" res="-3.0046678148210049e-05" rms="4.7206091880798340e-01" purity="4.2768725752830505e-01" nType="-99"/>
          <Node pos="r" depth="2" NCoef="0" IVar="-1" Cut="0.0000000000000000e+00" cType="1" res="-2.0121121779084206e-03" rms="3.7147119641304016e-01" purity="1.8929940462112427e-01" nType="-99"/>
        </Node>
        <Node pos="r" depth="1" NCoef="0" IVar="1" Cut="2.4954165649414062e+02" cType="1" res="2.3287317156791687e-01" rms="4.1920793056488037e-01" purity="7.6547753810882568e-01" nType="0">
          <Node pos="l" depth="2" NCoef="0" IVar="-1" Cut="0.0000000000000000e+00" cType="1" res="3.6687278770841658e-04" rms="4.4797158241271973e-01" purity="7.1432757377624512e-01" nType="-99"/>
          <Node pos="r" depth="2" NCoef="0" IVar="-1" Cut="0.0000000000000000e+00" cType="1" res="7.1526993997395039e-04" rms="2.8112843632698059e-01" purity="9.1153091192245483e-01" nType="-99"/>
        </Node>
      </Node>
    </BinaryTree>
    <BinaryTree type="DecisionTree" boostWeight="1.0000000000000000e+00" itree="157">
      <Node pos="s" depth="0" NCoef="0" IVar="1" Cut="1.3922813415527344e+02" cType="1" res="4.2182791978120804e-02" rms="4.6452167630195618e-01" purity="5.0962150096893311e-01" nType="0">
        <Node pos="l" depth="1" NCoef="0" IVar="0" Cut="4.9881406128406525e-02" cType="1" res="-9.9276512861251831e-02" rms="4.4315490126609802e-01" purity="3.1729963421821594e-01" nType="0">
          <Node pos="l" depth="2" NCoef="0" IVar="-1" Cut="0.0000000000000000e+00" cType="1" res="-1.1409319995436817e-04" rms="4.6577635407447815e-01" purity="3.8804644346237183e-01" nType="-99"/>
          <Node pos="r" depth="2" NCoef="0" IVar="-1" Cut="0.0000000000000000e+00" cType="1" res="-4.3388917110860348e-03" rms="2.9605722427368164e-01" purity="1.0214115679264069e-01" nType="-99"/>
        </Node>
        <Node pos="r" depth="1" NCoef="0" IVar="2" Cut="6.6204593750000000e+04" cType="1" res="2.1448944509029388e-01" rms="4.3051096796989441e-01" purity="7.4388206005096436e-01" nType="0">
          <Node pos="l" depth="2" NCoef="0" IVar="-1" Cut="0.0000000000000000e+00" cType="1" res="2.5605689734220505e-04" rms="4.8335799574851990e-01" purity="6.1117947101593018e-01" nType="-99"/>
          <Node pos="r" depth="2" NCoef="0" IVar="-1" Cut="0.0000000000000000e+00" cType="1" res="5.2016822155565023e-04" rms="3.6835476756095886e-01" purity="8.3724981546401978e-01" nType="-99"/>
        </Node>
      </Node>
    </BinaryTree>
    <BinaryTree type="DecisionTree" boostWeight="1.0000000000000000e+00" itree="158">
      <Node pos="s" depth="0" NCoef="0" IVar="2" Cut="4.4136394531250000e+04" cType="1" res="4.1333358734846115e-02" rms="4.6466934680938721e-01" purity="5.0772380828857422e-01" nType="0">
        <Node pos="l" depth="1" NCoef="0" IVar="0" Cut="3.7699569016695023e-02" cType="1" res="-9.2120580375194550e-02" rms="4.4816192984580994e-01" purity="3.2892182469367981e-01" nType="0">
          <Node pos="l" depth="2" NCoef="0" IVar="-1" Cut="0.0000000000000000e+00" cType="1" res="-4.9252092139795423e-05" rms="4.7565278410911560e-01" purity="4.2624408006668091e-01" nType="-99"/>
          <Node pos="r" depth="2" NCoef="0" IVar="-1" Cut="0.0000000000000000e+00" cType="1" res="-2.7555059641599655e-03" rms="3.5672813653945923e-01" purity="1.5861053764820099e-01" nType="-99"/>
        </Node>
        <Node pos="r" depth="1" NCoef="0" IVar="0" Cut="4.1371610015630722e-02" cType="1" res="2.3286309838294983e-01" rms="4.1868779063224792e-01" purity="7.6433581113815308e-01" nType="0">
          <Node pos="l" depth="2" NCoef="0" IVar="-1" Cut="0.0000000000000000e+00" cType="1" res="6.1630818527191877e-04" rms="2.9902234673500061e-01" purity="8.9944672584533691e-01" nType="-99"/>
          <Node pos="r" depth="2" NCoef="0" IVar="-1" Cut="0.0000000000000000e+00" cType="1" res="3.3918314147740602e-04" rms="4.5859900116920471e-01" purity="6.8257790803909302e-01" nType="-99"/>
        </Node>
      </Node>
    </BinaryTree>
    <BinaryTree type="DecisionTree" boostWeight="1.0000000000000000e+00" itree="159">
      <Node pos="s" depth="0" NCoef="0" IVar="1" Cut="1.3725863647460938e+02" cType="1" res="3.0418274924159050e-02" rms="4.6463519334793091e-01" purity="4.9602106213569641e-01" nType="0">
        <Node pos="l" depth="1" NCoef="0" IVar="1" Cut="7.1410163879394531e+01" cType="1" res="-1.1513387411832809e-01" rms="4.3614551424980164e-01" purity="2.9805490374565125e-01" nType="0">
          <Node pos="l" depth="2" NCoef="0" IVar="-1" Cut="0.0000000000000000e+00" cType="1" res="-1.3401848264038563e-03" rms="3.6160778999328613e-01" purity="1.6267246007919312e-01" nType="-99"/>
          <Node pos="r" depth="2" NCoef="0" IVar="-1" Cut="0.0000000000000000e+00" cType="1" res="-1.0334004764445126e-04" rms="4.7800511121749878e-01" purity="4.2320558428764343e-01" nType="-99"/>
        </Node>
        <Node pos="r" depth="1" NCoef="0" IVar="2" Cut="8.1564359375000000e+04" cType="1" res="2.0331604778766632e-01" rms="4.3739107251167297e-01" purity="7.3118025064468384e-01" nType="0">
          <Node pos="l" depth="2" NCoef="0" IVar="-1" Cut="0.0000000000000000e+00" cType="1" res="4.0356017416343093e-04" rms="4.6369671821594238e-01" purity="6.7406737804412842e-01" nType="-99"/>
          <Node pos="r" depth="2" NCoef="0" IVar="-1" Cut="0.0000000000000000e+00" cType="1" res="5.4170686053112149e-04" rms="3.1548407673835754e-01" purity="8.8758587837219238e-01" nType="-99"/>
        </Node>
      </Node>
    </BinaryTree>
    <BinaryTree type="DecisionTree" boostWeight="1.0000000000000000e+00" itree="160">
      <Node pos="s" depth="0" NCoef="0" IVar="2" Cut="5.3826414062500000e+04" cType="1" res="4.1090350598096848e-02" rms="4.6428892016410828e-01" purity="5.0780802965164185e-01" nType="0">
        <Node pos="l" depth="1" NCoef="0" IVar="0" Cut="3.7628732621669769e-02" cType="1" res="-7.7885188162326813e-02" rms="4.5370984077453613e-01" purity="3.5030061006546021e-01" nType="0">
          <Node pos="l" depth="2" NCoef="0" IVar="-1" Cut="0.0000000000000000e+00" cType="1" res="1.8844162696041167e-05" rms="4.7704175114631653e-01" purity="4.5117869973182678e-01" nType="-99"/>
          <Node pos="r" depth="2" NCoef="0" IVar="-1" Cut="0.0000000000000000e+00" cType="1" res="-2.1669075358659029e-03" rms="3.7577348947525024e-01" purity="1.8930420279502869e-01" nType="-99"/>
        </Node>
        <Node pos="r" depth="1" NCoef="0" IVar="0" Cut="4.0699481964111328e-02" cType="1" res="2.5878292322158813e-01" rms="4.0005448460578918e-01" purity="7.9600340127944946e-01" nType="0">
          <Node pos="l" depth="2" NCoef="0" IVar="-1" Cut="0.0000000000000000e+00" cType="1" res="5.6880986085161567e-04" rms="2.8187853097915649e-01" purity="9.1252601146697998e-01" nType="-99"/>
          <Node pos="r" depth="2" NCoef="0" IVar="-1" Cut="0.0000000000000000e+00" cType="1" res="4.3937214650213718e-04" rms="4.3889278173446655e-01" purity="7.3287820816040039e-01" nType="-99"/>
        </Node>
      </Node>
    </BinaryTree>
    <BinaryTree type="DecisionTree" boostWeight="1.0000000000000000e+00" itree="161">
      <Node pos="s" depth="0" NCoef="0" IVar="1" Cut="1.3941770935058594e+02" cType="1" res="2.8802348300814629e-02" rms="4.6463519334793091e-01" purity="4.9383202195167542e-01" nType="0">
        <Node pos="l" depth="1" NCoef="0" IVar="0" Cut="3.7699569016695023e-02" cType="1" res="-1.0948320478200912e-01" rms="4.3858766555786133e-01" purity="3.0432629585266113e-01" nType="0">
          <Node pos="l" depth="2" NCoef="0" IVar="-1" Cut="0.0000000000000000e+00" cType="1" res="-8.2437334640417248e-05" rms="4.7208866477012634e-01" purity="4.0250551700592041e-01" nType="-99"/>
          <Node pos="r" depth="2" NCoef="0" IVar="-1" Cut="0.0000000000000000e+00" cType="1" res="-2.8470510151237249e-03" rms="3.3875116705894470e-01" purity="1.4220745861530304e-01" nType="-99"/>
        </Node>
        <Node pos="r" depth="1" NCoef="0" IVar="2" Cut="6.6204593750000000e+04" cType="1" res="2.0193797349929810e-01" rms="4.3751981854438782e-01" purity="7.3109608888626099e-01" nType="0">
          <Node pos="l" depth="2" NCoef="0" IVar="-1" Cut="0.0000000000000000e+00" cType="1" res="2.8316248790360987e-04" rms="4.8257061839103699e-01" purity="6.1435258388519287e-01" nType="-99"/>
          <Node pos="r" depth="2" NCoef="0" IVar="-1" Cut="0.0000000000000000e+00" cType="1" res="5.9800414601340890e-04" rms="3.8201525807380676e-01" purity="8.2158142328262329e-01" nType="-99"/>
        </Node>
      </Node>
    </BinaryTree>
    <BinaryTree type="DecisionTree" boostWeight="1.0000000000000000e+00" itree="162">
      <Node pos="s" depth="0" NCoef="0" IVar="1" Cut="1.3836579895019531e+02" cType="1" res="1.5098039992153645e-02" rms="4.6205541491508484e-01" purity="4.8093086481094360e-01" nType="0">
        <Node pos="l" depth="1" NCoef="0" IVar="1" Cut="7.1945259094238281e+01" cType="1" res="-1.3345636427402496e-01" rms="4.2540320754051208e-01" purity="2.7980506420135498e-01" nType="0">
          <Node pos="l" depth="2" NCoef="0" IVar="-1" Cut="0.0000000000000000e+00" cType="1" res="-2.8905188664793968e-03" rms="3.3082419633865356e-01" purity="1.3081085681915283e-01" nType="-99"/>
          <Node pos="r" depth="2" NCoef="0" IVar="-1" Cut="0.0000000000000000e+00" cType="1" res="-1.4373817248269916e-04" rms="4.7419980168342590e-01" purity="4.1271829605102539e-01" nType="-99"/>
        </Node>
        <Node pos="r" depth="1" NCoef="0" IVar="1" Cut="2.5792404174804688e+02" cType="1" res="1.9523650407791138e-01" rms="4.4014528393745422e-01" purity="7.2481793165206909e-01" nType="0">
          <Node pos="l" depth="2" NCoef="0" IVar="-1" Cut="0.0000000000000000e+00" cType="1" res="3.7491906550712883e-04" rms="4.6275532245635986e-01" purity="6.7514187097549438e-01" nType="-99"/>
          <Node pos="r" depth="2" NCoef="0" IVar="-1" Cut="0.0000000000000000e+00" cType="1" res="5.7294167345389724e-04" rms="2.6326778531074524e-01" purity="9.2353987693786621e-01" nType="-99"/>
        </Node>
      </Node>
    </BinaryTree>
    <BinaryTree type="DecisionTree" boostWeight="1.0000000000000000e+00" itree="163">
      <Node pos="s" depth="0" NCoef="0" IVar="1" Cut="1.0517140960693359e+02" cType="1" res="3.1668886542320251e-02" rms="4.6259543299674988e-01" purity="4.9778991937637329e-01" nType="0">
        <Node pos="l" depth="1" NCoef="0" IVar="1" Cut="3.9316909790039062e+01" cType="1" res="-1.7020244896411896e-01" rms="3.9928719401359558e-01" purity="2.2259879112243652e-01" nType="0">
          <Node pos="l" depth="2" NCoef="0" IVar="-1" Cut="0.0000000000000000e+00" cType="1" res="-3.8549087475985289e-03" rms="3.1102997064590454e-01" purity="1.0860525071620941e-01" nType="-99"/>
          <Node pos="r" depth="2" NCoef="0" IVar="-1" Cut="0.0000000000000000e+00" cType="1" res="-6.8208482116460800e-04" rms="4.3428584933280945e-01" purity="2.9246449470520020e-01" nType="-99"/>
        </Node>
        <Node pos="r" depth="1" NCoef="0" IVar="2" Cut="6.6204593750000000e+04" cType="1" res="1.6737256944179535e-01" rms="4.5261907577514648e-01" purity="6.8278127908706665e-01" nType="0">
          <Node pos="l" depth="2" NCoef="0" IVar="-1" Cut="0.0000000000000000e+00" cType="1" res="1.9348776550032198e-04" rms="4.8516985774040222e-01" purity="5.6817418336868286e-01" nType="-99"/>
          <Node pos="r" depth="2" NCoef="0" IVar="-1" Cut="0.0000000000000000e+00" cType="1" res="5.2149983821436763e-04" rms="3.7620225548744202e-01" purity="8.2810175418853760e-01" nType="-99"/>
        </Node>
      </Node>
    </BinaryTree>
    <BinaryTree type="DecisionTree" boostWeight="1.0000000000000000e+00" itree="164">
      <Node pos="s" depth="0" NCoef="0" IVar="2" Cut="3.5598781250000000e+04" cType="1" res="4.8774316906929016e-02" rms="4.6392193436622620e-01" purity="5.1411134004592896e-01" nType="0">
        <Node pos="l" depth="1" NCoef="0" IVar="0" Cut="1.2183989398181438e-02" cType="1" res="-1.0061088949441910e-01" rms="4.4293481111526489e-01" purity="3.1263622641563416e-01" nType="0">
          <Node pos="l" depth="2" NCoef="0" IVar="-1" Cut="0.0000000000000000e+00" cType="1" res="1.3420483446680009e-04" rms="4.8185691237449646e-01" purity="4.9321189522743225e-01" nType="-99"/>
          <Node pos="r" depth="2" NCoef="0" IVar="-1" Cut="0.0000000000000000e+00" cType="1" res="-9.6182449487969279e-04" rms="4.1160351037979126e-01" purity="2.4929618835449219e-01" nType="-99"/>
        </Node>
        <Node pos="r" depth="1" NCoef="0" IVar="0" Cut="4.1265200823545456e-02" cType="1" res="2.1448819339275360e-01" rms="4.2909196019172668e-01" purity="7.3760885000228882e-01" nType="0">
          <Node pos="l" depth="2" NCoef="0" IVar="-1" Cut="0.0000000000000000e+00" cType="1" res="6.9176510442048311e-04" rms="3.2836407423019409e-01" purity="8.7431293725967407e-01" nType="-99"/>
          <Node pos="r" depth="2" NCoef="0" IVar="-1" Cut="0.0000000000000000e+00" cType="1" res="3.6230846308171749e-04" rms="4.5809242129325867e-01" purity="6.6740202903747559e-01" nType="-99"/>
        </Node>
      </Node>
    </BinaryTree>
    <BinaryTree type="DecisionTree" boostWeight="1.0000000000000000e+00" itree="165">
      <Node pos="s" depth="0" NCoef="0" IVar="2" Cut="4.4136394531250000e+04" cType="1" res="2.0032148808240891e-02" rms="4.6206805109977722e-01" purity="4.8539513349533081e-01" nType="0">
        <Node pos="l" depth="1" NCoef="0" IVar="1" Cut="6.6879081726074219e+01" cType="1" res="-1.0891727358102798e-01" rms="4.3728759884834290e-01" purity="3.1138047575950623e-01" nType="0">
          <Node pos="l" depth="2" NCoef="0" IVar="-1" Cut="0.0000000000000000e+00" cType="1" res="-3.5715457051992416e-03" rms="3.1784889101982117e-01" purity="1.1934052407741547e-01" nType="-99"/>
          <Node pos="r" depth="2" NCoef="0" IVar="-1" Cut="0.0000000000000000e+00" cType="1" res="-5.4545449529541656e-05" rms="4.7811511158943176e-01" purity="4.3661418557167053e-01" nType="-99"/>
        </Node>
        <Node pos="r" depth="1" NCoef="0" IVar="1" Cut="2.0734350585937500e+02" cType="1" res="2.1123953163623810e-01" rms="4.3050792813301086e-01" purity="7.4342572689056396e-01" nType="0">
          <Node pos="l" depth="2" NCoef="0" IVar="-1" Cut="0.0000000000000000e+00" cType="1" res="3.6112978705205023e-04" rms="4.6439757943153381e-01" purity="6.7047399282455444e-01" nType="-99"/>
          <Node pos="r" depth="2" NCoef="0" IVar="-1" Cut="0.0000000000000000e+00" cType="1" res="5.8748992159962654e-04" rms="3.1826934218406677e-01" purity="8.8446623086929321e-01" nType="-99"/>
        </Node>
      </Node>
    </BinaryTree>
    <BinaryTree type="DecisionTree" boostWeight="1.0000000000000000e+00" itree="166">
      <Node pos="s" depth="0" NCoef="0" IVar="2" Cut="6.1173269531250000e+04" cType="1" res="2.2667024284601212e-02" rms="4.6256053447723389e-01" purity="4.8693206906318665e-01" nType="0">
        <Node pos="l" depth="1" NCoef="0" IVar="1" Cut="7.1885795593261719e+01" cType="1" res="-7.9397834837436676e-02" rms="4.5149460434913635e-01" purity="3.5182511806488037e-01" nType="0">
          <Node pos="l" depth="2" NCoef="0" IVar="-1" Cut="0.0000000000000000e+00" cType="1" res="-2.2949518170207739e-03" rms="3.6080023646354675e-01" purity="1.6266916692256927e-01" nType="-99"/>
          <Node pos="r" depth="2" NCoef="0" IVar="-1" Cut="0.0000000000000000e+00" cType="1" res="-3.7138968309591291e-06" rms="4.8270094394683838e-01" purity="4.6809783577919006e-01" nType="-99"/>
        </Node>
        <Node pos="r" depth="1" NCoef="0" IVar="1" Cut="2.2627468872070312e+02" cType="1" res="2.6329708099365234e-01" rms="3.9414024353027344e-01" purity="8.0546289682388306e-01" nType="0">
          <Node pos="l" depth="2" NCoef="0" IVar="-1" Cut="0.0000000000000000e+00" cType="1" res="4.1686100303195417e-04" rms="4.2912754416465759e-01" purity="7.5400358438491821e-01" nType="-99"/>
          <Node pos="r" depth="2" NCoef="0" IVar="-1" Cut="0.0000000000000000e+00" cType="1" res="6.3023937400430441e-04" rms="2.8341042995452881e-01" purity="9.1173595190048218e-01" nType="-99"/>
        </Node>
      </Node>
    </BinaryTree>
    <BinaryTree type="DecisionTree" boostWeight="1.0000000000000000e+00" itree="167">
      <Node pos="s" depth="0" NCoef="0" IVar="2" Cut="5.3826414062500000e+04" cType="1" res="2.6753280311822891e-02" rms="4.6305197477340698e-01" purity="4.9052897095680237e-01" nType="0">
        <Node pos="l" depth="1" NCoef="0" IVar="0" Cut="3.8101427257061005e-02" cType="1" res="-8.6454406380653381e-02" rms="4.4859039783477783e-01" purity="3.3797547221183777e-01" nType="0">
          <Node pos="l" depth="2" NCoef="0" IVar="-1" Cut="0.0000000000000000e+00" cType="1" res="-5.5481043091276661e-05" rms="4.7174522280693054e-01" purity="4.2796701192855835e-01" nType="-99"/>
          <Node pos="r" depth="2" NCoef="0" IVar="-1" Cut="0.0000000000000000e+00" cType="1" res="-1.7842749366536736e-03" rms="3.8512194156646729e-01" purity="2.0130422711372375e-01" nType="-99"/>
        </Node>
        <Node pos="r" depth="1" NCoef="0" IVar="0" Cut="4.2971774935722351e-02" cType="1" res="2.4194812774658203e-01" rms="4.1086181998252869e-01" purity="7.8051555156707764e-01" nType="0">
          <Node pos="l" depth="2" NCoef="0" IVar="-1" Cut="0.0000000000000000e+00" cType="1" res="7.1085151284933090e-04" rms="3.1113961338996887e-01" purity="8.9052516222000122e-01" nType="-99"/>
          <Node pos="r" depth="2" NCoef="0" IVar="-1" Cut="0.0000000000000000e+00" cType="1" res="3.9107204065658152e-04" rms="4.4565907120704651e-01" purity="7.1978002786636353e-01" nType="-99"/>
        </Node>
      </Node>
    </BinaryTree>
    <BinaryTree type="DecisionTree" boostWeight="1.0000000000000000e+00" itree="168">
      <Node pos="s" depth="0" NCoef="0" IVar="2" Cut="4.4136394531250000e+04" cType="1" res="3.9482094347476959e-02" rms="4.6245831251144409e-01" purity="5.0467884540557861e-01" nType="0">
        <Node pos="l" depth="1" NCoef="0" IVar="1" Cut="3.5614398956298828e+01" cType="1" res="-9.1322191059589386e-02" rms="4.4500824809074402e-01" purity="3.2663309574127197e-01" nType="0">
          <Node pos="l" depth="2" NCoef="0" IVar="-1" Cut="0.0000000000000000e+00" cType="1" res="-3.1284820288419724e-03" rms="3.0202078819274902e-01" purity="1.0340386629104614e-01" nType="-99"/>
          <Node pos="r" depth="2" NCoef="0" IVar="-1" Cut="0.0000000000000000e+00" cType="1" res="-1.0065203969134018e-04" rms="4.6634569764137268e-01" purity="3.9294299483299255e-01" nType="-99"/>
        </Node>
        <Node pos="r" depth="1" NCoef="0" IVar="0" Cut="4.2733144015073776e-02" cType="1" res="2.2773446142673492e-01" rms="4.2023161053657532e-01" purity="7.6092070341110229e-01" nType="0">
          <Node pos="l" depth="2" NCoef="0" IVar="-1" Cut="0.0000000000000000e+00" cType="1" res="5.7523458963260055e-04" rms="3.1732022762298584e-01" purity="8.8497072458267212e-01" nType="-99"/>
          <Node pos="r" depth="2" NCoef="0" IVar="-1" Cut="0.0000000000000000e+00" cType="1" res="3.5034329630434513e-04" rms="4.5628413558006287e-01" purity="6.8586301803588867e-01" nType="-99"/>
        </Node>
      </Node>
    </BinaryTree>
    <BinaryTree type="DecisionTree" boostWeight="1.0000000000000000e+00" itree="169">
      <Node pos="s" depth="0" NCoef="0" IVar="2" Cut="4.4136394531250000e+04" cType="1" res="2.5987060740590096e-02" rms="4.6235159039497375e-01" purity="4.8990374803543091e-01" nType="0">
        <Node pos="l" depth="1" NCoef="0" IVar="1" Cut="5.5164863586425781e+01" cType="1" res="-1.0119809210300446e-01" rms="4.4025489687919617e-01" purity="3.1586435437202454e-01" nType="0">
          <Node pos="l" depth="2" NCoef="0" IVar="-1" Cut="0.0000000000000000e+00" cType="1" res="-1.7913667252287269e-03" rms="3.3371010422706604e-01" purity="1.3168753683567047e-01" nType="-99"/>
          <Node pos="r" depth="2" NCoef="0" IVar="-1" Cut="0.0000000000000000e+00" cType="1" res="-1.1908524174941704e-04" rms="4.7180548310279846e-01" purity="4.1138130426406860e-01" nType="-99"/>
        </Node>
        <Node pos="r" depth="1" NCoef="0" IVar="0" Cut="4.3547160923480988e-02" cType="1" res="2.1263879537582397e-01" rms="4.2948889732360840e-01" purity="7.4531686305999756e-01" nType="0">
          <Node pos="l" depth="2" NCoef="0" IVar="-1" Cut="0.0000000000000000e+00" cType="1" res="6.2391045503318310e-04" rms="3.4080272912979126e-01" purity="8.6406379938125610e-01" nType="-99"/>
          <Node pos="r" depth="2" NCoef="0" IVar="-1" Cut="0.0000000000000000e+00" cType="1" res="3.9258089964278042e-04" rms="4.5839866995811462e-01" purity="6.8103337287902832e-01" nType="-99"/>
        </Node>
      </Node>
    </BinaryTree>
    <BinaryTree type="DecisionTree" boostWeight="1.0000000000000000e+00" itree="170">
      <Node pos="s" depth="0" NCoef="0" IVar="2" Cut="5.3826414062500000e+04" cType="1" res="4.2578965425491333e-02" rms="4.6189513802528381e-01" purity="5.0774508714675903e-01" nType="0">
        <Node pos="l" depth="1" NCoef="0" IVar="1" Cut="7.2004119873046875e+01" cType="1" res="-7.6370395720005035e-02" rms="4.5103859901428223e-01" purity="3.4796610474586487e-01" nType="0">
          <Node pos="l" depth="2" NCoef="0" IVar="-1" Cut="0.0000000000000000e+00" cType="1" res="-9.0927659766748548e-04" rms="3.5982415080070496e-01" purity="1.6119770705699921e-01" nType="-99"/>
          <Node pos="r" depth="2" NCoef="0" IVar="-1" Cut="0.0000000000000000e+00" cType="1" res="3.1016352295409888e-05" rms="4.8381343483924866e-01" purity="4.7116693854331970e-01" nType="-99"/>
        </Node>
        <Node pos="r" depth="1" NCoef="0" IVar="0" Cut="3.8859125226736069e-02" cType="1" res="2.5808075070381165e-01" rms="3.9903473854064941e-01" purity="7.9721820354461670e-01" nType="0">
          <Node pos="l" depth="2" NCoef="0" IVar="-1" Cut="0.0000000000000000e+00" cType="1" res="5.9578672517091036e-04" rms="2.7959543466567993e-01" purity="9.1426479816436768e-01" nType="-99"/>
          <Node pos="r" depth="2" NCoef="0" IVar="-1" Cut="0.0000000000000000e+00" cType="1" res="3.8920450606383383e-04" rms="4.3377473950386047e-01" purity="7.4211251735687256e-01" nType="-99"/>
        </Node>
      </Node>
    </BinaryTree>
    <BinaryTree type="DecisionTree" boostWeight="1.0000000000000000e+00" itree="171">
      <Node pos="s" depth="0" NCoef="0" IVar="1" Cut="1.3941770935058594e+02" cType="1" res="3.3069476485252380e-02" rms="4.6244868636131287e-01" purity="4.9703574180603027e-01" nType="0">
        <Node pos="l" depth="1" NCoef="0" IVar="1" Cut="6.5873077392578125e+01" cType="1" res="-1.1138565093278885e-01" rms="4.3507555127143860e-01" purity="2.9729312658309937e-01" nType="0">
          <Node pos="l" depth="2" NCoef="0" IVar="-1" Cut="0.0000000000000000e+00" cType="1" res="-7.5835699681192636e-04" rms="3.5919138789176941e-01" purity="1.5933595597743988e-01" nType="-99"/>
          <Node pos="r" depth="2" NCoef="0" IVar="-1" Cut="0.0000000000000000e+00" cType="1" res="-1.6323769523296505e-04" rms="4.7366228699684143e-01" purity="4.0589490532875061e-01" nType="-99"/>
        </Node>
        <Node pos="r" depth="1" NCoef="0" IVar="2" Cut="6.6204593750000000e+04" cType="1" res="2.0743128657341003e-01" rms="4.3350163102149963e-01" purity="7.3813128471374512e-01" nType="0">
          <Node pos="l" depth="2" NCoef="0" IVar="-1" Cut="0.0000000000000000e+00" cType="1" res="2.8084454243071377e-04" rms="4.8224881291389465e-01" purity="6.1627441644668579e-01" nType="-99"/>
          <Node pos="r" depth="2" NCoef="0" IVar="-1" Cut="0.0000000000000000e+00" cType="1" res="5.0599087262526155e-04" rms="3.7460336089134216e-01" purity="8.3020937442779541e-01" nType="-99"/>
        </Node>
      </Node>
    </BinaryTree>
    <BinaryTree type="DecisionTree" boostWeight="1.0000000000000000e+00" itree="172">
      <Node pos="s" depth="0" NCoef="0" IVar="1" Cut="1.3828833007812500e+02" cType="1" res="3.8954321295022964e-02" rms="4.6170645952224731e-01" purity="5.0427210330963135e-01" nType="0">
        <Node pos="l" depth="1" NCoef="0" IVar="0" Cut="3.7699569016695023e-02" cType="1" res="-1.1182058602571487e-01" rms="4.3466696143150330e-01" purity="2.9573988914489746e-01" nType="0">
          <Node pos="l" depth="2" NCoef="0" IVar="-1" Cut="0.0000000000000000e+00" cType="1" res="-1.2456749391276389e-04" rms="4.6845164895057678e-01" purity="3.9179489016532898e-01" nType="-99"/>
          <Node pos="r" depth="2" NCoef="0" IVar="-1" Cut="0.0000000000000000e+00" cType="1" res="-3.2386279199272394e-03" rms="3.3494457602500916e-01" purity="1.3576178252696991e-01" nType="-99"/>
        </Node>
        <Node pos="r" depth="1" NCoef="0" IVar="2" Cut="6.1173269531250000e+04" cType="1" res="2.1153783798217773e-01" rms="4.3024387955665588e-01" purity="7.4296712875366211e-01" nType="0">
          <Node pos="l" depth="2" NCoef="0" IVar="-1" Cut="0.0000000000000000e+00" cType="1" res="2.4126612697727978e-04" rms="4.8401531577110291e-01" purity="6.0222172737121582e-01" nType="-99"/>
          <Node pos="r" depth="2" NCoef="0" IVar="-1" Cut="0.0000000000000000e+00" cType="1" res="4.8186667845584452e-04" rms="3.8228201866149902e-01" purity="8.2081276178359985e-01" nType="-99"/>
        </Node>
      </Node>
    </BinaryTree>
    <BinaryTree type="DecisionTree" boostWeight="1.0000000000000000e+00" itree="173">
      <Node pos="s" depth="0" NCoef="0" IVar="2" Cut="5.3826414062500000e+04" cType="1" res="4.3589714914560318e-02" rms="4.6153524518013000e-01" purity="5.0834667682647705e-01" nType="0">
        <Node pos="l" depth="1" NCoef="0" IVar="0" Cut="3.8101427257061005e-02" cType="1" res="-7.3717176914215088e-02" rms="4.5158851146697998e-01" purity="3.4895318746566772e-01" nType="0">
          <Node pos="l" depth="2" NCoef="0" IVar="-1" Cut="0.0000000000000000e+00" cType="1" res="1.3180257155909203e-05" rms="4.7513329982757568e-01" purity="4.4345369935035706e-01" nType="-99"/>
          <Node pos="r" depth="2" NCoef="0" IVar="-1" Cut="0.0000000000000000e+00" cType="1" res="-1.7008514842018485e-03" rms="3.8103649020195007e-01" purity="2.0120976865291595e-01" nType="-99"/>
        </Node>
        <Node pos="r" depth="1" NCoef="0" IVar="1" Cut="2.4236637878417969e+02" cType="1" res="2.5483939051628113e-01" rms="3.9995443820953369e-01" purity="7.9538708925247192e-01" nType="0">
          <Node pos="l" depth="2" NCoef="0" IVar="-1" Cut="0.0000000000000000e+00" cType="1" res="4.2607853538356721e-04" rms="4.3740573525428772e-01" purity="7.3659986257553101e-01" nType="-99"/>
          <Node pos="r" depth="2" NCoef="0" IVar="-1" Cut="0.0000000000000000e+00" cType="1" res="5.9359491569921374e-04" rms="2.4540947377681732e-01" purity="9.3536365032196045e-01" nType="-99"/>
        </Node>
      </Node>
    </BinaryTree>
    <BinaryTree type="DecisionTree" boostWeight="1.0000000000000000e+00" itree="174">
      <Node pos="s" depth="0" NCoef="0" IVar="1" Cut="1.2492347717285156e+02" cType="1" res="4.0796391665935516e-02" rms="4.6026697754859924e-01" purity="5.0688201189041138e-01" nType="0">
        <Node pos="l" depth="1" NCoef="0" IVar="0" Cut="1.2566522695124149e-02" cType="1" res="-1.3683509826660156e-01" rms="4.1933327913284302e-01" purity="2.6316320896148682e-01" nType="0">
          <Node pos="l" depth="2" NCoef="0" IVar="-1" Cut="0.0000000000000000e+00" cType="1" res="3.0933872039895505e-05" rms="4.7705930471420288e-01" purity="4.3557092547416687e-01" nType="-99"/>
          <Node pos="r" depth="2" NCoef="0" IVar="-1" Cut="0.0000000000000000e+00" cType="1" res="-1.6668830066919327e-03" rms="3.8084349036216736e-01" purity="2.0224048197269440e-01" nType="-99"/>
        </Node>
        <Node pos="r" depth="1" NCoef="0" IVar="2" Cut="6.1173269531250000e+04" cType="1" res="2.0109815895557404e-01" rms="4.3608137965202332e-01" purity="7.2682362794876099e-01" nType="0">
          <Node pos="l" depth="2" NCoef="0" IVar="-1" Cut="0.0000000000000000e+00" cType="1" res="1.8573280249256641e-04" rms="4.8552647233009338e-01" purity="5.8470541238784790e-01" nType="-99"/>
          <Node pos="r" depth="2" NCoef="0" IVar="-1" Cut="0.0000000000000000e+00" cType="1" res="5.2905076881870627e-04" rms="3.7831106781959534e-01" purity="8.2506960630416870e-01" nType="-99"/>
        </Node>
      </Node>
    </BinaryTree>
    <BinaryTree type="DecisionTree" boostWeight="1.0000000000000000e+00" itree="175">
      <Node pos="s" depth="0" NCoef="0" IVar="1" Cut="1.3186917114257812e+02" cType="1" res="4.0809888392686844e-02" rms="4.5914074778556824e-01" purity="5.0753062963485718e-01" nType="0">
        <Node pos="l" depth="1" NCoef="0" IVar="1" Cut="6.8656929016113281e+01" cType="1" res="-1.4348979294300079e-01" rms="4.1628462076187134e-01" purity="2.5797897577285767e-01" nType="0">
          <Node pos="l" depth="2" NCoef="0" IVar="-1" Cut="0.0000000000000000e+00" cType="1" res="-2.5937135796993971e-03" rms="3.4181037545204163e-01" purity="1.3955871760845184e-01" nType="-99"/>
          <Node pos="r" depth="2" NCoef="0" IVar="-1" Cut="0.0000000000000000e+00" cType="1" res="-3.5398718318901956e-04" rms="4.6432775259017944e-01" purity="3.7111687660217285e-01" nType="-99"/>
        </Node>
        <Node pos="r" depth="1" NCoef="0" IVar="1" Cut="2.4565023803710938e+02" cType="1" res="2.1610754728317261e-01" rms="4.2832052707672119e-01" purity="7.4489313364028931e-01" nType="0">
          <Node pos="l" depth="2" NCoef="0" IVar="-1" Cut="0.0000000000000000e+00" cType="1" res="3.7257050280459225e-04" rms="4.5288112759590149e-01" purity="6.9753885269165039e-01" nType="-99"/>
          <Node pos="r" depth="2" NCoef="0" IVar="-1" Cut="0.0000000000000000e+00" cType="1" res="5.1428709411993623e-04" rms="2.6480844616889954e-01" purity="9.2220795154571533e-01" nType="-99"/>
        </Node>
      </Node>
    </BinaryTree>
    <BinaryTree type="DecisionTree" boostWeight="1.0000000000000000e+00" itree="176">
      <Node pos="s" depth="0" NCoef="0" IVar="1" Cut="1.3158508300781250e+02" cType="1" res="2.2398261353373528e-02" rms="4.6118804812431335e-01" purity="4.8474270105361938e-01" nType="0">
        <Node pos="l" depth="1" NCoef="0" IVar="1" Cut="3.6733722686767578e+01" cType="1" res="-1.3905356824398041e-01" rms="4.1930681467056274e-01" purity="2.6103201508522034e-01" nType="0">
          <Node pos="l" depth="2" NCoef="0" IVar="-1" Cut="0.0000000000000000e+00" cType="1" res="-2.9290479142218828e-03" rms="3.2026138901710510e-01" purity="1.1772264540195465e-01" nType="-99"/>
          <Node pos="r" depth="2" NCoef="0" IVar="-1" Cut="0.0000000000000000e+00" cType="1" res="-4.4029712444171309e-04" rms="4.4577872753143311e-01" purity="3.1947672367095947e-01" nType="-99"/>
        </Node>
        <Node pos="r" depth="1" NCoef="0" IVar="2" Cut="6.8965093750000000e+04" cType="1" res="1.9143810868263245e-01" rms="4.4208315014839172e-01" purity="7.1896749734878540e-01" nType="0">
          <Node pos="l" depth="2" NCoef="0" IVar="-1" Cut="0.0000000000000000e+00" cType="1" res="2.9929427546449006e-04" rms="4.8092529177665710e-01" purity="6.1689841747283936e-01" nType="-99"/>
          <Node pos="r" depth="2" NCoef="0" IVar="-1" Cut="0.0000000000000000e+00" cType="1" res="5.4741592612117529e-04" rms="3.7258851528167725e-01" purity="8.3243322372436523e-01" nType="-99"/>
        </Node>
      </Node>
    </BinaryTree>
    <BinaryTree type="DecisionTree" boostWeight="1.0000000000000000e+00" itree="177">
      <Node pos="s" depth="0" NCoef="0" IVar="2" Cut="5.2699613281250000e+04" cType="1" res="4.8537693917751312e-02" rms="4.6080309152603149e-01" purity="5.1273959875106812e-01" nType="0">
        <Node pos="l" depth="1" NCoef="0" IVar="1" Cut="7.1623527526855469e+01" cType="1" res="-6.4153864979743958e-02" rms="4.5249521732330322e-01" purity="3.5794755816459656e-01" nType="0">
          <Node pos="l" depth="2" NCoef="0" IVar="-1" Cut="0.0000000000000000e+00" cType="1" res="-1.2176951859146357e-03" rms="3.6650499701499939e-01" purity="1.7012377083301544e-01" nType="-99"/>
          <Node pos="r" depth="2" NCoef="0" IVar="-1" Cut="0.0000000000000000e+00" cType="1" res="7.2430222644470632e-05" rms="4.8282876610755920e-01" purity="4.8259338736534119e-01" nType="-99"/>
        </Node>
        <Node pos="r" depth="1" NCoef="0" IVar="0" Cut="4.2839553207159042e-02" cType="1" res="2.5207093358039856e-01" rms="4.0209594368934631e-01" purity="7.9231083393096924e-01" nType="0">
          <Node pos="l" depth="2" NCoef="0" IVar="-1" Cut="0.0000000000000000e+00" cType="1" res="5.1544967573136091e-04" rms="3.0229121446609497e-01" purity="8.9765202999114990e-01" nType="-99"/>
          <Node pos="r" depth="2" NCoef="0" IVar="-1" Cut="0.0000000000000000e+00" cType="1" res="3.7575038732029498e-04" rms="4.3718540668487549e-01" purity="7.3428547382354736e-01" nType="-99"/>
        </Node>
      </Node>
    </BinaryTree>
    <BinaryTree type="DecisionTree" boostWeight="1.0000000000000000e+00" itree="178">
      <Node pos="s" depth="0" NCoef="0" IVar="2" Cut="4.0782179687500000e+04" cType="1" res="4.1645299643278122e-02" rms="4.6072793006896973e-01" purity="5.0584316253662109e-01" nType="0">
        <Node pos="l" depth="1" NCoef="0" IVar="0" Cut="3.7628732621669769e-02" cType="1" res="-9.7962073981761932e-02" rms="4.4019252061843872e-01" purity="3.1379777193069458e-01" nType="0">
          <Node pos="l" depth="2" NCoef="0" IVar="-1" Cut="0.0000000000000000e+00" cType="1" res="-4.8773337766760960e-05" rms="4.7267657518386841e-01" purity="4.1286572813987732e-01" nType="-99"/>
          <Node pos="r" depth="2" NCoef="0" IVar="-1" Cut="0.0000000000000000e+00" cType="1" res="-3.5601486451923847e-03" rms="3.2689681649208069e-01" purity="1.3161110877990723e-01" nType="-99"/>
        </Node>
        <Node pos="r" depth="1" NCoef="0" IVar="0" Cut="3.9251808077096939e-02" cType="1" res="2.2101809084415436e-01" rms="4.2287620902061462e-01" purity="7.5259035825729370e-01" nType="0">
          <Node pos="l" depth="2" NCoef="0" IVar="-1" Cut="0.0000000000000000e+00" cType="1" res="6.3313893042504787e-04" rms="3.1013292074203491e-01" purity="8.9060550928115845e-01" nType="-99"/>
          <Node pos="r" depth="2" NCoef="0" IVar="-1" Cut="0.0000000000000000e+00" cType="1" res="3.3413569326512516e-04" rms="4.5171070098876953e-01" purity="6.9151914119720459e-01" nType="-99"/>
        </Node>
      </Node>
    </BinaryTree>
    <BinaryTree type="DecisionTree" boostWeight="1.0000000000000000e+00" itree="179">
      <Node pos="s" depth="0" NCoef="0" IVar="2" Cut="5.2699613281250000e+04" cType="1" res="3.4603700041770935e-02" rms="4.6061331033706665e-01" purity="4.9760162830352783e-01" nType="0">
        <Node pos="l" depth="1" NCoef="0" IVar="1" Cut="7.8404129028320312e+01" cType="1" res="-7.9583622515201569e-02" rms="4.4756403565406799e-01" purity="3.4061601758003235e-01" nType="0">
          <Node pos="l" depth="2" NCoef="0" IVar="-1" Cut="0.0000000000000000e+00" cType="1" res="-7.1616173954680562e-04" rms="3.7748894095420837e-01" purity="1.8764096498489380e-01" nType="-99"/>
          <Node pos="r" depth="2" NCoef="0" IVar="-1" Cut="0.0000000000000000e+00" cType="1" res="1.6477597455377690e-05" rms="4.8285114765167236e-01" purity="4.6851062774658203e-01" nType="-99"/>
        </Node>
        <Node pos="r" depth="1" NCoef="0" IVar="1" Cut="2.3384078979492188e+02" cType="1" res="2.4192979931831360e-01" rms="4.0868580341339111e-01" purity="7.8263515233993530e-01" nType="0">
          <Node pos="l" depth="2" NCoef="0" IVar="-1" Cut="0.0000000000000000e+00" cType="1" res="4.3813468073494732e-04" rms="4.4288268685340881e-01" purity="7.2559905052185059e-01" nType="-99"/>
          <Node pos="r" depth="2" NCoef="0" IVar="-1" Cut="0.0000000000000000e+00" cType="1" res="5.7248509256169200e-04" rms="2.6367723941802979e-01" purity="9.2447668313980103e-01" nType="-99"/>
        </Node>
      </Node>
    </BinaryTree>
    <BinaryTree type="DecisionTree" boostWeight="1.0000000000000000e+00" itree="180">
      <Node pos="s" depth="0" NCoef="0" IVar="2" Cut="5.1204988281250000e+04" cType="1" res="2.4697791785001755e-02" rms="4.6159473061561584e-01" purity="4.8577436804771423e-01" nType="0">
        <Node pos="l" depth="1" NCoef="0" IVar="1" Cut="6.8660552978515625e+01" cType="1" res="-8.4756650030612946e-02" rms="4.4620057940483093e-01" purity="3.3356803655624390e-01" nType="0">
          <Node pos="l" depth="2" NCoef="0" IVar="-1" Cut="0.0000000000000000e+00" cType="1" res="-2.2812769748270512e-03" rms="3.5413184762001038e-01" purity="1.5212710201740265e-01" nType="-99"/>
          <Node pos="r" depth="2" NCoef="0" IVar="-1" Cut="0.0000000000000000e+00" cType="1" res="-2.0081015463802032e-05" rms="4.8053133487701416e-01" purity="4.5141118764877319e-01" nType="-99"/>
        </Node>
        <Node pos="r" depth="1" NCoef="0" IVar="1" Cut="2.4734503173828125e+02" cType="1" res="2.2541545331478119e-01" rms="4.2004707455635071e-01" purity="7.6489049196243286e-01" nType="0">
          <Node pos="l" depth="2" NCoef="0" IVar="-1" Cut="0.0000000000000000e+00" cType="1" res="4.0368852205574512e-04" rms="4.4864782691001892e-01" purity="7.1356517076492310e-01" nType="-99"/>
          <Node pos="r" depth="2" NCoef="0" IVar="-1" Cut="0.0000000000000000e+00" cType="1" res="6.9071492180228233e-04" rms="2.6294907927513123e-01" purity="9.2489528656005859e-01" nType="-99"/>
        </Node>
      </Node>
    </BinaryTree>
    <BinaryTree type="DecisionTree" boostWeight="1.0000000000000000e+00" itree="181">
      <Node pos="s" depth="0" NCoef="0" IVar="1" Cut="1.0525318145751953e+02" cType="1" res="3.0508095398545265e-02" rms="4.6037948131561279e-01" purity="4.9316290020942688e-01" nType="0">
        <Node pos="l" depth="1" NCoef="0" IVar="1" Cut="6.9796722412109375e+01" cType="1" res="-1.5141920745372772e-01" rms="4.0211907029151917e-01" purity="2.3507878184318542e-01" nType="0">
          <Node pos="l" depth="2" NCoef="0" IVar="-1" Cut="0.0000000000000000e+00" cType="1" res="-1.7622670857235789e-03" rms="3.3937019109725952e-01" purity="1.3933132588863373e-01" nType="-99"/>
          <Node pos="r" depth="2" NCoef="0" IVar="-1" Cut="0.0000000000000000e+00" cType="1" res="-2.1187427046243101e-04" rms="4.6371093392372131e-01" purity="3.8277626037597656e-01" nType="-99"/>
        </Node>
        <Node pos="r" depth="1" NCoef="0" IVar="2" Cut="6.8965093750000000e+04" cType="1" res="1.5761344134807587e-01" rms="4.5582553744316101e-01" purity="6.7347592115402222e-01" nType="0">
          <Node pos="l" depth="2" NCoef="0" IVar="-1" Cut="0.0000000000000000e+00" cType="1" res="2.1011209173593670e-04" rms="4.8562133312225342e-01" purity="5.6839001178741455e-01" nType="-99"/>
          <Node pos="r" depth="2" NCoef="0" IVar="-1" Cut="0.0000000000000000e+00" cType="1" res="6.0683820629492402e-04" rms="3.7130731344223022e-01" purity="8.3375549316406250e-01" nType="-99"/>
        </Node>
      </Node>
    </BinaryTree>
    <BinaryTree type="DecisionTree" boostWeight="1.0000000000000000e+00" itree="182">
      <Node pos="s" depth="0" NCoef="0" IVar="2" Cut="4.4136394531250000e+04" cType="1" res="3.3578068017959595e-02" rms="4.6115979552268982e-01" purity="4.9576660990715027e-01" nType="0">
        <Node pos="l" depth="1" NCoef="0" IVar="0" Cut="2.5133045390248299e-02" cType="1" res="-8.9072637259960175e-02" rms="4.4315692782402039e-01" purity="3.2411062717437744e-01" nType="0">
          <Node pos="l" depth="2" NCoef="0" IVar="-1" Cut="0.0000000000000000e+00" cType="1" res="1.5164280739554670e-05" rms="4.7138386964797974e-01" purity="4.3754085898399353e-01" nType="-99"/>
          <Node pos="r" depth="2" NCoef="0" IVar="-1" Cut="0.0000000000000000e+00" cType="1" res="-9.3478732742369175e-04" rms="4.0236392617225647e-01" purity="2.3262318968772888e-01" nType="-99"/>
        </Node>
        <Node pos="r" depth="1" NCoef="0" IVar="1" Cut="2.0734350585937500e+02" cType="1" res="2.1615038812160492e-01" rms="4.2564913630485535e-01" purity="7.5128597021102905e-01" nType="0">
          <Node pos="l" depth="2" NCoef="0" IVar="-1" Cut="0.0000000000000000e+00" cType="1" res="3.9370753802359104e-04" rms="4.5729601383209229e-01" purity="6.8739932775497437e-01" nType="-99"/>
          <Node pos="r" depth="2" NCoef="0" IVar="-1" Cut="0.0000000000000000e+00" cType="1" res="5.9876876184716821e-04" rms="3.2126110792160034e-01" purity="8.8188558816909790e-01" nType="-99"/>
        </Node>
      </Node>
    </BinaryTree>
    <BinaryTree type="DecisionTree" boostWeight="1.0000000000000000e+00" itree="183">
      <Node pos="s" depth="0" NCoef="0" IVar="2" Cut="5.4184500000000000e+04" cType="1" res="4.3966583907604218e-02" rms="4.5979729294776917e-01" purity="5.0826239585876465e-01" nType="0">
        <Node pos="l" depth="1" NCoef="0" IVar="0" Cut="3.8101427257061005e-02" cType="1" res="-7.3333412408828735e-02" rms="4.5006698369979858e-01" purity="3.4726184606552124e-01" nType="0">
          <Node pos="l" depth="2" NCoef="0" IVar="-1" Cut="0.0000000000000000e+00" cType="1" res="1.3197209227655549e-05" rms="4.7258624434471130e-01" purity="4.4074720144271851e-01" nType="-99"/>
          <Node pos="r" depth="2" NCoef="0" IVar="-1" Cut="0.0000000000000000e+00" cType="1" res="-2.0361514762043953e-03" rms="3.8069641590118408e-01" purity="1.9828513264656067e-01" nType="-99"/>
        </Node>
        <Node pos="r" depth="1" NCoef="0" IVar="1" Cut="2.2627468872070312e+02" cType="1" res="2.5612130761146545e-01" rms="3.9690127968788147e-01" purity="7.9945617914199829e-01" nType="0">
          <Node pos="l" depth="2" NCoef="0" IVar="-1" Cut="0.0000000000000000e+00" cType="1" res="4.0567258838564157e-04" rms="4.3660646677017212e-01" purity="7.3774743080139160e-01" nType="-99"/>
          <Node pos="r" depth="2" NCoef="0" IVar="-1" Cut="0.0000000000000000e+00" cType="1" res="4.9721129471436143e-04" rms="2.6502427458763123e-01" purity="9.2362058162689209e-01" nType="-99"/>
        </Node>
      </Node>
    </BinaryTree>
    <BinaryTree type="DecisionTree" boostWeight="1.0000000000000000e+00" itree="184">
      <Node pos="s" depth="0" NCoef="0" IVar="1" Cut="1.3828833007812500e+02" cType="1" res="2.5024909526109695e-02" rms="4.5903456211090088e-01" purity="4.8736461997032166e-01" nType="0">
        <Node pos="l" depth="1" NCoef="0" IVar="1" Cut="7.1861892700195312e+01" cType="1" res="-1.1764834821224213e-01" rms="4.2633286118507385e-01" purity="2.8634098172187805e-01" nType="0">
          <Node pos="l" depth="2" NCoef="0" IVar="-1" Cut="0.0000000000000000e+00" cType="1" res="-2.0692141260951757e-03" rms="3.3398139476776123e-01" purity="1.3422717154026031e-01" nType="-99"/>
          <Node pos="r" depth="2" NCoef="0" IVar="-1" Cut="0.0000000000000000e+00" cType="1" res="-9.0945999545510858e-05" rms="4.7485083341598511e-01" purity="4.2245072126388550e-01" nType="-99"/>
        </Node>
        <Node pos="r" depth="1" NCoef="0" IVar="1" Cut="2.5785540771484375e+02" cType="1" res="1.9622138142585754e-01" rms="4.3785914778709412e-01" purity="7.2857689857482910e-01" nType="0">
          <Node pos="l" depth="2" NCoef="0" IVar="-1" Cut="0.0000000000000000e+00" cType="1" res="3.5039990325458348e-04" rms="4.6004170179367065e-01" purity="6.8164432048797607e-01" nType="-99"/>
          <Node pos="r" depth="2" NCoef="0" IVar="-1" Cut="0.0000000000000000e+00" cType="1" res="8.3160790381953120e-04" rms="2.6616191864013672e-01" purity="9.2145228385925293e-01" nType="-99"/>
        </Node>
      </Node>
    </BinaryTree>
    <BinaryTree type="DecisionTree" boostWeight="1.0000000000000000e+00" itree="185">
      <Node pos="s" depth="0" NCoef="0" IVar="1" Cut="1.3922813415527344e+02" cType="1" res="3.1386248767375946e-02" rms="4.5998129248619080e-01" purity="4.9254563450813293e-01" nType="0">
        <Node pos="l" depth="1" NCoef="0" IVar="0" Cut="3.7411056458950043e-02" cType="1" res="-1.0107443481683731e-01" rms="4.3418225646018982e-01" purity="3.0289387702941895e-01" nType="0">
          <Node pos="l" depth="2" NCoef="0" IVar="-1" Cut="0.0000000000000000e+00" cType="1" res="-1.1829767754534259e-04" rms="4.6646544337272644e-01" purity="3.9820322394371033e-01" nType="-99"/>
          <Node pos="r" depth="2" NCoef="0" IVar="-1" Cut="0.0000000000000000e+00" cType="1" res="-2.4949652142822742e-03" rms="3.4790831804275513e-01" purity="1.5346314013004303e-01" nType="-99"/>
        </Node>
        <Node pos="r" depth="1" NCoef="0" IVar="1" Cut="2.5960073852539062e+02" cType="1" res="1.9767327606678009e-01" rms="4.3688035011291504e-01" purity="7.3062860965728760e-01" nType="0">
          <Node pos="l" depth="2" NCoef="0" IVar="-1" Cut="0.0000000000000000e+00" cType="1" res="3.8088651490397751e-04" rms="4.5641937851905823e-01" purity="6.9052743911743164e-01" nType="-99"/>
          <Node pos="r" depth="2" NCoef="0" IVar="-1" Cut="0.0000000000000000e+00" cType="1" res="8.1874162424355745e-04" rms="2.7403008937835693e-01" purity="9.1621130704879761e-01" nType="-99"/>
        </Node>
      </Node>
    </BinaryTree>
    <BinaryTree type="DecisionTree" boostWeight="1.0000000000000000e+00" itree="186">
      <Node pos="s" depth="0" NCoef="0" IVar="2" Cut="4.4136394531250000e+04" cType="1" res="2.6752604171633720e-02" rms="4.5880061388015747e-01" purity="4.8901942372322083e-01" nType="0">
        <Node pos="l" depth="1" NCoef="0" IVar="1" Cut="6.6678985595703125e+01" cType="1" res="-1.0500072687864304e-01" rms="4.3528565764427185e-01" purity="3.0550026893615723e-01" nType="0">
          <Node pos="l" depth="2" NCoef="0" IVar="-1" Cut="0.0000000000000000e+00" cType="1" res="-1.8123064655810595e-03" rms="3.4206527471542358e-01" purity="1.4148248732089996e-01" nType="-99"/>
          <Node pos="r" depth="2" NCoef="0" IVar="-1" Cut="0.0000000000000000e+00" cType="1" res="-1.2248565326444805e-04" rms="4.7505122423171997e-01" purity="4.1937607526779175e-01" nType="-99"/>
        </Node>
        <Node pos="r" depth="1" NCoef="0" IVar="1" Cut="2.3509387207031250e+02" cType="1" res="2.1601106226444244e-01" rms="4.2419868707656860e-01" purity="7.5263744592666626e-01" nType="0">
          <Node pos="l" depth="2" NCoef="0" IVar="-1" Cut="0.0000000000000000e+00" cType="1" res="3.4821016015484929e-04" rms="4.5440906286239624e-01" purity="6.9349801540374756e-01" nType="-99"/>
          <Node pos="r" depth="2" NCoef="0" IVar="-1" Cut="0.0000000000000000e+00" cType="1" res="4.3594467570073903e-04" rms="2.7000668644905090e-01" purity="9.2006051540374756e-01" nType="-99"/>
        </Node>
      </Node>
    </BinaryTree>
    <BinaryTree type="DecisionTree" boostWeight="1.0000000000000000e+00" itree="187">
      <Node pos="s" depth="0" NCoef="0" IVar="1" Cut="1.3710118103027344e+02" cType="1" res="2.4444701150059700e-02" rms="4.6055778861045837e-01" purity="4.8420852422714233e-01" nType="0">
        <Node pos="l" depth="1" NCoef="0" IVar="1" Cut="7.1239517211914062e+01" cType="1" res="-1.0034375637769699e-01" rms="4.3498888611793518e-01" purity="3.0194529891014099e-01" nType="0">
          <Node pos="l" depth="2" NCoef="0" IVar="-1" Cut="0.0000000000000000e+00" cType="1" res="-1.2444006279110909e-03" rms="3.5866078734397888e-01" purity="1.6110879182815552e-01" nType="-99"/>
          <Node pos="r" depth="2" NCoef="0" IVar="-1" Cut="0.0000000000000000e+00" cType="1" res="-5.2688410505652428e-05" rms="4.7745266556739807e-01" purity="4.2914393544197083e-01" nType="-99"/>
        </Node>
        <Node pos="r" depth="1" NCoef="0" IVar="2" Cut="6.8273312500000000e+04" cType="1" res="1.8337351083755493e-01" rms="4.4292816519737244e-01" purity="7.1633636951446533e-01" nType="0">
          <Node pos="l" depth="2" NCoef="0" IVar="-1" Cut="0.0000000000000000e+00" cType="1" res="2.2835862182546407e-04" rms="4.8516681790351868e-01" purity="5.9246957302093506e-01" nType="-99"/>
          <Node pos="r" depth="2" NCoef="0" IVar="-1" Cut="0.0000000000000000e+00" cType="1" res="6.4913020469248295e-04" rms="3.7712603807449341e-01" purity="8.2726931571960449e-01" nType="-99"/>
        </Node>
      </Node>
    </BinaryTree>
    <BinaryTree type="DecisionTree" boostWeight="1.0000000000000000e+00" itree="188">
      <Node pos="s" depth="0" NCoef="0" IVar="2" Cut="4.4136394531250000e+04" cType="1" res="2.5484679266810417e-02" rms="4.5827752351760864e-01" purity="4.8716190457344055e-01" nType="0">
        <Node pos="l" depth="1" NCoef="0" IVar="1" Cut="7.1804023742675781e+01" cType="1" res="-1.0374528914690018e-01" rms="4.3471708893775940e-01" purity="3.0615824460983276e-01" nType="0">
          <Node pos="l" depth="2" NCoef="0" IVar="-1" Cut="0.0000000000000000e+00" cType="1" res="-1.7404414247721434e-03" rms="3.4110590815544128e-01" purity="1.4267997443675995e-01" nType="-99"/>
          <Node pos="r" depth="2" NCoef="0" IVar="-1" Cut="0.0000000000000000e+00" cType="1" res="-6.9947513111401349e-05" rms="4.7894582152366638e-01" purity="4.3529638648033142e-01" nType="-99"/>
        </Node>
        <Node pos="r" depth="1" NCoef="0" IVar="0" Cut="4.4180817902088165e-02" cType="1" res="2.1373648941516876e-01" rms="4.2532366514205933e-01" purity="7.5083351135253906e-01" nType="0">
          <Node pos="l" depth="2" NCoef="0" IVar="-1" Cut="0.0000000000000000e+00" cType="1" res="6.1709719011560082e-04" rms="3.3538678288459778e-01" purity="8.6825740337371826e-01" nType="-99"/>
          <Node pos="r" depth="2" NCoef="0" IVar="-1" Cut="0.0000000000000000e+00" cType="1" res="3.5415840102359653e-04" rms="4.5725262165069580e-01" purity="6.8177288770675659e-01" nType="-99"/>
        </Node>
      </Node>
    </BinaryTree>
    <BinaryTree type="DecisionTree" boostWeight="1.0000000000000000e+00" itree="189">
      <Node pos="s" depth="0" NCoef="0" IVar="2" Cut="5.3398167968750000e+04" cType="1" res="4.3150406330823898e-02" rms="4.5852848887443542e-01" purity="5.0626337528228760e-01" nType="0">
        <Node pos="l" depth="1" NCoef="0" IVar="1" Cut="7.8503898620605469e+01" cType="1" res="-7.0005990564823151e-02" rms="4.4829693436622620e-01" purity="3.4898900985717773e-01" nType="0">
          <Node pos="l" depth="2" NCoef="0" IVar="-1" Cut="0.0000000000000000e+00" cType="1" res="-1.4126425376161933e-03" rms="3.7307417392730713e-01" purity="1.8296177685260773e-01" nType="-99"/>
          <Node pos="r" depth="2" NCoef="0" IVar="-1" Cut="0.0000000000000000e+00" cType="1" res="5.5172538850456476e-05" rms="4.8273617029190063e-01" purity="4.8158633708953857e-01" nType="-99"/>
        </Node>
        <Node pos="r" depth="1" NCoef="0" IVar="1" Cut="2.3056416320800781e+02" cType="1" res="2.4952144920825958e-01" rms="4.0153267979621887e-01" purity="7.9309540987014771e-01" nType="0">
          <Node pos="l" depth="2" NCoef="0" IVar="-1" Cut="0.0000000000000000e+00" cType="1" res="4.7058440395630896e-04" rms="4.4151863455772400e-01" purity="7.2903633117675781e-01" nType="-99"/>
          <Node pos="r" depth="2" NCoef="0" IVar="-1" Cut="0.0000000000000000e+00" cType="1" res="4.9568328540772200e-04" rms="2.6106119155883789e-01" purity="9.2604869604110718e-01" nType="-99"/>
        </Node>
      </Node>
    </BinaryTree>
    <BinaryTree type="DecisionTree" boostWeight="1.0000000000000000e+00" itree="190">
      <Node pos="s" depth="0" NCoef="0" IVar="1" Cut="1.3930560302734375e+02" cType="1" res="3.3329952508211136e-02" rms="4.5810848474502563e-01" purity="4.9575525522232056e-01" nType="0">
        <Node pos="l" depth="1" NCoef="0" IVar="1" Cut="6.5749526977539062e+01" cType="1" res="-1.1018581688404083e-01" rms="4.2975601553916931e-01" purity="2.9169538617134094e-01" nType="0">
          <Node pos="l" depth="2" NCoef="0" IVar="-1" Cut="0.0000000000000000e+00" cType="1" res="-7.8113673953339458e-04" rms="3.4700271487236023e-01" purity="1.4613297581672668e-01" nType="-99"/>
          <Node pos="r" depth="2" NCoef="0" IVar="-1" Cut="0.0000000000000000e+00" cType="1" res="-1.6678031533956528e-04" rms="4.7033804655075073e-01" purity="4.0305295586585999e-01" nType="-99"/>
        </Node>
        <Node pos="r" depth="1" NCoef="0" IVar="2" Cut="6.6204593750000000e+04" cType="1" res="2.0533362030982971e-01" rms="4.3100219964981079e-01" purity="7.4032098054885864e-01" nType="0">
          <Node pos="l" depth="2" NCoef="0" IVar="-1" Cut="0.0000000000000000e+00" cType="1" res="2.6782642817124724e-04" rms="4.8386335372924805e-01" purity="6.0285979509353638e-01" nType="-99"/>
          <Node pos="r" depth="2" NCoef="0" IVar="-1" Cut="0.0000000000000000e+00" cType="1" res="5.2890431834384799e-04" rms="3.6850959062576294e-01" purity="8.3682984113693237e-01" nType="-99"/>
        </Node>
      </Node>
    </BinaryTree>
    <BinaryTree type="DecisionTree" boostWeight="1.0000000000000000e+00" itree="191">
      <Node pos="s" depth="0" NCoef="0" IVar="2" Cut="4.4136394531250000e+04" cType="1" res="3.4254036843776703e-02" rms="4.5928740501403809e-01" purity="4.9601146578788757e-01" nType="0">
        <Node pos="l" depth="1" NCoef="0" IVar="0" Cut="3.8101427257061005e-02" cType="1" res="-8.8131412863731384e-02" rms="4.4155398011207581e-01" purity="3.2171195745468140e-01" nType="0">
          <Node pos="l" depth="2" NCoef="0" IVar="-1" Cut="0.0000000000000000e+00" cType="1" res="-3.9128502976382151e-05" rms="4.7119617462158203e-01" purity="4.1494145989418030e-01" nType="-99"/>
          <Node pos="r" depth="2" NCoef="0" IVar="-1" Cut="0.0000000000000000e+00" cType="1" res="-1.7813248559832573e-03" rms="3.4670174121856689e-01" purity="1.5629616379737854e-01" nType="-99"/>
        </Node>
        <Node pos="r" depth="1" NCoef="0" IVar="0" Cut="4.2733144015073776e-02" cType="1" res="2.1420681476593018e-01" rms="4.2429655790328979e-01" purity="7.5229752063751221e-01" nType="0">
          <Node pos="l" depth="2" NCoef="0" IVar="-1" Cut="0.0000000000000000e+00" cType="1" res="6.0123548610135913e-04" rms="3.2229822874069214e-01" purity="8.7989693880081177e-01" nType="-99"/>
          <Node pos="r" depth="2" NCoef="0" IVar="-1" Cut="0.0000000000000000e+00" cType="1" res="3.6832218756899238e-04" rms="4.5903018116950989e-01" purity="6.7699539661407471e-01" nType="-99"/>
        </Node>
      </Node>
    </BinaryTree>
    <BinaryTree type="DecisionTree" boostWeight="1.0000000000000000e+00" itree="192">
      <Node pos="s" depth="0" NCoef="0" IVar="2" Cut="6.1173269531250000e+04" cType="1" res="4.5510929077863693e-02" rms="4.5954489707946777e-01" purity="5.0677782297134399e-01" nType="0">
        <Node pos="l" depth="1" NCoef="0" IVar="0" Cut="5.0266090780496597e-02" cType="1" res="-5.0486091524362564e-02" rms="4.5566406846046448e-01" purity="3.7353068590164185e-01" nType="0">
          <Node pos="l" depth="2" NCoef="0" IVar="-1" Cut="0.0000000000000000e+00" cType="1" res="2.2779015125706792e-05" rms="4.6824860572814941e-01" purity="4.3859219551086426e-01" nType="-99"/>
          <Node pos="r" depth="2" NCoef="0" IVar="-1" Cut="0.0000000000000000e+00" cType="1" res="-1.6814434202387929e-03" rms="3.7802064418792725e-01" purity="1.9879512488842010e-01" nType="-99"/>
        </Node>
        <Node pos="r" depth="1" NCoef="0" IVar="1" Cut="2.4531428527832031e+02" cType="1" res="2.6923850178718567e-01" rms="3.8461402058601379e-01" purity="8.1731933355331421e-01" nType="0">
          <Node pos="l" depth="2" NCoef="0" IVar="-1" Cut="0.0000000000000000e+00" cType="1" res="4.5741195208393037e-04" rms="4.2321687936782837e-01" purity="7.6408779621124268e-01" nType="-99"/>
          <Node pos="r" depth="2" NCoef="0" IVar="-1" Cut="0.0000000000000000e+00" cType="1" res="6.3286523800343275e-04" rms="2.4148331582546234e-01" purity="9.3769782781600952e-01" nType="-99"/>
        </Node>
      </Node>
    </BinaryTree>
    <BinaryTree type="DecisionTree" boostWeight="1.0000000000000000e+00" itree="193">
      <Node pos="s" depth="0" NCoef="0" IVar="1" Cut="1.3717864990234375e+02" cType="1" res="3.6816969513893127e-02" rms="4.5933899283409119e-01" purity="4.9819982051849365e-01" nType="0">
        <Node pos="l" depth="1" NCoef="0" IVar="0" Cut="3.8101427257061005e-02" cType="1" res="-1.0158677399158478e-01" rms="4.3338447809219360e-01" purity="2.9797998070716858e-01" nType="0">
          <Node pos="l" depth="2" NCoef="0" IVar="-1" Cut="0.0000000000000000e+00" cType="1" res="-1.0138898505829275e-04" rms="4.6581357717514038e-01" purity="3.8661193847656250e-01" nType="-99"/>
          <Node pos="r" depth="2" NCoef="0" IVar="-1" Cut="0.0000000000000000e+00" cType="1" res="-2.5452175177633762e-03" rms="3.4701126813888550e-01" purity="1.5340514481067657e-01" nType="-99"/>
        </Node>
        <Node pos="r" depth="1" NCoef="0" IVar="2" Cut="8.1564359375000000e+04" cType="1" res="1.9874769449234009e-01" rms="4.3527898192405701e-01" purity="7.3245465755462646e-01" nType="0">
          <Node pos="l" depth="2" NCoef="0" IVar="-1" Cut="0.0000000000000000e+00" cType="1" res="3.4572259755805135e-04" rms="4.6448653936386108e-01" purity="6.6875213384628296e-01" nType="-99"/>
          <Node pos="r" depth="2" NCoef="0" IVar="-1" Cut="0.0000000000000000e+00" cType="1" res="6.5691187046468258e-04" rms="3.0682447552680969e-01" purity="8.9436012506484985e-01" nType="-99"/>
        </Node>
      </Node>
    </BinaryTree>
    <BinaryTree type="DecisionTree" boostWeight="1.0000000000000000e+00" itree="194">
      <Node pos="s" depth="0" NCoef="0" IVar="1" Cut="1.3166255187988281e+02" cType="1" res="3.1726866960525513e-02" rms="4.5928472280502319e-01" purity="4.9200513958930969e-01" nType="0">
        <Node pos="l" depth="1" NCoef="0" IVar="1" Cut="5.5788360595703125e+01" cType="1" res="-1.1543438583612442e-01" rms="4.2674091458320618e-01" purity="2.7905151247978210e-01" nType="0">
          <Node pos="l" depth="2" NCoef="0" IVar="-1" Cut="0.0000000000000000e+00" cType="1" res="-3.1311942730098963e-03" rms="3.3171996474266052e-01" purity="1.2753421068191528e-01" nType="-99"/>
          <Node pos="r" depth="2" NCoef="0" IVar="-1" Cut="0.0000000000000000e+00" cType="1" res="-2.0339681941550225e-04" rms="4.6516665816307068e-01" purity="3.7803086638450623e-01" nType="-99"/>
        </Node>
        <Node pos="r" depth="1" NCoef="0" IVar="2" Cut="6.6120359375000000e+04" cType="1" res="1.8984006345272064e-01" rms="4.4006261229515076e-01" purity="7.2080701589584351e-01" nType="0">
          <Node pos="l" depth="2" NCoef="0" IVar="-1" Cut="0.0000000000000000e+00" cType="1" res="2.9428434208966792e-04" rms="4.8058342933654785e-01" purity="6.1074209213256836e-01" nType="-99"/>
          <Node pos="r" depth="2" NCoef="0" IVar="-1" Cut="0.0000000000000000e+00" cType="1" res="4.9606082029640675e-04" rms="3.8336178660392761e-01" purity="8.1957405805587769e-01" nType="-99"/>
        </Node>
      </Node>
    </BinaryTree>
    <BinaryTree type="DecisionTree" boostWeight="1.0000000000000000e+00" itree="195">
      <Node pos="s" depth="0" NCoef="0" IVar="1" Cut="1.3922813415527344e+02" cType="1" res="4.1915591806173325e-02" rms="4.6013641357421875e-01" purity="5.0193983316421509e-01" nType="0">
        <Node pos="l" depth="1" NCoef="0" IVar="0" Cut="3.7699569016695023e-02" cType="1" res="-9.5348969101905823e-02" rms="4.3824726343154907e-01" purity="3.0249178409576416e-01" nType="0">
          <Node pos="l" depth="2" NCoef="0" IVar="-1" Cut="0.0000000000000000e+00" cType="1" res="-6.0173540987307206e-05" rms="4.6936249732971191e-01" purity="3.9161852002143860e-01" nType="-99"/>
          <Node pos="r" depth="2" NCoef="0" IVar="-1" Cut="0.0000000000000000e+00" cType="1" res="-2.1500454749912024e-03" rms="3.5738924145698547e-01" purity="1.6078224778175354e-01" nType="-99"/>
        </Node>
        <Node pos="r" depth="1" NCoef="0" IVar="2" Cut="6.6204593750000000e+04" cType="1" res="2.0725412666797638e-01" rms="4.3055820465087891e-01" purity="7.4217975139617920e-01" nType="0">
          <Node pos="l" depth="2" NCoef="0" IVar="-1" Cut="0.0000000000000000e+00" cType="1" res="3.0338720534928143e-04" rms="4.7608298063278198e-01" purity="6.3420337438583374e-01" nType="-99"/>
          <Node pos="r" depth="2" NCoef="0" IVar="-1" Cut="0.0000000000000000e+00" cType="1" res="5.5542646441608667e-04" rms="3.7670829892158508e-01" purity="8.2763159275054932e-01" nType="-99"/>
        </Node>
      </Node>
    </BinaryTree>
    <BinaryTree type="DecisionTree" boostWeight="1.0000000000000000e+00" itree="196">
      <Node pos="s" depth="0" NCoef="0" IVar="1" Cut="1.0537150573730469e+02" cType="1" res="4.1478816419839859e-02" rms="4.5777711272239685e-01" purity="5.0351577997207642e-01" nType="0">
        <Node pos="l" depth="1" NCoef="0" IVar="1" Cut="5.9789863586425781e+01" cType="1" res="-1.3811479508876801e-01" rms="4.0607398748397827e-01" purity="2.4141915142536163e-01" nType="0">
          <Node pos="l" depth="2" NCoef="0" IVar="-1" Cut="0.0000000000000000e+00" cType="1" res="-2.1973496768623590e-03" rms="3.3462509512901306e-01" purity="1.3259302079677582e-01" nType="-99"/>
          <Node pos="r" depth="2" NCoef="0" IVar="-1" Cut="0.0000000000000000e+00" cType="1" res="-2.2071623243391514e-04" rms="4.5668366551399231e-01" purity="3.6100256443023682e-01" nType="-99"/>
        </Node>
        <Node pos="r" depth="1" NCoef="0" IVar="2" Cut="6.6204593750000000e+04" cType="1" res="1.6532114148139954e-01" rms="4.5031157135963440e-01" purity="6.8424963951110840e-01" nType="0">
          <Node pos="l" depth="2" NCoef="0" IVar="-1" Cut="0.0000000000000000e+00" cType="1" res="2.2829083900433034e-04" rms="4.8480841517448425e-01" purity="5.6450408697128296e-01" nType="-99"/>
          <Node pos="r" depth="2" NCoef="0" IVar="-1" Cut="0.0000000000000000e+00" cType="1" res="5.1515421364456415e-04" rms="3.7434327602386475e-01" purity="8.2993984222412109e-01" nType="-99"/>
        </Node>
      </Node>
    </BinaryTree>
    <BinaryTree type="DecisionTree" boostWeight="1.0000000000000000e+00" itree="197">
      <Node pos="s" depth="0" NCoef="0" IVar="2" Cut="4.4136394531250000e+04" cType="1" res="3.4870956093072891e-02" rms="4.5763027667999268e-01" purity="4.9612009525299072e-01" nType="0">
        <Node pos="l" depth="1" NCoef="0" IVar="1" Cut="7.8285812377929688e+01" cType="1" res="-9.4972625374794006e-02" rms="4.3717011809349060e-01" purity="3.1219011545181274e-01" nType="0">
          <Node pos="l" depth="2" NCoef="0" IVar="-1" Cut="0.0000000000000000e+00" cType="1" res="-1.6905241645872593e-03" rms="3.6188250780105591e-01" purity="1.6592141985893250e-01" nType="-99"/>
          <Node pos="r" depth="2" NCoef="0" IVar="-1" Cut="0.0000000000000000e+00" cType="1" res="-1.6505069652339444e-05" rms="4.8070397973060608e-01" purity="4.5040255784988403e-01" nType="-99"/>
        </Node>
        <Node pos="r" depth="1" NCoef="0" IVar="0" Cut="4.3547160923480988e-02" cType="1" res="2.1970315277576447e-01" rms="4.2109888792037964e-01" purity="7.5794434547424316e-01" nType="0">
          <Node pos="l" depth="2" NCoef="0" IVar="-1" Cut="0.0000000000000000e+00" cType="1" res="5.9056357713416219e-04" rms="3.3203524351119995e-01" purity="8.7170821428298950e-01" nType="-99"/>
          <Node pos="r" depth="2" NCoef="0" IVar="-1" Cut="0.0000000000000000e+00" cType="1" res="3.5339954774826765e-04" rms="4.5235383510589600e-01" purity="6.9332498311996460e-01" nType="-99"/>
        </Node>
      </Node>
    </BinaryTree>
    <BinaryTree type="DecisionTree" boostWeight="1.0000000000000000e+00" itree="198">
      <Node pos="s" depth="0" NCoef="0" IVar="2" Cut="4.0782179687500000e+04" cType="1" res="3.3504746854305267e-02" rms="4.5541679859161377e-01" purity="4.9619892239570618e-01" nType="0">
        <Node pos="l" depth="1" NCoef="0" IVar="0" Cut="4.5510727912187576e-02" cType="1" res="-1.1323290318250656e-01" rms="4.2674848437309265e-01" purity="2.9125490784645081e-01" nType="0">
          <Node pos="l" depth="2" NCoef="0" IVar="-1" Cut="0.0000000000000000e+00" cType="1" res="-2.8707334422506392e-04" rms="4.5547130703926086e-01" purity="3.6318960785865784e-01" nType="-99"/>
          <Node pos="r" depth="2" NCoef="0" IVar="-1" Cut="0.0000000000000000e+00" cType="1" res="-3.9998097345232964e-03" rms="2.9177075624465942e-01" purity="1.0190056264400482e-01" nType="-99"/>
        </Node>
        <Node pos="r" depth="1" NCoef="0" IVar="0" Cut="4.1265200823545456e-02" cType="1" res="2.1626241505146027e-01" rms="4.2271134257316589e-01" purity="7.5145113468170166e-01" nType="0">
          <Node pos="l" depth="2" NCoef="0" IVar="-1" Cut="0.0000000000000000e+00" cType="1" res="5.8306200662627816e-04" rms="3.1193453073501587e-01" purity="8.8844102621078491e-01" nType="-99"/>
          <Node pos="r" depth="2" NCoef="0" IVar="-1" Cut="0.0000000000000000e+00" cType="1" res="3.0395688372664154e-04" rms="4.5762750506401062e-01" purity="6.7385727167129517e-01" nType="-99"/>
        </Node>
      </Node>
    </BinaryTree>
    <BinaryTree type="DecisionTree" boostWeight="1.0000000000000000e+00" itree="199">
      <Node pos="s" depth="0" NCoef="0" IVar="1" Cut="1.3951222229003906e+02" cType="1" res="3.3266980201005936e-02" rms="4.5725587010383606e-01" purity="4.9346080422401428e-01" nType="0">
        <Node pos="l" depth="1" NCoef="0" IVar="1" Cut="5.9289916992187500e+01" cType="1" res="-1.0754116624593735e-01" rms="4.2844194173812866e-01" purity="2.9051911830902100e-01" nType="0">
          <Node pos="l" depth="2" NCoef="0" IVar="-1" Cut="0.0000000000000000e+00" cType="1" res="-2.2046025842428207e-03" rms="3.2598611712455750e-01" purity="1.2385390698909760e-01" nType="-99"/>
          <Node pos="r" depth="2" NCoef="0" IVar="-1" Cut="0.0000000000000000e+00" cType="1" res="-1.4055646897759289e-04" rms="4.6786472201347351e-01" purity="3.9710962772369385e-01" nType="-99"/>
        </Node>
        <Node pos="r" depth="1" NCoef="0" IVar="2" Cut="6.6204593750000000e+04" cType="1" res="2.0366945862770081e-01" rms="4.3236097693443298e-01" purity="7.3905581235885620e-01" nType="0">
          <Node pos="l" depth="2" NCoef="0" IVar="-1" Cut="0.0000000000000000e+00" cType="1" res="2.7886522002518177e-04" rms="4.7922876477241516e-01" purity="6.2470000982284546e-01" nType="-99"/>
          <Node pos="r" depth="2" NCoef="0" IVar="-1" Cut="0.0000000000000000e+00" cType="1" res="5.1266484661027789e-04" rms="3.7867128849029541e-01" purity="8.2542186975479126e-01" nType="-99"/>
        </Node>
      </Node>
    </BinaryTree>
    <BinaryTree type="DecisionTree" boostWeight="1.0000000000000000e+00" itree="200">
      <Node pos="s" depth="0" NCoef="0" IVar="1" Cut="1.3844578552246094e+02" cType="1" res="3.8257714360952377e-02" rms="4.6016490459442139e-01" purity="4.9645775556564331e-01" nType="0">
        <Node pos="l" depth="1" NCoef="0" IVar="0" Cut="2.5745216757059097e-02" cType="1" res="-8.5019923746585846e-02" rms="4.4037222862243652e-01" purity="3.1154453754425049e-01" nType="0">
          <Node pos="l" depth="2" NCoef="0" IVar="-1" Cut="0.0000000000000000e+00" cType="1" res="2.2269090550253168e-05" rms="4.7208103537559509e-01" purity="4.2340934276580811e-01" nType="-99"/>
          <Node pos="r" depth="2" NCoef="0" IVar="-1" Cut="0.0000000000000000e+00" cType="1" res="-1.1874678311869502e-03" rms="3.9749231934547424e-01" purity="2.2207927703857422e-01" nType="-99"/>
        </Node>
        <Node pos="r" depth="1" NCoef="0" IVar="2" Cut="6.1173269531250000e+04" cType="1" res="1.9301857054233551e-01" rms="4.3714794516563416e-01" purity="7.2859501838684082e-01" nType="0">
          <Node pos="l" depth="2" NCoef="0" IVar="-1" Cut="0.0000000000000000e+00" cType="1" res="2.3967707238625735e-04" rms="4.8764145374298096e-01" purity="5.8408659696578979e-01" nType="-99"/>
          <Node pos="r" depth="2" NCoef="0" IVar="-1" Cut="0.0000000000000000e+00" cType="1" res="5.8589724358171225e-04" rms="3.9158669114112854e-01" purity="8.0898982286453247e-01" nType="-99"/>
        </Node>
      </Node>
    </BinaryTree>
    <BinaryTree type="DecisionTree" boostWeight="1.0000000000000000e+00" itree="201">
      <Node pos="s" depth="0" NCoef="0" IVar="2" Cut="5.4184500000000000e+04" cType="1" res="4.7473363578319550e-02" rms="4.5769229531288147e-01" purity="5.0834119319915771e-01" nType="0">
        <Node pos="l" depth="1" NCoef="0" IVar="0" Cut="3.8101427257061005e-02" cType="1" res="-5.5239938199520111e-02" rms="4.5090395212173462e-01" purity="3.6090371012687683e-01" nType="0">
          <Node pos="l" depth="2" NCoef="0" IVar="-1" Cut="0.0000000000000000e+00" cType="1" res="6.6713357227854431e-05" rms="4.7086977958679199e-01" purity="4.5328584313392639e-01" nType="-99"/>
          <Node pos="r" depth="2" NCoef="0" IVar="-1" Cut="0.0000000000000000e+00" cType="1" res="-1.5591204864904284e-03" rms="3.8866978883743286e-01" purity="2.1364866197109222e-01" nType="-99"/>
        </Node>
        <Node pos="r" depth="1" NCoef="0" IVar="1" Cut="2.1049212646484375e+02" cType="1" res="2.4436978995800018e-01" rms="4.0288174152374268e-01" purity="7.9097181558609009e-01" nType="0">
          <Node pos="l" depth="2" NCoef="0" IVar="-1" Cut="0.0000000000000000e+00" cType="1" res="4.5629622763954103e-04" rms="4.4433462619781494e-01" purity="7.2255563735961914e-01" nType="-99"/>
          <Node pos="r" depth="2" NCoef="0" IVar="-1" Cut="0.0000000000000000e+00" cType="1" res="6.3920544926077127e-04" rms="2.9296976327896118e-01" purity="9.0458667278289795e-01" nType="-99"/>
        </Node>
      </Node>
    </BinaryTree>
    <BinaryTree type="DecisionTree" boostWeight="1.0000000000000000e+00" itree="202">
      <Node pos="s" depth="0" NCoef="0" IVar="2" Cut="4.4136394531250000e+04" cType="1" res="5.5715795606374741e-02" rms="4.5946484804153442e-01" purity="5.1511943340301514e-01" nType="0">
        <Node pos="l" depth="1" NCoef="0" IVar="0" Cut="2.4940703064203262e-02" cType="1" res="-5.3060088306665421e-02" rms="4.5176720619201660e-01" purity="3.5345029830932617e-01" nType="0">
          <Node pos="l" depth="2" NCoef="0" IVar="-1" Cut="0.0000000000000000e+00" cType="1" res="7.7192875323817134e-05" rms="4.7705572843551636e-01" purity="4.8393401503562927e-01" nType="-99"/>
          <Node pos="r" depth="2" NCoef="0" IVar="-1" Cut="0.0000000000000000e+00" cType="1" res="-1.0273996740579605e-03" rms="4.0650549530982971e-01" purity="2.4560861289501190e-01" nType="-99"/>
        </Node>
        <Node pos="r" depth="1" NCoef="0" IVar="0" Cut="4.1265200823545456e-02" cType="1" res="2.1930433809757233e-01" rms="4.2083391547203064e-01" purity="7.5825434923171997e-01" nType="0">
          <Node pos="l" depth="2" NCoef="0" IVar="-1" Cut="0.0000000000000000e+00" cType="1" res="5.5141560733318329e-04" rms="3.1696295738220215e-01" purity="8.8528221845626831e-01" nType="-99"/>
          <Node pos="r" depth="2" NCoef="0" IVar="-1" Cut="0.0000000000000000e+00" cType="1" res="3.8343181950040162e-04" rms="4.5285278558731079e-01" purity="6.9172722101211548e-01" nType="-99"/>
        </Node>
      </Node>
    </BinaryTree>
    <BinaryTree type="DecisionTree" boostWeight="1.0000000000000000e+00" itree="203">
      <Node pos="s" depth="0" NCoef="0" IVar="2" Cut="5.3826414062500000e+04" cType="1" res="3.4546487033367157e-02" rms="4.5673137903213501e-01" purity="4.9478143453598022e-01" nType="0">
        <Node pos="l" depth="1" NCoef="0" IVar="1" Cut="6.4284652709960938e+01" cType="1" res="-7.9586014151573181e-02" rms="4.4322311878204346e-01" purity="3.3368882536888123e-01" nType="0">
          <Node pos="l" depth="2" NCoef="0" IVar="-1" Cut="0.0000000000000000e+00" cType="1" res="-2.8497157618403435e-03" rms="3.3692041039466858e-01" purity="1.3761518895626068e-01" nType="-99"/>
          <Node pos="r" depth="2" NCoef="0" IVar="-1" Cut="0.0000000000000000e+00" cType="1" res="-3.0782106478000060e-05" rms="4.7750869393348694e-01" purity="4.4315135478973389e-01" nType="-99"/>
        </Node>
        <Node pos="r" depth="1" NCoef="0" IVar="0" Cut="4.2839553207159042e-02" cType="1" res="2.4352861940860748e-01" rms="4.0415108203887939e-01" purity="7.8974980115890503e-01" nType="0">
          <Node pos="l" depth="2" NCoef="0" IVar="-1" Cut="0.0000000000000000e+00" cType="1" res="5.5189244449138641e-04" rms="3.0103781819343567e-01" purity="8.9867824316024780e-01" nType="-99"/>
          <Node pos="r" depth="2" NCoef="0" IVar="-1" Cut="0.0000000000000000e+00" cType="1" res="4.0502459160052240e-04" rms="4.4193667173385620e-01" purity="7.2599613666534424e-01" nType="-99"/>
        </Node>
      </Node>
    </BinaryTree>
    <BinaryTree type="DecisionTree" boostWeight="1.0000000000000000e+00" itree="204">
      <Node pos="s" depth="0" NCoef="0" IVar="2" Cut="5.4184500000000000e+04" cType="1" res="3.4982793033123016e-02" rms="4.5733591914176941e-01" purity="4.9392139911651611e-01" nType="0">
        <Node pos="l" depth="1" NCoef="0" IVar="0" Cut="5.0171643495559692e-02" cType="1" res="-7.5352109968662262e-02" rms="4.4537374377250671e-01" purity="3.3735176920890808e-01" nType="0">
          <Node pos="l" depth="2" NCoef="0" IVar="-1" Cut="0.0000000000000000e+00" cType="1" res="-6.6295571741648018e-05" rms="4.6316123008728027e-01" purity="4.0185171365737915e-01" nType="-99"/>
          <Node pos="r" depth="2" NCoef="0" IVar="-1" Cut="0.0000000000000000e+00" cType="1" res="-2.7491166256368160e-03" rms="3.4565329551696777e-01" purity="1.5386261045932770e-01" nType="-99"/>
        </Node>
        <Node pos="r" depth="1" NCoef="0" IVar="1" Cut="2.3191941833496094e+02" cType="1" res="2.4424687027931213e-01" rms="4.0343037247657776e-01" purity="7.9087549448013306e-01" nType="0">
          <Node pos="l" depth="2" NCoef="0" IVar="-1" Cut="0.0000000000000000e+00" cType="1" res="4.6607916010543704e-04" rms="4.3777561187744141e-01" purity="7.3678380250930786e-01" nType="-99"/>
          <Node pos="r" depth="2" NCoef="0" IVar="-1" Cut="0.0000000000000000e+00" cType="1" res="5.0400081090629101e-04" rms="2.7242323756217957e-01" purity="9.1887414455413818e-01" nType="-99"/>
        </Node>
      </Node>
    </BinaryTree>
    <BinaryTree type="DecisionTree" boostWeight="1.0000000000000000e+00" itree="205">
      <Node pos="s" depth="0" NCoef="0" IVar="2" Cut="6.1173269531250000e+04" cType="1" res="4.6383339911699295e-02" rms="4.5731252431869507e-01" purity="5.0613236427307129e-01" nType="0">
        <Node pos="l" depth="1" NCoef="0" IVar="1" Cut="1.0791588592529297e+02" cType="1" res="-4.8044338822364807e-02" rms="4.5364367961883545e-01" purity="3.7259894609451294e-01" nType="0">
          <Node pos="l" depth="2" NCoef="0" IVar="-1" Cut="0.0000000000000000e+00" cType="1" res="-4.8830418381839991e-04" rms="4.1475021839141846e-01" purity="2.5458982586860657e-01" nType="-99"/>
          <Node pos="r" depth="2" NCoef="0" IVar="-1" Cut="0.0000000000000000e+00" cType="1" res="2.0678841974586248e-04" rms="4.8590809106826782e-01" purity="5.5245691537857056e-01" nType="-99"/>
        </Node>
        <Node pos="r" depth="1" NCoef="0" IVar="0" Cut="4.1366796940565109e-02" cType="1" res="2.6653417944908142e-01" rms="3.8428118824958801e-01" purity="8.1745511293411255e-01" nType="0">
          <Node pos="l" depth="2" NCoef="0" IVar="-1" Cut="0.0000000000000000e+00" cType="1" res="6.8451883271336555e-04" rms="2.7845409512519836e-01" purity="9.1492581367492676e-01" nType="-99"/>
          <Node pos="r" depth="2" NCoef="0" IVar="-1" Cut="0.0000000000000000e+00" cType="1" res="5.0102837849408388e-04" rms="4.2149612307548523e-01" purity="7.6548302173614502e-01" nType="-99"/>
        </Node>
      </Node>
    </BinaryTree>
    <BinaryTree type="DecisionTree" boostWeight="1.0000000000000000e+00" itree="206">
      <Node pos="s" depth="0" NCoef="0" IVar="1" Cut="1.5843783569335938e+02" cType="1" res="4.8562917858362198e-02" rms="4.5874080061912537e-01" purity="5.0748461484909058e-01" nType="0">
        <Node pos="l" depth="1" NCoef="0" IVar="0" Cut="3.8617823272943497e-02" cType="1" res="-5.7777028530836105e-02" rms="4.5083454251289368e-01" purity="3.5404977202415466e-01" nType="0">
          <Node pos="l" depth="2" NCoef="0" IVar="-1" Cut="0.0000000000000000e+00" cType="1" res="5.0773905968526378e-05" rms="4.7108563780784607e-01" purity="4.4506981968879700e-01" nType="-99"/>
          <Node pos="r" depth="2" NCoef="0" IVar="-1" Cut="0.0000000000000000e+00" cType="1" res="-1.4384870883077383e-03" rms="3.8962945342063904e-01" purity="2.1226991713047028e-01" nType="-99"/>
        </Node>
        <Node pos="r" depth="1" NCoef="0" IVar="1" Cut="2.4961189270019531e+02" cType="1" res="2.3588101565837860e-01" rms="4.1000393033027649e-01" purity="7.7776038646697998e-01" nType="0">
          <Node pos="l" depth="2" NCoef="0" IVar="-1" Cut="0.0000000000000000e+00" cType="1" res="3.9541034493595362e-04" rms="4.4166111946105957e-01" purity="7.2532480955123901e-01" nType="-99"/>
          <Node pos="r" depth="2" NCoef="0" IVar="-1" Cut="0.0000000000000000e+00" cType="1" res="5.4479436948895454e-04" rms="2.7126774191856384e-01" purity="9.1770368814468384e-01" nType="-99"/>
        </Node>
      </Node>
    </BinaryTree>
    <BinaryTree type="DecisionTree" boostWeight="1.0000000000000000e+00" itree="207">
      <Node pos="s" depth="0" NCoef="0" IVar="1" Cut="1.3844578552246094e+02" cType="1" res="3.8297202438116074e-02" rms="4.5637312531471252e-01" purity="4.9861085414886475e-01" nType="0">
        <Node pos="l" depth="1" NCoef="0" IVar="1" Cut="7.8673477172851562e+01" cType="1" res="-9.8289601504802704e-02" rms="4.3062934279441833e-01" purity="2.9826918244361877e-01" nType="0">
          <Node pos="l" depth="2" NCoef="0" IVar="-1" Cut="0.0000000000000000e+00" cType="1" res="-1.7811142606660724e-03" rms="3.6671575903892517e-01" purity="1.7345970869064331e-01" nType="-99"/>
          <Node pos="r" depth="2" NCoef="0" IVar="-1" Cut="0.0000000000000000e+00" cType="1" res="-1.9988348867627792e-05" rms="4.7624513506889343e-01" purity="4.3944263458251953e-01" nType="-99"/>
        </Node>
        <Node pos="r" depth="1" NCoef="0" IVar="2" Cut="7.3543984375000000e+04" cType="1" res="2.0180866122245789e-01" rms="4.3190628290176392e-01" purity="7.3844492435455322e-01" nType="0">
          <Node pos="l" depth="2" NCoef="0" IVar="-1" Cut="0.0000000000000000e+00" cType="1" res="3.3319808426313102e-04" rms="4.7011822462081909e-01" purity="6.5213614702224731e-01" nType="-99"/>
          <Node pos="r" depth="2" NCoef="0" IVar="-1" Cut="0.0000000000000000e+00" cType="1" res="5.6536489864811301e-04" rms="3.5132783651351929e-01" purity="8.5490608215332031e-01" nType="-99"/>
        </Node>
      </Node>
    </BinaryTree>
    <BinaryTree type="DecisionTree" boostWeight="1.0000000000000000e+00" itree="208">
      <Node pos="s" depth="0" NCoef="0" IVar="2" Cut="4.4136394531250000e+04" cType="1" res="3.6904554814100266e-02" rms="4.5553523302078247e-01" purity="4.9712416529655457e-01" nType="0">
        <Node pos="l" depth="1" NCoef="0" IVar="1" Cut="6.9986633300781250e+01" cType="1" res="-9.0490430593490601e-02" rms="4.3580579757690430e-01" purity="3.1322145462036133e-01" nType="0">
          <Node pos="l" depth="2" NCoef="0" IVar="-1" Cut="0.0000000000000000e+00" cType="1" res="-9.0407446259632707e-04" rms="3.4766307473182678e-01" purity="1.4641754329204559e-01" nType="-99"/>
          <Node pos="r" depth="2" NCoef="0" IVar="-1" Cut="0.0000000000000000e+00" cType="1" res="-3.7319612602004781e-05" rms="4.7614136338233948e-01" purity="4.3909147381782532e-01" nType="-99"/>
        </Node>
        <Node pos="r" depth="1" NCoef="0" IVar="0" Cut="3.7608180195093155e-02" cType="1" res="2.1808309853076935e-01" rms="4.2025634646415710e-01" purity="7.5866669416427612e-01" nType="0">
          <Node pos="l" depth="2" NCoef="0" IVar="-1" Cut="0.0000000000000000e+00" cType="1" res="6.1038462445139885e-04" rms="2.9243785142898560e-01" purity="9.0427511930465698e-01" nType="-99"/>
          <Node pos="r" depth="2" NCoef="0" IVar="-1" Cut="0.0000000000000000e+00" cType="1" res="3.5771491820923984e-04" rms="4.5237767696380615e-01" purity="6.9351094961166382e-01" nType="-99"/>
        </Node>
      </Node>
    </BinaryTree>
    <BinaryTree type="DecisionTree" boostWeight="1.0000000000000000e+00" itree="209">
      <Node pos="s" depth="0" NCoef="0" IVar="2" Cut="5.4184500000000000e+04" cType="1" res="4.5031633228063583e-02" rms="4.5784315466880798e-01" purity="5.0400912761688232e-01" nType="0">
        <Node pos="l" depth="1" NCoef="0" IVar="0" Cut="3.8101427257061005e-02" cType="1" res="-6.0342565178871155e-02" rms="4.5047813653945923e-01" purity="3.5122498869895935e-01" nType="0">
          <Node pos="l" depth="2" NCoef="0" IVar="-1" Cut="0.0000000000000000e+00" cType="1" res="2.5657174774096347e-05" rms="4.7215238213539124e-01" purity="4.3913382291793823e-01" nType="-99"/>
          <Node pos="r" depth="2" NCoef="0" IVar="-1" Cut="0.0000000000000000e+00" cType="1" res="-9.6104521071538329e-04" rms="3.9100208878517151e-01" purity="2.1555840969085693e-01" nType="-99"/>
        </Node>
        <Node pos="r" depth="1" NCoef="0" IVar="1" Cut="2.4932723999023438e+02" cType="1" res="2.4325565993785858e-01" rms="4.0252250432968140e-01" purity="7.9141801595687866e-01" nType="0">
          <Node pos="l" depth="2" NCoef="0" IVar="-1" Cut="0.0000000000000000e+00" cType="1" res="4.3265841668471694e-04" rms="4.3921735882759094e-01" purity="7.3319798707962036e-01" nType="-99"/>
          <Node pos="r" depth="2" NCoef="0" IVar="-1" Cut="0.0000000000000000e+00" cType="1" res="4.5614072587341070e-04" rms="2.3536635935306549e-01" purity="9.4091612100601196e-01" nType="-99"/>
        </Node>
      </Node>
    </BinaryTree>
    <BinaryTree type="DecisionTree" boostWeight="1.0000000000000000e+00" itree="210">
      <Node pos="s" depth="0" NCoef="0" IVar="1" Cut="1.3847789001464844e+02" cType="1" res="3.2148402184247971e-02" rms="4.5510840415954590e-01" purity="4.9217000603675842e-01" nType="0">
        <Node pos="l" depth="1" NCoef="0" IVar="1" Cut="6.5425224304199219e+01" cType="1" res="-1.0737265646457672e-01" rms="4.2520916461944580e-01" purity="2.8800129890441895e-01" nType="0">
          <Node pos="l" depth="2" NCoef="0" IVar="-1" Cut="0.0000000000000000e+00" cType="1" res="-2.1855826489627361e-03" rms="3.2706862688064575e-01" purity="1.2701688706874847e-01" nType="-99"/>
          <Node pos="r" depth="2" NCoef="0" IVar="-1" Cut="0.0000000000000000e+00" cType="1" res="-1.1553472722880542e-04" rms="4.6981629729270935e-01" purity="4.0895408391952515e-01" nType="-99"/>
        </Node>
        <Node pos="r" depth="1" NCoef="0" IVar="1" Cut="2.5801971435546875e+02" cType="1" res="1.9827753305435181e-01" rms="4.3322828412055969e-01" purity="7.3527580499649048e-01" nType="0">
          <Node pos="l" depth="2" NCoef="0" IVar="-1" Cut="0.0000000000000000e+00" cType="1" res="4.0415322291664779e-04" rms="4.5710012316703796e-01" purity="6.8673610687255859e-01" nType="-99"/>
          <Node pos="r" depth="2" NCoef="0" IVar="-1" Cut="0.0000000000000000e+00" cType="1" res="5.4680387256667018e-04" rms="2.6156938076019287e-01" purity="9.2402011156082153e-01" nType="-99"/>
        </Node>
      </Node>
    </BinaryTree>
    <BinaryTree type="DecisionTree" boostWeight="1.0000000000000000e+00" itree="211">
      <Node pos="s" depth="0" NCoef="0" IVar="1" Cut="1.3938558959960938e+02" cType="1" res="3.7296690046787262e-02" rms="4.5711359381675720e-01" purity="4.9533346295356750e-01" nType="0">
        <Node pos="l" depth="1" NCoef="0" IVar="0" Cut="3.8617823272943497e-02" cType="1" res="-9.0449452400207520e-02" rms="4.3431103229522705e-01" purity="3.0410364270210266e-01" nType="0">
          <Node pos="l" depth="2" NCoef="0" IVar="-1" Cut="0.0000000000000000e+00" cType="1" res="-8.7125241407193244e-05" rms="4.6491932868957520e-01" purity="3.9460191130638123e-01" nType="-99"/>
          <Node pos="r" depth="2" NCoef="0" IVar="-1" Cut="0.0000000000000000e+00" cType="1" res="-2.1590560209006071e-03" rms="3.4884753823280334e-01" purity="1.5274555981159210e-01" nType="-99"/>
        </Node>
        <Node pos="r" depth="1" NCoef="0" IVar="2" Cut="6.6204593750000000e+04" cType="1" res="1.9659034907817841e-01" rms="4.3425315618515015e-01" purity="7.3378843069076538e-01" nType="0">
          <Node pos="l" depth="2" NCoef="0" IVar="-1" Cut="0.0000000000000000e+00" cType="1" res="2.4912948720157146e-04" rms="4.7916245460510254e-01" purity="6.2009686231613159e-01" nType="-99"/>
          <Node pos="r" depth="2" NCoef="0" IVar="-1" Cut="0.0000000000000000e+00" cType="1" res="5.5511307436972857e-04" rms="3.7969043850898743e-01" purity="8.2403016090393066e-01" nType="-99"/>
        </Node>
      </Node>
    </BinaryTree>
    <BinaryTree type="DecisionTree" boostWeight="1.0000000000000000e+00" itree="212">
      <Node pos="s" depth="0" NCoef="0" IVar="1" Cut="1.3710118103027344e+02" cType="1" res="4.9358930438756943e-02" rms="4.5722031593322754e-01" purity="5.0860285758972168e-01" nType="0">
        <Node pos="l" depth="1" NCoef="0" IVar="0" Cut="3.7411056458950043e-02" cType="1" res="-7.9908803105354309e-02" rms="4.3897917866706848e-01" purity="3.1302940845489502e-01" nType="0">
          <Node pos="l" depth="2" NCoef="0" IVar="-1" Cut="0.0000000000000000e+00" cType="1" res="-2.3396192773361690e-05" rms="4.6976518630981445e-01" purity="4.0619161725044250e-01" nType="-99"/>
          <Node pos="r" depth="2" NCoef="0" IVar="-1" Cut="0.0000000000000000e+00" cType="1" res="-1.9074752926826477e-03" rms="3.5696965456008911e-01" purity="1.6410726308822632e-01" nType="-99"/>
        </Node>
        <Node pos="r" depth="1" NCoef="0" IVar="2" Cut="6.8273312500000000e+04" cType="1" res="2.0182849466800690e-01" rms="4.3055307865142822e-01" purity="7.3927915096282959e-01" nType="0">
          <Node pos="l" depth="2" NCoef="0" IVar="-1" Cut="0.0000000000000000e+00" cType="1" res="2.6232318487018347e-04" rms="4.8140913248062134e-01" purity="6.1138236522674561e-01" nType="-99"/>
          <Node pos="r" depth="2" NCoef="0" IVar="-1" Cut="0.0000000000000000e+00" cType="1" res="5.7593267410993576e-04" rms="3.6124604940414429e-01" purity="8.4453523159027100e-01" nType="-99"/>
        </Node>
      </Node>
    </BinaryTree>
    <BinaryTree type="DecisionTree" boostWeight="1.0000000000000000e+00" itree="213">
      <Node pos="s" depth="0" NCoef="0" IVar="2" Cut="4.0782179687500000e+04" cType="1" res="3.5041537135839462e-02" rms="4.5626592636108398e-01" purity="4.9334535002708435e-01" nType="0">
        <Node pos="l" depth="1" NCoef="0" IVar="0" Cut="3.7699569016695023e-02" cType="1" res="-8.5523441433906555e-02" rms="4.3657195568084717e-01" purity="3.1560179591178894e-01" nType="0">
          <Node pos="l" depth="2" NCoef="0" IVar="-1" Cut="0.0000000000000000e+00" cType="1" res="-1.8649718185770325e-05" rms="4.6933853626251221e-01" purity="4.1630786657333374e-01" nType="-99"/>
          <Node pos="r" depth="2" NCoef="0" IVar="-1" Cut="0.0000000000000000e+00" cType="1" res="-3.2056504860520363e-03" rms="3.1955137848854065e-01" purity="1.2499260157346725e-01" nType="-99"/>
        </Node>
        <Node pos="r" depth="1" NCoef="0" IVar="0" Cut="4.2733144015073776e-02" cType="1" res="2.0039139688014984e-01" rms="4.3013685941696167e-01" purity="7.3711317777633667e-01" nType="0">
          <Node pos="l" depth="2" NCoef="0" IVar="-1" Cut="0.0000000000000000e+00" cType="1" res="5.4984982125461102e-04" rms="3.3114951848983765e-01" purity="8.7225216627120972e-01" nType="-99"/>
          <Node pos="r" depth="2" NCoef="0" IVar="-1" Cut="0.0000000000000000e+00" cType="1" res="2.8756723622791469e-04" rms="4.6103927493095398e-01" purity="6.6128563880920410e-01" nType="-99"/>
        </Node>
      </Node>
    </BinaryTree>
    <BinaryTree type="DecisionTree" boostWeight="1.0000000000000000e+00" itree="214">
      <Node pos="s" depth="0" NCoef="0" IVar="2" Cut="4.4136394531250000e+04" cType="1" res="3.5023942589759827e-02" rms="4.5535796880722046e-01" purity="4.9386888742446899e-01" nType="0">
        <Node pos="l" depth="1" NCoef="0" IVar="1" Cut="3.8673717498779297e+01" cType="1" res="-8.4128916263580322e-02" rms="4.3752619624137878e-01" purity="3.1848448514938354e-01" nType="0">
          <Node pos="l" depth="2" NCoef="0" IVar="-1" Cut="0.0000000000000000e+00" cType="1" res="-1.6999322688207030e-03" rms="3.0561399459838867e-01" purity="1.0650054365396500e-01" nType="-99"/>
          <Node pos="r" depth="2" NCoef="0" IVar="-1" Cut="0.0000000000000000e+00" cType="1" res="-1.3313448289409280e-04" rms="4.6202269196510315e-01" purity="3.9059510827064514e-01" nType="-99"/>
        </Node>
        <Node pos="r" depth="1" NCoef="0" IVar="1" Cut="2.0734350585937500e+02" cType="1" res="2.1118916571140289e-01" rms="4.2292559146881104e-01" purity="7.5317144393920898e-01" nType="0">
          <Node pos="l" depth="2" NCoef="0" IVar="-1" Cut="0.0000000000000000e+00" cType="1" res="3.6621885374188423e-04" rms="4.5962774753570557e-01" purity="6.7777222394943237e-01" nType="-99"/>
          <Node pos="r" depth="2" NCoef="0" IVar="-1" Cut="0.0000000000000000e+00" cType="1" res="6.1969226226210594e-04" rms="3.0784595012664795e-01" purity="8.9248448610305786e-01" nType="-99"/>
        </Node>
      </Node>
    </BinaryTree>
    <BinaryTree type="DecisionTree" boostWeight="1.0000000000000000e+00" itree="215">
      <Node pos="s" depth="0" NCoef="0" IVar="1" Cut="1.3828833007812500e+02" cType="1" res="2.7302678674459457e-02" rms="4.5470440387725830e-01" purity="4.8540657758712769e-01" nType="0">
        <Node pos="l" depth="1" NCoef="0" IVar="0" Cut="3.8101427257061005e-02" cType="1" res="-1.0862506181001663e-01" rms="4.2343237996101379e-01" purity="2.8376775979995728e-01" nType="0">
          <Node pos="l" depth="2" NCoef="0" IVar="-1" Cut="0.0000000000000000e+00" cType="1" res="-1.4379109779838473e-04" rms="4.5969036221504211e-01" purity="3.7822225689888000e-01" nType="-99"/>
          <Node pos="r" depth="2" NCoef="0" IVar="-1" Cut="0.0000000000000000e+00" cType="1" res="-2.9580106493085623e-03" rms="3.2413488626480103e-01" purity="1.2824751436710358e-01" nType="-99"/>
        </Node>
        <Node pos="r" depth="1" NCoef="0" IVar="1" Cut="2.5785623168945312e+02" cType="1" res="1.9161033630371094e-01" rms="4.3660020828247070e-01" purity="7.2914487123489380e-01" nType="0">
          <Node pos="l" depth="2" NCoef="0" IVar="-1" Cut="0.0000000000000000e+00" cType="1" res="3.5386389936320484e-04" rms="4.5707088708877563e-01" purity="6.8690204620361328e-01" nType="-99"/>
          <Node pos="r" depth="2" NCoef="0" IVar="-1" Cut="0.0000000000000000e+00" cType="1" res="7.8685954213142395e-04" rms="2.7322477102279663e-01" purity="9.1645091772079468e-01" nType="-99"/>
        </Node>
      </Node>
    </BinaryTree>
    <BinaryTree type="DecisionTree" boostWeight="1.0000000000000000e+00" itree="216">
      <Node pos="s" depth="0" NCoef="0" IVar="2" Cut="5.1723820312500000e+04" cType="1" res="4.0355280041694641e-02" rms="4.5602291822433472e-01" purity="4.9870908260345459e-01" nType="0">
        <Node pos="l" depth="1" NCoef="0" IVar="0" Cut="4.9881406128406525e-02" cType="1" res="-7.2923459112644196e-02" rms="4.4481939077377319e-01" purity="3.3352631330490112e-01" nType="0">
          <Node pos="l" depth="2" NCoef="0" IVar="-1" Cut="0.0000000000000000e+00" cType="1" res="-5.4869964515091851e-05" rms="4.6427789330482483e-01" purity="3.9582416415214539e-01" nType="-99"/>
          <Node pos="r" depth="2" NCoef="0" IVar="-1" Cut="0.0000000000000000e+00" cType="1" res="-2.3026261478662491e-03" rms="3.4436392784118652e-01" purity="1.5671722590923309e-01" nType="-99"/>
        </Node>
        <Node pos="r" depth="1" NCoef="0" IVar="1" Cut="2.2740463256835938e+02" cType="1" res="2.3647904396057129e-01" rms="4.0589338541030884e-01" purity="7.8469616174697876e-01" nType="0">
          <Node pos="l" depth="2" NCoef="0" IVar="-1" Cut="0.0000000000000000e+00" cType="1" res="3.7579800118692219e-04" rms="4.4436371326446533e-01" purity="7.2010320425033569e-01" nType="-99"/>
          <Node pos="r" depth="2" NCoef="0" IVar="-1" Cut="0.0000000000000000e+00" cType="1" res="5.5316969519481063e-04" rms="2.6666241884231567e-01" purity="9.2241311073303223e-01" nType="-99"/>
        </Node>
      </Node>
    </BinaryTree>
    <BinaryTree type="DecisionTree" boostWeight="1.0000000000000000e+00" itree="217">
      <Node pos="s" depth="0" NCoef="0" IVar="1" Cut="1.5836036682128906e+02" cType="1" res="4.2967736721038818e-02" rms="4.5790642499923706e-01" purity="4.9964663386344910e-01" nType="0">
        <Node pos="l" depth="1" NCoef="0" IVar="1" Cut="3.6785594940185547e+01" cType="1" res="-5.2270080894231796e-02" rms="4.4953635334968567e-01" purity="3.5812017321586609e-01" nType="0">
          <Node pos="l" depth="2" NCoef="0" IVar="-1" Cut="0.0000000000000000e+00" cType="1" res="-4.0937447920441628e-03" rms="2.9555502533912659e-01" purity="9.7639903426170349e-02" nType="-99"/>
          <Node pos="r" depth="2" NCoef="0" IVar="-1" Cut="0.0000000000000000e+00" cType="1" res="6.1249911595950834e-06" rms="4.6934321522712708e-01" purity="4.3085035681724548e-01" nType="-99"/>
        </Node>
        <Node pos="r" depth="1" NCoef="0" IVar="1" Cut="2.4954237365722656e+02" cType="1" res="2.2104093432426453e-01" rms="4.1858157515525818e-01" purity="7.6426917314529419e-01" nType="0">
          <Node pos="l" depth="2" NCoef="0" IVar="-1" Cut="0.0000000000000000e+00" cType="1" res="3.5549976746551692e-04" rms="4.4472765922546387e-01" purity="7.1916079521179199e-01" nType="-99"/>
          <Node pos="r" depth="2" NCoef="0" IVar="-1" Cut="0.0000000000000000e+00" cType="1" res="7.3148671071976423e-04" rms="2.8995874524116516e-01" purity="9.0432035923004150e-01" nType="-99"/>
        </Node>
      </Node>
    </BinaryTree>
    <BinaryTree type="DecisionTree" boostWeight="1.0000000000000000e+00" itree="218">
      <Node pos="s" depth="0" NCoef="0" IVar="1" Cut="1.5864443969726562e+02" cType="1" res="4.1154831647872925e-02" rms="4.5784533023834229e-01" purity="4.9684384465217590e-01" nType="0">
        <Node pos="l" depth="1" NCoef="0" IVar="0" Cut="5.1490433514118195e-02" cType="1" res="-5.5362239480018616e-02" rms="4.4915822148323059e-01" purity="3.5314899682998657e-01" nType="0">
          <Node pos="l" depth="2" NCoef="0" IVar="-1" Cut="0.0000000000000000e+00" cType="1" res="-4.3697596083802637e-06" rms="4.6369102597236633e-01" purity="4.1438356041908264e-01" nType="-99"/>
          <Node pos="r" depth="2" NCoef="0" IVar="-1" Cut="0.0000000000000000e+00" cType="1" res="-2.1453066729009151e-03" rms="3.6236929893493652e-01" purity="1.7661251127719879e-01" nType="-99"/>
        </Node>
        <Node pos="r" depth="1" NCoef="0" IVar="1" Cut="2.4979901123046875e+02" cType="1" res="2.2140400111675262e-01" rms="4.1767239570617676e-01" purity="7.6519912481307983e-01" nType="0">
          <Node pos="l" depth="2" NCoef="0" IVar="-1" Cut="0.0000000000000000e+00" cType="1" res="3.6368591827340424e-04" rms="4.4805404543876648e-01" purity="7.1102815866470337e-01" nType="-99"/>
          <Node pos="r" depth="2" NCoef="0" IVar="-1" Cut="0.0000000000000000e+00" cType="1" res="6.5500545315444469e-04" rms="2.7649530768394470e-01" purity="9.1443276405334473e-01" nType="-99"/>
        </Node>
      </Node>
    </BinaryTree>
    <BinaryTree type="DecisionTree" boostWeight="1.0000000000000000e+00" itree="219">
      <Node pos="s" depth="0" NCoef="0" IVar="2" Cut="5.4184500000000000e+04" cType="1" res="3.9588298648595810e-02" rms="4.5495605468750000e-01" purity="4.9819320440292358e-01" nType="0">
        <Node pos="l" depth="1" NCoef="0" IVar="1" Cut="7.1707954406738281e+01" cType="1" res="-6.3845597207546234e-02" rms="4.4551712274551392e-01" purity="3.4673058986663818e-01" nType="0">
          <Node pos="l" depth="2" NCoef="0" IVar="-1" Cut="0.0000000000000000e+00" cType="1" res="-1.9428678788244724e-03" rms="3.5225296020507812e-01" purity="1.5445829927921295e-01" nType="-99"/>
          <Node pos="r" depth="2" NCoef="0" IVar="-1" Cut="0.0000000000000000e+00" cType="1" res="5.3897318139206618e-05" rms="4.7984790802001953e-01" purity="4.7067704796791077e-01" nType="-99"/>
        </Node>
        <Node pos="r" depth="1" NCoef="0" IVar="1" Cut="2.5313787841796875e+02" cType="1" res="2.3753444850444794e-01" rms="4.0446743369102478e-01" purity="7.8805428743362427e-01" nType="0">
          <Node pos="l" depth="2" NCoef="0" IVar="-1" Cut="0.0000000000000000e+00" cType="1" res="4.0876035927794874e-04" rms="4.3587991595268250e-01" purity="7.3813271522521973e-01" nType="-99"/>
          <Node pos="r" depth="2" NCoef="0" IVar="-1" Cut="0.0000000000000000e+00" cType="1" res="7.1781506994739175e-04" rms="2.4499848484992981e-01" purity="9.3562042713165283e-01" nType="-99"/>
        </Node>
      </Node>
    </BinaryTree>
    <BinaryTree type="DecisionTree" boostWeight="1.0000000000000000e+00" itree="220">
      <Node pos="s" depth="0" NCoef="0" IVar="1" Cut="1.2135903930664062e+02" cType="1" res="4.9236472696065903e-02" rms="4.5588865876197815e-01" purity="5.0721490383148193e-01" nType="0">
        <Node pos="l" depth="1" NCoef="0" IVar="0" Cut="2.4367978796362877e-02" cType="1" res="-1.0225269943475723e-01" rms="4.2493742704391479e-01" purity="2.7716916799545288e-01" nType="0">
          <Node pos="l" depth="2" NCoef="0" IVar="-1" Cut="0.0000000000000000e+00" cType="1" res="4.1227667679777369e-06" rms="4.6946859359741211e-01" purity="4.0520316362380981e-01" nType="-99"/>
          <Node pos="r" depth="2" NCoef="0" IVar="-1" Cut="0.0000000000000000e+00" cType="1" res="-1.8491211812943220e-03" rms="3.6037781834602356e-01" purity="1.6932003200054169e-01" nType="-99"/>
        </Node>
        <Node pos="r" depth="1" NCoef="0" IVar="2" Cut="7.1197562500000000e+04" cType="1" res="1.8573656678199768e-01" rms="4.3941897153854370e-01" purity="7.1449887752532959e-01" nType="0">
          <Node pos="l" depth="2" NCoef="0" IVar="-1" Cut="0.0000000000000000e+00" cType="1" res="2.5644927518442273e-04" rms="4.7630822658538818e-01" purity="6.1694729328155518e-01" nType="-99"/>
          <Node pos="r" depth="2" NCoef="0" IVar="-1" Cut="0.0000000000000000e+00" cType="1" res="4.7832998097874224e-04" rms="3.5562542080879211e-01" purity="8.5038119554519653e-01" nType="-99"/>
        </Node>
      </Node>
    </BinaryTree>
    <BinaryTree type="DecisionTree" boostWeight="1.0000000000000000e+00" itree="221">
      <Node pos="s" depth="0" NCoef="0" IVar="1" Cut="1.2484600830078125e+02" cType="1" res="4.8796892166137695e-02" rms="4.5385292172431946e-01" purity="5.0868904590606689e-01" nType="0">
        <Node pos="l" depth="1" NCoef="0" IVar="0" Cut="2.5133045390248299e-02" cType="1" res="-1.1399235576391220e-01" rms="4.1852569580078125e-01" purity="2.6686376333236694e-01" nType="0">
          <Node pos="l" depth="2" NCoef="0" IVar="-1" Cut="0.0000000000000000e+00" cType="1" res="-3.0723829695489258e-05" rms="4.6554043889045715e-01" purity="3.8718721270561218e-01" nType="-99"/>
          <Node pos="r" depth="2" NCoef="0" IVar="-1" Cut="0.0000000000000000e+00" cType="1" res="-1.9782562740147114e-03" rms="3.5510805249214172e-01" purity="1.6691745817661285e-01" nType="-99"/>
        </Node>
        <Node pos="r" depth="1" NCoef="0" IVar="2" Cut="6.1173269531250000e+04" cType="1" res="1.9638204574584961e-01" rms="4.3372359871864319e-01" purity="7.2792851924896240e-01" nType="0">
          <Node pos="l" depth="2" NCoef="0" IVar="-1" Cut="0.0000000000000000e+00" cType="1" res="2.2617296781390905e-04" rms="4.8275390267372131e-01" purity="5.9178888797760010e-01" nType="-99"/>
          <Node pos="r" depth="2" NCoef="0" IVar="-1" Cut="0.0000000000000000e+00" cType="1" res="4.8103253357112408e-04" rms="3.7992662191390991e-01" purity="8.2265436649322510e-01" nType="-99"/>
        </Node>
      </Node>
    </BinaryTree>
    <BinaryTree type="DecisionTree" boostWeight="1.0000000000000000e+00" itree="222">
      <Node pos="s" depth="0" NCoef="0" IVar="2" Cut="3.5598781250000000e+04" cType="1" res="4.5363400131464005e-02" rms="4.5325756072998047e-01" purity="5.0500661134719849e-01" nType="0">
        <Node pos="l" depth="1" NCoef="0" IVar="1" Cut="5.5464721679687500e+01" cType="1" res="-9.8854310810565948e-02" rms="4.2696222662925720e-01" purity="2.9611557722091675e-01" nType="0">
          <Node pos="l" depth="2" NCoef="0" IVar="-1" Cut="0.0000000000000000e+00" cType="1" res="-3.4596687182784081e-03" rms="3.2419371604919434e-01" purity="1.2177939713001251e-01" nType="-99"/>
          <Node pos="r" depth="2" NCoef="0" IVar="-1" Cut="0.0000000000000000e+00" cType="1" res="-1.1354758316883817e-04" rms="4.6481510996818542e-01" purity="4.0328764915466309e-01" nType="-99"/>
        </Node>
        <Node pos="r" depth="1" NCoef="0" IVar="0" Cut="3.8821943104267120e-02" cType="1" res="2.0288489758968353e-01" rms="4.2801031470298767e-01" purity="7.3316740989685059e-01" nType="0">
          <Node pos="l" depth="2" NCoef="0" IVar="-1" Cut="0.0000000000000000e+00" cType="1" res="5.8374495711177588e-04" rms="3.1118115782737732e-01" purity="8.8971066474914551e-01" nType="-99"/>
          <Node pos="r" depth="2" NCoef="0" IVar="-1" Cut="0.0000000000000000e+00" cType="1" res="3.1782768201082945e-04" rms="4.5629757642745972e-01" purity="6.6063958406448364e-01" nType="-99"/>
        </Node>
      </Node>
    </BinaryTree>
    <BinaryTree type="DecisionTree" boostWeight="1.0000000000000000e+00" itree="223">
      <Node pos="s" depth="0" NCoef="0" IVar="2" Cut="5.3826414062500000e+04" cType="1" res="5.2903681993484497e-02" rms="4.5376393198966980e-01" purity="5.1280474662780762e-01" nType="0">
        <Node pos="l" depth="1" NCoef="0" IVar="1" Cut="3.8584842681884766e+01" cType="1" res="-6.0292128473520279e-02" rms="4.4666051864624023e-01" purity="3.4713542461395264e-01" nType="0">
          <Node pos="l" depth="2" NCoef="0" IVar="-1" Cut="0.0000000000000000e+00" cType="1" res="-1.8441817956045270e-03" rms="3.2876700162887573e-01" purity="1.2697523832321167e-01" nType="-99"/>
          <Node pos="r" depth="2" NCoef="0" IVar="-1" Cut="0.0000000000000000e+00" cType="1" res="-5.1627041102619842e-05" rms="4.6658256649971008e-01" purity="4.1425731778144836e-01" nType="-99"/>
        </Node>
        <Node pos="r" depth="1" NCoef="0" IVar="1" Cut="2.3100480651855469e+02" cType="1" res="2.5000223517417908e-01" rms="3.9481660723686218e-01" purity="8.0127114057540894e-01" nType="0">
          <Node pos="l" depth="2" NCoef="0" IVar="-1" Cut="0.0000000000000000e+00" cType="1" res="4.3930401443503797e-04" rms="4.2931726574897766e-01" purity="7.4964833259582520e-01" nType="-99"/>
          <Node pos="r" depth="2" NCoef="0" IVar="-1" Cut="0.0000000000000000e+00" cType="1" res="5.1735230954363942e-04" rms="2.6610773801803589e-01" purity="9.2288398742675781e-01" nType="-99"/>
        </Node>
      </Node>
    </BinaryTree>
    <BinaryTree type="DecisionTree" boostWeight="1.0000000000000000e+00" itree="224">
      <Node pos="s" depth="0" NCoef="0" IVar="2" Cut="5.3826414062500000e+04" cType="1" res="5.3745388984680176e-02" rms="4.5648756623268127e-01" purity="5.1087951660156250e-01" nType="0">
        <Node pos="l" depth="1" NCoef="0" IVar="0" Cut="5.0801903009414673e-02" cType="1" res="-4.5546554028987885e-02" rms="4.5231133699417114e-01" purity="3.6173436045646667e-01" nType="0">
          <Node pos="l" depth="2" NCoef="0" IVar="-1" Cut="0.0000000000000000e+00" cType="1" res="2.9170139896450564e-05" rms="4.6811044216156006e-01" purity="4.3093079328536987e-01" nType="-99"/>
          <Node pos="r" depth="2" NCoef="0" IVar="-1" Cut="0.0000000000000000e+00" cType="1" res="-2.8952846769243479e-03" rms="3.4174460172653198e-01" purity="1.4931198954582214e-01" nType="-99"/>
        </Node>
        <Node pos="r" depth="1" NCoef="0" IVar="0" Cut="4.2733144015073776e-02" cType="1" res="2.4009844660758972e-01" rms="4.0283152461051941e-01" purity="7.9079812765121460e-01" nType="0">
          <Node pos="l" depth="2" NCoef="0" IVar="-1" Cut="0.0000000000000000e+00" cType="1" res="6.1592675046995282e-04" rms="3.0028745532035828e-01" purity="8.9918690919876099e-01" nType="-99"/>
          <Node pos="r" depth="2" NCoef="0" IVar="-1" Cut="0.0000000000000000e+00" cType="1" res="3.6574152181856334e-04" rms="4.4083994626998901e-01" purity="7.2663074731826782e-01" nType="-99"/>
        </Node>
      </Node>
    </BinaryTree>
    <BinaryTree type="DecisionTree" boostWeight="1.0000000000000000e+00" itree="225">
      <Node pos="s" depth="0" NCoef="0" IVar="2" Cut="3.5598781250000000e+04" cType="1" res="5.0840742886066437e-02" rms="4.5457792282104492e-01" purity="5.0928920507431030e-01" nType="0">
        <Node pos="l" depth="1" NCoef="0" IVar="0" Cut="3.7628732621669769e-02" cType="1" res="-8.9062184095382690e-02" rms="4.3199649453163147e-01" purity="3.0437964200973511e-01" nType="0">
          <Node pos="l" depth="2" NCoef="0" IVar="-1" Cut="0.0000000000000000e+00" cType="1" res="-6.2033541325945407e-05" rms="4.6674266457557678e-01" purity="3.9651736617088318e-01" nType="-99"/>
          <Node pos="r" depth="2" NCoef="0" IVar="-1" Cut="0.0000000000000000e+00" cType="1" res="-3.3671765122562647e-03" rms="3.1126871705055237e-01" purity="1.1953434348106384e-01" nType="-99"/>
        </Node>
        <Node pos="r" depth="1" NCoef="0" IVar="1" Cut="2.4263195800781250e+02" cType="1" res="2.0385162532329559e-01" rms="4.2862334847450256e-01" purity="7.3339736461639404e-01" nType="0">
          <Node pos="l" depth="2" NCoef="0" IVar="-1" Cut="0.0000000000000000e+00" cType="1" res="3.2658086274750531e-04" rms="4.5641621947288513e-01" purity="6.7572665214538574e-01" nType="-99"/>
          <Node pos="r" depth="2" NCoef="0" IVar="-1" Cut="0.0000000000000000e+00" cType="1" res="5.3390208631753922e-04" rms="2.5653994083404541e-01" purity="9.2789334058761597e-01" nType="-99"/>
        </Node>
      </Node>
    </BinaryTree>
    <BinaryTree type="DecisionTree" boostWeight="1.0000000000000000e+00" itree="226">
      <Node pos="s" depth="0" NCoef="0" IVar="1" Cut="1.3158508300781250e+02" cType="1" res="4.2991418391466141e-02" rms="4.5356664061546326e-01" purity="5.0100070238113403e-01" nType="0">
        <Node pos="l" depth="1" NCoef="0" IVar="0" Cut="3.6551970988512039e-02" cType="1" res="-1.0025432705879211e-01" rms="4.2396664619445801e-01" purity="2.8402960300445557e-01" nType="0">
          <Node pos="l" depth="2" NCoef="0" IVar="-1" Cut="0.0000000000000000e+00" cType="1" res="-8.5368170402944088e-05" rms="4.6094280481338501e-01" purity="3.8098785281181335e-01" nType="-99"/>
          <Node pos="r" depth="2" NCoef="0" IVar="-1" Cut="0.0000000000000000e+00" cType="1" res="-3.0012878123670816e-03" rms="3.2714217901229858e-01" purity="1.2903882563114166e-01" nType="-99"/>
        </Node>
        <Node pos="r" depth="1" NCoef="0" IVar="2" Cut="6.8965093750000000e+04" cType="1" res="1.9335281848907471e-01" rms="4.3455815315246582e-01" purity="7.2874975204467773e-01" nType="0">
          <Node pos="l" depth="2" NCoef="0" IVar="-1" Cut="0.0000000000000000e+00" cType="1" res="2.5930069386959076e-04" rms="4.8097828030586243e-01" purity="6.0846716165542603e-01" nType="-99"/>
          <Node pos="r" depth="2" NCoef="0" IVar="-1" Cut="0.0000000000000000e+00" cType="1" res="5.3430069237947464e-04" rms="3.6022952198982239e-01" purity="8.4560751914978027e-01" nType="-99"/>
        </Node>
      </Node>
    </BinaryTree>
    <BinaryTree type="DecisionTree" boostWeight="1.0000000000000000e+00" itree="227">
      <Node pos="s" depth="0" NCoef="0" IVar="2" Cut="4.4136394531250000e+04" cType="1" res="4.8495858907699585e-02" rms="4.5525184273719788e-01" purity="5.0480949878692627e-01" nType="0">
        <Node pos="l" depth="1" NCoef="0" IVar="1" Cut="5.7267311096191406e+01" cType="1" res="-6.5081767737865448e-02" rms="4.4362810254096985e-01" purity="3.3177459239959717e-01" nType="0">
          <Node pos="l" depth="2" NCoef="0" IVar="-1" Cut="0.0000000000000000e+00" cType="1" res="-5.5432156659662724e-04" rms="3.6773502826690674e-01" purity="1.6677662730216980e-01" nType="-99"/>
          <Node pos="r" depth="2" NCoef="0" IVar="-1" Cut="0.0000000000000000e+00" cType="1" res="-2.4740123990341090e-05" rms="4.7118431329727173e-01" purity="4.2510774731636047e-01" nType="-99"/>
        </Node>
        <Node pos="r" depth="1" NCoef="0" IVar="0" Cut="4.2733144015073776e-02" cType="1" res="2.1499165892601013e-01" rms="4.1945156455039978e-01" purity="7.5846499204635620e-01" nType="0">
          <Node pos="l" depth="2" NCoef="0" IVar="-1" Cut="0.0000000000000000e+00" cType="1" res="5.7221460156142712e-04" rms="3.1495034694671631e-01" purity="8.8647973537445068e-01" nType="-99"/>
          <Node pos="r" depth="2" NCoef="0" IVar="-1" Cut="0.0000000000000000e+00" cType="1" res="3.5175302764400840e-04" rms="4.5599502325057983e-01" purity="6.7994648218154907e-01" nType="-99"/>
        </Node>
      </Node>
    </BinaryTree>
    <BinaryTree type="DecisionTree" boostWeight="1.0000000000000000e+00" itree="228">
      <Node pos="s" depth="0" NCoef="0" IVar="2" Cut="6.1173269531250000e+04" cType="1" res="3.5554457455873489e-02" rms="4.5384785532951355e-01" purity="4.9194604158401489e-01" nType="0">
        <Node pos="l" depth="1" NCoef="0" IVar="0" Cut="3.8101427257061005e-02" cType="1" res="-5.5725652724504471e-02" rms="4.4708377122879028e-01" purity="3.5854518413543701e-01" nType="0">
          <Node pos="l" depth="2" NCoef="0" IVar="-1" Cut="0.0000000000000000e+00" cType="1" res="6.1267797718755901e-05" rms="4.6737709641456604e-01" purity="4.5292153954505920e-01" nType="-99"/>
          <Node pos="r" depth="2" NCoef="0" IVar="-1" Cut="0.0000000000000000e+00" cType="1" res="-1.4268124941736460e-03" rms="3.8956570625305176e-01" purity="2.1973694860935211e-01" nType="-99"/>
        </Node>
        <Node pos="r" depth="1" NCoef="0" IVar="0" Cut="4.3594121932983398e-02" cType="1" res="2.5054371356964111e-01" rms="3.9304742217063904e-01" purity="8.0614095926284790e-01" nType="0">
          <Node pos="l" depth="2" NCoef="0" IVar="-1" Cut="0.0000000000000000e+00" cType="1" res="6.5450271358713508e-04" rms="3.1033059954643250e-01" purity="8.9150959253311157e-01" nType="-99"/>
          <Node pos="r" depth="2" NCoef="0" IVar="-1" Cut="0.0000000000000000e+00" cType="1" res="3.8489219150505960e-04" rms="4.2286038398742676e-01" purity="7.6267033815383911e-01" nType="-99"/>
        </Node>
      </Node>
    </BinaryTree>
    <BinaryTree type="DecisionTree" boostWeight="1.0000000000000000e+00" itree="229">
      <Node pos="s" depth="0" NCoef="0" IVar="1" Cut="1.3938558959960938e+02" cType="1" res="3.8779281079769135e-02" rms="4.5345279574394226e-01" purity="4.9626910686492920e-01" nType="0">
        <Node pos="l" depth="1" NCoef="0" IVar="1" Cut="5.9151901245117188e+01" cType="1" res="-9.3808971345424652e-02" rms="4.2862403392791748e-01" purity="2.9447782039642334e-01" nType="0">
          <Node pos="l" depth="2" NCoef="0" IVar="-1" Cut="0.0000000000000000e+00" cType="1" res="-1.7995322123169899e-03" rms="3.3364346623420715e-01" purity="1.3118559122085571e-01" nType="-99"/>
          <Node pos="r" depth="2" NCoef="0" IVar="-1" Cut="0.0000000000000000e+00" cType="1" res="-1.1066521983593702e-04" rms="4.6571338176727295e-01" purity="3.9723569154739380e-01" nType="-99"/>
        </Node>
        <Node pos="r" depth="1" NCoef="0" IVar="2" Cut="6.6204593750000000e+04" cType="1" res="1.9794650375843048e-01" rms="4.3066546320915222e-01" purity="7.3851186037063599e-01" nType="0">
          <Node pos="l" depth="2" NCoef="0" IVar="-1" Cut="0.0000000000000000e+00" cType="1" res="2.6831388822756708e-04" rms="4.7882935404777527e-01" purity="6.1799240112304688e-01" nType="-99"/>
          <Node pos="r" depth="2" NCoef="0" IVar="-1" Cut="0.0000000000000000e+00" cType="1" res="5.0872721476480365e-04" rms="3.7358123064041138e-01" purity="8.3073914051055908e-01" nType="-99"/>
        </Node>
      </Node>
    </BinaryTree>
    <BinaryTree type="DecisionTree" boostWeight="1.0000000000000000e+00" itree="230">
      <Node pos="s" depth="0" NCoef="0" IVar="2" Cut="3.6123000000000000e+04" cType="1" res="5.0196751952171326e-02" rms="4.5374223589897156e-01" purity="5.0788885354995728e-01" nType="0">
        <Node pos="l" depth="1" NCoef="0" IVar="0" Cut="2.4367978796362877e-02" cType="1" res="-8.4612198173999786e-02" rms="4.3315085768699646e-01" purity="3.0725431442260742e-01" nType="0">
          <Node pos="l" depth="2" NCoef="0" IVar="-1" Cut="0.0000000000000000e+00" cType="1" res="5.7646953791845590e-05" rms="4.7087991237640381e-01" purity="4.3739894032478333e-01" nType="-99"/>
          <Node pos="r" depth="2" NCoef="0" IVar="-1" Cut="0.0000000000000000e+00" cType="1" res="-1.5898306155577302e-03" rms="3.7210807204246521e-01" purity="1.9280430674552917e-01" nType="-99"/>
        </Node>
        <Node pos="r" depth="1" NCoef="0" IVar="0" Cut="3.9660222828388214e-02" cType="1" res="2.0245535671710968e-01" rms="4.2755088210105896e-01" purity="7.3449349403381348e-01" nType="0">
          <Node pos="l" depth="2" NCoef="0" IVar="-1" Cut="0.0000000000000000e+00" cType="1" res="6.3281890470534563e-04" rms="3.2274523377418518e-01" purity="8.7864202260971069e-01" nType="-99"/>
          <Node pos="r" depth="2" NCoef="0" IVar="-1" Cut="0.0000000000000000e+00" cType="1" res="3.4713553031906486e-04" rms="4.5581632852554321e-01" purity="6.6574305295944214e-01" nType="-99"/>
        </Node>
      </Node>
    </BinaryTree>
    <BinaryTree type="DecisionTree" boostWeight="1.0000000000000000e+00" itree="231">
      <Node pos="s" depth="0" NCoef="0" IVar="2" Cut="5.2699613281250000e+04" cType="1" res="5.7117905467748642e-02" rms="4.5574873685836792e-01" purity="5.1277250051498413e-01" nType="0">
        <Node pos="l" depth="1" NCoef="0" IVar="0" Cut="3.6266315728425980e-02" cType="1" res="-3.2349657267332077e-02" rms="4.5297908782958984e-01" purity="3.7425065040588379e-01" nType="0">
          <Node pos="l" depth="2" NCoef="0" IVar="-1" Cut="0.0000000000000000e+00" cType="1" res="1.2335063365753740e-04" rms="4.7244632244110107e-01" purity="4.8258557915687561e-01" nType="-99"/>
          <Node pos="r" depth="2" NCoef="0" IVar="-1" Cut="0.0000000000000000e+00" cType="1" res="-1.4784478116780519e-03" rms="3.8584378361701965e-01" purity="2.0761847496032715e-01" nType="-99"/>
        </Node>
        <Node pos="r" depth="1" NCoef="0" IVar="0" Cut="3.9766632020473480e-02" cType="1" res="2.3098923265933990e-01" rms="4.0842509269714355e-01" purity="7.8197604417800903e-01" nType="0">
          <Node pos="l" depth="2" NCoef="0" IVar="-1" Cut="0.0000000000000000e+00" cType="1" res="5.0422712229192257e-04" rms="2.8431037068367004e-01" purity="9.1097784042358398e-01" nType="-99"/>
          <Node pos="r" depth="2" NCoef="0" IVar="-1" Cut="0.0000000000000000e+00" cType="1" res="4.1368289384990931e-04" rms="4.4756457209587097e-01" purity="7.1119874715805054e-01" nType="-99"/>
        </Node>
      </Node>
    </BinaryTree>
    <BinaryTree type="DecisionTree" boostWeight="1.0000000000000000e+00" itree="232">
      <Node pos="s" depth="0" NCoef="0" IVar="2" Cut="4.4136394531250000e+04" cType="1" res="4.5040443539619446e-02" rms="4.5379108190536499e-01" purity="5.0189751386642456e-01" nType="0">
        <Node pos="l" depth="1" NCoef="0" IVar="1" Cut="6.3908126831054688e+01" cType="1" res="-6.9770142436027527e-02" rms="4.3991291522979736e-01" purity="3.2669287919998169e-01" nType="0">
          <Node pos="l" depth="2" NCoef="0" IVar="-1" Cut="0.0000000000000000e+00" cType="1" res="-7.4401358142495155e-04" rms="3.5469508171081543e-01" purity="1.5595795214176178e-01" nType="-99"/>
          <Node pos="r" depth="2" NCoef="0" IVar="-1" Cut="0.0000000000000000e+00" cType="1" res="-2.8624317565117963e-06" rms="4.7351834177970886e-01" purity="4.3506208062171936e-01" nType="-99"/>
        </Node>
        <Node pos="r" depth="1" NCoef="0" IVar="0" Cut="3.9836816489696503e-02" cType="1" res="2.1099503338336945e-01" rms="4.2102268338203430e-01" purity="7.5514954328536987e-01" nType="0">
          <Node pos="l" depth="2" NCoef="0" IVar="-1" Cut="0.0000000000000000e+00" cType="1" res="6.2107649864628911e-04" rms="3.0642360448837280e-01" purity="8.9356309175491333e-01" nType="-99"/>
          <Node pos="r" depth="2" NCoef="0" IVar="-1" Cut="0.0000000000000000e+00" cType="1" res="3.1806420884095132e-04" rms="4.5383191108703613e-01" purity="6.8472766876220703e-01" nType="-99"/>
        </Node>
      </Node>
    </BinaryTree>
    <BinaryTree type="DecisionTree" boostWeight="1.0000000000000000e+00" itree="233">
      <Node pos="s" depth="0" NCoef="0" IVar="2" Cut="5.4184500000000000e+04" cType="1" res="4.5314710587263107e-02" rms="4.5390850305557251e-01" purity="5.0197416543960571e-01" nType="0">
        <Node pos="l" depth="1" NCoef="0" IVar="1" Cut="3.5298759460449219e+01" cType="1" res="-5.5698476731777191e-02" rms="4.4629973173141479e-01" purity="3.5062491893768311e-01" nType="0">
          <Node pos="l" depth="2" NCoef="0" IVar="-1" Cut="0.0000000000000000e+00" cType="1" res="-2.9022747185081244e-03" rms="3.1894555687904358e-01" purity="1.1505585163831711e-01" nType="-99"/>
          <Node pos="r" depth="2" NCoef="0" IVar="-1" Cut="0.0000000000000000e+00" cType="1" res="-3.2273514079861343e-05" rms="4.6418997645378113e-01" purity="4.1362732648849487e-01" nType="-99"/>
        </Node>
        <Node pos="r" depth="1" NCoef="0" IVar="0" Cut="3.9660222828388214e-02" cType="1" res="2.3754402995109558e-01" rms="4.0335816144943237e-01" purity="7.8999382257461548e-01" nType="0">
          <Node pos="l" depth="2" NCoef="0" IVar="-1" Cut="0.0000000000000000e+00" cType="1" res="6.5474404254928231e-04" rms="2.8971588611602783e-01" purity="9.0713375806808472e-01" nType="-99"/>
          <Node pos="r" depth="2" NCoef="0" IVar="-1" Cut="0.0000000000000000e+00" cType="1" res="3.8338801823556423e-04" rms="4.3592527508735657e-01" purity="7.3646813631057739e-01" nType="-99"/>
        </Node>
      </Node>
    </BinaryTree>
    <BinaryTree type="DecisionTree" boostWeight="1.0000000000000000e+00" itree="234">
      <Node pos="s" depth="0" NCoef="0" IVar="2" Cut="6.1173269531250000e+04" cType="1" res="2.8417937457561493e-02" rms="4.5263624191284180e-01" purity="4.8374679684638977e-01" nType="0">
        <Node pos="l" depth="1" NCoef="0" IVar="1" Cut="1.1798677825927734e+02" cType="1" res="-6.7124754190444946e-02" rms="4.4350767135620117e-01" purity="3.4431794285774231e-01" nType="0">
          <Node pos="l" depth="2" NCoef="0" IVar="-1" Cut="0.0000000000000000e+00" cType="1" res="-6.8343925522640347e-04" rms="4.0746545791625977e-01" purity="2.4403561651706696e-01" nType="-99"/>
          <Node pos="r" depth="2" NCoef="0" IVar="-1" Cut="0.0000000000000000e+00" cType="1" res="1.6367224452551454e-04" rms="4.8643368482589722e-01" purity="5.4370808601379395e-01" nType="-99"/>
        </Node>
        <Node pos="r" depth="1" NCoef="0" IVar="1" Cut="2.0620263671875000e+02" cType="1" res="2.5066950917243958e-01" rms="3.9150834083557129e-01" purity="8.0808633565902710e-01" nType="0">
          <Node pos="l" depth="2" NCoef="0" IVar="-1" Cut="0.0000000000000000e+00" cType="1" res="4.4252708903513849e-04" rms="4.3222862482070923e-01" purity="7.4785816669464111e-01" nType="-99"/>
          <Node pos="r" depth="2" NCoef="0" IVar="-1" Cut="0.0000000000000000e+00" cType="1" res="6.0031394241377711e-04" rms="3.0838704109191895e-01" purity="8.9294660091400146e-01" nType="-99"/>
        </Node>
      </Node>
    </BinaryTree>
    <BinaryTree type="DecisionTree" boostWeight="1.0000000000000000e+00" itree="235">
      <Node pos="s" depth="0" NCoef="0" IVar="1" Cut="1.3930560302734375e+02" cType="1" res="4.8411134630441666e-02" rms="4.5183998346328735e-01" purity="5.0684332847595215e-01" nType="0">
        <Node pos="l" depth="1" NCoef="0" IVar="1" Cut="6.5751144409179688e+01" cType="1" res="-8.7373837828636169e-02" rms="4.2852559685707092e-01" purity="3.0113032460212708e-01" nType="0">
          <Node pos="l" depth="2" NCoef="0" IVar="-1" Cut="0.0000000000000000e+00" cType="1" res="-6.8872299743816257e-04" rms="3.4142762422561646e-01" purity="1.4188957214355469e-01" nType="-99"/>
          <Node pos="r" depth="2" NCoef="0" IVar="-1" Cut="0.0000000000000000e+00" cType="1" res="-4.0448619984090328e-05" rms="4.6864038705825806e-01" purity="4.1940352320671082e-01" nType="-99"/>
        </Node>
        <Node pos="r" depth="1" NCoef="0" IVar="1" Cut="2.5967080688476562e+02" cType="1" res="2.0819298923015594e-01" rms="4.2554160952568054e-01" purity="7.4891138076782227e-01" nType="0">
          <Node pos="l" depth="2" NCoef="0" IVar="-1" Cut="0.0000000000000000e+00" cType="1" res="4.0458000148646533e-04" rms="4.4781193137168884e-01" purity="7.0820814371109009e-01" nType="-99"/>
          <Node pos="r" depth="2" NCoef="0" IVar="-1" Cut="0.0000000000000000e+00" cType="1" res="6.1213830485939980e-04" rms="2.5641140341758728e-01" purity="9.2715162038803101e-01" nType="-99"/>
        </Node>
      </Node>
    </BinaryTree>
    <BinaryTree type="DecisionTree" boostWeight="1.0000000000000000e+00" itree="236">
      <Node pos="s" depth="0" NCoef="0" IVar="2" Cut="5.3398167968750000e+04" cType="1" res="3.7804935127496719e-02" rms="4.5303699374198914e-01" purity="4.9406179785728455e-01" nType="0">
        <Node pos="l" depth="1" NCoef="0" IVar="0" Cut="4.9881406128406525e-02" cType="1" res="-7.0033378899097443e-02" rms="4.4156602025032043e-01" purity="3.3314216136932373e-01" nType="0">
          <Node pos="l" depth="2" NCoef="0" IVar="-1" Cut="0.0000000000000000e+00" cType="1" res="-8.1983955169562250e-05" rms="4.5977079868316650e-01" purity="3.9769735932350159e-01" nType="-99"/>
          <Node pos="r" depth="2" NCoef="0" IVar="-1" Cut="0.0000000000000000e+00" cType="1" res="-2.7195354923605919e-03" rms="3.4942132234573364e-01" purity="1.5453152358531952e-01" nType="-99"/>
        </Node>
        <Node pos="r" depth="1" NCoef="0" IVar="0" Cut="4.3748017400503159e-02" cType="1" res="2.3390771448612213e-01" rms="4.0533950924873352e-01" purity="7.8669250011444092e-01" nType="0">
          <Node pos="l" depth="2" NCoef="0" IVar="-1" Cut="0.0000000000000000e+00" cType="1" res="6.2739517306908965e-04" rms="3.1286147236824036e-01" purity="8.8906234502792358e-01" nType="-99"/>
          <Node pos="r" depth="2" NCoef="0" IVar="-1" Cut="0.0000000000000000e+00" cType="1" res="3.4173141466453671e-04" rms="4.3973252177238464e-01" purity="7.2824913263320923e-01" nType="-99"/>
        </Node>
      </Node>
    </BinaryTree>
    <BinaryTree type="DecisionTree" boostWeight="1.0000000000000000e+00" itree="237">
      <Node pos="s" depth="0" NCoef="0" IVar="2" Cut="6.6204593750000000e+04" cType="1" res="5.7414956390857697e-02" rms="4.5304059982299805e-01" purity="5.1536792516708374e-01" nType="0">
        <Node pos="l" depth="1" NCoef="0" IVar="1" Cut="7.1541755676269531e+01" cType="1" res="-2.2051427513360977e-02" rms="4.5498257875442505e-01" purity="3.9851579070091248e-01" nType="0">
          <Node pos="l" depth="2" NCoef="0" IVar="-1" Cut="0.0000000000000000e+00" cType="1" res="-1.0518722701817751e-03" rms="3.6644071340560913e-01" purity="1.7125271260738373e-01" nType="-99"/>
          <Node pos="r" depth="2" NCoef="0" IVar="-1" Cut="0.0000000000000000e+00" cType="1" res="1.6144015535246581e-04" rms="4.7861933708190918e-01" purity="5.1837676763534546e-01" nType="-99"/>
        </Node>
        <Node pos="r" depth="1" NCoef="0" IVar="1" Cut="2.0142605590820312e+02" cType="1" res="2.7610048651695251e-01" rms="3.6768406629562378e-01" purity="8.3693629503250122e-01" nType="0">
          <Node pos="l" depth="2" NCoef="0" IVar="-1" Cut="0.0000000000000000e+00" cType="1" res="3.9253942668437958e-04" rms="4.2190688848495483e-01" purity="7.6530736684799194e-01" nType="-99"/>
          <Node pos="r" depth="2" NCoef="0" IVar="-1" Cut="0.0000000000000000e+00" cType="1" res="6.6136324312537909e-04" rms="2.8742539882659912e-01" purity="9.0876770019531250e-01" nType="-99"/>
        </Node>
      </Node>
    </BinaryTree>
    <BinaryTree type="DecisionTree" boostWeight="1.0000000000000000e+00" itree="238">
      <Node pos="s" depth="0" NCoef="0" IVar="1" Cut="1.5836036682128906e+02" cType="1" res="3.7980843335390091e-02" rms="4.5274078845977783e-01" purity="4.9462160468101501e-01" nType="0">
        <Node pos="l" depth="1" NCoef="0" IVar="1" Cut="7.4777694702148438e+01" cType="1" res="-7.4009306728839874e-02" rms="4.3870013952255249e-01" purity="3.2897570729255676e-01" nType="0">
          <Node pos="l" depth="2" NCoef="0" IVar="-1" Cut="0.0000000000000000e+00" cType="1" res="-1.3556135818362236e-03" rms="3.6953631043434143e-01" purity="1.7201110720634460e-01" nType="-99"/>
          <Node pos="r" depth="2" NCoef="0" IVar="-1" Cut="0.0000000000000000e+00" cType="1" res="-2.0685602066805586e-05" rms="4.7387489676475525e-01" purity="4.4968202710151672e-01" nType="-99"/>
        </Node>
        <Node pos="r" depth="1" NCoef="0" IVar="2" Cut="8.2410125000000000e+04" cType="1" res="2.2700506448745728e-01" rms="4.1134071350097656e-01" purity="7.7420955896377563e-01" nType="0">
          <Node pos="l" depth="2" NCoef="0" IVar="-1" Cut="0.0000000000000000e+00" cType="1" res="3.2503207330591977e-04" rms="4.4535845518112183e-01" purity="7.1483838558197021e-01" nType="-99"/>
          <Node pos="r" depth="2" NCoef="0" IVar="-1" Cut="0.0000000000000000e+00" cType="1" res="6.6652824170887470e-04" rms="3.0377200245857239e-01" purity="8.9666193723678589e-01" nType="-99"/>
        </Node>
      </Node>
    </BinaryTree>
    <BinaryTree type="DecisionTree" boostWeight="1.0000000000000000e+00" itree="239">
      <Node pos="s" depth="0" NCoef="0" IVar="1" Cut="1.3857240295410156e+02" cType="1" res="3.6709401756525040e-02" rms="4.5294526219367981e-01" purity="4.9213430285453796e-01" nType="0">
        <Node pos="l" depth="1" NCoef="0" IVar="1" Cut="3.8967037200927734e+01" cType="1" res="-8.9798547327518463e-02" rms="4.2733553051948547e-01" purity="2.9604965448379517e-01" nType="0">
          <Node pos="l" depth="2" NCoef="0" IVar="-1" Cut="0.0000000000000000e+00" cType="1" res="-1.7553697107359767e-03" rms="3.0337893962860107e-01" purity="1.0473502427339554e-01" nType="-99"/>
          <Node pos="r" depth="2" NCoef="0" IVar="-1" Cut="0.0000000000000000e+00" cType="1" res="-1.5872674703132361e-04" rms="4.5458278059959412e-01" purity="3.6958408355712891e-01" nType="-99"/>
        </Node>
        <Node pos="r" depth="1" NCoef="0" IVar="2" Cut="7.2630343750000000e+04" cType="1" res="1.9074988365173340e-01" rms="4.3519377708435059e-01" purity="7.3089385032653809e-01" nType="0">
          <Node pos="l" depth="2" NCoef="0" IVar="-1" Cut="0.0000000000000000e+00" cType="1" res="3.0128547223284841e-04" rms="4.7180396318435669e-01" purity="6.4569705724716187e-01" nType="-99"/>
          <Node pos="r" depth="2" NCoef="0" IVar="-1" Cut="0.0000000000000000e+00" cType="1" res="6.1192200519144535e-04" rms="3.6163347959518433e-01" purity="8.4417968988418579e-01" nType="-99"/>
        </Node>
      </Node>
    </BinaryTree>
    <BinaryTree type="DecisionTree" boostWeight="1.0000000000000000e+00" itree="240">
      <Node pos="s" depth="0" NCoef="0" IVar="2" Cut="5.3826414062500000e+04" cType="1" res="4.5855503529310226e-02" rms="4.5024788379669189e-01" purity="5.0495469570159912e-01" nType="0">
        <Node pos="l" depth="1" NCoef="0" IVar="0" Cut="3.7699569016695023e-02" cType="1" res="-7.0422463119029999e-02" rms="4.3975880742073059e-01" purity="3.3327692747116089e-01" nType="0">
          <Node pos="l" depth="2" NCoef="0" IVar="-1" Cut="0.0000000000000000e+00" cType="1" res="1.0755488801805768e-05" rms="4.6517336368560791e-01" purity="4.3137371540069580e-01" nType="-99"/>
          <Node pos="r" depth="2" NCoef="0" IVar="-1" Cut="0.0000000000000000e+00" cType="1" res="-1.9415075657889247e-03" rms="3.6968666315078735e-01" purity="1.8274460732936859e-01" nType="-99"/>
        </Node>
        <Node pos="r" depth="1" NCoef="0" IVar="1" Cut="2.3056416320800781e+02" cType="1" res="2.4739609658718109e-01" rms="3.9351043105125427e-01" purity="8.0251801013946533e-01" nType="0">
          <Node pos="l" depth="2" NCoef="0" IVar="-1" Cut="0.0000000000000000e+00" cType="1" res="3.7722880369983613e-04" rms="4.3179941177368164e-01" purity="7.4479186534881592e-01" nType="-99"/>
          <Node pos="r" depth="2" NCoef="0" IVar="-1" Cut="0.0000000000000000e+00" cType="1" res="4.8319276538677514e-04" rms="2.6002737879753113e-01" purity="9.2661249637603760e-01" nType="-99"/>
        </Node>
      </Node>
    </BinaryTree>
    <BinaryTree type="DecisionTree" boostWeight="1.0000000000000000e+00" itree="241">
      <Node pos="s" depth="0" NCoef="0" IVar="1" Cut="1.3862570190429688e+02" cType="1" res="4.6001430600881577e-02" rms="4.5383459329605103e-01" purity="5.0132220983505249e-01" nType="0">
        <Node pos="l" depth="1" NCoef="0" IVar="0" Cut="2.5745216757059097e-02" cType="1" res="-7.7313542366027832e-02" rms="4.3448966741561890e-01" purity="3.0658218264579773e-01" nType="0">
          <Node pos="l" depth="2" NCoef="0" IVar="-1" Cut="0.0000000000000000e+00" cType="1" res="4.3951469706371427e-05" rms="4.6894100308418274e-01" purity="4.2171582579612732e-01" nType="-99"/>
          <Node pos="r" depth="2" NCoef="0" IVar="-1" Cut="0.0000000000000000e+00" cType="1" res="-1.1253564152866602e-03" rms="3.8783019781112671e-01" purity="2.1244865655899048e-01" nType="-99"/>
        </Node>
        <Node pos="r" depth="1" NCoef="0" IVar="1" Cut="2.5814575195312500e+02" cType="1" res="1.9486363232135773e-01" rms="4.3150159716606140e-01" purity="7.3640668392181396e-01" nType="0">
          <Node pos="l" depth="2" NCoef="0" IVar="-1" Cut="0.0000000000000000e+00" cType="1" res="4.0658845682628453e-04" rms="4.5396983623504639e-01" purity="6.9157427549362183e-01" nType="-99"/>
          <Node pos="r" depth="2" NCoef="0" IVar="-1" Cut="0.0000000000000000e+00" cType="1" res="7.5188407208770514e-04" rms="2.6150572299957275e-01" purity="9.2394906282424927e-01" nType="-99"/>
        </Node>
      </Node>
    </BinaryTree>
    <BinaryTree type="DecisionTree" boostWeight="1.0000000000000000e+00" itree="242">
      <Node pos="s" depth="0" NCoef="0" IVar="2" Cut="3.1639953125000000e+04" cType="1" res="4.5436237007379532e-02" rms="4.5130398869514465e-01" purity="5.0284981727600098e-01" nType="0">
        <Node pos="l" depth="1" NCoef="0" IVar="0" Cut="2.4367978796362877e-02" cType="1" res="-1.0410740226507187e-01" rms="4.1977337002754211e-01" purity="2.8239154815673828e-01" nType="0">
          <Node pos="l" depth="2" NCoef="0" IVar="-1" Cut="0.0000000000000000e+00" cType="1" res="-3.8725938793504611e-05" rms="4.6181440353393555e-01" purity="4.0201905369758606e-01" nType="-99"/>
          <Node pos="r" depth="2" NCoef="0" IVar="-1" Cut="0.0000000000000000e+00" cType="1" res="-1.6537602059543133e-03" rms="3.5812115669250488e-01" purity="1.7594061791896820e-01" nType="-99"/>
        </Node>
        <Node pos="r" depth="1" NCoef="0" IVar="0" Cut="4.1265200823545456e-02" cType="1" res="1.8780359625816345e-01" rms="4.3389436602592468e-01" purity="7.1272879838943481e-01" nType="0">
          <Node pos="l" depth="2" NCoef="0" IVar="-1" Cut="0.0000000000000000e+00" cType="1" res="4.5102328294888139e-04" rms="3.3116766810417175e-01" purity="8.6920386552810669e-01" nType="-99"/>
          <Node pos="r" depth="2" NCoef="0" IVar="-1" Cut="0.0000000000000000e+00" cType="1" res="2.8066718368791044e-04" rms="4.6376773715019226e-01" purity="6.2175899744033813e-01" nType="-99"/>
        </Node>
      </Node>
    </BinaryTree>
    <BinaryTree type="DecisionTree" boostWeight="1.0000000000000000e+00" itree="243">
      <Node pos="s" depth="0" NCoef="0" IVar="1" Cut="1.2154860687255859e+02" cType="1" res="3.4621767699718475e-02" rms="4.5202085375785828e-01" purity="4.8898819088935852e-01" nType="0">
        <Node pos="l" depth="1" NCoef="0" IVar="1" Cut="6.9033927917480469e+01" cType="1" res="-1.1091270297765732e-01" rms="4.1270008683204651e-01" purity="2.6205211877822876e-01" nType="0">
          <Node pos="l" depth="2" NCoef="0" IVar="-1" Cut="0.0000000000000000e+00" cType="1" res="-2.0239362493157387e-03" rms="3.4381642937660217e-01" purity="1.4441558718681335e-01" nType="-99"/>
          <Node pos="r" depth="2" NCoef="0" IVar="-1" Cut="0.0000000000000000e+00" cType="1" res="-1.2610596604645252e-04" rms="4.6343365311622620e-01" purity="3.9190912246704102e-01" nType="-99"/>
        </Node>
        <Node pos="r" depth="1" NCoef="0" IVar="2" Cut="7.1197562500000000e+04" cType="1" res="1.7054955661296844e-01" rms="4.4477114081382751e-01" purity="7.0094436407089233e-01" nType="0">
          <Node pos="l" depth="2" NCoef="0" IVar="-1" Cut="0.0000000000000000e+00" cType="1" res="2.5378455757163465e-04" rms="4.7830048203468323e-01" purity="6.0591870546340942e-01" nType="-99"/>
          <Node pos="r" depth="2" NCoef="0" IVar="-1" Cut="0.0000000000000000e+00" cType="1" res="4.6793586807325482e-04" rms="3.6475297808647156e-01" purity="8.4067058563232422e-01" nType="-99"/>
        </Node>
      </Node>
    </BinaryTree>
    <BinaryTree type="DecisionTree" boostWeight="1.0000000000000000e+00" itree="244">
      <Node pos="s" depth="0" NCoef="0" IVar="2" Cut="4.4136394531250000e+04" cType="1" res="4.7631785273551941e-02" rms="4.5140647888183594e-01" purity="5.0427031517028809e-01" nType="0">
        <Node pos="l" depth="1" NCoef="0" IVar="1" Cut="3.8873630523681641e+01" cType="1" res="-7.0063672959804535e-02" rms="4.3768593668937683e-01" purity="3.2328349351882935e-01" nType="0">
          <Node pos="l" depth="2" NCoef="0" IVar="-1" Cut="0.0000000000000000e+00" cType="1" res="-3.1516400631517172e-03" rms="3.2604858279228210e-01" purity="1.2347840517759323e-01" nType="-99"/>
          <Node pos="r" depth="2" NCoef="0" IVar="-1" Cut="0.0000000000000000e+00" cType="1" res="-9.4460505351889879e-05" rms="4.6040946245193481e-01" purity="3.9264890551567078e-01" nType="-99"/>
        </Node>
        <Node pos="r" depth="1" NCoef="0" IVar="0" Cut="4.2839553207159042e-02" cType="1" res="2.1566902101039886e-01" rms="4.1613781452178955e-01" purity="7.6267051696777344e-01" nType="0">
          <Node pos="l" depth="2" NCoef="0" IVar="-1" Cut="0.0000000000000000e+00" cType="1" res="5.5421557044610381e-04" rms="3.1123754382133484e-01" purity="8.8963037729263306e-01" nType="-99"/>
          <Node pos="r" depth="2" NCoef="0" IVar="-1" Cut="0.0000000000000000e+00" cType="1" res="3.4861653693951666e-04" rms="4.5322364568710327e-01" purity="6.8378645181655884e-01" nType="-99"/>
        </Node>
      </Node>
    </BinaryTree>
    <BinaryTree type="DecisionTree" boostWeight="1.0000000000000000e+00" itree="245">
      <Node pos="s" depth="0" NCoef="0" IVar="1" Cut="1.5843783569335938e+02" cType="1" res="5.0299417227506638e-02" rms="4.5483666658401489e-01" purity="5.0411427021026611e-01" nType="0">
        <Node pos="l" depth="1" NCoef="0" IVar="0" Cut="3.8101427257061005e-02" cType="1" res="-4.3482590466737747e-02" rms="4.4894349575042725e-01" purity="3.5819274187088013e-01" nType="0">
          <Node pos="l" depth="2" NCoef="0" IVar="-1" Cut="0.0000000000000000e+00" cType="1" res="7.7461256296373904e-05" rms="4.7120979428291321e-01" purity="4.5032975077629089e-01" nType="-99"/>
          <Node pos="r" depth="2" NCoef="0" IVar="-1" Cut="0.0000000000000000e+00" cType="1" res="-1.2435181997716427e-03" rms="3.8638079166412354e-01" purity="2.1885426342487335e-01" nType="-99"/>
        </Node>
        <Node pos="r" depth="1" NCoef="0" IVar="1" Cut="2.4961164855957031e+02" cType="1" res="2.2093223035335541e-01" rms="4.1406431794166565e-01" purity="7.6961296796798706e-01" nType="0">
          <Node pos="l" depth="2" NCoef="0" IVar="-1" Cut="0.0000000000000000e+00" cType="1" res="3.8214179221540689e-04" rms="4.4589319825172424e-01" purity="7.1421319246292114e-01" nType="-99"/>
          <Node pos="r" depth="2" NCoef="0" IVar="-1" Cut="0.0000000000000000e+00" cType="1" res="6.7096517886966467e-04" rms="2.6993426680564880e-01" purity="9.1857260465621948e-01" nType="-99"/>
        </Node>
      </Node>
    </BinaryTree>
    <BinaryTree type="DecisionTree" boostWeight="1.0000000000000000e+00" itree="246">
      <Node pos="s" depth="0" NCoef="0" IVar="1" Cut="1.3930560302734375e+02" cType="1" res="4.6615693718194962e-02" rms="4.5216333866119385e-01" purity="5.0276124477386475e-01" nType="0">
        <Node pos="l" depth="1" NCoef="0" IVar="1" Cut="7.2437164306640625e+01" cType="1" res="-7.9687766730785370e-02" rms="4.3156686425209045e-01" purity="3.0447700619697571e-01" nType="0">
          <Node pos="l" depth="2" NCoef="0" IVar="-1" Cut="0.0000000000000000e+00" cType="1" res="-1.2794050853699446e-03" rms="3.6092954874038696e-01" purity="1.6449694335460663e-01" nType="-99"/>
          <Node pos="r" depth="2" NCoef="0" IVar="-1" Cut="0.0000000000000000e+00" cType="1" res="-3.6202156934450613e-06" rms="4.7322139143943787e-01" purity="4.3135455250740051e-01" nType="-99"/>
        </Node>
        <Node pos="r" depth="1" NCoef="0" IVar="2" Cut="6.6611546875000000e+04" cType="1" res="1.9853328168392181e-01" rms="4.2904317378997803e-01" purity="7.4125719070434570e-01" nType="0">
          <Node pos="l" depth="2" NCoef="0" IVar="-1" Cut="0.0000000000000000e+00" cType="1" res="2.1353591000661254e-04" rms="4.7954896092414856e-01" purity="6.1779850721359253e-01" nType="-99"/>
          <Node pos="r" depth="2" NCoef="0" IVar="-1" Cut="0.0000000000000000e+00" cType="1" res="5.2438478451222181e-04" rms="3.7091737985610962e-01" purity="8.3371859788894653e-01" nType="-99"/>
        </Node>
      </Node>
    </BinaryTree>
    <BinaryTree type="DecisionTree" boostWeight="1.0000000000000000e+00" itree="247">
      <Node pos="s" depth="0" NCoef="0" IVar="2" Cut="4.0782179687500000e+04" cType="1" res="4.4983427971601486e-02" rms="4.5280537009239197e-01" purity="4.9979904294013977e-01" nType="0">
        <Node pos="l" depth="1" NCoef="0" IVar="1" Cut="7.8285812377929688e+01" cType="1" res="-6.9345168769359589e-02" rms="4.3759405612945557e-01" purity="3.2127359509468079e-01" nType="0">
          <Node pos="l" depth="2" NCoef="0" IVar="-1" Cut="0.0000000000000000e+00" cType="1" res="-1.2697160709649324e-03" rms="3.7829980254173279e-01" purity="1.8791632354259491e-01" nType="-99"/>
          <Node pos="r" depth="2" NCoef="0" IVar="-1" Cut="0.0000000000000000e+00" cType="1" res="4.1689163481350988e-05" rms="4.7727477550506592e-01" purity="4.5705065131187439e-01" nType="-99"/>
        </Node>
        <Node pos="r" depth="1" NCoef="0" IVar="0" Cut="4.2733144015073776e-02" cType="1" res="2.0005068182945251e-01" rms="4.2617902159690857e-01" purity="7.4193835258483887e-01" nType="0">
          <Node pos="l" depth="2" NCoef="0" IVar="-1" Cut="0.0000000000000000e+00" cType="1" res="6.7083851899951696e-04" rms="3.3071029186248779e-01" purity="8.7254476547241211e-01" nType="-99"/>
          <Node pos="r" depth="2" NCoef="0" IVar="-1" Cut="0.0000000000000000e+00" cType="1" res="3.1038123415783048e-04" rms="4.5699617266654968e-01" purity="6.6825950145721436e-01" nType="-99"/>
        </Node>
      </Node>
    </BinaryTree>
    <BinaryTree type="DecisionTree" boostWeight="1.0000000000000000e+00" itree="248">
      <Node pos="s" depth="0" NCoef="0" IVar="1" Cut="1.3941770935058594e+02" cType="1" res="4.1712969541549683e-02" rms="4.5184198021888733e-01" purity="4.9716138839721680e-01" nType="0">
        <Node pos="l" depth="1" NCoef="0" IVar="1" Cut="5.9187305450439453e+01" cType="1" res="-8.7460041046142578e-02" rms="4.2800998687744141e-01" purity="2.9538002610206604e-01" nType="0">
          <Node pos="l" depth="2" NCoef="0" IVar="-1" Cut="0.0000000000000000e+00" cType="1" res="-2.8650527819991112e-03" rms="3.2639840245246887e-01" purity="1.2548935413360596e-01" nType="-99"/>
          <Node pos="r" depth="2" NCoef="0" IVar="-1" Cut="0.0000000000000000e+00" cType="1" res="-5.9167992731090635e-05" rms="4.6717169880867004e-01" purity="4.0233749151229858e-01" nType="-99"/>
        </Node>
        <Node pos="r" depth="1" NCoef="0" IVar="2" Cut="8.8272789062500000e+04" cType="1" res="1.9634093344211578e-01" rms="4.3055585026741028e-01" purity="7.3870593309402466e-01" nType="0">
          <Node pos="l" depth="2" NCoef="0" IVar="-1" Cut="0.0000000000000000e+00" cType="1" res="3.9032709901221097e-04" rms="4.5220884680747986e-01" purity="6.9599568843841553e-01" nType="-99"/>
          <Node pos="r" depth="2" NCoef="0" IVar="-1" Cut="0.0000000000000000e+00" cType="1" res="6.5098848426714540e-04" rms="2.8673931956291199e-01" purity="9.0921097993850708e-01" nType="-99"/>
        </Node>
      </Node>
    </BinaryTree>
    <BinaryTree type="DecisionTree" boostWeight="1.0000000000000000e+00" itree="249">
      <Node pos="s" depth="0" NCoef="0" IVar="2" Cut="4.4136394531250000e+04" cType="1" res="4.6095650643110275e-02" rms="4.5073294639587402e-01" purity="5.0275290012359619e-01" nType="0">
        <Node pos="l" depth="1" NCoef="0" IVar="0" Cut="3.7628732621669769e-02" cType="1" res="-7.2604268789291382e-02" rms="4.3495026230812073e-01" purity="3.2056361436843872e-01" nType="0">
          <Node pos="l" depth="2" NCoef="0" IVar="-1" Cut="0.0000000000000000e+00" cType="1" res="-1.7804184608394280e-05" rms="4.6402037143707275e-01" purity="4.1477948427200317e-01" nType="-99"/>
          <Node pos="r" depth="2" NCoef="0" IVar="-1" Cut="0.0000000000000000e+00" cType="1" res="-2.1375638898462057e-03" rms="3.5248392820358276e-01" purity="1.6086938977241516e-01" nType="-99"/>
        </Node>
        <Node pos="r" depth="1" NCoef="0" IVar="0" Cut="4.1371610015630722e-02" cType="1" res="2.1435326337814331e-01" rms="4.1796159744262695e-01" purity="7.6100707054138184e-01" nType="0">
          <Node pos="l" depth="2" NCoef="0" IVar="-1" Cut="0.0000000000000000e+00" cType="1" res="6.0376152396202087e-04" rms="3.2183331251144409e-01" purity="8.8089179992675781e-01" nType="-99"/>
          <Node pos="r" depth="2" NCoef="0" IVar="-1" Cut="0.0000000000000000e+00" cType="1" res="3.4670133027248085e-04" rms="4.4722178578376770e-01" purity="7.0219898223876953e-01" nType="-99"/>
        </Node>
      </Node>
    </BinaryTree>
    <BinaryTree type="DecisionTree" boostWeight="1.0000000000000000e+00" itree="250">
      <Node pos="s" depth="0" NCoef="0" IVar="1" Cut="1.0547126770019531e+02" cType="1" res="4.1760280728340149e-02" rms="4.5062595605850220e-01" purity="4.9689006805419922e-01" nType="0">
        <Node pos="l" depth="1" NCoef="0" IVar="1" Cut="4.4699966430664062e+01" cType="1" res="-1.2418792396783829e-01" rms="4.0012684464454651e-01" purity="2.3406359553337097e-01" nType="0">
          <Node pos="l" depth="2" NCoef="0" IVar="-1" Cut="0.0000000000000000e+00" cType="1" res="-3.3409462776035070e-03" rms="3.0079177021980286e-01" purity="1.0189349204301834e-01" nType="-99"/>
          <Node pos="r" depth="2" NCoef="0" IVar="-1" Cut="0.0000000000000000e+00" cType="1" res="-2.5684401043690741e-04" rms="4.4221094250679016e-01" purity="3.2384550571441650e-01" nType="-99"/>
        </Node>
        <Node pos="r" depth="1" NCoef="0" IVar="2" Cut="7.2246000000000000e+04" cType="1" res="1.5790213644504547e-01" rms="4.4762620329856873e-01" purity="6.8083393573760986e-01" nType="0">
          <Node pos="l" depth="2" NCoef="0" IVar="-1" Cut="0.0000000000000000e+00" cType="1" res="2.6162539143115282e-04" rms="4.7789293527603149e-01" purity="5.8323866128921509e-01" nType="-99"/>
          <Node pos="r" depth="2" NCoef="0" IVar="-1" Cut="0.0000000000000000e+00" cType="1" res="5.0134037155658007e-04" rms="3.5145151615142822e-01" purity="8.5442328453063965e-01" nType="-99"/>
        </Node>
      </Node>
    </BinaryTree>
    <BinaryTree type="DecisionTree" boostWeight="1.0000000000000000e+00" itree="251">
      <Node pos="s" depth="0" NCoef="0" IVar="1" Cut="1.5843783569335938e+02" cType="1" res="3.6208387464284897e-02" rms="4.5015245676040649e-01" purity="4.9152386188507080e-01" nType="0">
        <Node pos="l" depth="1" NCoef="0" IVar="1" Cut="6.7263015747070312e+01" cType="1" res="-7.2664223611354828e-02" rms="4.3532571196556091e-01" purity="3.2787105441093445e-01" nType="0">
          <Node pos="l" depth="2" NCoef="0" IVar="-1" Cut="0.0000000000000000e+00" cType="1" res="-2.5277978274971247e-03" rms="3.2808667421340942e-01" purity="1.2590426206588745e-01" nType="-99"/>
          <Node pos="r" depth="2" NCoef="0" IVar="-1" Cut="0.0000000000000000e+00" cType="1" res="8.2036031017196365e-06" rms="4.7298249602317810e-01" purity="4.4912946224212646e-01" nType="-99"/>
        </Node>
        <Node pos="r" depth="1" NCoef="0" IVar="2" Cut="8.1564359375000000e+04" cType="1" res="2.2317129373550415e-01" rms="4.1215589642524719e-01" purity="7.7255886793136597e-01" nType="0">
          <Node pos="l" depth="2" NCoef="0" IVar="-1" Cut="0.0000000000000000e+00" cType="1" res="3.2579738763161004e-04" rms="4.4829043745994568e-01" purity="7.0829838514328003e-01" nType="-99"/>
          <Node pos="r" depth="2" NCoef="0" IVar="-1" Cut="0.0000000000000000e+00" cType="1" res="6.1333144549280405e-04" rms="3.0804792046546936e-01" purity="8.9329236745834351e-01" nType="-99"/>
        </Node>
      </Node>
    </BinaryTree>
    <BinaryTree type="DecisionTree" boostWeight="1.0000000000000000e+00" itree="252">
      <Node pos="s" depth="0" NCoef="0" IVar="1" Cut="1.2143650817871094e+02" cType="1" res="4.4700447469949722e-02" rms="4.5157924294471741e-01" purity="4.9877545237541199e-01" nType="0">
        <Node pos="l" depth="1" NCoef="0" IVar="0" Cut="3.7699569016695023e-02" cType="1" res="-9.7324155271053314e-02" rms="4.1907468438148499e-01" purity="2.7094903588294983e-01" nType="0">
          <Node pos="l" depth="2" NCoef="0" IVar="-1" Cut="0.0000000000000000e+00" cType="1" res="-1.5636497118975967e-04" rms="4.5643904805183411e-01" purity="3.5740119218826294e-01" nType="-99"/>
          <Node pos="r" depth="2" NCoef="0" IVar="-1" Cut="0.0000000000000000e+00" cType="1" res="-2.6253506075590849e-03" rms="3.2162615656852722e-01" purity="1.2219953536987305e-01" nType="-99"/>
        </Node>
        <Node pos="r" depth="1" NCoef="0" IVar="2" Cut="6.1173269531250000e+04" cType="1" res="1.7480884492397308e-01" rms="4.4095668196678162e-01" purity="7.0748668909072876e-01" nType="0">
          <Node pos="l" depth="2" NCoef="0" IVar="-1" Cut="0.0000000000000000e+00" cType="1" res="2.3905991110950708e-04" rms="4.8343390226364136e-01" purity="5.7358133792877197e-01" nType="-99"/>
          <Node pos="r" depth="2" NCoef="0" IVar="-1" Cut="0.0000000000000000e+00" cType="1" res="5.1088817417621613e-04" rms="3.8925811648368835e-01" purity="8.1058871746063232e-01" nType="-99"/>
        </Node>
      </Node>
    </BinaryTree>
    <BinaryTree type="DecisionTree" boostWeight="1.0000000000000000e+00" itree="253">
      <Node pos="s" depth="0" NCoef="0" IVar="2" Cut="5.4184500000000000e+04" cType="1" res="5.0441887229681015e-02" rms="4.5002740621566772e-01" purity="5.0664490461349487e-01" nType="0">
        <Node pos="l" depth="1" NCoef="0" IVar="0" Cut="4.9881406128406525e-02" cType="1" res="-5.4860487580299377e-02" rms="4.4276908040046692e-01" purity="3.4598717093467712e-01" nType="0">
          <Node pos="l" depth="2" NCoef="0" IVar="-1" Cut="0.0000000000000000e+00" cType="1" res="-1.9965329556725919e-05" rms="4.5956844091415405e-01" purity="4.0755212306976318e-01" nType="-99"/>
          <Node pos="r" depth="2" NCoef="0" IVar="-1" Cut="0.0000000000000000e+00" cType="1" res="-2.0716490689665079e-03" rms="3.5732749104499817e-01" purity="1.7416651546955109e-01" nType="-99"/>
        </Node>
        <Node pos="r" depth="1" NCoef="0" IVar="0" Cut="4.2839553207159042e-02" cType="1" res="2.4159690737724304e-01" rms="3.9701244235038757e-01" purity="7.9828637838363647e-01" nType="0">
          <Node pos="l" depth="2" NCoef="0" IVar="-1" Cut="0.0000000000000000e+00" cType="1" res="6.4235093304887414e-04" rms="2.9578250646591187e-01" purity="9.0241926908493042e-01" nType="-99"/>
          <Node pos="r" depth="2" NCoef="0" IVar="-1" Cut="0.0000000000000000e+00" cType="1" res="4.1483549284748733e-04" rms="4.3440413475036621e-01" purity="7.3841786384582520e-01" nType="-99"/>
        </Node>
      </Node>
    </BinaryTree>
    <BinaryTree type="DecisionTree" boostWeight="1.0000000000000000e+00" itree="254">
      <Node pos="s" depth="0" NCoef="0" IVar="3" Cut="1.4930736541748047e+01" cType="1" res="4.3714519590139389e-02" rms="4.5255011320114136e-01" purity="4.9579882621765137e-01" nType="0">
        <Node pos="l" depth="1" NCoef="0" IVar="0" Cut="1.2183989398181438e-02" cType="1" res="-8.1030771136283875e-02" rms="4.2979452013969421e-01" purity="3.0195504426956177e-01" nType="0">
          <Node pos="l" depth="2" NCoef="0" IVar="-1" Cut="0.0000000000000000e+00" cType="1" res="1.2580736074596643e-04" rms="4.7100511193275452e-01" purity="4.8947343230247498e-01" nType="-99"/>
          <Node pos="r" depth="2" NCoef="0" IVar="-1" Cut="0.0000000000000000e+00" cType="1" res="-1.0657291859388351e-03" rms="3.9193946123123169e-01" purity="2.2897557914257050e-01" nType="-99"/>
        </Node>
        <Node pos="r" depth="1" NCoef="0" IVar="0" Cut="3.8965530693531036e-02" cType="1" res="1.6768768429756165e-01" rms="4.4036483764648438e-01" purity="6.8844288587570190e-01" nType="0">
          <Node pos="l" depth="2" NCoef="0" IVar="-1" Cut="0.0000000000000000e+00" cType="1" res="6.0306838713586330e-04" rms="3.2980823516845703e-01" purity="8.7201648950576782e-01" nType="-99"/>
          <Node pos="r" depth="2" NCoef="0" IVar="-1" Cut="0.0000000000000000e+00" cType="1" res="2.6449438882991672e-04" rms="4.6422439813613892e-01" purity="5.9614902734756470e-01" nType="-99"/>
        </Node>
      </Node>
    </BinaryTree>
    <BinaryTree type="DecisionTree" boostWeight="1.0000000000000000e+00" itree="255">
      <Node pos="s" depth="0" NCoef="0" IVar="1" Cut="1.5843783569335938e+02" cType="1" res="3.7981595844030380e-02" rms="4.4975143671035767e-01" purity="4.9200314283370972e-01" nType="0">
        <Node pos="l" depth="1" NCoef="0" IVar="1" Cut="6.7263435363769531e+01" cType="1" res="-6.6928714513778687e-02" rms="4.3674665689468384e-01" purity="3.3168032765388489e-01" nType="0">
          <Node pos="l" depth="2" NCoef="0" IVar="-1" Cut="0.0000000000000000e+00" cType="1" res="-1.5170631231740117e-03" rms="3.4587001800537109e-01" purity="1.4744357764720917e-01" nType="-99"/>
          <Node pos="r" depth="2" NCoef="0" IVar="-1" Cut="0.0000000000000000e+00" cType="1" res="5.1492497732397169e-06" rms="4.7231778502464294e-01" purity="4.4677782058715820e-01" nType="-99"/>
        </Node>
        <Node pos="r" depth="1" NCoef="0" IVar="1" Cut="2.4961167907714844e+02" cType="1" res="2.2148823738098145e-01" rms="4.1172283887863159e-01" purity="7.7243602275848389e-01" nType="0">
          <Node pos="l" depth="2" NCoef="0" IVar="-1" Cut="0.0000000000000000e+00" cType="1" res="3.4679210511967540e-04" rms="4.4405126571655273e-01" purity="7.1712660789489746e-01" nType="-99"/>
          <Node pos="r" depth="2" NCoef="0" IVar="-1" Cut="0.0000000000000000e+00" cType="1" res="6.5146473934873939e-04" rms="2.6563361287117004e-01" purity="9.2100536823272705e-01" nType="-99"/>
        </Node>
      </Node>
    </BinaryTree>
    <BinaryTree type="DecisionTree" boostWeight="1.0000000000000000e+00" itree="256">
      <Node pos="s" depth="0" NCoef="0" IVar="1" Cut="1.0517140960693359e+02" cType="1" res="4.7261826694011688e-02" rms="4.4697988033294678e-01" purity="5.0464105606079102e-01" nType="0">
        <Node pos="l" depth="1" NCoef="0" IVar="0" Cut="2.5133045390248299e-02" cType="1" res="-1.2954635918140411e-01" rms="3.9113485813140869e-01" purity="2.2806297242641449e-01" nType="0">
          <Node pos="l" depth="2" NCoef="0" IVar="-1" Cut="0.0000000000000000e+00" cType="1" res="-2.2031151456758380e-04" rms="4.4589850306510925e-01" purity="3.3837658166885376e-01" nType="-99"/>
          <Node pos="r" depth="2" NCoef="0" IVar="-1" Cut="0.0000000000000000e+00" cType="1" res="-3.0952917877584696e-03" rms="3.1359446048736572e-01" purity="1.2489481270313263e-01" nType="-99"/>
        </Node>
        <Node pos="r" depth="1" NCoef="0" IVar="2" Cut="6.1173269531250000e+04" cType="1" res="1.6587857902050018e-01" rms="4.4288688898086548e-01" purity="6.9019132852554321e-01" nType="0">
          <Node pos="l" depth="2" NCoef="0" IVar="-1" Cut="0.0000000000000000e+00" cType="1" res="2.0552169007714838e-04" rms="4.8037666082382202e-01" purity="5.5635643005371094e-01" nType="-99"/>
          <Node pos="r" depth="2" NCoef="0" IVar="-1" Cut="0.0000000000000000e+00" cType="1" res="5.0473044393584132e-04" rms="3.8132107257843018e-01" purity="8.2018238306045532e-01" nType="-99"/>
        </Node>
      </Node>
    </BinaryTree>
    <BinaryTree type="DecisionTree" boostWeight="1.0000000000000000e+00" itree="257">
      <Node pos="s" depth="0" NCoef="0" IVar="2" Cut="4.4136394531250000e+04" cType="1" res="4.0942680090665817e-02" rms="4.5179706811904907e-01" purity="4.9337095022201538e-01" nType="0">
        <Node pos="l" depth="1" NCoef="0" IVar="1" Cut="7.8285812377929688e+01" cType="1" res="-6.2440399080514908e-02" rms="4.3814328312873840e-01" purity="3.2720658183097839e-01" nType="0">
          <Node pos="l" depth="2" NCoef="0" IVar="-1" Cut="0.0000000000000000e+00" cType="1" res="-9.0440618805587292e-04" rms="3.7688398361206055e-01" purity="1.8753610551357269e-01" nType="-99"/>
          <Node pos="r" depth="2" NCoef="0" IVar="-1" Cut="0.0000000000000000e+00" cType="1" res="5.6727269111433998e-05" rms="4.7673815488815308e-01" purity="4.6018567681312561e-01" nType="-99"/>
        </Node>
        <Node pos="r" depth="1" NCoef="0" IVar="0" Cut="4.3748017400503159e-02" cType="1" res="1.9785806536674500e-01" rms="4.2628476023674011e-01" purity="7.4557602405548096e-01" nType="0">
          <Node pos="l" depth="2" NCoef="0" IVar="-1" Cut="0.0000000000000000e+00" cType="1" res="6.5530865686014295e-04" rms="3.3521670103073120e-01" purity="8.6900293827056885e-01" nType="-99"/>
          <Node pos="r" depth="2" NCoef="0" IVar="-1" Cut="0.0000000000000000e+00" cType="1" res="3.3142825122922659e-04" rms="4.5743051171302795e-01" purity="6.7341876029968262e-01" nType="-99"/>
        </Node>
      </Node>
    </BinaryTree>
    <BinaryTree type="DecisionTree" boostWeight="1.0000000000000000e+00" itree="258">
      <Node pos="s" depth="0" NCoef="0" IVar="2" Cut="4.4136394531250000e+04" cType="1" res="4.9205634742975235e-02" rms="4.5183181762695312e-01" purity="5.0288730859756470e-01" nType="0">
        <Node pos="l" depth="1" NCoef="0" IVar="0" Cut="5.0801903009414673e-02" cType="1" res="-6.1921671032905579e-02" rms="4.4127252697944641e-01" purity="3.2528328895568848e-01" nType="0">
          <Node pos="l" depth="2" NCoef="0" IVar="-1" Cut="0.0000000000000000e+00" cType="1" res="-5.5644515668973327e-05" rms="4.6149095892906189e-01" purity="3.8536193966865540e-01" nType="-99"/>
          <Node pos="r" depth="2" NCoef="0" IVar="-1" Cut="0.0000000000000000e+00" cType="1" res="-3.0710559803992510e-03" rms="3.2417565584182739e-01" purity="1.2795414030551910e-01" nType="-99"/>
        </Node>
        <Node pos="r" depth="1" NCoef="0" IVar="0" Cut="4.1265200823545456e-02" cType="1" res="2.0994177460670471e-01" rms="4.1724595427513123e-01" purity="7.5977629423141479e-01" nType="0">
          <Node pos="l" depth="2" NCoef="0" IVar="-1" Cut="0.0000000000000000e+00" cType="1" res="5.6424346985295415e-04" rms="3.1056186556816101e-01" purity="8.9005565643310547e-01" nType="-99"/>
          <Node pos="r" depth="2" NCoef="0" IVar="-1" Cut="0.0000000000000000e+00" cType="1" res="3.4693616908043623e-04" rms="4.5056238770484924e-01" purity="6.8950432538986206e-01" nType="-99"/>
        </Node>
      </Node>
    </BinaryTree>
    <BinaryTree type="DecisionTree" boostWeight="1.0000000000000000e+00" itree="259">
      <Node pos="s" depth="0" NCoef="0" IVar="2" Cut="4.4136394531250000e+04" cType="1" res="2.9989818111062050e-02" rms="4.4891676306724548e-01" purity="4.8302158713340759e-01" nType="0">
        <Node pos="l" depth="1" NCoef="0" IVar="1" Cut="3.8584842681884766e+01" cType="1" res="-8.1888131797313690e-02" rms="4.2844513058662415e-01" purity="3.0687734484672546e-01" nType="0">
          <Node pos="l" depth="2" NCoef="0" IVar="-1" Cut="0.0000000000000000e+00" cType="1" res="-4.4886246323585510e-03" rms="2.8924745321273804e-01" purity="9.2308215796947479e-02" nType="-99"/>
          <Node pos="r" depth="2" NCoef="0" IVar="-1" Cut="0.0000000000000000e+00" cType="1" res="-1.3622925325762480e-04" rms="4.5525860786437988e-01" purity="3.7998634576797485e-01" nType="-99"/>
        </Node>
        <Node pos="r" depth="1" NCoef="0" IVar="1" Cut="2.3345391845703125e+02" cType="1" res="1.9596074521541595e-01" rms="4.2668092250823975e-01" purity="7.4433153867721558e-01" nType="0">
          <Node pos="l" depth="2" NCoef="0" IVar="-1" Cut="0.0000000000000000e+00" cType="1" res="3.7260691169649363e-04" rms="4.5663788914680481e-01" purity="6.8359172344207764e-01" nType="-99"/>
          <Node pos="r" depth="2" NCoef="0" IVar="-1" Cut="0.0000000000000000e+00" cType="1" res="6.8799126893281937e-04" rms="2.8038141131401062e-01" purity="9.1282725334167480e-01" nType="-99"/>
        </Node>
      </Node>
    </BinaryTree>
    <BinaryTree type="DecisionTree" boostWeight="1.0000000000000000e+00" itree="260">
      <Node pos="s" depth="0" NCoef="0" IVar="1" Cut="1.5864443969726562e+02" cType="1" res="4.2200617492198944e-02" rms="4.5088231563568115e-01" purity="4.9492436647415161e-01" nType="0">
        <Node pos="l" depth="1" NCoef="0" IVar="0" Cut="5.0171643495559692e-02" cType="1" res="-5.8296501636505127e-02" rms="4.4078359007835388e-01" purity="3.3807104825973511e-01" nType="0">
          <Node pos="l" depth="2" NCoef="0" IVar="-1" Cut="0.0000000000000000e+00" cType="1" res="-2.3747123123030178e-05" rms="4.5777818560600281e-01" purity="4.0108317136764526e-01" nType="-99"/>
          <Node pos="r" depth="2" NCoef="0" IVar="-1" Cut="0.0000000000000000e+00" cType="1" res="-2.2868730593472719e-03" rms="3.5565674304962158e-01" purity="1.6946443915367126e-01" nType="-99"/>
        </Node>
        <Node pos="r" depth="1" NCoef="0" IVar="1" Cut="2.4979895019531250e+02" cType="1" res="2.1909134089946747e-01" rms="4.1240417957305908e-01" purity="7.7101075649261475e-01" nType="0">
          <Node pos="l" depth="2" NCoef="0" IVar="-1" Cut="0.0000000000000000e+00" cType="1" res="4.1179388063028455e-04" rms="4.4696146249771118e-01" purity="7.1043032407760620e-01" nType="-99"/>
          <Node pos="r" depth="2" NCoef="0" IVar="-1" Cut="0.0000000000000000e+00" cType="1" res="6.5266794990748167e-04" rms="2.6429569721221924e-01" purity="9.2197042703628540e-01" nType="-99"/>
        </Node>
      </Node>
    </BinaryTree>
    <BinaryTree type="DecisionTree" boostWeight="1.0000000000000000e+00" itree="261">
      <Node pos="s" depth="0" NCoef="0" IVar="2" Cut="4.4136394531250000e+04" cType="1" res="4.2831573635339737e-02" rms="4.4957098364830017e-01" purity="4.9624359607696533e-01" nType="0">
        <Node pos="l" depth="1" NCoef="0" IVar="1" Cut="7.1970230102539062e+01" cType="1" res="-7.0056065917015076e-02" rms="4.3414685130119324e-01" purity="3.1695392727851868e-01" nType="0">
          <Node pos="l" depth="2" NCoef="0" IVar="-1" Cut="0.0000000000000000e+00" cType="1" res="-1.4053581980988383e-03" rms="3.5676893591880798e-01" purity="1.6081240773200989e-01" nType="-99"/>
          <Node pos="r" depth="2" NCoef="0" IVar="-1" Cut="0.0000000000000000e+00" cType="1" res="1.2483107639127411e-05" rms="4.7476437687873840e-01" purity="4.4186651706695557e-01" nType="-99"/>
        </Node>
        <Node pos="r" depth="1" NCoef="0" IVar="0" Cut="4.2971774935722351e-02" cType="1" res="2.0543825626373291e-01" rms="4.2065513134002686e-01" purity="7.5449770689010620e-01" nType="0">
          <Node pos="l" depth="2" NCoef="0" IVar="-1" Cut="0.0000000000000000e+00" cType="1" res="5.6569959269836545e-04" rms="3.2295587658882141e-01" purity="8.7976312637329102e-01" nType="-99"/>
          <Node pos="r" depth="2" NCoef="0" IVar="-1" Cut="0.0000000000000000e+00" cType="1" res="3.7091286503709853e-04" rms="4.5293468236923218e-01" purity="6.8433529138565063e-01" nType="-99"/>
        </Node>
      </Node>
    </BinaryTree>
    <BinaryTree type="DecisionTree" boostWeight="1.0000000000000000e+00" itree="262">
      <Node pos="s" depth="0" NCoef="0" IVar="2" Cut="5.3826414062500000e+04" cType="1" res="5.2348203957080841e-02" rms="4.4675222039222717e-01" purity="5.0985664129257202e-01" nType="0">
        <Node pos="l" depth="1" NCoef="0" IVar="0" Cut="3.8101427257061005e-02" cType="1" res="-6.1401829123497009e-02" rms="4.3802326917648315e-01" purity="3.3655190467834473e-01" nType="0">
          <Node pos="l" depth="2" NCoef="0" IVar="-1" Cut="0.0000000000000000e+00" cType="1" res="3.9895639929454774e-05" rms="4.6250006556510925e-01" purity="4.3416878581047058e-01" nType="-99"/>
          <Node pos="r" depth="2" NCoef="0" IVar="-1" Cut="0.0000000000000000e+00" cType="1" res="-1.8966856878250837e-03" rms="3.6718663573265076e-01" purity="1.8172331154346466e-01" nType="-99"/>
        </Node>
        <Node pos="r" depth="1" NCoef="0" IVar="1" Cut="2.4078350830078125e+02" cType="1" res="2.4614049494266510e-01" rms="3.9133858680725098e-01" purity="8.0511033535003662e-01" nType="0">
          <Node pos="l" depth="2" NCoef="0" IVar="-1" Cut="0.0000000000000000e+00" cType="1" res="3.3588707447052002e-04" rms="4.2611819505691528e-01" purity="7.5453865528106689e-01" nType="-99"/>
          <Node pos="r" depth="2" NCoef="0" IVar="-1" Cut="0.0000000000000000e+00" cType="1" res="4.9986614612862468e-04" rms="2.4660113453865051e-01" purity="9.3464905023574829e-01" nType="-99"/>
        </Node>
      </Node>
    </BinaryTree>
    <BinaryTree type="DecisionTree" boostWeight="1.0000000000000000e+00" itree="263">
      <Node pos="s" depth="0" NCoef="0" IVar="2" Cut="4.0782179687500000e+04" cType="1" res="4.6966157853603363e-02" rms="4.4961914420127869e-01" purity="5.0044065713882446e-01" nType="0">
        <Node pos="l" depth="1" NCoef="0" IVar="0" Cut="3.7628732621669769e-02" cType="1" res="-7.4031859636306763e-02" rms="4.3269547820091248e-01" purity="3.0978372693061829e-01" nType="0">
          <Node pos="l" depth="2" NCoef="0" IVar="-1" Cut="0.0000000000000000e+00" cType="1" res="-2.6513596822042018e-05" rms="4.6404135227203369e-01" purity="4.0373525023460388e-01" nType="-99"/>
          <Node pos="r" depth="2" NCoef="0" IVar="-1" Cut="0.0000000000000000e+00" cType="1" res="-2.3067926522344351e-03" rms="3.3984825015068054e-01" purity="1.4070869982242584e-01" nType="-99"/>
        </Node>
        <Node pos="r" depth="1" NCoef="0" IVar="0" Cut="4.2733144015073776e-02" cType="1" res="2.0511551201343536e-01" rms="4.2133972048759460e-01" purity="7.4963700771331787e-01" nType="0">
          <Node pos="l" depth="2" NCoef="0" IVar="-1" Cut="0.0000000000000000e+00" cType="1" res="5.9144839178770781e-04" rms="3.3027061820030212e-01" purity="8.7202960252761841e-01" nType="-99"/>
          <Node pos="r" depth="2" NCoef="0" IVar="-1" Cut="0.0000000000000000e+00" cType="1" res="3.0757000786252320e-04" rms="4.5149645209312439e-01" purity="6.8303692340850830e-01" nType="-99"/>
        </Node>
      </Node>
    </BinaryTree>
    <BinaryTree type="DecisionTree" boostWeight="1.0000000000000000e+00" itree="264">
      <Node pos="s" depth="0" NCoef="0" IVar="1" Cut="1.3930560302734375e+02" cType="1" res="5.5290315300226212e-02" rms="4.5046553015708923e-01" purity="5.0808000564575195e-01" nType="0">
        <Node pos="l" depth="1" NCoef="0" IVar="0" Cut="3.8617823272943497e-02" cType="1" res="-5.6023251265287399e-02" rms="4.3554681539535522e-01" purity="3.2265540957450867e-01" nType="0">
          <Node pos="l" depth="2" NCoef="0" IVar="-1" Cut="0.0000000000000000e+00" cType="1" res="4.4603453716263175e-05" rms="4.6650609374046326e-01" purity="4.2213192582130432e-01" nType="-99"/>
          <Node pos="r" depth="2" NCoef="0" IVar="-1" Cut="0.0000000000000000e+00" cType="1" res="-2.2381423041224480e-03" rms="3.3751186728477478e-01" purity="1.4730954170227051e-01" nType="-99"/>
        </Node>
        <Node pos="r" depth="1" NCoef="0" IVar="1" Cut="2.1954660034179688e+02" cType="1" res="1.9398424029350281e-01" rms="4.2978385090827942e-01" purity="7.3911434412002563e-01" nType="0">
          <Node pos="l" depth="2" NCoef="0" IVar="-1" Cut="0.0000000000000000e+00" cType="1" res="3.6735227331519127e-04" rms="4.5871356129646301e-01" purity="6.7992055416107178e-01" nType="-99"/>
          <Node pos="r" depth="2" NCoef="0" IVar="-1" Cut="0.0000000000000000e+00" cType="1" res="6.0612405650317669e-04" rms="3.1564015150070190e-01" purity="8.8313972949981689e-01" nType="-99"/>
        </Node>
      </Node>
    </BinaryTree>
    <BinaryTree type="DecisionTree" boostWeight="1.0000000000000000e+00" itree="265">
      <Node pos="s" depth="0" NCoef="0" IVar="2" Cut="5.4184500000000000e+04" cType="1" res="5.4474145174026489e-02" rms="4.4970852136611938e-01" purity="5.0758147239685059e-01" nType="0">
        <Node pos="l" depth="1" NCoef="0" IVar="0" Cut="3.7699569016695023e-02" cType="1" res="-4.6689465641975403e-02" rms="4.4557389616966248e-01" purity="3.4847217798233032e-01" nType="0">
          <Node pos="l" depth="2" NCoef="0" IVar="-1" Cut="0.0000000000000000e+00" cType="1" res="5.5566873925272375e-05" rms="4.6895167231559753e-01" purity="4.4201114773750305e-01" nType="-99"/>
          <Node pos="r" depth="2" NCoef="0" IVar="-1" Cut="0.0000000000000000e+00" cType="1" res="-1.4101668493822217e-03" rms="3.8362962007522583e-01" purity="2.0587700605392456e-01" nType="-99"/>
        </Node>
        <Node pos="r" depth="1" NCoef="0" IVar="1" Cut="2.4078350830078125e+02" cType="1" res="2.4095803499221802e-01" rms="3.9423310756683350e-01" purity="8.0088186264038086e-01" nType="0">
          <Node pos="l" depth="2" NCoef="0" IVar="-1" Cut="0.0000000000000000e+00" cType="1" res="4.3443340109661222e-04" rms="4.2761492729187012e-01" purity="7.5146162509918213e-01" nType="-99"/>
          <Node pos="r" depth="2" NCoef="0" IVar="-1" Cut="0.0000000000000000e+00" cType="1" res="5.2866520127281547e-04" rms="2.4941422045230865e-01" purity="9.3290299177169800e-01" nType="-99"/>
        </Node>
      </Node>
    </BinaryTree>
    <BinaryTree type="DecisionTree" boostWeight="1.0000000000000000e+00" itree="266">
      <Node pos="s" depth="0" NCoef="0" IVar="2" Cut="6.6204593750000000e+04" cType="1" res="4.7668244689702988e-02" rms="4.5086091756820679e-01" purity="4.9949455261230469e-01" nType="0">
        <Node pos="l" depth="1" NCoef="0" IVar="0" Cut="5.0030406564474106e-02" cType="1" res="-2.8708688914775848e-02" rms="4.5108824968338013e-01" purity="3.8214775919914246e-01" nType="0">
          <Node pos="l" depth="2" NCoef="0" IVar="-1" Cut="0.0000000000000000e+00" cType="1" res="5.1396211347309873e-05" rms="4.6073421835899353e-01" purity="4.4213306903839111e-01" nType="-99"/>
          <Node pos="r" depth="2" NCoef="0" IVar="-1" Cut="0.0000000000000000e+00" cType="1" res="-9.7534531960263848e-04" rms="4.0096342563629150e-01" purity="2.3594176769256592e-01" nType="-99"/>
        </Node>
        <Node pos="r" depth="1" NCoef="0" IVar="1" Cut="2.0215196228027344e+02" cType="1" res="2.6197040081024170e-01" rms="3.7470936775207520e-01" purity="8.2875198125839233e-01" nType="0">
          <Node pos="l" depth="2" NCoef="0" IVar="-1" Cut="0.0000000000000000e+00" cType="1" res="4.9637968186289072e-04" rms="4.2539441585540771e-01" purity="7.5997656583786011e-01" nType="-99"/>
          <Node pos="r" depth="2" NCoef="0" IVar="-1" Cut="0.0000000000000000e+00" cType="1" res="5.3857953753322363e-04" rms="2.9406496882438660e-01" purity="9.0376776456832886e-01" nType="-99"/>
        </Node>
      </Node>
    </BinaryTree>
    <BinaryTree type="DecisionTree" boostWeight="1.0000000000000000e+00" itree="267">
      <Node pos="s" depth="0" NCoef="0" IVar="1" Cut="1.5876203918457031e+02" cType="1" res="4.8874042928218842e-02" rms="4.4858559966087341e-01" purity="5.0344318151473999e-01" nType="0">
        <Node pos="l" depth="1" NCoef="0" IVar="0" Cut="5.0171643495559692e-02" cType="1" res="-5.4351124912500381e-02" rms="4.3925872445106506e-01" purity="3.4300151467323303e-01" nType="0">
          <Node pos="l" depth="2" NCoef="0" IVar="-1" Cut="0.0000000000000000e+00" cType="1" res="-4.5950037019792944e-06" rms="4.5526888966560364e-01" purity="4.0738031268119812e-01" nType="-99"/>
          <Node pos="r" depth="2" NCoef="0" IVar="-1" Cut="0.0000000000000000e+00" cType="1" res="-2.1494680549949408e-03" rms="3.5341247916221619e-01" purity="1.6616819798946381e-01" nType="-99"/>
        </Node>
        <Node pos="r" depth="1" NCoef="0" IVar="2" Cut="6.7045109375000000e+04" cType="1" res="2.2661595046520233e-01" rms="4.0687587857246399e-01" purity="7.7970522642135620e-01" nType="0">
          <Node pos="l" depth="2" NCoef="0" IVar="-1" Cut="0.0000000000000000e+00" cType="1" res="3.3277631155215204e-04" rms="4.6888357400894165e-01" purity="6.5407454967498779e-01" nType="-99"/>
          <Node pos="r" depth="2" NCoef="0" IVar="-1" Cut="0.0000000000000000e+00" cType="1" res="4.9236492486670613e-04" rms="3.5989385843276978e-01" purity="8.4577906131744385e-01" nType="-99"/>
        </Node>
      </Node>
    </BinaryTree>
    <BinaryTree type="DecisionTree" boostWeight="1.0000000000000000e+00" itree="268">
      <Node pos="s" depth="0" NCoef="0" IVar="1" Cut="1.2513008117675781e+02" cType="1" res="4.1231840848922729e-02" rms="4.4766041636466980e-01" purity="4.9502506852149963e-01" nType="0">
        <Node pos="l" depth="1" NCoef="0" IVar="1" Cut="6.5127349853515625e+01" cType="1" res="-1.0443273186683655e-01" rms="4.1050851345062256e-01" purity="2.6141268014907837e-01" nType="0">
          <Node pos="l" depth="2" NCoef="0" IVar="-1" Cut="0.0000000000000000e+00" cType="1" res="-1.6486889217048883e-03" rms="3.3501425385475159e-01" purity="1.3564676046371460e-01" nType="-99"/>
          <Node pos="r" depth="2" NCoef="0" IVar="-1" Cut="0.0000000000000000e+00" cType="1" res="-1.5327549772337079e-04" rms="4.5826837420463562e-01" purity="3.7850475311279297e-01" nType="-99"/>
        </Node>
        <Node pos="r" depth="1" NCoef="0" IVar="2" Cut="7.1768554687500000e+04" cType="1" res="1.7858758568763733e-01" rms="4.3770927190780640e-01" purity="7.1531194448471069e-01" nType="0">
          <Node pos="l" depth="2" NCoef="0" IVar="-1" Cut="0.0000000000000000e+00" cType="1" res="2.7080028667114675e-04" rms="4.7581365704536438e-01" purity="6.1554121971130371e-01" nType="-99"/>
          <Node pos="r" depth="2" NCoef="0" IVar="-1" Cut="0.0000000000000000e+00" cType="1" res="5.0044408999383450e-04" rms="3.5378092527389526e-01" purity="8.5183829069137573e-01" nType="-99"/>
        </Node>
      </Node>
    </BinaryTree>
    <BinaryTree type="DecisionTree" boostWeight="1.0000000000000000e+00" itree="269">
      <Node pos="s" depth="0" NCoef="0" IVar="2" Cut="4.0782179687500000e+04" cType="1" res="5.2503149956464767e-02" rms="4.4742467999458313e-01" purity="5.0727820396423340e-01" nType="0">
        <Node pos="l" depth="1" NCoef="0" IVar="0" Cut="3.6551970988512039e-02" cType="1" res="-6.8267449736595154e-02" rms="4.3085980415344238e-01" purity="3.1724727153778076e-01" nType="0">
          <Node pos="l" depth="2" NCoef="0" IVar="-1" Cut="0.0000000000000000e+00" cType="1" res="-6.6084694481105544e-06" rms="4.6255561709403992e-01" purity="4.1372302174568176e-01" nType="-99"/>
          <Node pos="r" depth="2" NCoef="0" IVar="-1" Cut="0.0000000000000000e+00" cType="1" res="-1.4458952937275171e-03" rms="3.4444585442543030e-01" purity="1.5618243813514709e-01" nType="-99"/>
        </Node>
        <Node pos="r" depth="1" NCoef="0" IVar="0" Cut="3.8859125226736069e-02" cType="1" res="2.0905201137065887e-01" rms="4.1908654570579529e-01" purity="7.5360578298568726e-01" nType="0">
          <Node pos="l" depth="2" NCoef="0" IVar="-1" Cut="0.0000000000000000e+00" cType="1" res="5.8106915093958378e-04" rms="3.1518623232841492e-01" purity="8.8726603984832764e-01" nType="-99"/>
          <Node pos="r" depth="2" NCoef="0" IVar="-1" Cut="0.0000000000000000e+00" cType="1" res="3.4961785422638059e-04" rms="4.4539687037467957e-01" purity="6.9686239957809448e-01" nType="-99"/>
        </Node>
      </Node>
    </BinaryTree>
    <BinaryTree type="DecisionTree" boostWeight="1.0000000000000000e+00" itree="270">
      <Node pos="s" depth="0" NCoef="0" IVar="2" Cut="4.9590273437500000e+04" cType="1" res="5.0035979598760605e-02" rms="4.4792839884757996e-01" purity="5.0470322370529175e-01" nType="0">
        <Node pos="l" depth="1" NCoef="0" IVar="0" Cut="3.8101427257061005e-02" cType="1" res="-5.7253159582614899e-02" rms="4.3906038999557495e-01" purity="3.3386334776878357e-01" nType="0">
          <Node pos="l" depth="2" NCoef="0" IVar="-1" Cut="0.0000000000000000e+00" cType="1" res="1.8725830159382895e-05" rms="4.6415498852729797e-01" purity="4.2525228857994080e-01" nType="-99"/>
          <Node pos="r" depth="2" NCoef="0" IVar="-1" Cut="0.0000000000000000e+00" cType="1" res="-1.7040634993463755e-03" rms="3.7223997712135315e-01" purity="1.8561373651027679e-01" nType="-99"/>
        </Node>
        <Node pos="r" depth="1" NCoef="0" IVar="1" Cut="2.5781115722656250e+02" cType="1" res="2.2319464385509491e-01" rms="4.0592223405838013e-01" purity="7.8042912483215332e-01" nType="0">
          <Node pos="l" depth="2" NCoef="0" IVar="-1" Cut="0.0000000000000000e+00" cType="1" res="3.9154314436018467e-04" rms="4.3809887766838074e-01" purity="7.2672230005264282e-01" nType="-99"/>
          <Node pos="r" depth="2" NCoef="0" IVar="-1" Cut="0.0000000000000000e+00" cType="1" res="6.3852686434984207e-04" rms="2.3218011856079102e-01" purity="9.4246399402618408e-01" nType="-99"/>
        </Node>
      </Node>
    </BinaryTree>
    <BinaryTree type="DecisionTree" boostWeight="1.0000000000000000e+00" itree="271">
      <Node pos="s" depth="0" NCoef="0" IVar="2" Cut="3.6123000000000000e+04" cType="1" res="5.3166661411523819e-02" rms="4.4714888930320740e-01" purity="5.0905126333236694e-01" nType="0">
        <Node pos="l" depth="1" NCoef="0" IVar="0" Cut="3.7628732621669769e-02" cType="1" res="-8.4599226713180542e-02" rms="4.2531928420066833e-01" purity="2.9496154189109802e-01" nType="0">
          <Node pos="l" depth="2" NCoef="0" IVar="-1" Cut="0.0000000000000000e+00" cType="1" res="-1.2727703142445534e-04" rms="4.5911297202110291e-01" purity="3.8181430101394653e-01" nType="-99"/>
          <Node pos="r" depth="2" NCoef="0" IVar="-1" Cut="0.0000000000000000e+00" cType="1" res="-2.7264910750091076e-03" rms="3.2733616232872009e-01" purity="1.3041923940181732e-01" nType="-99"/>
        </Node>
        <Node pos="r" depth="1" NCoef="0" IVar="0" Cut="4.2733144015073776e-02" cType="1" res="2.0269790291786194e-01" rms="4.2149069905281067e-01" purity="7.4142444133758545e-01" nType="0">
          <Node pos="l" depth="2" NCoef="0" IVar="-1" Cut="0.0000000000000000e+00" cType="1" res="5.7608733186498284e-04" rms="3.3042278885841370e-01" purity="8.7085652351379395e-01" nType="-99"/>
          <Node pos="r" depth="2" NCoef="0" IVar="-1" Cut="0.0000000000000000e+00" cType="1" res="2.7070855139754713e-04" rms="4.5174777507781982e-01" purity="6.6730195283889771e-01" nType="-99"/>
        </Node>
      </Node>
    </BinaryTree>
    <BinaryTree type="DecisionTree" boostWeight="1.0000000000000000e+00" itree="272">
      <Node pos="s" depth="0" NCoef="0" IVar="1" Cut="1.5836036682128906e+02" cType="1" res="4.4860415160655975e-02" rms="4.4828456640243530e-01" purity="4.9755296111106873e-01" nType="0">
        <Node pos="l" depth="1" NCoef="0" IVar="0" Cut="3.8617823272943497e-02" cType="1" res="-6.1645250767469406e-02" rms="4.3763399124145508e-01" purity="3.3161681890487671e-01" nType="0">
          <Node pos="l" depth="2" NCoef="0" IVar="-1" Cut="0.0000000000000000e+00" cType="1" res="2.3241418602992781e-05" rms="4.6203905344009399e-01" purity="4.2193523049354553e-01" nType="-99"/>
          <Node pos="r" depth="2" NCoef="0" IVar="-1" Cut="0.0000000000000000e+00" cType="1" res="-1.6705880407243967e-03" rms="3.7536734342575073e-01" purity="1.9541902840137482e-01" nType="-99"/>
        </Node>
        <Node pos="r" depth="1" NCoef="0" IVar="1" Cut="2.4954165649414062e+02" cType="1" res="2.2618341445922852e-01" rms="4.0599617362022400e-01" purity="7.8005468845367432e-01" nType="0">
          <Node pos="l" depth="2" NCoef="0" IVar="-1" Cut="0.0000000000000000e+00" cType="1" res="4.2351437150500715e-04" rms="4.4085893034934998e-01" purity="7.2253745794296265e-01" nType="-99"/>
          <Node pos="r" depth="2" NCoef="0" IVar="-1" Cut="0.0000000000000000e+00" cType="1" res="6.2619656091555953e-04" rms="2.5856477022171021e-01" purity="9.2528927326202393e-01" nType="-99"/>
        </Node>
      </Node>
    </BinaryTree>
    <BinaryTree type="DecisionTree" boostWeight="1.0000000000000000e+00" itree="273">
      <Node pos="s" depth="0" NCoef="0" IVar="2" Cut="4.0782179687500000e+04" cType="1" res="3.9430517703294754e-02" rms="4.4835221767425537e-01" purity="4.9149432778358459e-01" nType="0">
        <Node pos="l" depth="1" NCoef="0" IVar="1" Cut="3.2736240386962891e+01" cType="1" res="-7.6014876365661621e-02" rms="4.2836648225784302e-01" purity="3.0732330679893494e-01" nType="0">
          <Node pos="l" depth="2" NCoef="0" IVar="-1" Cut="0.0000000000000000e+00" cType="1" res="-5.0023249350488186e-03" rms="2.7017113566398621e-01" purity="7.8812479972839355e-02" nType="-99"/>
          <Node pos="r" depth="2" NCoef="0" IVar="-1" Cut="0.0000000000000000e+00" cType="1" res="-1.0785524500533938e-04" rms="4.5208299160003662e-01" purity="3.7215873599052429e-01" nType="-99"/>
        </Node>
        <Node pos="r" depth="1" NCoef="0" IVar="0" Cut="4.1588477790355682e-02" cType="1" res="1.9465085864067078e-01" rms="4.2727702856063843e-01" purity="7.3911863565444946e-01" nType="0">
          <Node pos="l" depth="2" NCoef="0" IVar="-1" Cut="0.0000000000000000e+00" cType="1" res="5.3364894120022655e-04" rms="3.2594531774520874e-01" purity="8.7709355354309082e-01" nType="-99"/>
          <Node pos="r" depth="2" NCoef="0" IVar="-1" Cut="0.0000000000000000e+00" cType="1" res="2.7573850820772350e-04" rms="4.5712605118751526e-01" purity="6.6777515411376953e-01" nType="-99"/>
        </Node>
      </Node>
    </BinaryTree>
    <BinaryTree type="DecisionTree" boostWeight="1.0000000000000000e+00" itree="274">
      <Node pos="s" depth="0" NCoef="0" IVar="2" Cut="4.0782179687500000e+04" cType="1" res="4.7059711068868637e-02" rms="4.4875550270080566e-01" purity="4.9840423464775085e-01" nType="0">
        <Node pos="l" depth="1" NCoef="0" IVar="1" Cut="5.5246635437011719e+01" cType="1" res="-6.8113066256046295e-02" rms="4.3276429176330566e-01" purity="3.1166830658912659e-01" nType="0">
          <Node pos="l" depth="2" NCoef="0" IVar="-1" Cut="0.0000000000000000e+00" cType="1" res="-1.3673101784661412e-03" rms="3.3962526917457581e-01" purity="1.3679154217243195e-01" nType="-99"/>
          <Node pos="r" depth="2" NCoef="0" IVar="-1" Cut="0.0000000000000000e+00" cType="1" res="-3.4055243304464966e-05" rms="4.6557533740997314e-01" purity="4.0831461548805237e-01" nType="-99"/>
        </Node>
        <Node pos="r" depth="1" NCoef="0" IVar="0" Cut="4.1007466614246368e-02" cType="1" res="1.9845823943614960e-01" rms="4.2373740673065186e-01" purity="7.4387502670288086e-01" nType="0">
          <Node pos="l" depth="2" NCoef="0" IVar="-1" Cut="0.0000000000000000e+00" cType="1" res="6.2943011289462447e-04" rms="3.1578192114830017e-01" purity="8.8624095916748047e-01" nType="-99"/>
          <Node pos="r" depth="2" NCoef="0" IVar="-1" Cut="0.0000000000000000e+00" cType="1" res="3.3592735417187214e-04" rms="4.5626866817474365e-01" purity="6.6521388292312622e-01" nType="-99"/>
        </Node>
      </Node>
    </BinaryTree>
    <BinaryTree type="DecisionTree" boostWeight="1.0000000000000000e+00" itree="275">
      <Node pos="s" depth="0" NCoef="0" IVar="1" Cut="1.5851782226562500e+02" cType="1" res="5.4646048694849014e-02" rms="4.4845610857009888e-01" purity="5.0756287574768066e-01" nType="0">
        <Node pos="l" depth="1" NCoef="0" IVar="1" Cut="3.6962795257568359e+01" cType="1" res="-4.2595509439706802e-02" rms="4.4196367263793945e-01" purity="3.5243773460388184e-01" nType="0">
          <Node pos="l" depth="2" NCoef="0" IVar="-1" Cut="0.0000000000000000e+00" cType="1" res="-4.2014275677502155e-03" rms="2.8862136602401733e-01" purity="9.3083120882511139e-02" nType="-99"/>
          <Node pos="r" depth="2" NCoef="0" IVar="-1" Cut="0.0000000000000000e+00" cType="1" res="2.5892119083437137e-05" rms="4.6320194005966187e-01" purity="4.2516267299652100e-01" nType="-99"/>
        </Node>
        <Node pos="r" depth="1" NCoef="0" IVar="2" Cut="6.6204593750000000e+04" cType="1" res="2.2476667165756226e-01" rms="4.0711507201194763e-01" purity="7.7894872426986694e-01" nType="0">
          <Node pos="l" depth="2" NCoef="0" IVar="-1" Cut="0.0000000000000000e+00" cType="1" res="2.9508303850889206e-04" rms="4.6929389238357544e-01" purity="6.5143013000488281e-01" nType="-99"/>
          <Node pos="r" depth="2" NCoef="0" IVar="-1" Cut="0.0000000000000000e+00" cType="1" res="5.4157275008037686e-04" rms="3.6270734667778015e-01" purity="8.4272986650466919e-01" nType="-99"/>
        </Node>
      </Node>
    </BinaryTree>
    <BinaryTree type="DecisionTree" boostWeight="1.0000000000000000e+00" itree="276">
      <Node pos="s" depth="0" NCoef="0" IVar="1" Cut="1.3158508300781250e+02" cType="1" res="5.7147216051816940e-02" rms="4.4931644201278687e-01" purity="5.0985652208328247e-01" nType="0">
        <Node pos="l" depth="1" NCoef="0" IVar="0" Cut="3.7411056458950043e-02" cType="1" res="-6.6763654351234436e-02" rms="4.3004560470581055e-01" purity="3.0202087759971619e-01" nType="0">
          <Node pos="l" depth="2" NCoef="0" IVar="-1" Cut="0.0000000000000000e+00" cType="1" res="-6.1730170273222029e-06" rms="4.6415415406227112e-01" purity="3.9505955576896667e-01" nType="-99"/>
          <Node pos="r" depth="2" NCoef="0" IVar="-1" Cut="0.0000000000000000e+00" cType="1" res="-2.1544105838984251e-03" rms="3.4016910195350647e-01" purity="1.4696510136127472e-01" nType="-99"/>
        </Node>
        <Node pos="r" depth="1" NCoef="0" IVar="1" Cut="2.0746630859375000e+02" cType="1" res="1.8858239054679871e-01" rms="4.3162354826927185e-01" purity="7.3031270503997803e-01" nType="0">
          <Node pos="l" depth="2" NCoef="0" IVar="-1" Cut="0.0000000000000000e+00" cType="1" res="3.4294923534616828e-04" rms="4.6381956338882446e-01" purity="6.6003066301345825e-01" nType="-99"/>
          <Node pos="r" depth="2" NCoef="0" IVar="-1" Cut="0.0000000000000000e+00" cType="1" res="5.4452952463179827e-04" rms="3.2284632325172424e-01" purity="8.7587875127792358e-01" nType="-99"/>
        </Node>
      </Node>
    </BinaryTree>
    <BinaryTree type="DecisionTree" boostWeight="1.0000000000000000e+00" itree="277">
      <Node pos="s" depth="0" NCoef="0" IVar="1" Cut="1.5864443969726562e+02" cType="1" res="6.9038063287734985e-02" rms="4.4689649343490601e-01" purity="5.2458459138870239e-01" nType="0">
        <Node pos="l" depth="1" NCoef="0" IVar="0" Cut="3.8101427257061005e-02" cType="1" res="-3.0031824484467506e-02" rms="4.4457882642745972e-01" purity="3.6595764756202698e-01" nType="0">
          <Node pos="l" depth="2" NCoef="0" IVar="-1" Cut="0.0000000000000000e+00" cType="1" res="1.0429159010527655e-04" rms="4.6656626462936401e-01" purity="4.7413790225982666e-01" nType="-99"/>
          <Node pos="r" depth="2" NCoef="0" IVar="-1" Cut="0.0000000000000000e+00" cType="1" res="-1.6076914034783840e-03" rms="3.6616796255111694e-01" purity="1.9148871302604675e-01" nType="-99"/>
        </Node>
        <Node pos="r" depth="1" NCoef="0" IVar="1" Cut="2.4979895019531250e+02" cType="1" res="2.3518934845924377e-01" rms="3.9889198541641235e-01" purity="7.9061967134475708e-01" nType="0">
          <Node pos="l" depth="2" NCoef="0" IVar="-1" Cut="0.0000000000000000e+00" cType="1" res="4.1138145024888217e-04" rms="4.3454059958457947e-01" purity="7.3525303602218628e-01" nType="-99"/>
          <Node pos="r" depth="2" NCoef="0" IVar="-1" Cut="0.0000000000000000e+00" cType="1" res="4.6072684926912189e-04" rms="2.5457614660263062e-01" purity="9.2789226770401001e-01" nType="-99"/>
        </Node>
      </Node>
    </BinaryTree>
    <BinaryTree type="DecisionTree" boostWeight="1.0000000000000000e+00" itree="278">
      <Node pos="s" depth="0" NCoef="0" IVar="2" Cut="6.6204593750000000e+04" cType="1" res="4.2071506381034851e-02" rms="4.4664171338081360e-01" purity="4.9503985047340393e-01" nType="0">
        <Node pos="l" depth="1" NCoef="0" IVar="0" Cut="5.0266090780496597e-02" cType="1" res="-4.1386563330888748e-02" rms="4.4448471069335938e-01" purity="3.6759385466575623e-01" nType="0">
          <Node pos="l" depth="2" NCoef="0" IVar="-1" Cut="0.0000000000000000e+00" cType="1" res="4.3043502955697477e-05" rms="4.5861607789993286e-01" purity="4.2952004075050354e-01" nType="-99"/>
          <Node pos="r" depth="2" NCoef="0" IVar="-1" Cut="0.0000000000000000e+00" cType="1" res="-1.5962921315804124e-03" rms="3.7322863936424255e-01" purity="2.1006605029106140e-01" nType="-99"/>
        </Node>
        <Node pos="r" depth="1" NCoef="0" IVar="1" Cut="2.3041674804687500e+02" cType="1" res="2.6375928521156311e-01" rms="3.7006413936614990e-01" purity="8.3357173204421997e-01" nType="0">
          <Node pos="l" depth="2" NCoef="0" IVar="-1" Cut="0.0000000000000000e+00" cType="1" res="4.2182407923974097e-04" rms="4.2269930243492126e-01" purity="7.6362085342407227e-01" nType="-99"/>
          <Node pos="r" depth="2" NCoef="0" IVar="-1" Cut="0.0000000000000000e+00" cType="1" res="4.9509399104863405e-04" rms="2.4673156440258026e-01" purity="9.3467926979064941e-01" nType="-99"/>
        </Node>
      </Node>
    </BinaryTree>
    <BinaryTree type="DecisionTree" boostWeight="1.0000000000000000e+00" itree="279">
      <Node pos="s" depth="0" NCoef="0" IVar="1" Cut="1.2484600830078125e+02" cType="1" res="5.5612254887819290e-02" rms="4.4829833507537842e-01" purity="5.0824648141860962e-01" nType="0">
        <Node pos="l" depth="1" NCoef="0" IVar="0" Cut="1.2566522695124149e-02" cType="1" res="-8.4388032555580139e-02" rms="4.2114707827568054e-01" purity="2.7728345990180969e-01" nType="0">
          <Node pos="l" depth="2" NCoef="0" IVar="-1" Cut="0.0000000000000000e+00" cType="1" res="1.8131283286493272e-04" rms="4.7336640954017639e-01" purity="4.2948791384696960e-01" nType="-99"/>
          <Node pos="r" depth="2" NCoef="0" IVar="-1" Cut="0.0000000000000000e+00" cType="1" res="-1.1081314878538251e-03" rms="3.9091581106185913e-01" purity="2.2625726461410522e-01" nType="-99"/>
        </Node>
        <Node pos="r" depth="1" NCoef="0" IVar="0" Cut="4.1265200823545456e-02" cType="1" res="1.8580643832683563e-01" rms="4.3329748511314392e-01" purity="7.2303205728530884e-01" nType="0">
          <Node pos="l" depth="2" NCoef="0" IVar="-1" Cut="0.0000000000000000e+00" cType="1" res="5.0874717999249697e-04" rms="3.7513193488121033e-01" purity="8.2019877433776855e-01" nType="-99"/>
          <Node pos="r" depth="2" NCoef="0" IVar="-1" Cut="0.0000000000000000e+00" cType="1" res="2.7615428552962840e-04" rms="4.5986592769622803e-01" purity="6.4911752939224243e-01" nType="-99"/>
        </Node>
      </Node>
    </BinaryTree>
    <BinaryTree type="DecisionTree" boostWeight="1.0000000000000000e+00" itree="280">
      <Node pos="s" depth="0" NCoef="0" IVar="1" Cut="1.3922813415527344e+02" cType="1" res="5.3648836910724640e-02" rms="4.4540673494338989e-01" purity="5.0859367847442627e-01" nType="0">
        <Node pos="l" depth="1" NCoef="0" IVar="0" Cut="3.5384479910135269e-02" cType="1" res="-7.9148687422275543e-02" rms="4.2230555415153503e-01" purity="2.9449611902236938e-01" nType="0">
          <Node pos="l" depth="2" NCoef="0" IVar="-1" Cut="0.0000000000000000e+00" cType="1" res="-3.5844732337864116e-05" rms="4.5665493607521057e-01" purity="3.9501368999481201e-01" nType="-99"/>
          <Node pos="r" depth="2" NCoef="0" IVar="-1" Cut="0.0000000000000000e+00" cType="1" res="-1.9399261800572276e-03" rms="3.4482842683792114e-01" purity="1.5207141637802124e-01" nType="-99"/>
        </Node>
        <Node pos="r" depth="1" NCoef="0" IVar="1" Cut="2.5960073852539062e+02" cType="1" res="2.0431573688983917e-01" rms="4.2239898443222046e-01" purity="7.5150054693222046e-01" nType="0">
          <Node pos="l" depth="2" NCoef="0" IVar="-1" Cut="0.0000000000000000e+00" cType="1" res="3.8732783286832273e-04" rms="4.4509264826774597e-01" purity="7.1086841821670532e-01" nType="-99"/>
          <Node pos="r" depth="2" NCoef="0" IVar="-1" Cut="0.0000000000000000e+00" cType="1" res="4.1744776535779238e-04" rms="2.5730091333389282e-01" purity="9.2619472742080688e-01" nType="-99"/>
        </Node>
      </Node>
    </BinaryTree>
    <BinaryTree type="DecisionTree" boostWeight="1.0000000000000000e+00" itree="281">
      <Node pos="s" depth="0" NCoef="0" IVar="1" Cut="1.3974452209472656e+02" cType="1" res="5.8236084878444672e-02" rms="4.4693496823310852e-01" purity="5.1194292306900024e-01" nType="0">
        <Node pos="l" depth="1" NCoef="0" IVar="0" Cut="3.6267120391130447e-02" cType="1" res="-5.9912461787462234e-02" rms="4.3119814991950989e-01" purity="3.1458187103271484e-01" nType="0">
          <Node pos="l" depth="2" NCoef="0" IVar="-1" Cut="0.0000000000000000e+00" cType="1" res="2.7076006517745554e-05" rms="4.6178138256072998e-01" purity="4.1542980074882507e-01" nType="-99"/>
          <Node pos="r" depth="2" NCoef="0" IVar="-1" Cut="0.0000000000000000e+00" cType="1" res="-1.7622772138565779e-03" rms="3.5354110598564148e-01" purity="1.6072283685207367e-01" nType="-99"/>
        </Node>
        <Node pos="r" depth="1" NCoef="0" IVar="0" Cut="3.9251808077096939e-02" cType="1" res="1.9936437904834747e-01" rms="4.2387065291404724e-01" purity="7.4769043922424316e-01" nType="0">
          <Node pos="l" depth="2" NCoef="0" IVar="-1" Cut="0.0000000000000000e+00" cType="1" res="4.6684537664987147e-04" rms="3.4775972366333008e-01" purity="8.5328137874603271e-01" nType="-99"/>
          <Node pos="r" depth="2" NCoef="0" IVar="-1" Cut="0.0000000000000000e+00" cType="1" res="3.3417961094528437e-04" rms="4.5493999123573303e-01" purity="6.7530381679534912e-01" nType="-99"/>
        </Node>
      </Node>
    </BinaryTree>
    <BinaryTree type="DecisionTree" boostWeight="1.0000000000000000e+00" itree="282">
      <Node pos="s" depth="0" NCoef="0" IVar="1" Cut="1.2513008117675781e+02" cType="1" res="4.7815147787332535e-02" rms="4.4664004445075989e-01" purity="5.0045019388198853e-01" nType="0">
        <Node pos="l" depth="1" NCoef="0" IVar="0" Cut="3.7699569016695023e-02" cType="1" res="-9.5842249691486359e-02" rms="4.1227719187736511e-01" purity="2.6517432928085327e-01" nType="0">
          <Node pos="l" depth="2" NCoef="0" IVar="-1" Cut="0.0000000000000000e+00" cType="1" res="-1.6057974426075816e-04" rms="4.5159679651260376e-01" purity="3.5547393560409546e-01" nType="-99"/>
          <Node pos="r" depth="2" NCoef="0" IVar="-1" Cut="0.0000000000000000e+00" cType="1" res="-3.0228914692997932e-03" rms="3.1019151210784912e-01" purity="1.1046120524406433e-01" nType="-99"/>
        </Node>
        <Node pos="r" depth="1" NCoef="0" IVar="2" Cut="7.1768554687500000e+04" cType="1" res="1.8114516139030457e-01" rms="4.3583211302757263e-01" purity="7.1881240606307983e-01" nType="0">
          <Node pos="l" depth="2" NCoef="0" IVar="-1" Cut="0.0000000000000000e+00" cType="1" res="2.9773768619634211e-04" rms="4.7473773360252380e-01" purity="6.2074142694473267e-01" nType="-99"/>
          <Node pos="r" depth="2" NCoef="0" IVar="-1" Cut="0.0000000000000000e+00" cType="1" res="4.6180363278836012e-04" rms="3.5326027870178223e-01" purity="8.5218983888626099e-01" nType="-99"/>
        </Node>
      </Node>
    </BinaryTree>
    <BinaryTree type="DecisionTree" boostWeight="1.0000000000000000e+00" itree="283">
      <Node pos="s" depth="0" NCoef="0" IVar="2" Cut="4.4136394531250000e+04" cType="1" res="4.5203242450952530e-02" rms="4.4768777489662170e-01" purity="4.9608063697814941e-01" nType="0">
        <Node pos="l" depth="1" NCoef="0" IVar="1" Cut="6.9986633300781250e+01" cType="1" res="-5.7266660034656525e-02" rms="4.3547883629798889e-01" purity="3.2511174678802490e-01" nType="0">
          <Node pos="l" depth="2" NCoef="0" IVar="-1" Cut="0.0000000000000000e+00" cType="1" res="-1.2065769406035542e-03" rms="3.6527302861213684e-01" purity="1.6676613688468933e-01" nType="-99"/>
          <Node pos="r" depth="2" NCoef="0" IVar="-1" Cut="0.0000000000000000e+00" cType="1" res="3.6619596357923001e-05" rms="4.7074285149574280e-01" purity="4.4507610797882080e-01" nType="-99"/>
        </Node>
        <Node pos="r" depth="1" NCoef="0" IVar="0" Cut="4.4180817902088165e-02" cType="1" res="1.9778619706630707e-01" rms="4.2138269543647766e-01" purity="7.5066220760345459e-01" nType="0">
          <Node pos="l" depth="2" NCoef="0" IVar="-1" Cut="0.0000000000000000e+00" cType="1" res="5.7450868189334869e-04" rms="3.3300390839576721e-01" purity="8.6976414918899536e-01" nType="-99"/>
          <Node pos="r" depth="2" NCoef="0" IVar="-1" Cut="0.0000000000000000e+00" cType="1" res="3.1008155201561749e-04" rms="4.5400580763816833e-01" purity="6.7762780189514160e-01" nType="-99"/>
        </Node>
      </Node>
    </BinaryTree>
    <BinaryTree type="DecisionTree" boostWeight="1.0000000000000000e+00" itree="284">
      <Node pos="s" depth="0" NCoef="0" IVar="2" Cut="4.0782179687500000e+04" cType="1" res="5.1959693431854248e-02" rms="4.4495037198066711e-01" purity="5.0648045539855957e-01" nType="0">
        <Node pos="l" depth="1" NCoef="0" IVar="0" Cut="2.5133045390248299e-02" cType="1" res="-6.6679283976554871e-02" rms="4.2797106504440308e-01" purity="3.1630110740661621e-01" nType="0">
          <Node pos="l" depth="2" NCoef="0" IVar="-1" Cut="0.0000000000000000e+00" cType="1" res="1.0726634354796261e-04" rms="4.6134153008460999e-01" purity="4.4673979282379150e-01" nType="-99"/>
          <Node pos="r" depth="2" NCoef="0" IVar="-1" Cut="0.0000000000000000e+00" cType="1" res="-1.0770313674584031e-03" rms="3.7431138753890991e-01" purity="2.0213387906551361e-01" nType="-99"/>
        </Node>
        <Node pos="r" depth="1" NCoef="0" IVar="0" Cut="4.2733144015073776e-02" cType="1" res="2.0523016154766083e-01" rms="4.1887137293815613e-01" purity="7.5217437744140625e-01" nType="0">
          <Node pos="l" depth="2" NCoef="0" IVar="-1" Cut="0.0000000000000000e+00" cType="1" res="6.1066501075401902e-04" rms="3.2217288017272949e-01" purity="8.8044929504394531e-01" nType="-99"/>
          <Node pos="r" depth="2" NCoef="0" IVar="-1" Cut="0.0000000000000000e+00" cType="1" res="3.0091498047113419e-04" rms="4.5151263475418091e-01" purity="6.7678999900817871e-01" nType="-99"/>
        </Node>
      </Node>
    </BinaryTree>
    <BinaryTree type="DecisionTree" boostWeight="1.0000000000000000e+00" itree="285">
      <Node pos="s" depth="0" NCoef="0" IVar="1" Cut="1.0517140960693359e+02" cType="1" res="5.6784406304359436e-02" rms="4.4602343440055847e-01" purity="5.0967460870742798e-01" nType="0">
        <Node pos="l" depth="1" NCoef="0" IVar="0" Cut="1.2566522695124149e-02" cType="1" res="-1.0503036528825760e-01" rms="4.0094828605651855e-01" purity="2.4225169420242310e-01" nType="0">
          <Node pos="l" depth="2" NCoef="0" IVar="-1" Cut="0.0000000000000000e+00" cType="1" res="9.1729503765236586e-05" rms="4.6313273906707764e-01" purity="3.9835581183433533e-01" nType="-99"/>
          <Node pos="r" depth="2" NCoef="0" IVar="-1" Cut="0.0000000000000000e+00" cType="1" res="-1.1273456038907170e-03" rms="3.6058983206748962e-01" purity="1.8075589835643768e-01" nType="-99"/>
        </Node>
        <Node pos="r" depth="1" NCoef="0" IVar="2" Cut="7.1768554687500000e+04" cType="1" res="1.6659016907215118e-01" rms="4.4160857796669006e-01" purity="6.9114500284194946e-01" nType="0">
          <Node pos="l" depth="2" NCoef="0" IVar="-1" Cut="0.0000000000000000e+00" cType="1" res="2.6603104197420180e-04" rms="4.7376304864883423e-01" purity="5.9684556722640991e-01" nType="-99"/>
          <Node pos="r" depth="2" NCoef="0" IVar="-1" Cut="0.0000000000000000e+00" cType="1" res="4.4924454414285719e-04" rms="3.4865933656692505e-01" purity="8.5684233903884888e-01" nType="-99"/>
        </Node>
      </Node>
    </BinaryTree>
    <BinaryTree type="DecisionTree" boostWeight="1.0000000000000000e+00" itree="286">
      <Node pos="s" depth="0" NCoef="0" IVar="2" Cut="4.4136394531250000e+04" cType="1" res="4.4564895331859589e-02" rms="4.4753554463386536e-01" purity="4.9467879533767700e-01" nType="0">
        <Node pos="l" depth="1" NCoef="0" IVar="0" Cut="3.7699569016695023e-02" cType="1" res="-6.2909439206123352e-02" rms="4.3417850136756897e-01" purity="3.1661489605903625e-01" nType="0">
          <Node pos="l" depth="2" NCoef="0" IVar="-1" Cut="0.0000000000000000e+00" cType="1" res="-1.3159864465706050e-05" rms="4.6281328797340393e-01" purity="4.0741810202598572e-01" nType="-99"/>
          <Node pos="r" depth="2" NCoef="0" IVar="-1" Cut="0.0000000000000000e+00" cType="1" res="-1.5780590474605560e-03" rms="3.5737985372543335e-01" purity="1.6012614965438843e-01" nType="-99"/>
        </Node>
        <Node pos="r" depth="1" NCoef="0" IVar="1" Cut="2.3196244812011719e+02" cType="1" res="2.0097658038139343e-01" rms="4.1970574855804443e-01" purity="7.5382226705551147e-01" nType="0">
          <Node pos="l" depth="2" NCoef="0" IVar="-1" Cut="0.0000000000000000e+00" cType="1" res="3.5203853622078896e-04" rms="4.5252326130867004e-01" purity="6.8965369462966919e-01" nType="-99"/>
          <Node pos="r" depth="2" NCoef="0" IVar="-1" Cut="0.0000000000000000e+00" cType="1" res="6.6328869434073567e-04" rms="2.7247959375381470e-01" purity="9.1793781518936157e-01" nType="-99"/>
        </Node>
      </Node>
    </BinaryTree>
    <BinaryTree type="DecisionTree" boostWeight="1.0000000000000000e+00" itree="287">
      <Node pos="s" depth="0" NCoef="0" IVar="1" Cut="1.3466694641113281e+02" cType="1" res="5.1991414278745651e-02" rms="4.4735679030418396e-01" purity="5.0370180606842041e-01" nType="0">
        <Node pos="l" depth="1" NCoef="0" IVar="0" Cut="3.8101427257061005e-02" cType="1" res="-7.1061111986637115e-02" rms="4.2658895254135132e-01" purity="2.9608309268951416e-01" nType="0">
          <Node pos="l" depth="2" NCoef="0" IVar="-1" Cut="0.0000000000000000e+00" cType="1" res="-3.1246698199538514e-05" rms="4.6016702055931091e-01" purity="3.8931277394294739e-01" nType="-99"/>
          <Node pos="r" depth="2" NCoef="0" IVar="-1" Cut="0.0000000000000000e+00" cType="1" res="-2.3646501358598471e-03" rms="3.3827868103981018e-01" purity="1.3829481601715088e-01" nType="-99"/>
        </Node>
        <Node pos="r" depth="1" NCoef="0" IVar="2" Cut="6.2013781250000000e+04" cType="1" res="1.8821862339973450e-01" rms="4.3000042438507080e-01" purity="7.3354929685592651e-01" nType="0">
          <Node pos="l" depth="2" NCoef="0" IVar="-1" Cut="0.0000000000000000e+00" cType="1" res="2.5740356068126857e-04" rms="4.7858050465583801e-01" purity="6.0288929939270020e-01" nType="-99"/>
          <Node pos="r" depth="2" NCoef="0" IVar="-1" Cut="0.0000000000000000e+00" cType="1" res="4.9609207781031728e-04" rms="3.8333719968795776e-01" purity="8.1819140911102295e-01" nType="-99"/>
        </Node>
      </Node>
    </BinaryTree>
    <BinaryTree type="DecisionTree" boostWeight="1.0000000000000000e+00" itree="288">
      <Node pos="s" depth="0" NCoef="0" IVar="1" Cut="1.5836036682128906e+02" cType="1" res="4.7937337309122086e-02" rms="4.4446584582328796e-01" purity="5.0149053335189819e-01" nType="0">
        <Node pos="l" depth="1" NCoef="0" IVar="1" Cut="7.4777572631835938e+01" cType="1" res="-5.6676913052797318e-02" rms="4.3312036991119385e-01" purity="3.3522140979766846e-01" nType="0">
          <Node pos="l" depth="2" NCoef="0" IVar="-1" Cut="0.0000000000000000e+00" cType="1" res="-1.7758369212970138e-03" rms="3.4984171390533447e-01" purity="1.5311396121978760e-01" nType="-99"/>
          <Node pos="r" depth="2" NCoef="0" IVar="-1" Cut="0.0000000000000000e+00" cType="1" res="7.5255884439684451e-05" rms="4.7055205702781677e-01" purity="4.6994307637214661e-01" nType="-99"/>
        </Node>
        <Node pos="r" depth="1" NCoef="0" IVar="1" Cut="2.4954298400878906e+02" cType="1" res="2.2265541553497314e-01" rms="4.0666231513023376e-01" purity="7.7917951345443726e-01" nType="0">
          <Node pos="l" depth="2" NCoef="0" IVar="-1" Cut="0.0000000000000000e+00" cType="1" res="3.2408643164671957e-04" rms="4.4106119871139526e-01" purity="7.2238671779632568e-01" nType="-99"/>
          <Node pos="r" depth="2" NCoef="0" IVar="-1" Cut="0.0000000000000000e+00" cType="1" res="5.6774367112666368e-04" rms="2.6131981611251831e-01" purity="9.2358368635177612e-01" nType="-99"/>
        </Node>
      </Node>
    </BinaryTree>
    <BinaryTree type="DecisionTree" boostWeight="1.0000000000000000e+00" itree="289">
      <Node pos="s" depth="0" NCoef="0" IVar="2" Cut="3.4136656250000000e+04" cType="1" res="5.0332944840192795e-02" rms="4.4762450456619263e-01" purity="5.0048613548278809e-01" nType="0">
        <Node pos="l" depth="1" NCoef="0" IVar="1" Cut="8.2056709289550781e+01" cType="1" res="-7.3258608579635620e-02" rms="4.2599269747734070e-01" purity="3.0055442452430725e-01" nType="0">
          <Node pos="l" depth="2" NCoef="0" IVar="-1" Cut="0.0000000000000000e+00" cType="1" res="-1.0028110118582845e-03" rms="3.7547072768211365e-01" purity="1.8652029335498810e-01" nType="-99"/>
          <Node pos="r" depth="2" NCoef="0" IVar="-1" Cut="0.0000000000000000e+00" cType="1" res="4.3085070501547307e-05" rms="4.7266146540641785e-01" purity="4.5398753881454468e-01" nType="-99"/>
        </Node>
        <Node pos="r" depth="1" NCoef="0" IVar="0" Cut="4.3363869190216064e-02" cType="1" res="1.8355938792228699e-01" rms="4.3188413977622986e-01" purity="7.1600419282913208e-01" nType="0">
          <Node pos="l" depth="2" NCoef="0" IVar="-1" Cut="0.0000000000000000e+00" cType="1" res="5.6893995497375727e-04" rms="3.4101256728172302e-01" purity="8.6013227701187134e-01" nType="-99"/>
          <Node pos="r" depth="2" NCoef="0" IVar="-1" Cut="0.0000000000000000e+00" cType="1" res="3.1093522557057440e-04" rms="4.6221497654914856e-01" purity="6.2390494346618652e-01" nType="-99"/>
        </Node>
      </Node>
    </BinaryTree>
    <BinaryTree type="DecisionTree" boostWeight="1.0000000000000000e+00" itree="290">
      <Node pos="s" depth="0" NCoef="0" IVar="1" Cut="1.3922813415527344e+02" cType="1" res="5.6175902485847473e-02" rms="4.4607731699943542e-01" purity="5.0972300767898560e-01" nType="0">
        <Node pos="l" depth="1" NCoef="0" IVar="1" Cut="6.5666687011718750e+01" cType="1" res="-6.2536753714084625e-02" rms="4.2887499928474426e-01" purity="3.0913746356964111e-01" nType="0">
          <Node pos="l" depth="2" NCoef="0" IVar="-1" Cut="0.0000000000000000e+00" cType="1" res="-1.3074069283902645e-03" rms="3.4895631670951843e-01" purity="1.4786228537559509e-01" nType="-99"/>
          <Node pos="r" depth="2" NCoef="0" IVar="-1" Cut="0.0000000000000000e+00" cType="1" res="4.3617132178042084e-05" rms="4.6619418263435364e-01" purity="4.2893365025520325e-01" nType="-99"/>
        </Node>
        <Node pos="r" depth="1" NCoef="0" IVar="1" Cut="2.5960073852539062e+02" cType="1" res="1.9545993208885193e-01" rms="4.2509946227073669e-01" purity="7.4506729841232300e-01" nType="0">
          <Node pos="l" depth="2" NCoef="0" IVar="-1" Cut="0.0000000000000000e+00" cType="1" res="3.7759920815005898e-04" rms="4.4840502738952637e-01" purity="7.0061272382736206e-01" nType="-99"/>
          <Node pos="r" depth="2" NCoef="0" IVar="-1" Cut="0.0000000000000000e+00" cType="1" res="7.4144313111901283e-04" rms="2.5259611010551453e-01" purity="9.2958146333694458e-01" nType="-99"/>
        </Node>
      </Node>
    </BinaryTree>
    <BinaryTree type="DecisionTree" boostWeight="1.0000000000000000e+00" itree="291">
      <Node pos="s" depth="0" NCoef="0" IVar="3" Cut="1.4930736541748047e+01" cType="1" res="5.0335071980953217e-02" rms="4.4685977697372437e-01" purity="5.0179505348205566e-01" nType="0">
        <Node pos="l" depth="1" NCoef="0" IVar="0" Cut="3.3197853714227676e-02" cType="1" res="-8.6561694741249084e-02" rms="4.2166957259178162e-01" purity="2.8530925512313843e-01" nType="0">
          <Node pos="l" depth="2" NCoef="0" IVar="-1" Cut="0.0000000000000000e+00" cType="1" res="-9.3163682322483510e-05" rms="4.5747810602188110e-01" purity="3.7598720192909241e-01" nType="-99"/>
          <Node pos="r" depth="2" NCoef="0" IVar="-1" Cut="0.0000000000000000e+00" cType="1" res="-2.7315940242260695e-03" rms="3.2874226570129395e-01" purity="1.3194745779037476e-01" nType="-99"/>
        </Node>
        <Node pos="r" depth="1" NCoef="0" IVar="0" Cut="3.9299380034208298e-02" cType="1" res="1.7616772651672363e-01" rms="4.3212717771530151e-01" purity="7.0078426599502563e-01" nType="0">
          <Node pos="l" depth="2" NCoef="0" IVar="-1" Cut="0.0000000000000000e+00" cType="1" res="5.4821564117446542e-04" rms="3.3704143762588501e-01" purity="8.6401933431625366e-01" nType="-99"/>
          <Node pos="r" depth="2" NCoef="0" IVar="-1" Cut="0.0000000000000000e+00" cType="1" res="2.9902454116381705e-04" rms="4.5376577973365784e-01" purity="6.2771403789520264e-01" nType="-99"/>
        </Node>
      </Node>
    </BinaryTree>
    <BinaryTree type="DecisionTree" boostWeight="1.0000000000000000e+00" itree="292">
      <Node pos="s" depth="0" NCoef="0" IVar="1" Cut="1.3930560302734375e+02" cType="1" res="4.9834832549095154e-02" rms="4.4528585672378540e-01" purity="5.0164878368377686e-01" nType="0">
        <Node pos="l" depth="1" NCoef="0" IVar="1" Cut="6.5750640869140625e+01" cType="1" res="-6.7741312086582184e-02" rms="4.2526111006736755e-01" purity="3.0274060368537903e-01" nType="0">
          <Node pos="l" depth="2" NCoef="0" IVar="-1" Cut="0.0000000000000000e+00" cType="1" res="-1.1666709324344993e-03" rms="3.4297478199005127e-01" purity="1.4350578188896179e-01" nType="-99"/>
          <Node pos="r" depth="2" NCoef="0" IVar="-1" Cut="0.0000000000000000e+00" cType="1" res="1.8792576156556606e-05" rms="4.6459022164344788e-01" purity="4.2201980948448181e-01" nType="-99"/>
        </Node>
        <Node pos="r" depth="1" NCoef="0" IVar="1" Cut="2.5966769409179688e+02" cType="1" res="1.9134168326854706e-01" rms="4.2731496691703796e-01" purity="7.4104142189025879e-01" nType="0">
          <Node pos="l" depth="2" NCoef="0" IVar="-1" Cut="0.0000000000000000e+00" cType="1" res="3.4753567888401449e-04" rms="4.5068335533142090e-01" purity="6.9588649272918701e-01" nType="-99"/>
          <Node pos="r" depth="2" NCoef="0" IVar="-1" Cut="0.0000000000000000e+00" cType="1" res="6.4338959055021405e-04" rms="2.5537452101707458e-01" purity="9.2760354280471802e-01" nType="-99"/>
        </Node>
      </Node>
    </BinaryTree>
    <BinaryTree type="DecisionTree" boostWeight="1.0000000000000000e+00" itree="293">
      <Node pos="s" depth="0" NCoef="0" IVar="3" Cut="2.4516361236572266e+01" cType="1" res="5.9524789452552795e-02" rms="4.4302880764007568e-01" purity="5.1505887508392334e-01" nType="0">
        <Node pos="l" depth="1" NCoef="0" IVar="0" Cut="3.6266315728425980e-02" cType="1" res="-6.0496896505355835e-02" rms="4.3224948644638062e-01" purity="3.2540610432624817e-01" nType="0">
          <Node pos="l" depth="2" NCoef="0" IVar="-1" Cut="0.0000000000000000e+00" cType="1" res="2.3554253857582808e-05" rms="4.6287155151367188e-01" purity="4.2114782333374023e-01" nType="-99"/>
          <Node pos="r" depth="2" NCoef="0" IVar="-1" Cut="0.0000000000000000e+00" cType="1" res="-1.7270895186811686e-03" rms="3.5463300347328186e-01" purity="1.7532140016555786e-01" nType="-99"/>
        </Node>
        <Node pos="r" depth="1" NCoef="0" IVar="2" Cut="7.5884578125000000e+04" cType="1" res="2.2666221857070923e-01" rms="4.0176877379417419e-01" purity="7.7916181087493896e-01" nType="0">
          <Node pos="l" depth="2" NCoef="0" IVar="-1" Cut="0.0000000000000000e+00" cType="1" res="4.0187255945056677e-04" rms="4.5097559690475464e-01" purity="6.8564361333847046e-01" nType="-99"/>
          <Node pos="r" depth="2" NCoef="0" IVar="-1" Cut="0.0000000000000000e+00" cType="1" res="4.4754013651981950e-04" rms="3.1570321321487427e-01" purity="8.8666594028472900e-01" nType="-99"/>
        </Node>
      </Node>
    </BinaryTree>
    <BinaryTree type="DecisionTree" boostWeight="1.0000000000000000e+00" itree="294">
      <Node pos="s" depth="0" NCoef="0" IVar="2" Cut="6.1173269531250000e+04" cType="1" res="4.4927440583705902e-02" rms="4.4698649644851685e-01" purity="4.9421185255050659e-01" nType="0">
        <Node pos="l" depth="1" NCoef="0" IVar="0" Cut="2.5015203282237053e-02" cType="1" res="-3.0347390100359917e-02" rms="4.4458198547363281e-01" purity="3.7069499492645264e-01" nType="0">
          <Node pos="l" depth="2" NCoef="0" IVar="-1" Cut="0.0000000000000000e+00" cType="1" res="2.0812852017115802e-04" rms="4.6237429976463318e-01" purity="4.9322959780693054e-01" nType="-99"/>
          <Node pos="r" depth="2" NCoef="0" IVar="-1" Cut="0.0000000000000000e+00" cType="1" res="-6.6360720666125417e-04" rms="4.1562983393669128e-01" purity="2.8527653217315674e-01" nType="-99"/>
        </Node>
        <Node pos="r" depth="1" NCoef="0" IVar="1" Cut="2.2627468872070312e+02" cType="1" res="2.3296982049942017e-01" rms="3.9450913667678833e-01" purity="8.0276662111282349e-01" nType="0">
          <Node pos="l" depth="2" NCoef="0" IVar="-1" Cut="0.0000000000000000e+00" cType="1" res="4.6423773164860904e-04" rms="4.3336457014083862e-01" purity="7.4381649494171143e-01" nType="-99"/>
          <Node pos="r" depth="2" NCoef="0" IVar="-1" Cut="0.0000000000000000e+00" cType="1" res="4.9581925850361586e-04" rms="2.7856317162513733e-01" purity="9.1484904289245605e-01" nType="-99"/>
        </Node>
      </Node>
    </BinaryTree>
    <BinaryTree type="DecisionTree" boostWeight="1.0000000000000000e+00" itree="295">
      <Node pos="s" depth="0" NCoef="0" IVar="2" Cut="4.4136394531250000e+04" cType="1" res="5.3759757429361343e-02" rms="4.4636902213096619e-01" purity="5.0473535060882568e-01" nType="0">
        <Node pos="l" depth="1" NCoef="0" IVar="0" Cut="4.8355083912611008e-02" cType="1" res="-5.4861359298229218e-02" rms="4.3533423542976379e-01" purity="3.2359957695007324e-01" nType="0">
          <Node pos="l" depth="2" NCoef="0" IVar="-1" Cut="0.0000000000000000e+00" cType="1" res="-3.3117743441835046e-05" rms="4.5825991034507751e-01" purity="3.8715571165084839e-01" nType="-99"/>
          <Node pos="r" depth="2" NCoef="0" IVar="-1" Cut="0.0000000000000000e+00" cType="1" res="-2.1012932993471622e-03" rms="3.2944631576538086e-01" purity="1.4124549925327301e-01" nType="-99"/>
        </Node>
        <Node pos="r" depth="1" NCoef="0" IVar="1" Cut="2.3787171936035156e+02" cType="1" res="2.0755054056644440e-01" rms="4.1552874445915222e-01" purity="7.6119571924209595e-01" nType="0">
          <Node pos="l" depth="2" NCoef="0" IVar="-1" Cut="0.0000000000000000e+00" cType="1" res="3.8781558396294713e-04" rms="4.4619518518447876e-01" purity="7.0517152547836304e-01" nType="-99"/>
          <Node pos="r" depth="2" NCoef="0" IVar="-1" Cut="0.0000000000000000e+00" cType="1" res="5.2347895689308643e-04" rms="2.6261037588119507e-01" purity="9.2446547746658325e-01" nType="-99"/>
        </Node>
      </Node>
    </BinaryTree>
    <BinaryTree type="DecisionTree" boostWeight="1.0000000000000000e+00" itree="296">
      <Node pos="s" depth="0" NCoef="0" IVar="2" Cut="4.4136394531250000e+04" cType="1" res="5.1033608615398407e-02" rms="4.4624331593513489e-01" purity="5.0122559070587158e-01" nType="0">
        <Node pos="l" depth="1" NCoef="0" IVar="0" Cut="2.5400951504707336e-02" cType="1" res="-5.7176820933818817e-02" rms="4.3451628088951111e-01" purity="3.2027187943458557e-01" nType="0">
          <Node pos="l" depth="2" NCoef="0" IVar="-1" Cut="0.0000000000000000e+00" cType="1" res="9.6581403340678662e-05" rms="4.6312576532363892e-01" purity="4.3387907743453979e-01" nType="-99"/>
          <Node pos="r" depth="2" NCoef="0" IVar="-1" Cut="0.0000000000000000e+00" cType="1" res="-9.6850213594734669e-04" rms="3.9667755365371704e-01" purity="2.2853568196296692e-01" nType="-99"/>
        </Node>
        <Node pos="r" depth="1" NCoef="0" IVar="0" Cut="4.1007466614246368e-02" cType="1" res="2.0629729330539703e-01" rms="4.1598683595657349e-01" purity="7.6086354255676270e-01" nType="0">
          <Node pos="l" depth="2" NCoef="0" IVar="-1" Cut="0.0000000000000000e+00" cType="1" res="5.5471161613240838e-04" rms="3.0645304918289185e-01" purity="8.9330059289932251e-01" nType="-99"/>
          <Node pos="r" depth="2" NCoef="0" IVar="-1" Cut="0.0000000000000000e+00" cType="1" res="3.8944356492720544e-04" rms="4.5061928033828735e-01" purity="6.8890321254730225e-01" nType="-99"/>
        </Node>
      </Node>
    </BinaryTree>
    <BinaryTree type="DecisionTree" boostWeight="1.0000000000000000e+00" itree="297">
      <Node pos="s" depth="0" NCoef="0" IVar="1" Cut="1.2492347717285156e+02" cType="1" res="5.4766077548265457e-02" rms="4.4573342800140381e-01" purity="5.0610488653182983e-01" nType="0">
        <Node pos="l" depth="1" NCoef="0" IVar="1" Cut="6.4903808593750000e+01" cType="1" res="-7.8216455876827240e-02" rms="4.1895222663879395e-01" purity="2.8003433346748352e-01" nType="0">
          <Node pos="l" depth="2" NCoef="0" IVar="-1" Cut="0.0000000000000000e+00" cType="1" res="-1.0703871957957745e-03" rms="3.4908699989318848e-01" purity="1.4929026365280151e-01" nType="-99"/>
          <Node pos="r" depth="2" NCoef="0" IVar="-1" Cut="0.0000000000000000e+00" cType="1" res="-3.0682578653795645e-05" rms="4.6103236079216003e-01" purity="3.9636361598968506e-01" nType="-99"/>
        </Node>
        <Node pos="r" depth="1" NCoef="0" IVar="2" Cut="6.1564371093750000e+04" cType="1" res="1.8105268478393555e-01" rms="4.3350589275360107e-01" purity="7.2079241275787354e-01" nType="0">
          <Node pos="l" depth="2" NCoef="0" IVar="-1" Cut="0.0000000000000000e+00" cType="1" res="2.3991396301425993e-04" rms="4.8046827316284180e-01" purity="5.8322590589523315e-01" nType="-99"/>
          <Node pos="r" depth="2" NCoef="0" IVar="-1" Cut="0.0000000000000000e+00" cType="1" res="5.3361972095444798e-04" rms="3.8225916028022766e-01" purity="8.1923437118530273e-01" nType="-99"/>
        </Node>
      </Node>
    </BinaryTree>
    <BinaryTree type="DecisionTree" boostWeight="1.0000000000000000e+00" itree="298">
      <Node pos="s" depth="0" NCoef="0" IVar="1" Cut="1.3836579895019531e+02" cType="1" res="4.4235669076442719e-02" rms="4.4588658213615417e-01" purity="4.9425277113914490e-01" nType="0">
        <Node pos="l" depth="1" NCoef="0" IVar="0" Cut="5.0801903009414673e-02" cType="1" res="-7.3578529059886932e-02" rms="4.2310136556625366e-01" purity="2.9437011480331421e-01" nType="0">
          <Node pos="l" depth="2" NCoef="0" IVar="-1" Cut="0.0000000000000000e+00" cType="1" res="-1.4010086306370795e-04" rms="4.4776165485382080e-01" purity="3.5391777753829956e-01" nType="-99"/>
          <Node pos="r" depth="2" NCoef="0" IVar="-1" Cut="0.0000000000000000e+00" cType="1" res="-2.5924707297235727e-03" rms="3.0607044696807861e-01" purity="1.1754053086042404e-01" nType="-99"/>
        </Node>
        <Node pos="r" depth="1" NCoef="0" IVar="1" Cut="2.5792282104492188e+02" cType="1" res="1.8566086888313293e-01" rms="4.3118450045585632e-01" purity="7.3419368267059326e-01" nType="0">
          <Node pos="l" depth="2" NCoef="0" IVar="-1" Cut="0.0000000000000000e+00" cType="1" res="3.7949427496641874e-04" rms="4.5477721095085144e-01" purity="6.8742561340332031e-01" nType="-99"/>
          <Node pos="r" depth="2" NCoef="0" IVar="-1" Cut="0.0000000000000000e+00" cType="1" res="4.7832858399488032e-04" rms="2.5872763991355896e-01" purity="9.2531251907348633e-01" nType="-99"/>
        </Node>
      </Node>
    </BinaryTree>
    <BinaryTree type="DecisionTree" boostWeight="1.0000000000000000e+00" itree="299">
      <Node pos="s" depth="0" NCoef="0" IVar="1" Cut="1.2372009277343750e+02" cType="1" res="5.2742280066013336e-02" rms="4.4584807753562927e-01" purity="5.0433570146560669e-01" nType="0">
        <Node pos="l" depth="1" NCoef="0" IVar="0" Cut="2.4367978796362877e-02" cType="1" res="-7.8835055232048035e-02" rms="4.1831895709037781e-01" purity="2.7815669775009155e-01" nType="0">
          <Node pos="l" depth="2" NCoef="0" IVar="-1" Cut="0.0000000000000000e+00" cType="1" res="2.9461951271514408e-05" rms="4.6276697516441345e-01" purity="3.9898273348808289e-01" nType="-99"/>
          <Node pos="r" depth="2" NCoef="0" IVar="-1" Cut="0.0000000000000000e+00" cType="1" res="-1.5521956374868751e-03" rms="3.6046072840690613e-01" purity="1.7804498970508575e-01" nType="-99"/>
        </Node>
        <Node pos="r" depth="1" NCoef="0" IVar="2" Cut="6.1755609375000000e+04" cType="1" res="1.7496465146541595e-01" rms="4.3572795391082764e-01" purity="7.1443372964859009e-01" nType="0">
          <Node pos="l" depth="2" NCoef="0" IVar="-1" Cut="0.0000000000000000e+00" cType="1" res="1.8951485981233418e-04" rms="4.8086872696876526e-01" purity="5.7698422670364380e-01" nType="-99"/>
          <Node pos="r" depth="2" NCoef="0" IVar="-1" Cut="0.0000000000000000e+00" cType="1" res="4.5822022366337478e-04" rms="3.8308617472648621e-01" purity="8.1785279512405396e-01" nType="-99"/>
        </Node>
      </Node>
    </BinaryTree>
    <BinaryTree type="DecisionTree" boostWeight="1.0000000000000000e+00" itree="300">
      <Node pos="s" depth="0" NCoef="0" IVar="1" Cut="1.0525318145751953e+02" cType="1" res="4.8396732658147812e-02" rms="4.4734638929367065e-01" purity="4.9693304300308228e-01" nType="0">
        <Node pos="l" depth="1" NCoef="0" IVar="0" Cut="1.2470351532101631e-02" cType="1" res="-9.2017188668251038e-02" rms="4.0745279192924500e-01" purity="2.5032648444175720e-01" nType="0">
          <Node pos="l" depth="2" NCoef="0" IVar="-1" Cut="0.0000000000000000e+00" cType="1" res="8.1845202657859772e-05" rms="4.7021898627281189e-01" purity="4.0664622187614441e-01" nType="-99"/>
          <Node pos="r" depth="2" NCoef="0" IVar="-1" Cut="0.0000000000000000e+00" cType="1" res="-1.2637019390240312e-03" rms="3.6673626303672791e-01" purity="1.8848292529582977e-01" nType="-99"/>
        </Node>
        <Node pos="r" depth="1" NCoef="0" IVar="0" Cut="3.8120627403259277e-02" cType="1" res="1.4931836724281311e-01" rms="4.4751840829849243e-01" purity="6.7417997121810913e-01" nType="0">
          <Node pos="l" depth="2" NCoef="0" IVar="-1" Cut="0.0000000000000000e+00" cType="1" res="5.4438592633232474e-04" rms="3.9748492836952209e-01" purity="7.8952127695083618e-01" nType="-99"/>
          <Node pos="r" depth="2" NCoef="0" IVar="-1" Cut="0.0000000000000000e+00" cType="1" res="2.3012628662399948e-04" rms="4.6453616023063660e-01" purity="5.9778648614883423e-01" nType="-99"/>
        </Node>
      </Node>
    </BinaryTree>
    <BinaryTree type="DecisionTree" boostWeight="1.0000000000000000e+00" itree="301">
      <Node pos="s" depth="0" NCoef="0" IVar="1" Cut="1.5836036682128906e+02" cType="1" res="4.6174008399248123e-02" rms="4.4488951563835144e-01" purity="4.9739038944244385e-01" nType="0">
        <Node pos="l" depth="1" NCoef="0" IVar="1" Cut="6.7179168701171875e+01" cType="1" res="-5.6059125810861588e-02" rms="4.3414866924285889e-01" purity="3.3088895678520203e-01" nType="0">
          <Node pos="l" depth="2" NCoef="0" IVar="-1" Cut="0.0000000000000000e+00" cType="1" res="-1.8738395301625133e-03" rms="3.4427538514137268e-01" purity="1.4156451821327209e-01" nType="-99"/>
          <Node pos="r" depth="2" NCoef="0" IVar="-1" Cut="0.0000000000000000e+00" cType="1" res="4.4127489672973752e-05" rms="4.6926957368850708e-01" purity="4.4888010621070862e-01" nType="-99"/>
        </Node>
        <Node pos="r" depth="1" NCoef="0" IVar="1" Cut="2.4954237365722656e+02" cType="1" res="2.1713151037693024e-01" rms="4.0867009758949280e-01" purity="7.7581936120986938e-01" nType="0">
          <Node pos="l" depth="2" NCoef="0" IVar="-1" Cut="0.0000000000000000e+00" cType="1" res="4.2131039663217962e-04" rms="4.4195011258125305e-01" purity="7.2026389837265015e-01" nType="-99"/>
          <Node pos="r" depth="2" NCoef="0" IVar="-1" Cut="0.0000000000000000e+00" cType="1" res="6.7094370024278760e-04" rms="2.6711842417716980e-01" purity="9.1984754800796509e-01" nType="-99"/>
        </Node>
      </Node>
    </BinaryTree>
    <BinaryTree type="DecisionTree" boostWeight="1.0000000000000000e+00" itree="302">
      <Node pos="s" depth="0" NCoef="0" IVar="2" Cut="4.4136394531250000e+04" cType="1" res="5.8602165430784225e-02" rms="4.4475555419921875e-01" purity="5.1034253835678101e-01" nType="0">
        <Node pos="l" depth="1" NCoef="0" IVar="0" Cut="3.6266315728425980e-02" cType="1" res="-4.4618472456932068e-02" rms="4.3617540597915649e-01" purity="3.3501699566841125e-01" nType="0">
          <Node pos="l" depth="2" NCoef="0" IVar="-1" Cut="0.0000000000000000e+00" cType="1" res="5.4366468248190358e-05" rms="4.6427476406097412e-01" purity="4.3531075119972229e-01" nType="-99"/>
          <Node pos="r" depth="2" NCoef="0" IVar="-1" Cut="0.0000000000000000e+00" cType="1" res="-1.4669123338535428e-03" rms="3.6365020275115967e-01" purity="1.7753751575946808e-01" nType="-99"/>
        </Node>
        <Node pos="r" depth="1" NCoef="0" IVar="1" Cut="2.3787171936035156e+02" cType="1" res="2.0798915624618530e-01" rms="4.1353398561477661e-01" purity="7.6408404111862183e-01" nType="0">
          <Node pos="l" depth="2" NCoef="0" IVar="-1" Cut="0.0000000000000000e+00" cType="1" res="3.8074862095527351e-04" rms="4.4707438349723816e-01" purity="7.0292305946350098e-01" nType="-99"/>
          <Node pos="r" depth="2" NCoef="0" IVar="-1" Cut="0.0000000000000000e+00" cType="1" res="4.8579779104329646e-04" rms="2.5125074386596680e-01" purity="9.3141537904739380e-01" nType="-99"/>
        </Node>
      </Node>
    </BinaryTree>
    <BinaryTree type="DecisionTree" boostWeight="1.0000000000000000e+00" itree="303">
      <Node pos="s" depth="0" NCoef="0" IVar="2" Cut="3.6123000000000000e+04" cType="1" res="4.2208071798086166e-02" rms="4.4533088803291321e-01" purity="4.9162882566452026e-01" nType="0">
        <Node pos="l" depth="1" NCoef="0" IVar="0" Cut="3.6551970988512039e-02" cType="1" res="-7.7115781605243683e-02" rms="4.2419251799583435e-01" purity="2.9225420951843262e-01" nType="0">
          <Node pos="l" depth="2" NCoef="0" IVar="-1" Cut="0.0000000000000000e+00" cType="1" res="-5.3627154557034373e-05" rms="4.6117824316024780e-01" purity="3.8931173086166382e-01" nType="-99"/>
          <Node pos="r" depth="2" NCoef="0" IVar="-1" Cut="0.0000000000000000e+00" cType="1" res="-3.4016841091215611e-03" rms="3.1485968828201294e-01" purity="1.1302924156188965e-01" nType="-99"/>
        </Node>
        <Node pos="r" depth="1" NCoef="0" IVar="0" Cut="4.2839553207159042e-02" cType="1" res="1.8033458292484283e-01" rms="4.2899358272552490e-01" purity="7.2242021560668945e-01" nType="0">
          <Node pos="l" depth="2" NCoef="0" IVar="-1" Cut="0.0000000000000000e+00" cType="1" res="6.7591457627713680e-04" rms="3.3753535151481628e-01" purity="8.6339730024337769e-01" nType="-99"/>
          <Node pos="r" depth="2" NCoef="0" IVar="-1" Cut="0.0000000000000000e+00" cType="1" res="2.7421163395047188e-04" rms="4.5815744996070862e-01" purity="6.3979107141494751e-01" nType="-99"/>
        </Node>
      </Node>
    </BinaryTree>
    <BinaryTree type="DecisionTree" boostWeight="1.0000000000000000e+00" itree="304">
      <Node pos="s" depth="0" NCoef="0" IVar="2" Cut="4.4136394531250000e+04" cType="1" res="4.1018024086952209e-02" rms="4.4447392225265503e-01" purity="4.8980984091758728e-01" nType="0">
        <Node pos="l" depth="1" NCoef="0" IVar="3" Cut="1.1929780006408691e+01" cType="1" res="-7.1714021265506744e-02" rms="4.2821979522705078e-01" purity="3.0195876955986023e-01" nType="0">
          <Node pos="l" depth="2" NCoef="0" IVar="-1" Cut="0.0000000000000000e+00" cType="1" res="-6.4584932988509536e-04" rms="4.0648904442787170e-01" purity="2.4877485632896423e-01" nType="-99"/>
          <Node pos="r" depth="2" NCoef="0" IVar="-1" Cut="0.0000000000000000e+00" cType="1" res="1.0114958422491327e-04" rms="4.6304008364677429e-01" purity="4.4184851646423340e-01" nType="-99"/>
        </Node>
        <Node pos="r" depth="1" NCoef="0" IVar="0" Cut="4.2612448334693909e-02" cType="1" res="2.0216017961502075e-01" rms="4.1677403450012207e-01" purity="7.5832915306091309e-01" nType="0">
          <Node pos="l" depth="2" NCoef="0" IVar="-1" Cut="0.0000000000000000e+00" cType="1" res="6.3859560759738088e-04" rms="3.1528988480567932e-01" purity="8.8621586561203003e-01" nType="-99"/>
          <Node pos="r" depth="2" NCoef="0" IVar="-1" Cut="0.0000000000000000e+00" cType="1" res="3.5074481274932623e-04" rms="4.5165255665779114e-01" purity="6.8250519037246704e-01" nType="-99"/>
        </Node>
      </Node>
    </BinaryTree>
    <BinaryTree type="DecisionTree" boostWeight="1.0000000000000000e+00" itree="305">
      <Node pos="s" depth="0" NCoef="0" IVar="2" Cut="6.1173269531250000e+04" cType="1" res="3.9029527455568314e-02" rms="4.4589748978614807e-01" purity="4.8746064305305481e-01" nType="0">
        <Node pos="l" depth="1" NCoef="0" IVar="0" Cut="3.8101427257061005e-02" cType="1" res="-5.0393342971801758e-02" rms="4.4087350368499756e-01" purity="3.4325540065765381e-01" nType="0">
          <Node pos="l" depth="2" NCoef="0" IVar="-1" Cut="0.0000000000000000e+00" cType="1" res="5.5867665651021525e-05" rms="4.6329700946807861e-01" purity="4.3380600214004517e-01" nType="-99"/>
          <Node pos="r" depth="2" NCoef="0" IVar="-1" Cut="0.0000000000000000e+00" cType="1" res="-1.3739316491410136e-03" rms="3.8728192448616028e-01" purity="2.1379591524600983e-01" nType="-99"/>
        </Node>
        <Node pos="r" depth="1" NCoef="0" IVar="1" Cut="2.1997988891601562e+02" cType="1" res="2.3991106450557709e-01" rms="3.8796374201774597e-01" purity="8.1140673160552979e-01" nType="0">
          <Node pos="l" depth="2" NCoef="0" IVar="-1" Cut="0.0000000000000000e+00" cType="1" res="4.5634590787813067e-04" rms="4.2778280377388000e-01" purity="7.5421208143234253e-01" nType="-99"/>
          <Node pos="r" depth="2" NCoef="0" IVar="-1" Cut="0.0000000000000000e+00" cType="1" res="5.9799145674332976e-04" rms="2.8310808539390564e-01" purity="9.1163510084152222e-01" nType="-99"/>
        </Node>
      </Node>
    </BinaryTree>
    <BinaryTree type="DecisionTree" boostWeight="1.0000000000000000e+00" itree="306">
      <Node pos="s" depth="0" NCoef="0" IVar="2" Cut="5.3398167968750000e+04" cType="1" res="6.5112225711345673e-02" rms="4.4399502873420715e-01" purity="5.1724272966384888e-01" nType="0">
        <Node pos="l" depth="1" NCoef="0" IVar="1" Cut="3.5509387969970703e+01" cType="1" res="-3.3721253275871277e-02" rms="4.4193577766418457e-01" purity="3.5343500971794128e-01" nType="0">
          <Node pos="l" depth="2" NCoef="0" IVar="-1" Cut="0.0000000000000000e+00" cType="1" res="-3.2406928949058056e-03" rms="3.1195607781410217e-01" purity="1.1149862408638000e-01" nType="-99"/>
          <Node pos="r" depth="2" NCoef="0" IVar="-1" Cut="0.0000000000000000e+00" cType="1" res="3.9119204302551225e-05" rms="4.6060720086097717e-01" purity="4.1817677021026611e-01" nType="-99"/>
        </Node>
        <Node pos="r" depth="1" NCoef="0" IVar="0" Cut="4.4180817902088165e-02" cType="1" res="2.3836277425289154e-01" rms="3.9139601588249207e-01" purity="8.0439007282257080e-01" nType="0">
          <Node pos="l" depth="2" NCoef="0" IVar="-1" Cut="0.0000000000000000e+00" cType="1" res="5.8732624165713787e-04" rms="2.9960450530052185e-01" purity="8.9925223588943481e-01" nType="-99"/>
          <Node pos="r" depth="2" NCoef="0" IVar="-1" Cut="0.0000000000000000e+00" cType="1" res="3.7553074071183801e-04" rms="4.3060111999511719e-01" purity="7.4312663078308105e-01" nType="-99"/>
        </Node>
      </Node>
    </BinaryTree>
    <BinaryTree type="DecisionTree" boostWeight="1.0000000000000000e+00" itree="307">
      <Node pos="s" depth="0" NCoef="0" IVar="2" Cut="5.4184500000000000e+04" cType="1" res="5.5777691304683685e-02" rms="4.4486960768699646e-01" purity="5.0750845670700073e-01" nType="0">
        <Node pos="l" depth="1" NCoef="0" IVar="0" Cut="2.5133045390248299e-02" cType="1" res="-3.9422560483217239e-02" rms="4.4134864211082458e-01" purity="3.4841814637184143e-01" nType="0">
          <Node pos="l" depth="2" NCoef="0" IVar="-1" Cut="0.0000000000000000e+00" cType="1" res="1.3881217455491424e-04" rms="4.6269255876541138e-01" purity="4.7012862563133240e-01" nType="-99"/>
          <Node pos="r" depth="2" NCoef="0" IVar="-1" Cut="0.0000000000000000e+00" cType="1" res="-8.0672971671447158e-04" rms="4.1000303626060486e-01" purity="2.5855267047882080e-01" nType="-99"/>
        </Node>
        <Node pos="r" depth="1" NCoef="0" IVar="1" Cut="2.4236637878417969e+02" cType="1" res="2.2934870421886444e-01" rms="3.9616557955741882e-01" purity="7.9756498336791992e-01" nType="0">
          <Node pos="l" depth="2" NCoef="0" IVar="-1" Cut="0.0000000000000000e+00" cType="1" res="3.7202358362264931e-04" rms="4.2964953184127808e-01" purity="7.4694806337356567e-01" nType="-99"/>
          <Node pos="r" depth="2" NCoef="0" IVar="-1" Cut="0.0000000000000000e+00" cType="1" res="6.2159867957234383e-04" rms="2.5140690803527832e-01" purity="9.3179076910018921e-01" nType="-99"/>
        </Node>
      </Node>
    </BinaryTree>
    <BinaryTree type="DecisionTree" boostWeight="1.0000000000000000e+00" itree="308">
      <Node pos="s" depth="0" NCoef="0" IVar="2" Cut="5.4184500000000000e+04" cType="1" res="5.5867359042167664e-02" rms="4.4358199834823608e-01" purity="5.0709784030914307e-01" nType="0">
        <Node pos="l" depth="1" NCoef="0" IVar="1" Cut="7.8404129028320312e+01" cType="1" res="-3.9660360664129257e-02" rms="4.3979719281196594e-01" purity="3.4733998775482178e-01" nType="0">
          <Node pos="l" depth="2" NCoef="0" IVar="-1" Cut="0.0000000000000000e+00" cType="1" res="-1.2435170356184244e-03" rms="3.6943399906158447e-01" purity="1.7828354239463806e-01" nType="-99"/>
          <Node pos="r" depth="2" NCoef="0" IVar="-1" Cut="0.0000000000000000e+00" cType="1" res="1.2249869178049266e-04" rms="4.7503620386123657e-01" purity="4.8146051168441772e-01" nType="-99"/>
        </Node>
        <Node pos="r" depth="1" NCoef="0" IVar="1" Cut="2.2627468872070312e+02" cType="1" res="2.3064427077770233e-01" rms="3.9451119303703308e-01" purity="7.9938977956771851e-01" nType="0">
          <Node pos="l" depth="2" NCoef="0" IVar="-1" Cut="0.0000000000000000e+00" cType="1" res="3.5014728200621903e-04" rms="4.3391466140747070e-01" purity="7.3823082447052002e-01" nType="-99"/>
          <Node pos="r" depth="2" NCoef="0" IVar="-1" Cut="0.0000000000000000e+00" cType="1" res="4.1618288378231227e-04" rms="2.6852092146873474e-01" purity="9.2115563154220581e-01" nType="-99"/>
        </Node>
      </Node>
    </BinaryTree>
    <BinaryTree type="DecisionTree" boostWeight="1.0000000000000000e+00" itree="309">
      <Node pos="s" depth="0" NCoef="0" IVar="2" Cut="3.6123000000000000e+04" cType="1" res="5.4077133536338806e-02" rms="4.4364288449287415e-01" purity="5.0510317087173462e-01" nType="0">
        <Node pos="l" depth="1" NCoef="0" IVar="0" Cut="2.5085821747779846e-02" cType="1" res="-6.6094212234020233e-02" rms="4.2445781826972961e-01" purity="3.0491274595260620e-01" nType="0">
          <Node pos="l" depth="2" NCoef="0" IVar="-1" Cut="0.0000000000000000e+00" cType="1" res="1.1943106801481918e-04" rms="4.6164053678512573e-01" purity="4.3640682101249695e-01" nType="-99"/>
          <Node pos="r" depth="2" NCoef="0" IVar="-1" Cut="0.0000000000000000e+00" cType="1" res="-1.5385964652523398e-03" rms="3.6464735865592957e-01" purity="1.8425786495208740e-01" nType="-99"/>
        </Node>
        <Node pos="r" depth="1" NCoef="0" IVar="0" Cut="3.8859125226736069e-02" cType="1" res="1.9030894339084625e-01" rms="4.2516955733299255e-01" purity="7.3204833269119263e-01" nType="0">
          <Node pos="l" depth="2" NCoef="0" IVar="-1" Cut="0.0000000000000000e+00" cType="1" res="6.1750516761094332e-04" rms="3.2109987735748291e-01" purity="8.7914270162582397e-01" nType="-99"/>
          <Node pos="r" depth="2" NCoef="0" IVar="-1" Cut="0.0000000000000000e+00" cType="1" res="2.9465864645317197e-04" rms="4.5160007476806641e-01" purity="6.6811448335647583e-01" nType="-99"/>
        </Node>
      </Node>
    </BinaryTree>
    <BinaryTree type="DecisionTree" boostWeight="1.0000000000000000e+00" itree="310">
      <Node pos="s" depth="0" NCoef="0" IVar="2" Cut="5.3826414062500000e+04" cType="1" res="5.2906204015016556e-02" rms="4.4437420368194580e-01" purity="5.0285375118255615e-01" nType="0">
        <Node pos="l" depth="1" NCoef="0" IVar="0" Cut="3.7463087588548660e-02" cType="1" res="-3.9192065596580505e-02" rms="4.4031721353530884e-01" purity="3.4690046310424805e-01" nType="0">
          <Node pos="l" depth="2" NCoef="0" IVar="-1" Cut="0.0000000000000000e+00" cType="1" res="7.4185685662087053e-05" rms="4.6543300151824951e-01" purity="4.4188603758811951e-01" nType="-99"/>
          <Node pos="r" depth="2" NCoef="0" IVar="-1" Cut="0.0000000000000000e+00" cType="1" res="-1.4283818891271949e-03" rms="3.7571433186531067e-01" purity="2.0040392875671387e-01" nType="-99"/>
        </Node>
        <Node pos="r" depth="1" NCoef="0" IVar="1" Cut="2.3342872619628906e+02" cType="1" res="2.2383993864059448e-01" rms="3.9895975589752197e-01" purity="7.9230183362960815e-01" nType="0">
          <Node pos="l" depth="2" NCoef="0" IVar="-1" Cut="0.0000000000000000e+00" cType="1" res="3.7476097350008786e-04" rms="4.3791401386260986e-01" purity="7.2959876060485840e-01" nType="-99"/>
          <Node pos="r" depth="2" NCoef="0" IVar="-1" Cut="0.0000000000000000e+00" cType="1" res="4.5192713150754571e-04" rms="2.5393843650817871e-01" purity="9.3019253015518188e-01" nType="-99"/>
        </Node>
      </Node>
    </BinaryTree>
    <BinaryTree type="DecisionTree" boostWeight="1.0000000000000000e+00" itree="311">
      <Node pos="s" depth="0" NCoef="0" IVar="1" Cut="1.3710118103027344e+02" cType="1" res="5.0001189112663269e-02" rms="4.4397333264350891e-01" purity="5.0096404552459717e-01" nType="0">
        <Node pos="l" depth="1" NCoef="0" IVar="1" Cut="4.4895675659179688e+01" cType="1" res="-7.5129695236682892e-02" rms="4.2146798968315125e-01" purity="2.8630247712135315e-01" nType="0">
          <Node pos="l" depth="2" NCoef="0" IVar="-1" Cut="0.0000000000000000e+00" cType="1" res="-2.0375342573970556e-03" rms="3.3757582306861877e-01" purity="1.3447518646717072e-01" nType="-99"/>
          <Node pos="r" depth="2" NCoef="0" IVar="-1" Cut="0.0000000000000000e+00" cType="1" res="-1.2697992497123778e-04" rms="4.4885325431823730e-01" purity="3.5930600762367249e-01" nType="-99"/>
        </Node>
        <Node pos="r" depth="1" NCoef="0" IVar="0" Cut="2.8488764539361000e-02" cType="1" res="1.8965609371662140e-01" rms="4.2646393179893494e-01" purity="7.4054151773452759e-01" nType="0">
          <Node pos="l" depth="2" NCoef="0" IVar="-1" Cut="0.0000000000000000e+00" cType="1" res="5.2896322449669242e-04" rms="3.2727497816085815e-01" purity="8.7156969308853149e-01" nType="-99"/>
          <Node pos="r" depth="2" NCoef="0" IVar="-1" Cut="0.0000000000000000e+00" cType="1" res="3.3861142583191395e-04" rms="4.4500783085823059e-01" purity="7.0033884048461914e-01" nType="-99"/>
        </Node>
      </Node>
    </BinaryTree>
    <BinaryTree type="DecisionTree" boostWeight="1.0000000000000000e+00" itree="312">
      <Node pos="s" depth="0" NCoef="0" IVar="3" Cut="1.4930736541748047e+01" cType="1" res="5.6907694786787033e-02" rms="4.4536903500556946e-01" purity="5.0595307350158691e-01" nType="0">
        <Node pos="l" depth="1" NCoef="0" IVar="0" Cut="2.4367978796362877e-02" cType="1" res="-6.8580038845539093e-02" rms="4.2630550265312195e-01" purity="2.9732027649879456e-01" nType="0">
          <Node pos="l" depth="2" NCoef="0" IVar="-1" Cut="0.0000000000000000e+00" cType="1" res="5.4272863053483889e-05" rms="4.6118259429931641e-01" purity="4.1063308715820312e-01" nType="-99"/>
          <Node pos="r" depth="2" NCoef="0" IVar="-1" Cut="0.0000000000000000e+00" cType="1" res="-1.1467795120552182e-03" rms="3.7570989131927490e-01" purity="1.9229680299758911e-01" nType="-99"/>
        </Node>
        <Node pos="r" depth="1" NCoef="0" IVar="0" Cut="4.1312772780656815e-02" cType="1" res="1.7484557628631592e-01" rms="4.3042063713073730e-01" purity="7.0203363895416260e-01" nType="0">
          <Node pos="l" depth="2" NCoef="0" IVar="-1" Cut="0.0000000000000000e+00" cType="1" res="5.7051616022363305e-04" rms="3.4108459949493408e-01" purity="8.5810905694961548e-01" nType="-99"/>
          <Node pos="r" depth="2" NCoef="0" IVar="-1" Cut="0.0000000000000000e+00" cType="1" res="2.5254310457967222e-04" rms="4.5473068952560425e-01" purity="6.1768686771392822e-01" nType="-99"/>
        </Node>
      </Node>
    </BinaryTree>
    <BinaryTree type="DecisionTree" boostWeight="1.0000000000000000e+00" itree="313">
      <Node pos="s" depth="0" NCoef="0" IVar="2" Cut="6.1173269531250000e+04" cType="1" res="4.5801106840372086e-02" rms="4.4463288784027100e-01" purity="4.9349990487098694e-01" nType="0">
        <Node pos="l" depth="1" NCoef="0" IVar="0" Cut="3.7411056458950043e-02" cType="1" res="-3.3788859844207764e-02" rms="4.4198212027549744e-01" purity="3.6085763573646545e-01" nType="0">
          <Node pos="l" depth="2" NCoef="0" IVar="-1" Cut="0.0000000000000000e+00" cType="1" res="1.0471627319930121e-04" rms="4.6425744891166687e-01" purity="4.5906218886375427e-01" nType="-99"/>
          <Node pos="r" depth="2" NCoef="0" IVar="-1" Cut="0.0000000000000000e+00" cType="1" res="-1.2230097781866789e-03" rms="3.8422468304634094e-01" purity="2.2113347053527832e-01" nType="-99"/>
        </Node>
        <Node pos="r" depth="1" NCoef="0" IVar="1" Cut="2.4399609375000000e+02" cType="1" res="2.3411369323730469e-01" rms="3.9090877771377563e-01" purity="8.0733603239059448e-01" nType="0">
          <Node pos="l" depth="2" NCoef="0" IVar="-1" Cut="0.0000000000000000e+00" cType="1" res="3.5706858034245670e-04" rms="4.2276993393898010e-01" purity="7.6203286647796631e-01" nType="-99"/>
          <Node pos="r" depth="2" NCoef="0" IVar="-1" Cut="0.0000000000000000e+00" cType="1" res="5.4327939869835973e-04" rms="2.6049074530601501e-01" purity="9.2656719684600830e-01" nType="-99"/>
        </Node>
      </Node>
    </BinaryTree>
    <BinaryTree type="DecisionTree" boostWeight="1.0000000000000000e+00" itree="314">
      <Node pos="s" depth="0" NCoef="0" IVar="1" Cut="1.3922813415527344e+02" cType="1" res="6.4035765826702118e-02" rms="4.4383355975151062e-01" purity="5.1463663578033447e-01" nType="0">
        <Node pos="l" depth="1" NCoef="0" IVar="1" Cut="3.2230094909667969e+01" cType="1" res="-5.0166316330432892e-02" rms="4.3086567521095276e-01" purity="3.1437835097312927e-01" nType="0">
          <Node pos="l" depth="2" NCoef="0" IVar="-1" Cut="0.0000000000000000e+00" cType="1" res="-3.7856230046600103e-03" rms="2.9886835813522339e-01" purity="9.7289755940437317e-02" nType="-99"/>
          <Node pos="r" depth="2" NCoef="0" IVar="-1" Cut="0.0000000000000000e+00" cType="1" res="-8.9165005192626268e-06" rms="4.5132672786712646e-01" purity="3.7736490368843079e-01" nType="-99"/>
        </Node>
        <Node pos="r" depth="1" NCoef="0" IVar="1" Cut="2.5960073852539062e+02" cType="1" res="1.9954591989517212e-01" rms="4.2024886608123779e-01" purity="7.5225967168807983e-01" nType="0">
          <Node pos="l" depth="2" NCoef="0" IVar="-1" Cut="0.0000000000000000e+00" cType="1" res="3.4820192377083004e-04" rms="4.4520440697669983e-01" purity="7.0703929662704468e-01" nType="-99"/>
          <Node pos="r" depth="2" NCoef="0" IVar="-1" Cut="0.0000000000000000e+00" cType="1" res="5.6942977244034410e-04" rms="2.4760450422763824e-01" purity="9.3210124969482422e-01" nType="-99"/>
        </Node>
      </Node>
    </BinaryTree>
    <BinaryTree type="DecisionTree" boostWeight="1.0000000000000000e+00" itree="315">
      <Node pos="s" depth="0" NCoef="0" IVar="1" Cut="1.3930560302734375e+02" cType="1" res="5.8404903858900070e-02" rms="4.4476589560508728e-01" purity="5.0786346197128296e-01" nType="0">
        <Node pos="l" depth="1" NCoef="0" IVar="0" Cut="2.5745216757059097e-02" cType="1" res="-5.4084520787000656e-02" rms="4.3045321106910706e-01" purity="3.0883425474166870e-01" nType="0">
          <Node pos="l" depth="2" NCoef="0" IVar="-1" Cut="0.0000000000000000e+00" cType="1" res="7.6219279435463250e-05" rms="4.6485057473182678e-01" purity="4.2590054869651794e-01" nType="-99"/>
          <Node pos="r" depth="2" NCoef="0" IVar="-1" Cut="0.0000000000000000e+00" cType="1" res="-1.0615929495543242e-03" rms="3.8504776358604431e-01" purity="2.1264934539794922e-01" nType="-99"/>
        </Node>
        <Node pos="r" depth="1" NCoef="0" IVar="1" Cut="2.5966711425781250e+02" cType="1" res="1.9281259179115295e-01" rms="4.2379161715507507e-01" purity="7.4567282199859619e-01" nType="0">
          <Node pos="l" depth="2" NCoef="0" IVar="-1" Cut="0.0000000000000000e+00" cType="1" res="3.4039001911878586e-04" rms="4.5029377937316895e-01" purity="6.9548559188842773e-01" nType="-99"/>
          <Node pos="r" depth="2" NCoef="0" IVar="-1" Cut="0.0000000000000000e+00" cType="1" res="5.1811215234920382e-04" rms="2.4421963095664978e-01" purity="9.3389064073562622e-01" nType="-99"/>
        </Node>
      </Node>
    </BinaryTree>
    <BinaryTree type="DecisionTree" boostWeight="1.0000000000000000e+00" itree="316">
      <Node pos="s" depth="0" NCoef="0" IVar="2" Cut="4.4136394531250000e+04" cType="1" res="5.5690791457891464e-02" rms="4.4384345412254333e-01" purity="5.0561445951461792e-01" nType="0">
        <Node pos="l" depth="1" NCoef="0" IVar="0" Cut="5.0801903009414673e-02" cType="1" res="-4.8650626093149185e-02" rms="4.3455040454864502e-01" purity="3.2521015405654907e-01" nType="0">
          <Node pos="l" depth="2" NCoef="0" IVar="-1" Cut="0.0000000000000000e+00" cType="1" res="-2.4250515707535669e-05" rms="4.5637521147727966e-01" purity="3.8553461432456970e-01" nType="-99"/>
          <Node pos="r" depth="2" NCoef="0" IVar="-1" Cut="0.0000000000000000e+00" cType="1" res="-2.5456182193011045e-03" rms="3.1541442871093750e-01" purity="1.2587702274322510e-01" nType="-99"/>
        </Node>
        <Node pos="r" depth="1" NCoef="0" IVar="0" Cut="4.2839553207159042e-02" cType="1" res="2.0461070537567139e-01" rms="4.1343900561332703e-01" purity="7.6309418678283691e-01" nType="0">
          <Node pos="l" depth="2" NCoef="0" IVar="-1" Cut="0.0000000000000000e+00" cType="1" res="5.3975824266672134e-04" rms="3.0694547295570374e-01" purity="8.9244014024734497e-01" nType="-99"/>
          <Node pos="r" depth="2" NCoef="0" IVar="-1" Cut="0.0000000000000000e+00" cType="1" res="3.1559870694763958e-04" rms="4.5166295766830444e-01" purity="6.8195557594299316e-01" nType="-99"/>
        </Node>
      </Node>
    </BinaryTree>
    <BinaryTree type="DecisionTree" boostWeight="1.0000000000000000e+00" itree="317">
      <Node pos="s" depth="0" NCoef="0" IVar="2" Cut="5.0693644531250000e+04" cType="1" res="3.8998372852802277e-02" rms="4.4646972417831421e-01" purity="4.8426494002342224e-01" nType="0">
        <Node pos="l" depth="1" NCoef="0" IVar="0" Cut="2.5133045390248299e-02" cType="1" res="-4.6663723886013031e-02" rms="4.3816760182380676e-01" purity="3.3326679468154907e-01" nType="0">
          <Node pos="l" depth="2" NCoef="0" IVar="-1" Cut="0.0000000000000000e+00" cType="1" res="8.8872460764832795e-05" rms="4.6277666091918945e-01" purity="4.4232553243637085e-01" nType="-99"/>
          <Node pos="r" depth="2" NCoef="0" IVar="-1" Cut="0.0000000000000000e+00" cType="1" res="-6.7047454649582505e-04" rms="4.0859848260879517e-01" purity="2.5413441658020020e-01" nType="-99"/>
        </Node>
        <Node pos="r" depth="1" NCoef="0" IVar="0" Cut="4.2280074208974838e-02" cType="1" res="1.9636538624763489e-01" rms="4.1783076524734497e-01" purity="7.6165872812271118e-01" nType="0">
          <Node pos="l" depth="2" NCoef="0" IVar="-1" Cut="0.0000000000000000e+00" cType="1" res="5.5668188724666834e-04" rms="3.2327002286911011e-01" purity="8.7915533781051636e-01" nType="-99"/>
          <Node pos="r" depth="2" NCoef="0" IVar="-1" Cut="0.0000000000000000e+00" cType="1" res="3.6736117908731103e-04" rms="4.4896617531776428e-01" purity="7.0048624277114868e-01" nType="-99"/>
        </Node>
      </Node>
    </BinaryTree>
    <BinaryTree type="DecisionTree" boostWeight="1.0000000000000000e+00" itree="318">
      <Node pos="s" depth="0" NCoef="0" IVar="2" Cut="3.5884277343750000e+04" cType="1" res="5.0031069666147232e-02" rms="4.4189831614494324e-01" purity="5.0090402364730835e-01" nType="0">
        <Node pos="l" depth="1" NCoef="0" IVar="1" Cut="7.8204040527343750e+01" cType="1" res="-7.8570678830146790e-02" rms="4.1813296079635620e-01" purity="2.8896227478981018e-01" nType="0">
          <Node pos="l" depth="2" NCoef="0" IVar="-1" Cut="0.0000000000000000e+00" cType="1" res="-2.0472165197134018e-03" rms="3.4712240099906921e-01" purity="1.5607772767543793e-01" nType="-99"/>
          <Node pos="r" depth="2" NCoef="0" IVar="-1" Cut="0.0000000000000000e+00" cType="1" res="2.6220313884550706e-05" rms="4.7119769454002380e-01" purity="4.3792951107025146e-01" nType="-99"/>
        </Node>
        <Node pos="r" depth="1" NCoef="0" IVar="1" Cut="2.4308772277832031e+02" cType="1" res="1.9054281711578369e-01" rms="4.2401924729347229e-01" purity="7.3247396945953369e-01" nType="0">
          <Node pos="l" depth="2" NCoef="0" IVar="-1" Cut="0.0000000000000000e+00" cType="1" res="3.6467684549279511e-04" rms="4.5176044106483459e-01" purity="6.7512571811676025e-01" nType="-99"/>
          <Node pos="r" depth="2" NCoef="0" IVar="-1" Cut="0.0000000000000000e+00" cType="1" res="6.3950556796044111e-04" rms="2.5457873940467834e-01" purity="9.2860740423202515e-01" nType="-99"/>
        </Node>
      </Node>
    </BinaryTree>
    <BinaryTree type="DecisionTree" boostWeight="1.0000000000000000e+00" itree="319">
      <Node pos="s" depth="0" NCoef="0" IVar="1" Cut="1.3158508300781250e+02" cType="1" res="5.3272511810064316e-02" rms="4.4350382685661316e-01" purity="5.0235140323638916e-01" nType="0">
        <Node pos="l" depth="1" NCoef="0" IVar="0" Cut="3.5111393779516220e-02" cType="1" res="-6.2087900936603546e-02" rms="4.2187473177909851e-01" purity="2.9621842503547668e-01" nType="0">
          <Node pos="l" depth="2" NCoef="0" IVar="-1" Cut="0.0000000000000000e+00" cType="1" res="3.0192433769116178e-05" rms="4.5902886986732483e-01" purity="4.0285608172416687e-01" nType="-99"/>
          <Node pos="r" depth="2" NCoef="0" IVar="-1" Cut="0.0000000000000000e+00" cType="1" res="-2.5549631100147963e-03" rms="3.3039942383766174e-01" purity="1.3537076115608215e-01" nType="-99"/>
        </Node>
        <Node pos="r" depth="1" NCoef="0" IVar="2" Cut="7.1768554687500000e+04" cType="1" res="1.7796099185943604e-01" rms="4.3242937326431274e-01" purity="7.2515237331390381e-01" nType="0">
          <Node pos="l" depth="2" NCoef="0" IVar="-1" Cut="0.0000000000000000e+00" cType="1" res="3.0104428878985345e-04" rms="4.7154238820075989e-01" purity="6.2857806682586670e-01" nType="-99"/>
          <Node pos="r" depth="2" NCoef="0" IVar="-1" Cut="0.0000000000000000e+00" cType="1" res="5.2495102863758802e-04" rms="3.5509431362152100e-01" purity="8.5014224052429199e-01" nType="-99"/>
        </Node>
      </Node>
    </BinaryTree>
    <BinaryTree type="DecisionTree" boostWeight="1.0000000000000000e+00" itree="320">
      <Node pos="s" depth="0" NCoef="0" IVar="2" Cut="6.1173269531250000e+04" cType="1" res="5.3971830755472183e-02" rms="4.4255506992340088e-01" purity="5.0414603948593140e-01" nType="0">
        <Node pos="l" depth="1" NCoef="0" IVar="0" Cut="3.8101427257061005e-02" cType="1" res="-2.8036855161190033e-02" rms="4.4135230779647827e-01" purity="3.6764374375343323e-01" nType="0">
          <Node pos="l" depth="2" NCoef="0" IVar="-1" Cut="0.0000000000000000e+00" cType="1" res="1.3425173528958112e-04" rms="4.6179193258285522e-01" purity="4.6414840221405029e-01" nType="-99"/>
          <Node pos="r" depth="2" NCoef="0" IVar="-1" Cut="0.0000000000000000e+00" cType="1" res="-1.0526048718020320e-03" rms="3.8413798809051514e-01" purity="2.2195734083652496e-01" nType="-99"/>
        </Node>
        <Node pos="r" depth="1" NCoef="0" IVar="1" Cut="2.0048472595214844e+02" cType="1" res="2.4096366763114929e-01" rms="3.8467940688133240e-01" purity="8.1539142131805420e-01" nType="0">
          <Node pos="l" depth="2" NCoef="0" IVar="-1" Cut="0.0000000000000000e+00" cType="1" res="4.2445631697773933e-04" rms="4.2957159876823425e-01" purity="7.5083845853805542e-01" nType="-99"/>
          <Node pos="r" depth="2" NCoef="0" IVar="-1" Cut="0.0000000000000000e+00" cType="1" res="4.6052213292568922e-04" rms="3.0200245976448059e-01" purity="8.9758139848709106e-01" nType="-99"/>
        </Node>
      </Node>
    </BinaryTree>
    <BinaryTree type="DecisionTree" boostWeight="1.0000000000000000e+00" itree="321">
      <Node pos="s" depth="0" NCoef="0" IVar="2" Cut="5.4184500000000000e+04" cType="1" res="5.1356963813304901e-02" rms="4.4286650419235229e-01" purity="5.0055748224258423e-01" nType="0">
        <Node pos="l" depth="1" NCoef="0" IVar="1" Cut="3.5473712921142578e+01" cType="1" res="-4.0405999869108200e-02" rms="4.3755614757537842e-01" purity="3.4439331293106079e-01" nType="0">
          <Node pos="l" depth="2" NCoef="0" IVar="-1" Cut="0.0000000000000000e+00" cType="1" res="-3.6484238225966692e-03" rms="3.0686917901039124e-01" purity="1.0587135702371597e-01" nType="-99"/>
          <Node pos="r" depth="2" NCoef="0" IVar="-1" Cut="0.0000000000000000e+00" cType="1" res="8.1653033703332767e-06" rms="4.5690578222274780e-01" purity="4.0804791450500488e-01" nType="-99"/>
        </Node>
        <Node pos="r" depth="1" NCoef="0" IVar="1" Cut="2.1049212646484375e+02" cType="1" res="2.2320885956287384e-01" rms="3.9947959780693054e-01" purity="7.9301875829696655e-01" nType="0">
          <Node pos="l" depth="2" NCoef="0" IVar="-1" Cut="0.0000000000000000e+00" cType="1" res="4.0365906897932291e-04" rms="4.4248268008232117e-01" purity="7.2307842969894409e-01" nType="-99"/>
          <Node pos="r" depth="2" NCoef="0" IVar="-1" Cut="0.0000000000000000e+00" cType="1" res="4.2851053876802325e-04" rms="2.8965225815773010e-01" purity="9.0656489133834839e-01" nType="-99"/>
        </Node>
      </Node>
    </BinaryTree>
    <BinaryTree type="DecisionTree" boostWeight="1.0000000000000000e+00" itree="322">
      <Node pos="s" depth="0" NCoef="0" IVar="3" Cut="2.4516361236572266e+01" cType="1" res="6.0160890221595764e-02" rms="4.4389003515243530e-01" purity="5.0973308086395264e-01" nType="0">
        <Node pos="l" depth="1" NCoef="0" IVar="0" Cut="3.6551970988512039e-02" cType="1" res="-3.9452970027923584e-02" rms="4.3686407804489136e-01" purity="3.4000048041343689e-01" nType="0">
          <Node pos="l" depth="2" NCoef="0" IVar="-1" Cut="0.0000000000000000e+00" cType="1" res="9.0628913312684745e-05" rms="4.6463185548782349e-01" purity="4.3716141581535339e-01" nType="-99"/>
          <Node pos="r" depth="2" NCoef="0" IVar="-1" Cut="0.0000000000000000e+00" cType="1" res="-1.0668758768588305e-03" rms="3.6257532238960266e-01" purity="1.8185147643089294e-01" nType="-99"/>
        </Node>
        <Node pos="r" depth="1" NCoef="0" IVar="1" Cut="2.3061920166015625e+02" cType="1" res="2.0895926654338837e-01" rms="4.1148340702056885e-01" purity="7.6327151060104370e-01" nType="0">
          <Node pos="l" depth="2" NCoef="0" IVar="-1" Cut="0.0000000000000000e+00" cType="1" res="3.7985594826750457e-04" rms="4.4318965077400208e-01" purity="7.0615446567535400e-01" nType="-99"/>
          <Node pos="r" depth="2" NCoef="0" IVar="-1" Cut="0.0000000000000000e+00" cType="1" res="5.6546676205471158e-04" rms="2.7431887388229370e-01" purity="9.1642236709594727e-01" nType="-99"/>
        </Node>
      </Node>
    </BinaryTree>
    <BinaryTree type="DecisionTree" boostWeight="1.0000000000000000e+00" itree="323">
      <Node pos="s" depth="0" NCoef="0" IVar="1" Cut="1.3941770935058594e+02" cType="1" res="5.6468151509761810e-02" rms="4.4105738401412964e-01" purity="5.0747323036193848e-01" nType="0">
        <Node pos="l" depth="1" NCoef="0" IVar="1" Cut="7.2559005737304688e+01" cType="1" res="-5.7807303965091705e-02" rms="4.2347183823585510e-01" purity="3.0671063065528870e-01" nType="0">
          <Node pos="l" depth="2" NCoef="0" IVar="-1" Cut="0.0000000000000000e+00" cType="1" res="-2.1964272018522024e-03" rms="3.4277951717376709e-01" purity="1.4655721187591553e-01" nType="-99"/>
          <Node pos="r" depth="2" NCoef="0" IVar="-1" Cut="0.0000000000000000e+00" cType="1" res="9.8674550827126950e-05" rms="4.6679615974426270e-01" purity="4.4741225242614746e-01" nType="-99"/>
        </Node>
        <Node pos="r" depth="1" NCoef="0" IVar="2" Cut="6.6204593750000000e+04" cType="1" res="1.9269213080406189e-01" rms="4.2252910137176514e-01" purity="7.4679565429687500e-01" nType="0">
          <Node pos="l" depth="2" NCoef="0" IVar="-1" Cut="0.0000000000000000e+00" cType="1" res="2.2905728837940842e-04" rms="4.7567942738533020e-01" purity="6.1855334043502808e-01" nType="-99"/>
          <Node pos="r" depth="2" NCoef="0" IVar="-1" Cut="0.0000000000000000e+00" cType="1" res="5.2946113282814622e-04" rms="3.6442539095878601e-01" purity="8.4009951353073120e-01" nType="-99"/>
        </Node>
      </Node>
    </BinaryTree>
    <BinaryTree type="DecisionTree" boostWeight="1.0000000000000000e+00" itree="324">
      <Node pos="s" depth="0" NCoef="0" IVar="1" Cut="1.5851782226562500e+02" cType="1" res="5.3164165467023849e-02" rms="4.4366836547851562e-01" purity="5.0108498334884644e-01" nType="0">
        <Node pos="l" depth="1" NCoef="0" IVar="0" Cut="3.8617823272943497e-02" cType="1" res="-3.5049650818109512e-02" rms="4.3740442395210266e-01" purity="3.4922984242439270e-01" nType="0">
          <Node pos="l" depth="2" NCoef="0" IVar="-1" Cut="0.0000000000000000e+00" cType="1" res="1.0766540071927011e-04" rms="4.5825034379959106e-01" purity="4.4255298376083374e-01" nType="-99"/>
          <Node pos="r" depth="2" NCoef="0" IVar="-1" Cut="0.0000000000000000e+00" cType="1" res="-1.3802539324387908e-03" rms="3.8110223412513733e-01" purity="2.0545557141304016e-01" nType="-99"/>
        </Node>
        <Node pos="r" depth="1" NCoef="0" IVar="1" Cut="2.4968482971191406e+02" cType="1" res="2.1099983155727386e-01" rms="4.0973284840583801e-01" purity="7.7279031276702881e-01" nType="0">
          <Node pos="l" depth="2" NCoef="0" IVar="-1" Cut="0.0000000000000000e+00" cType="1" res="3.5550710163079202e-04" rms="4.3899133801460266e-01" purity="7.2402858734130859e-01" nType="-99"/>
          <Node pos="r" depth="2" NCoef="0" IVar="-1" Cut="0.0000000000000000e+00" cType="1" res="7.0441549178212881e-04" rms="2.7800950407981873e-01" purity="9.1211563348770142e-01" nType="-99"/>
        </Node>
      </Node>
    </BinaryTree>
    <BinaryTree type="DecisionTree" boostWeight="1.0000000000000000e+00" itree="325">
      <Node pos="s" depth="0" NCoef="0" IVar="2" Cut="4.0782179687500000e+04" cType="1" res="5.5604174733161926e-02" rms="4.4286862015724182e-01" purity="5.0485301017761230e-01" nType="0">
        <Node pos="l" depth="1" NCoef="0" IVar="0" Cut="2.4367978796362877e-02" cType="1" res="-5.3407695144414902e-02" rms="4.3003225326538086e-01" purity="3.1590881943702698e-01" nType="0">
          <Node pos="l" depth="2" NCoef="0" IVar="-1" Cut="0.0000000000000000e+00" cType="1" res="1.1734811414498836e-04" rms="4.6063959598541260e-01" purity="4.3025013804435730e-01" nType="-99"/>
          <Node pos="r" depth="2" NCoef="0" IVar="-1" Cut="0.0000000000000000e+00" cType="1" res="-9.2233484610915184e-04" rms="3.9186641573905945e-01" purity="2.2543416917324066e-01" nType="-99"/>
        </Node>
        <Node pos="r" depth="1" NCoef="0" IVar="0" Cut="4.2733144015073776e-02" cType="1" res="1.9690522551536560e-01" rms="4.1867277026176453e-01" purity="7.4976217746734619e-01" nType="0">
          <Node pos="l" depth="2" NCoef="0" IVar="-1" Cut="0.0000000000000000e+00" cType="1" res="5.3585355635732412e-04" rms="3.2017186284065247e-01" purity="8.8149058818817139e-01" nType="-99"/>
          <Node pos="r" depth="2" NCoef="0" IVar="-1" Cut="0.0000000000000000e+00" cType="1" res="2.9522710246965289e-04" rms="4.5190098881721497e-01" purity="6.7244887351989746e-01" nType="-99"/>
        </Node>
      </Node>
    </BinaryTree>
    <BinaryTree type="DecisionTree" boostWeight="1.0000000000000000e+00" itree="326">
      <Node pos="s" depth="0" NCoef="0" IVar="2" Cut="6.6204593750000000e+04" cType="1" res="5.2047591656446457e-02" rms="4.4436076283454895e-01" purity="4.9901205301284790e-01" nType="0">
        <Node pos="l" depth="1" NCoef="0" IVar="0" Cut="3.7522803992033005e-02" cType="1" res="-1.7109120264649391e-02" rms="4.4625043869018555e-01" purity="3.8356643915176392e-01" nType="0">
          <Node pos="l" depth="2" NCoef="0" IVar="-1" Cut="0.0000000000000000e+00" cType="1" res="1.6097904881462455e-04" rms="4.6039786934852600e-01" purity="4.7857427597045898e-01" nType="-99"/>
          <Node pos="r" depth="2" NCoef="0" IVar="-1" Cut="0.0000000000000000e+00" cType="1" res="-8.5907505126670003e-04" rms="4.0502798557281494e-01" purity="2.5093716382980347e-01" nType="-99"/>
        </Node>
        <Node pos="r" depth="1" NCoef="0" IVar="1" Cut="2.0048472595214844e+02" cType="1" res="2.4970522522926331e-01" rms="3.7404340505599976e-01" purity="8.2896858453750610e-01" nType="0">
          <Node pos="l" depth="2" NCoef="0" IVar="-1" Cut="0.0000000000000000e+00" cType="1" res="3.6210517282597721e-04" rms="4.3250274658203125e-01" purity="7.4653822183609009e-01" nType="-99"/>
          <Node pos="r" depth="2" NCoef="0" IVar="-1" Cut="0.0000000000000000e+00" cType="1" res="5.5853946832939982e-04" rms="2.9139655828475952e-01" purity="9.0574914216995239e-01" nType="-99"/>
        </Node>
      </Node>
    </BinaryTree>
    <BinaryTree type="DecisionTree" boostWeight="1.0000000000000000e+00" itree="327">
      <Node pos="s" depth="0" NCoef="0" IVar="2" Cut="6.1173269531250000e+04" cType="1" res="4.9093026667833328e-02" rms="4.4184991717338562e-01" purity="4.9775472283363342e-01" nType="0">
        <Node pos="l" depth="1" NCoef="0" IVar="1" Cut="3.8673717498779297e+01" cType="1" res="-3.4012738615274429e-02" rms="4.3928208947181702e-01" purity="3.5925233364105225e-01" nType="0">
          <Node pos="l" depth="2" NCoef="0" IVar="-1" Cut="0.0000000000000000e+00" cType="1" res="-1.6087576514109969e-03" rms="3.1609168648719788e-01" purity="1.1514704674482346e-01" nType="-99"/>
          <Node pos="r" depth="2" NCoef="0" IVar="-1" Cut="0.0000000000000000e+00" cType="1" res="3.6591805837815627e-05" rms="4.5895400643348694e-01" purity="4.2767420411109924e-01" nType="-99"/>
        </Node>
        <Node pos="r" depth="1" NCoef="0" IVar="1" Cut="2.4531428527832031e+02" cType="1" res="2.3940150439739227e-01" rms="3.8520061969757080e-01" purity="8.1491905450820923e-01" nType="0">
          <Node pos="l" depth="2" NCoef="0" IVar="-1" Cut="0.0000000000000000e+00" cType="1" res="3.6979382275603712e-04" rms="4.2614400386810303e-01" purity="7.5796353816986084e-01" nType="-99"/>
          <Node pos="r" depth="2" NCoef="0" IVar="-1" Cut="0.0000000000000000e+00" cType="1" res="6.7699421197175980e-04" rms="2.3818248510360718e-01" purity="9.3944066762924194e-01" nType="-99"/>
        </Node>
      </Node>
    </BinaryTree>
    <BinaryTree type="DecisionTree" boostWeight="1.0000000000000000e+00" itree="328">
      <Node pos="s" depth="0" NCoef="0" IVar="3" Cut="1.4930736541748047e+01" cType="1" res="4.3415639549493790e-02" rms="4.4081223011016846e-01" purity="4.9294698238372803e-01" nType="0">
        <Node pos="l" depth="1" NCoef="0" IVar="0" Cut="2.4367978796362877e-02" cType="1" res="-9.3043416738510132e-02" rms="4.1038674116134644e-01" purity="2.6948395371437073e-01" nType="0">
          <Node pos="l" depth="2" NCoef="0" IVar="-1" Cut="0.0000000000000000e+00" cType="1" res="-3.7498841265914962e-05" rms="4.5398235321044922e-01" purity="3.8661259412765503e-01" nType="-99"/>
          <Node pos="r" depth="2" NCoef="0" IVar="-1" Cut="0.0000000000000000e+00" cType="1" res="-2.3490481544286013e-03" rms="3.4513065218925476e-01" purity="1.5844248235225677e-01" nType="-99"/>
        </Node>
        <Node pos="r" depth="1" NCoef="0" IVar="0" Cut="4.2733144015073776e-02" cType="1" res="1.6678367555141449e-01" rms="4.3089988827705383e-01" purity="6.9497233629226685e-01" nType="0">
          <Node pos="l" depth="2" NCoef="0" IVar="-1" Cut="0.0000000000000000e+00" cType="1" res="5.4967665346339345e-04" rms="3.4805881977081299e-01" purity="8.5038781166076660e-01" nType="-99"/>
          <Node pos="r" depth="2" NCoef="0" IVar="-1" Cut="0.0000000000000000e+00" cType="1" res="2.4231401039287448e-04" rms="4.5325362682342529e-01" purity="6.0685938596725464e-01" nType="-99"/>
        </Node>
      </Node>
    </BinaryTree>
    <BinaryTree type="DecisionTree" boostWeight="1.0000000000000000e+00" itree="329">
      <Node pos="s" depth="0" NCoef="0" IVar="1" Cut="1.5843783569335938e+02" cType="1" res="4.9737602472305298e-02" rms="4.4280129671096802e-01" purity="4.9686449766159058e-01" nType="0">
        <Node pos="l" depth="1" NCoef="0" IVar="0" Cut="2.5400951504707336e-02" cType="1" res="-4.1392575949430466e-02" rms="4.3505585193634033e-01" purity="3.4039306640625000e-01" nType="0">
          <Node pos="l" depth="2" NCoef="0" IVar="-1" Cut="0.0000000000000000e+00" cType="1" res="1.1388401617296040e-04" rms="4.5856371521949768e-01" purity="4.5677581429481506e-01" nType="-99"/>
          <Node pos="r" depth="2" NCoef="0" IVar="-1" Cut="0.0000000000000000e+00" cType="1" res="-7.8653875971212983e-04" rms="4.0347239375114441e-01" purity="2.5505763292312622e-01" nType="-99"/>
        </Node>
        <Node pos="r" depth="1" NCoef="0" IVar="1" Cut="2.4961189270019531e+02" cType="1" res="2.1115480363368988e-01" rms="4.0908572077751160e-01" purity="7.7401942014694214e-01" nType="0">
          <Node pos="l" depth="2" NCoef="0" IVar="-1" Cut="0.0000000000000000e+00" cType="1" res="4.0658126818016171e-04" rms="4.4215977191925049e-01" purity="7.1880602836608887e-01" nType="-99"/>
          <Node pos="r" depth="2" NCoef="0" IVar="-1" Cut="0.0000000000000000e+00" cType="1" res="6.4777763327583671e-04" rms="2.6914659142494202e-01" purity="9.1792523860931396e-01" nType="-99"/>
        </Node>
      </Node>
    </BinaryTree>
    <BinaryTree type="DecisionTree" boostWeight="1.0000000000000000e+00" itree="330">
      <Node pos="s" depth="0" NCoef="0" IVar="2" Cut="6.1173269531250000e+04" cType="1" res="6.4208872616291046e-02" rms="4.4349867105484009e-01" purity="5.1285678148269653e-01" nType="0">
        <Node pos="l" depth="1" NCoef="0" IVar="0" Cut="3.8101427257061005e-02" cType="1" res="-1.4995438046753407e-02" rms="4.4602587819099426e-01" purity="3.7767547369003296e-01" nType="0">
          <Node pos="l" depth="2" NCoef="0" IVar="-1" Cut="0.0000000000000000e+00" cType="1" res="1.5814609650988132e-04" rms="4.6571004390716553e-01" purity="4.8159661889076233e-01" nType="-99"/>
          <Node pos="r" depth="2" NCoef="0" IVar="-1" Cut="0.0000000000000000e+00" cType="1" res="-1.1944253928959370e-03" rms="3.8342380523681641e-01" purity="2.1768239140510559e-01" nType="-99"/>
        </Node>
        <Node pos="r" depth="1" NCoef="0" IVar="1" Cut="2.2277072143554688e+02" cType="1" res="2.4447493255138397e-01" rms="3.8052716851234436e-01" purity="8.2052457332611084e-01" nType="0">
          <Node pos="l" depth="2" NCoef="0" IVar="-1" Cut="0.0000000000000000e+00" cType="1" res="3.9196535362862051e-04" rms="4.2222887277603149e-01" purity="7.6373749971389771e-01" nType="-99"/>
          <Node pos="r" depth="2" NCoef="0" IVar="-1" Cut="0.0000000000000000e+00" cType="1" res="5.1926285959780216e-04" rms="2.6873284578323364e-01" purity="9.2122310400009155e-01" nType="-99"/>
        </Node>
      </Node>
    </BinaryTree>
    <BinaryTree type="DecisionTree" boostWeight="1.0000000000000000e+00" itree="331">
      <Node pos="s" depth="0" NCoef="0" IVar="2" Cut="5.3826414062500000e+04" cType="1" res="5.4606113582849503e-02" rms="4.4199493527412415e-01" purity="5.0338226556777954e-01" nType="0">
        <Node pos="l" depth="1" NCoef="0" IVar="1" Cut="7.1970230102539062e+01" cType="1" res="-3.8478694856166840e-02" rms="4.3803766369819641e-01" purity="3.4223821759223938e-01" nType="0">
          <Node pos="l" depth="2" NCoef="0" IVar="-1" Cut="0.0000000000000000e+00" cType="1" res="-9.3433237634599209e-04" rms="3.6767160892486572e-01" purity="1.7391242086887360e-01" nType="-99"/>
          <Node pos="r" depth="2" NCoef="0" IVar="-1" Cut="0.0000000000000000e+00" cType="1" res="7.6851822086609900e-05" rms="4.7136610746383667e-01" purity="4.5940959453582764e-01" nType="-99"/>
        </Node>
        <Node pos="r" depth="1" NCoef="0" IVar="0" Cut="4.2733144015073776e-02" cType="1" res="2.2300063073635101e-01" rms="3.9702376723289490e-01" purity="7.9489892721176147e-01" nType="0">
          <Node pos="l" depth="2" NCoef="0" IVar="-1" Cut="0.0000000000000000e+00" cType="1" res="6.0385948745533824e-04" rms="2.9973354935646057e-01" purity="8.9888650178909302e-01" nType="-99"/>
          <Node pos="r" depth="2" NCoef="0" IVar="-1" Cut="0.0000000000000000e+00" cType="1" res="3.6939160781912506e-04" rms="4.3255206942558289e-01" purity="7.3664695024490356e-01" nType="-99"/>
        </Node>
      </Node>
    </BinaryTree>
    <BinaryTree type="DecisionTree" boostWeight="1.0000000000000000e+00" itree="332">
      <Node pos="s" depth="0" NCoef="0" IVar="2" Cut="6.1173269531250000e+04" cType="1" res="5.3169030696153641e-02" rms="4.4305557012557983e-01" purity="5.0049144029617310e-01" nType="0">
        <Node pos="l" depth="1" NCoef="0" IVar="1" Cut="3.5167625427246094e+01" cType="1" res="-2.2900631651282310e-02" rms="4.4264492392539978e-01" purity="3.6999797821044922e-01" nType="0">
          <Node pos="l" depth="2" NCoef="0" IVar="-1" Cut="0.0000000000000000e+00" cType="1" res="-3.2401604112237692e-03" rms="3.2013562321662903e-01" purity="1.1742195487022400e-01" nType="-99"/>
          <Node pos="r" depth="2" NCoef="0" IVar="-1" Cut="0.0000000000000000e+00" cType="1" res="5.3651725465897471e-05" rms="4.5941781997680664e-01" purity="4.3296930193901062e-01" nType="-99"/>
        </Node>
        <Node pos="r" depth="1" NCoef="0" IVar="1" Cut="2.4734503173828125e+02" cType="1" res="2.3406912386417389e-01" rms="3.8817173242568970e-01" purity="8.1081610918045044e-01" nType="0">
          <Node pos="l" depth="2" NCoef="0" IVar="-1" Cut="0.0000000000000000e+00" cType="1" res="3.7312251515686512e-04" rms="4.2211416363716125e-01" purity="7.6331269741058350e-01" nType="-99"/>
          <Node pos="r" depth="2" NCoef="0" IVar="-1" Cut="0.0000000000000000e+00" cType="1" res="6.4254243625327945e-04" rms="2.5161436200141907e-01" purity="9.3196183443069458e-01" nType="-99"/>
        </Node>
      </Node>
    </BinaryTree>
    <BinaryTree type="DecisionTree" boostWeight="1.0000000000000000e+00" itree="333">
      <Node pos="s" depth="0" NCoef="0" IVar="2" Cut="6.1173269531250000e+04" cType="1" res="4.7188226133584976e-02" rms="4.4313710927963257e-01" purity="4.9405819177627563e-01" nType="0">
        <Node pos="l" depth="1" NCoef="0" IVar="0" Cut="3.8101427257061005e-02" cType="1" res="-3.0077403411269188e-02" rms="4.4166624546051025e-01" purity="3.6176013946533203e-01" nType="0">
          <Node pos="l" depth="2" NCoef="0" IVar="-1" Cut="0.0000000000000000e+00" cType="1" res="1.2595349107868969e-04" rms="4.6096244454383850e-01" purity="4.5318928360939026e-01" nType="-99"/>
          <Node pos="r" depth="2" NCoef="0" IVar="-1" Cut="0.0000000000000000e+00" cType="1" res="-1.0208538733422756e-03" rms="3.9135888218879700e-01" purity="2.2593061625957489e-01" nType="-99"/>
        </Node>
        <Node pos="r" depth="1" NCoef="0" IVar="0" Cut="4.4439718127250671e-02" cType="1" res="2.3111966252326965e-01" rms="3.8913524150848389e-01" purity="8.0899471044540405e-01" nType="0">
          <Node pos="l" depth="2" NCoef="0" IVar="-1" Cut="0.0000000000000000e+00" cType="1" res="5.1674473797902465e-04" rms="2.9832184314727783e-01" purity="9.0051215887069702e-01" nType="-99"/>
          <Node pos="r" depth="2" NCoef="0" IVar="-1" Cut="0.0000000000000000e+00" cType="1" res="4.2327231494709849e-04" rms="4.2760637402534485e-01" purity="7.5121647119522095e-01" nType="-99"/>
        </Node>
      </Node>
    </BinaryTree>
    <BinaryTree type="DecisionTree" boostWeight="1.0000000000000000e+00" itree="334">
      <Node pos="s" depth="0" NCoef="0" IVar="2" Cut="5.3398167968750000e+04" cType="1" res="4.8224035650491714e-02" rms="4.4093164801597595e-01" purity="4.9639108777046204e-01" nType="0">
        <Node pos="l" depth="1" NCoef="0" IVar="0" Cut="1.2566522695124149e-02" cType="1" res="-4.4026218354701996e-02" rms="4.3384835124015808e-01" purity="3.3657690882682800e-01" nType="0">
          <Node pos="l" depth="2" NCoef="0" IVar="-1" Cut="0.0000000000000000e+00" cType="1" res="3.2082546385936439e-04" rms="4.5967337489128113e-01" purity="4.9278622865676880e-01" nType="-99"/>
          <Node pos="r" depth="2" NCoef="0" IVar="-1" Cut="0.0000000000000000e+00" cType="1" res="-4.8164936015382409e-04" rms="4.1624724864959717e-01" purity="2.9097434878349304e-01" nType="-99"/>
        </Node>
        <Node pos="r" depth="1" NCoef="0" IVar="0" Cut="4.0266681462526321e-02" cType="1" res="2.1671818196773529e-01" rms="4.0224909782409668e-01" purity="7.8829002380371094e-01" nType="0">
          <Node pos="l" depth="2" NCoef="0" IVar="-1" Cut="0.0000000000000000e+00" cType="1" res="5.1069044275209308e-04" rms="2.8905928134918213e-01" purity="9.0763086080551147e-01" nType="-99"/>
          <Node pos="r" depth="2" NCoef="0" IVar="-1" Cut="0.0000000000000000e+00" cType="1" res="3.1821450102142990e-04" rms="4.3765789270401001e-01" purity="7.2756278514862061e-01" nType="-99"/>
        </Node>
      </Node>
    </BinaryTree>
    <BinaryTree type="DecisionTree" boostWeight="1.0000000000000000e+00" itree="335">
      <Node pos="s" depth="0" NCoef="0" IVar="2" Cut="6.6204593750000000e+04" cType="1" res="4.0297187864780426e-02" rms="4.4235721230506897e-01" purity="4.8513093590736389e-01" nType="0">
        <Node pos="l" depth="1" NCoef="0" IVar="0" Cut="3.8101427257061005e-02" cType="1" res="-2.9316792264580727e-02" rms="4.4116261601448059e-01" purity="3.6827164888381958e-01" nType="0">
          <Node pos="l" depth="2" NCoef="0" IVar="-1" Cut="0.0000000000000000e+00" cType="1" res="1.1173151142429560e-04" rms="4.5816740393638611e-01" purity="4.5983085036277771e-01" nType="-99"/>
          <Node pos="r" depth="2" NCoef="0" IVar="-1" Cut="0.0000000000000000e+00" cType="1" res="-1.0322893504053354e-03" rms="3.9762234687805176e-01" purity="2.4041619896888733e-01" nType="-99"/>
        </Node>
        <Node pos="r" depth="1" NCoef="0" IVar="1" Cut="2.2618206787109375e+02" cType="1" res="2.4068439006805420e-01" rms="3.8028055429458618e-01" purity="8.2151609659194946e-01" nType="0">
          <Node pos="l" depth="2" NCoef="0" IVar="-1" Cut="0.0000000000000000e+00" cType="1" res="4.6269423910416663e-04" rms="4.2737478017807007e-01" purity="7.5574100017547607e-01" nType="-99"/>
          <Node pos="r" depth="2" NCoef="0" IVar="-1" Cut="0.0000000000000000e+00" cType="1" res="4.9912737449631095e-04" rms="2.6880151033401489e-01" purity="9.2133599519729614e-01" nType="-99"/>
        </Node>
      </Node>
    </BinaryTree>
    <BinaryTree type="DecisionTree" boostWeight="1.0000000000000000e+00" itree="336">
      <Node pos="s" depth="0" NCoef="0" IVar="2" Cut="6.1173269531250000e+04" cType="1" res="4.4104591012001038e-02" rms="4.4102200865745544e-01" purity="4.9121183156967163e-01" nType="0">
        <Node pos="l" depth="1" NCoef="0" IVar="1" Cut="7.8581535339355469e+01" cType="1" res="-3.5460244864225388e-02" rms="4.3802094459533691e-01" purity="3.5557946562767029e-01" nType="0">
          <Node pos="l" depth="2" NCoef="0" IVar="-1" Cut="0.0000000000000000e+00" cType="1" res="-9.5879897708073258e-04" rms="3.6526763439178467e-01" purity="1.8009115755558014e-01" nType="-99"/>
          <Node pos="r" depth="2" NCoef="0" IVar="-1" Cut="0.0000000000000000e+00" cType="1" res="1.0099671635543928e-04" rms="4.7297573089599609e-01" purity="4.8282632231712341e-01" nType="-99"/>
        </Node>
        <Node pos="r" depth="1" NCoef="0" IVar="1" Cut="2.2116703796386719e+02" cType="1" res="2.3078621923923492e-01" rms="3.8857010006904602e-01" purity="8.0944383144378662e-01" nType="0">
          <Node pos="l" depth="2" NCoef="0" IVar="-1" Cut="0.0000000000000000e+00" cType="1" res="4.1360041359439492e-04" rms="4.3364965915679932e-01" purity="7.4206829071044922e-01" nType="-99"/>
          <Node pos="r" depth="2" NCoef="0" IVar="-1" Cut="0.0000000000000000e+00" cType="1" res="4.5511985081247985e-04" rms="2.7585417032241821e-01" purity="9.1639643907546997e-01" nType="-99"/>
        </Node>
      </Node>
    </BinaryTree>
    <BinaryTree type="DecisionTree" boostWeight="1.0000000000000000e+00" itree="337">
      <Node pos="s" depth="0" NCoef="0" IVar="1" Cut="1.5851782226562500e+02" cType="1" res="5.8975081890821457e-02" rms="4.3947151303291321e-01" purity="5.1071214675903320e-01" nType="0">
        <Node pos="l" depth="1" NCoef="0" IVar="1" Cut="5.9754344940185547e+01" cType="1" res="-4.0984708815813065e-02" rms="4.3267959356307983e-01" purity="3.4219369292259216e-01" nType="0">
          <Node pos="l" depth="2" NCoef="0" IVar="-1" Cut="0.0000000000000000e+00" cType="1" res="-2.4003880098462105e-03" rms="3.2800525426864624e-01" purity="1.2707024812698364e-01" nType="-99"/>
          <Node pos="r" depth="2" NCoef="0" IVar="-1" Cut="0.0000000000000000e+00" cType="1" res="9.2701346147805452e-05" rms="4.6395975351333618e-01" purity="4.5100778341293335e-01" nType="-99"/>
        </Node>
        <Node pos="r" depth="1" NCoef="0" IVar="1" Cut="2.4968534851074219e+02" cType="1" res="2.2343400120735168e-01" rms="3.9924302697181702e-01" purity="7.8796732425689697e-01" nType="0">
          <Node pos="l" depth="2" NCoef="0" IVar="-1" Cut="0.0000000000000000e+00" cType="1" res="3.1290369224734604e-04" rms="4.3577069044113159e-01" purity="7.3092544078826904e-01" nType="-99"/>
          <Node pos="r" depth="2" NCoef="0" IVar="-1" Cut="0.0000000000000000e+00" cType="1" res="5.0611136248335242e-04" rms="2.5275149941444397e-01" purity="9.2839217185974121e-01" nType="-99"/>
        </Node>
      </Node>
    </BinaryTree>
    <BinaryTree type="DecisionTree" boostWeight="1.0000000000000000e+00" itree="338">
      <Node pos="s" depth="0" NCoef="0" IVar="2" Cut="6.6204593750000000e+04" cType="1" res="5.4355885833501816e-02" rms="4.4438487291336060e-01" purity="5.0022578239440918e-01" nType="0">
        <Node pos="l" depth="1" NCoef="0" IVar="0" Cut="5.0266090780496597e-02" cType="1" res="-1.1266812682151794e-02" rms="4.4703641533851624e-01" purity="3.8759201765060425e-01" nType="0">
          <Node pos="l" depth="2" NCoef="0" IVar="-1" Cut="0.0000000000000000e+00" cType="1" res="1.1611539957812056e-04" rms="4.5772689580917358e-01" purity="4.4760662317276001e-01" nType="-99"/>
          <Node pos="r" depth="2" NCoef="0" IVar="-1" Cut="0.0000000000000000e+00" cType="1" res="-1.0143485851585865e-03" rms="3.9244043827056885e-01" purity="2.3482196033000946e-01" nType="-99"/>
        </Node>
        <Node pos="r" depth="1" NCoef="0" IVar="1" Cut="2.0386241149902344e+02" cType="1" res="2.4358254671096802e-01" rms="3.7740948796272278e-01" purity="8.2501125335693359e-01" nType="0">
          <Node pos="l" depth="2" NCoef="0" IVar="-1" Cut="0.0000000000000000e+00" cType="1" res="4.0714224451221526e-04" rms="4.2085903882980347e-01" purity="7.6621854305267334e-01" nType="-99"/>
          <Node pos="r" depth="2" NCoef="0" IVar="-1" Cut="0.0000000000000000e+00" cType="1" res="4.3699549860320985e-04" rms="3.0307427048683167e-01" purity="8.9691048860549927e-01" nType="-99"/>
        </Node>
      </Node>
    </BinaryTree>
    <BinaryTree type="DecisionTree" boostWeight="1.0000000000000000e+00" itree="339">
      <Node pos="s" depth="0" NCoef="0" IVar="2" Cut="6.1173269531250000e+04" cType="1" res="6.2986992299556732e-02" rms="4.4457840919494629e-01" purity="5.0922960042953491e-01" nType="0">
        <Node pos="l" depth="1" NCoef="0" IVar="0" Cut="3.8101427257061005e-02" cType="1" res="-1.1144273914396763e-02" rms="4.4782561063766479e-01" purity="3.7857779860496521e-01" nType="0">
          <Node pos="l" depth="2" NCoef="0" IVar="-1" Cut="0.0000000000000000e+00" cType="1" res="1.1127340258099139e-04" rms="4.6514248847961426e-01" purity="4.6506777405738831e-01" nType="-99"/>
          <Node pos="r" depth="2" NCoef="0" IVar="-1" Cut="0.0000000000000000e+00" cType="1" res="-6.1812298372387886e-04" rms="4.0568515658378601e-01" purity="2.5406521558761597e-01" nType="-99"/>
        </Node>
        <Node pos="r" depth="1" NCoef="0" IVar="1" Cut="2.2627468872070312e+02" cType="1" res="2.3653195798397064e-01" rms="3.8455563783645630e-01" purity="8.1509190797805786e-01" nType="0">
          <Node pos="l" depth="2" NCoef="0" IVar="-1" Cut="0.0000000000000000e+00" cType="1" res="3.8317058351822197e-04" rms="4.2723077535629272e-01" purity="7.5481104850769043e-01" nType="-99"/>
          <Node pos="r" depth="2" NCoef="0" IVar="-1" Cut="0.0000000000000000e+00" cType="1" res="4.5960082206875086e-04" rms="2.6618403196334839e-01" purity="9.2276436090469360e-01" nType="-99"/>
        </Node>
      </Node>
    </BinaryTree>
    <BinaryTree type="DecisionTree" boostWeight="1.0000000000000000e+00" itree="340">
      <Node pos="s" depth="0" NCoef="0" IVar="2" Cut="4.4136394531250000e+04" cType="1" res="5.3063612431287766e-02" rms="4.4250437617301941e-01" purity="5.0117689371109009e-01" nType="0">
        <Node pos="l" depth="1" NCoef="0" IVar="0" Cut="3.7699569016695023e-02" cType="1" res="-5.2541952580213547e-02" rms="4.3199366331100464e-01" purity="3.1420806050300598e-01" nType="0">
          <Node pos="l" depth="2" NCoef="0" IVar="-1" Cut="0.0000000000000000e+00" cType="1" res="1.7108935935539193e-05" rms="4.6487963199615479e-01" purity="4.0480279922485352e-01" nType="-99"/>
          <Node pos="r" depth="2" NCoef="0" IVar="-1" Cut="0.0000000000000000e+00" cType="1" res="-1.8256336916238070e-03" rms="3.4798085689544678e-01" purity="1.6035275161266327e-01" nType="-99"/>
        </Node>
        <Node pos="r" depth="1" NCoef="0" IVar="0" Cut="4.2280074208974838e-02" cType="1" res="1.9978280365467072e-01" rms="4.1419711709022522e-01" purity="7.6093500852584839e-01" nType="0">
          <Node pos="l" depth="2" NCoef="0" IVar="-1" Cut="0.0000000000000000e+00" cType="1" res="5.7352648582309484e-04" rms="3.1823095679283142e-01" purity="8.8389587402343750e-01" nType="-99"/>
          <Node pos="r" depth="2" NCoef="0" IVar="-1" Cut="0.0000000000000000e+00" cType="1" res="3.0854743090458214e-04" rms="4.4630086421966553e-01" purity="6.9256520271301270e-01" nType="-99"/>
        </Node>
      </Node>
    </BinaryTree>
    <BinaryTree type="DecisionTree" boostWeight="1.0000000000000000e+00" itree="341">
      <Node pos="s" depth="0" NCoef="0" IVar="2" Cut="6.1173269531250000e+04" cType="1" res="5.1897447556257248e-02" rms="4.4006767868995667e-01" purity="5.0084465742111206e-01" nType="0">
        <Node pos="l" depth="1" NCoef="0" IVar="1" Cut="7.8285812377929688e+01" cType="1" res="-3.0662156641483307e-02" rms="4.3913039565086365e-01" purity="3.6017766594886780e-01" nType="0">
          <Node pos="l" depth="2" NCoef="0" IVar="-1" Cut="0.0000000000000000e+00" cType="1" res="-9.3923800159245729e-04" rms="3.6740207672119141e-01" purity="1.8123884499073029e-01" nType="-99"/>
          <Node pos="r" depth="2" NCoef="0" IVar="-1" Cut="0.0000000000000000e+00" cType="1" res="1.1640067532425746e-04" rms="4.7260871529579163e-01" purity="4.8739320039749146e-01" nType="-99"/>
        </Node>
        <Node pos="r" depth="1" NCoef="0" IVar="1" Cut="2.2627468872070312e+02" cType="1" res="2.3827850818634033e-01" rms="3.8130623102188110e-01" purity="8.1840503215789795e-01" nType="0">
          <Node pos="l" depth="2" NCoef="0" IVar="-1" Cut="0.0000000000000000e+00" cType="1" res="4.1893770685419440e-04" rms="4.3082737922668457e-01" purity="7.4717646837234497e-01" nType="-99"/>
          <Node pos="r" depth="2" NCoef="0" IVar="-1" Cut="0.0000000000000000e+00" cType="1" res="5.8779056416824460e-04" rms="2.5475063920021057e-01" purity="9.2981010675430298e-01" nType="-99"/>
        </Node>
      </Node>
    </BinaryTree>
    <BinaryTree type="DecisionTree" boostWeight="1.0000000000000000e+00" itree="342">
      <Node pos="s" depth="0" NCoef="0" IVar="3" Cut="1.3542619705200195e+01" cType="1" res="6.1656668782234192e-02" rms="4.4445121288299561e-01" purity="5.0797188282012939e-01" nType="0">
        <Node pos="l" depth="1" NCoef="0" IVar="0" Cut="2.4367978796362877e-02" cType="1" res="-4.7476518899202347e-02" rms="4.2975392937660217e-01" purity="3.1538379192352295e-01" nType="0">
          <Node pos="l" depth="2" NCoef="0" IVar="-1" Cut="0.0000000000000000e+00" cType="1" res="1.1502103734528646e-04" rms="4.6725806593894958e-01" purity="4.5063054561614990e-01" nType="-99"/>
          <Node pos="r" depth="2" NCoef="0" IVar="-1" Cut="0.0000000000000000e+00" cType="1" res="-1.8580475589260459e-03" rms="3.5066252946853638e-01" purity="1.6663832962512970e-01" nType="-99"/>
        </Node>
        <Node pos="r" depth="1" NCoef="0" IVar="0" Cut="3.9251808077096939e-02" cType="1" res="1.5985028445720673e-01" rms="4.3444129824638367e-01" purity="6.8125486373901367e-01" nType="0">
          <Node pos="l" depth="2" NCoef="0" IVar="-1" Cut="0.0000000000000000e+00" cType="1" res="5.3921184735372663e-04" rms="3.3506032824516296e-01" purity="8.6505526304244995e-01" nType="-99"/>
          <Node pos="r" depth="2" NCoef="0" IVar="-1" Cut="0.0000000000000000e+00" cType="1" res="2.1727939019910991e-04" rms="4.5572164654731750e-01" purity="5.8447080850601196e-01" nType="-99"/>
        </Node>
      </Node>
    </BinaryTree>
    <BinaryTree type="DecisionTree" boostWeight="1.0000000000000000e+00" itree="343">
      <Node pos="s" depth="0" NCoef="0" IVar="1" Cut="1.3458947753906250e+02" cType="1" res="5.3447969257831573e-02" rms="4.3922331929206848e-01" purity="5.0334686040878296e-01" nType="0">
        <Node pos="l" depth="1" NCoef="0" IVar="1" Cut="6.9924499511718750e+01" cType="1" res="-6.8432457745075226e-02" rms="4.1598084568977356e-01" purity="2.8689113259315491e-01" nType="0">
          <Node pos="l" depth="2" NCoef="0" IVar="-1" Cut="0.0000000000000000e+00" cType="1" res="-2.0508742891252041e-03" rms="3.3187249302864075e-01" purity="1.3593517243862152e-01" nType="-99"/>
          <Node pos="r" depth="2" NCoef="0" IVar="-1" Cut="0.0000000000000000e+00" cType="1" res="5.5588559916941449e-05" rms="4.6367529034614563e-01" purity="4.2138418555259705e-01" nType="-99"/>
        </Node>
        <Node pos="r" depth="1" NCoef="0" IVar="1" Cut="2.5098649597167969e+02" cType="1" res="1.8591025471687317e-01" rms="4.2524006962776184e-01" purity="7.3859566450119019e-01" nType="0">
          <Node pos="l" depth="2" NCoef="0" IVar="-1" Cut="0.0000000000000000e+00" cType="1" res="3.4862509346567094e-04" rms="4.4984707236289978e-01" purity="6.9115066528320312e-01" nType="-99"/>
          <Node pos="r" depth="2" NCoef="0" IVar="-1" Cut="0.0000000000000000e+00" cType="1" res="5.8135332074016333e-04" rms="2.6476627588272095e-01" purity="9.2064845561981201e-01" nType="-99"/>
        </Node>
      </Node>
    </BinaryTree>
    <BinaryTree type="DecisionTree" boostWeight="1.0000000000000000e+00" itree="344">
      <Node pos="s" depth="0" NCoef="0" IVar="2" Cut="6.1173269531250000e+04" cType="1" res="5.3399901837110519e-02" rms="4.4068491458892822e-01" purity="5.0215965509414673e-01" nType="0">
        <Node pos="l" depth="1" NCoef="0" IVar="0" Cut="4.6884417533874512e-02" cType="1" res="-2.9518220573663712e-02" rms="4.4032403826713562e-01" purity="3.6061158776283264e-01" nType="0">
          <Node pos="l" depth="2" NCoef="0" IVar="-1" Cut="0.0000000000000000e+00" cType="1" res="7.6485048339236528e-05" rms="4.5676571130752563e-01" purity="4.3442875146865845e-01" nType="-99"/>
          <Node pos="r" depth="2" NCoef="0" IVar="-1" Cut="0.0000000000000000e+00" cType="1" res="-1.6122856177389622e-03" rms="3.6783769726753235e-01" purity="1.9072185456752777e-01" nType="-99"/>
        </Node>
        <Node pos="r" depth="1" NCoef="0" IVar="1" Cut="2.0501548767089844e+02" cType="1" res="2.3942783474922180e-01" rms="3.8063767552375793e-01" purity="8.1972461938858032e-01" nType="0">
          <Node pos="l" depth="2" NCoef="0" IVar="-1" Cut="0.0000000000000000e+00" cType="1" res="3.8832324207760394e-04" rms="4.3258666992187500e-01" purity="7.4504071474075317e-01" nType="-99"/>
          <Node pos="r" depth="2" NCoef="0" IVar="-1" Cut="0.0000000000000000e+00" cType="1" res="4.9862376181408763e-04" rms="2.8587234020233154e-01" purity="9.0929734706878662e-01" nType="-99"/>
        </Node>
      </Node>
    </BinaryTree>
    <BinaryTree type="DecisionTree" boostWeight="1.0000000000000000e+00" itree="345">
      <Node pos="s" depth="0" NCoef="0" IVar="1" Cut="1.0547126770019531e+02" cType="1" res="5.7266298681497574e-02" rms="4.4112306833267212e-01" purity="5.0587016344070435e-01" nType="0">
        <Node pos="l" depth="1" NCoef="0" IVar="1" Cut="5.4830089569091797e+01" cType="1" res="-7.6237760484218597e-02" rms="4.0335866808891296e-01" purity="2.5846794247627258e-01" nType="0">
          <Node pos="l" depth="2" NCoef="0" IVar="-1" Cut="0.0000000000000000e+00" cType="1" res="-2.3706795182079077e-03" rms="3.1959608197212219e-01" purity="1.1969166994094849e-01" nType="-99"/>
          <Node pos="r" depth="2" NCoef="0" IVar="-1" Cut="0.0000000000000000e+00" cType="1" res="3.3762404200388119e-05" rms="4.4703567028045654e-01" purity="3.7852773070335388e-01" nType="-99"/>
        </Node>
        <Node pos="r" depth="1" NCoef="0" IVar="0" Cut="4.2733144015073776e-02" cType="1" res="1.5166941285133362e-01" rms="4.4229552149772644e-01" purity="6.8081277608871460e-01" nType="0">
          <Node pos="l" depth="2" NCoef="0" IVar="-1" Cut="0.0000000000000000e+00" cType="1" res="4.6746272710151970e-04" rms="4.0314590930938721e-01" purity="7.7663373947143555e-01" nType="-99"/>
          <Node pos="r" depth="2" NCoef="0" IVar="-1" Cut="0.0000000000000000e+00" cType="1" res="2.2334951790980995e-04" rms="4.5913019776344299e-01" purity="6.0014671087265015e-01" nType="-99"/>
        </Node>
      </Node>
    </BinaryTree>
    <BinaryTree type="DecisionTree" boostWeight="1.0000000000000000e+00" itree="346">
      <Node pos="s" depth="0" NCoef="0" IVar="3" Cut="1.4930736541748047e+01" cType="1" res="5.4540690034627914e-02" rms="4.4235214591026306e-01" purity="5.0053006410598755e-01" nType="0">
        <Node pos="l" depth="1" NCoef="0" IVar="0" Cut="1.2183989398181438e-02" cType="1" res="-6.8451151251792908e-02" rms="4.2140677571296692e-01" purity="2.8991532325744629e-01" nType="0">
          <Node pos="l" depth="2" NCoef="0" IVar="-1" Cut="0.0000000000000000e+00" cType="1" res="1.4460222155321389e-04" rms="4.6201920509338379e-01" purity="4.5718899369239807e-01" nType="-99"/>
          <Node pos="r" depth="2" NCoef="0" IVar="-1" Cut="0.0000000000000000e+00" cType="1" res="-8.7880343198776245e-04" rms="3.9100617170333862e-01" purity="2.2714827954769135e-01" nType="-99"/>
        </Node>
        <Node pos="r" depth="1" NCoef="0" IVar="0" Cut="3.9318162947893143e-02" cType="1" res="1.7037618160247803e-01" rms="4.3017417192459106e-01" purity="6.9889014959335327e-01" nType="0">
          <Node pos="l" depth="2" NCoef="0" IVar="-1" Cut="0.0000000000000000e+00" cType="1" res="5.7796895271167159e-04" rms="3.2779964804649353e-01" purity="8.7201333045959473e-01" nType="-99"/>
          <Node pos="r" depth="2" NCoef="0" IVar="-1" Cut="0.0000000000000000e+00" cType="1" res="2.7944249450229108e-04" rms="4.5444217324256897e-01" purity="6.1515611410140991e-01" nType="-99"/>
        </Node>
      </Node>
    </BinaryTree>
    <BinaryTree type="DecisionTree" boostWeight="1.0000000000000000e+00" itree="347">
      <Node pos="s" depth="0" NCoef="0" IVar="1" Cut="1.3930560302734375e+02" cType="1" res="5.7455834001302719e-02" rms="4.4063618779182434e-01" purity="5.0566428899765015e-01" nType="0">
        <Node pos="l" depth="1" NCoef="0" IVar="1" Cut="6.5750656127929688e+01" cType="1" res="-4.9596261233091354e-02" rms="4.2502886056900024e-01" purity="3.0854973196983337e-01" nType="0">
          <Node pos="l" depth="2" NCoef="0" IVar="-1" Cut="0.0000000000000000e+00" cType="1" res="-1.9633334595710039e-03" rms="3.3744788169860840e-01" purity="1.4046019315719604e-01" nType="-99"/>
          <Node pos="r" depth="2" NCoef="0" IVar="-1" Cut="0.0000000000000000e+00" cType="1" res="9.7287171229254454e-05" rms="4.6502178907394409e-01" purity="4.3082019686698914e-01" nType="-99"/>
        </Node>
        <Node pos="r" depth="1" NCoef="0" IVar="2" Cut="6.6204593750000000e+04" cType="1" res="1.8595892190933228e-01" rms="4.2439213395118713e-01" purity="7.4227637052536011e-01" nType="0">
          <Node pos="l" depth="2" NCoef="0" IVar="-1" Cut="0.0000000000000000e+00" cType="1" res="2.3180896823760122e-04" rms="4.7404327988624573e-01" purity="6.2102478742599487e-01" nType="-99"/>
          <Node pos="r" depth="2" NCoef="0" IVar="-1" Cut="0.0000000000000000e+00" cType="1" res="4.8863625852391124e-04" rms="3.7036266922950745e-01" purity="8.3343631029129028e-01" nType="-99"/>
        </Node>
      </Node>
    </BinaryTree>
    <BinaryTree type="DecisionTree" boostWeight="1.0000000000000000e+00" itree="348">
      <Node pos="s" depth="0" NCoef="0" IVar="2" Cut="3.3795761718750000e+04" cType="1" res="5.0612498074769974e-02" rms="4.4232979416847229e-01" purity="4.9547708034515381e-01" nType="0">
        <Node pos="l" depth="1" NCoef="0" IVar="0" Cut="2.4177541956305504e-02" cType="1" res="-6.3809730112552643e-02" rms="4.2089870572090149e-01" purity="2.9444974660873413e-01" nType="0">
          <Node pos="l" depth="2" NCoef="0" IVar="-1" Cut="0.0000000000000000e+00" cType="1" res="7.8260454756673425e-05" rms="4.5864754915237427e-01" purity="4.1488340497016907e-01" nType="-99"/>
          <Node pos="r" depth="2" NCoef="0" IVar="-1" Cut="0.0000000000000000e+00" cType="1" res="-9.4926240853965282e-04" rms="3.7017244100570679e-01" purity="1.9091746211051941e-01" nType="-99"/>
        </Node>
        <Node pos="r" depth="1" NCoef="0" IVar="0" Cut="3.8724232465028763e-02" cType="1" res="1.7405454814434052e-01" rms="4.3156856298446655e-01" purity="7.1235126256942749e-01" nType="0">
          <Node pos="l" depth="2" NCoef="0" IVar="-1" Cut="0.0000000000000000e+00" cType="1" res="5.2753533236682415e-04" rms="3.2392400503158569e-01" purity="8.7763053178787231e-01" nType="-99"/>
          <Node pos="r" depth="2" NCoef="0" IVar="-1" Cut="0.0000000000000000e+00" cType="1" res="2.5253073545172811e-04" rms="4.5817133784294128e-01" purity="6.3372880220413208e-01" nType="-99"/>
        </Node>
      </Node>
    </BinaryTree>
    <BinaryTree type="DecisionTree" boostWeight="1.0000000000000000e+00" itree="349">
      <Node pos="s" depth="0" NCoef="0" IVar="2" Cut="5.2699613281250000e+04" cType="1" res="5.0904862582683563e-02" rms="4.3994674086570740e-01" purity="4.9891632795333862e-01" nType="0">
        <Node pos="l" depth="1" NCoef="0" IVar="1" Cut="3.8873630523681641e+01" cType="1" res="-4.3690070509910583e-02" rms="4.3409186601638794e-01" purity="3.3244204521179199e-01" nType="0">
          <Node pos="l" depth="2" NCoef="0" IVar="-1" Cut="0.0000000000000000e+00" cType="1" res="-1.6182081308215857e-03" rms="3.1461822986602783e-01" purity="1.1294051259756088e-01" nType="-99"/>
          <Node pos="r" depth="2" NCoef="0" IVar="-1" Cut="0.0000000000000000e+00" cType="1" res="-4.6887466851330828e-06" rms="4.5639187097549438e-01" purity="3.9998441934585571e-01" nType="-99"/>
        </Node>
        <Node pos="r" depth="1" NCoef="0" IVar="0" Cut="4.2839553207159042e-02" cType="1" res="2.1656176447868347e-01" rms="3.9925226569175720e-01" purity="7.9044997692108154e-01" nType="0">
          <Node pos="l" depth="2" NCoef="0" IVar="-1" Cut="0.0000000000000000e+00" cType="1" res="5.3034728625789285e-04" rms="2.9927706718444824e-01" purity="8.9933443069458008e-01" nType="-99"/>
          <Node pos="r" depth="2" NCoef="0" IVar="-1" Cut="0.0000000000000000e+00" cType="1" res="3.6096019903197885e-04" rms="4.3602570891380310e-01" purity="7.2710657119750977e-01" nType="-99"/>
        </Node>
      </Node>
    </BinaryTree>
    <BinaryTree type="DecisionTree" boostWeight="1.0000000000000000e+00" itree="350">
      <Node pos="s" depth="0" NCoef="0" IVar="2" Cut="3.4482546875000000e+04" cType="1" res="4.6541597694158554e-02" rms="4.3933543562889099e-01" purity="4.9396878480911255e-01" nType="0">
        <Node pos="l" depth="1" NCoef="0" IVar="1" Cut="8.3708175659179688e+01" cType="1" res="-6.9863356649875641e-02" rms="4.1610297560691833e-01" purity="2.9029366374015808e-01" nType="0">
          <Node pos="l" depth="2" NCoef="0" IVar="-1" Cut="0.0000000000000000e+00" cType="1" res="-1.4444629196077585e-03" rms="3.5854625701904297e-01" purity="1.7321206629276276e-01" nType="-99"/>
          <Node pos="r" depth="2" NCoef="0" IVar="-1" Cut="0.0000000000000000e+00" cType="1" res="8.1212507211603224e-05" rms="4.7126182913780212e-01" purity="4.5635405182838440e-01" nType="-99"/>
        </Node>
        <Node pos="r" depth="1" NCoef="0" IVar="0" Cut="4.2733144015073776e-02" cType="1" res="1.7334739863872528e-01" rms="4.2874789237976074e-01" purity="7.1584248542785645e-01" nType="0">
          <Node pos="l" depth="2" NCoef="0" IVar="-1" Cut="0.0000000000000000e+00" cType="1" res="5.7498709065839648e-04" rms="3.4298518300056458e-01" purity="8.5721540451049805e-01" nType="-99"/>
          <Node pos="r" depth="2" NCoef="0" IVar="-1" Cut="0.0000000000000000e+00" cType="1" res="2.5832655956037343e-04" rms="4.5598825812339783e-01" purity="6.3277804851531982e-01" nType="-99"/>
        </Node>
      </Node>
    </BinaryTree>
    <BinaryTree type="DecisionTree" boostWeight="1.0000000000000000e+00" itree="351">
      <Node pos="s" depth="0" NCoef="0" IVar="1" Cut="1.0517140960693359e+02" cType="1" res="4.4719398021697998e-02" rms="4.4059449434280396e-01" purity="4.9063330888748169e-01" nType="0">
        <Node pos="l" depth="1" NCoef="0" IVar="1" Cut="3.9318382263183594e+01" cType="1" res="-9.4500295817852020e-02" rms="3.9397224783897400e-01" purity="2.3328696191310883e-01" nType="0">
          <Node pos="l" depth="2" NCoef="0" IVar="-1" Cut="0.0000000000000000e+00" cType="1" res="-3.1413759570568800e-03" rms="2.9695671796798706e-01" purity="9.9744550883769989e-02" nType="-99"/>
          <Node pos="r" depth="2" NCoef="0" IVar="-1" Cut="0.0000000000000000e+00" cType="1" res="-1.6997879720292985e-04" rms="4.3041664361953735e-01" purity="3.1126427650451660e-01" nType="-99"/>
        </Node>
        <Node pos="r" depth="1" NCoef="0" IVar="2" Cut="6.1173269531250000e+04" cType="1" res="1.4257465302944183e-01" rms="4.4527885317802429e-01" purity="6.7151784896850586e-01" nType="0">
          <Node pos="l" depth="2" NCoef="0" IVar="-1" Cut="0.0000000000000000e+00" cType="1" res="1.8631365674082190e-04" rms="4.7934156656265259e-01" purity="5.3563386201858521e-01" nType="-99"/>
          <Node pos="r" depth="2" NCoef="0" IVar="-1" Cut="0.0000000000000000e+00" cType="1" res="4.5304477680474520e-04" rms="3.9194607734680176e-01" purity="8.0552232265472412e-01" nType="-99"/>
        </Node>
      </Node>
    </BinaryTree>
    <BinaryTree type="DecisionTree" boostWeight="1.0000000000000000e+00" itree="352">
      <Node pos="s" depth="0" NCoef="0" IVar="2" Cut="5.3398167968750000e+04" cType="1" res="4.8925030976533890e-02" rms="4.3884187936782837e-01" purity="4.9620667099952698e-01" nType="0">
        <Node pos="l" depth="1" NCoef="0" IVar="0" Cut="3.8101427257061005e-02" cType="1" res="-4.0122367441654205e-02" rms="4.3210220336914062e-01" purity="3.3811411261558533e-01" nType="0">
          <Node pos="l" depth="2" NCoef="0" IVar="-1" Cut="0.0000000000000000e+00" cType="1" res="6.6893109760712832e-05" rms="4.6009454131126404e-01" purity="4.3628329038619995e-01" nType="-99"/>
          <Node pos="r" depth="2" NCoef="0" IVar="-1" Cut="0.0000000000000000e+00" cType="1" res="-1.2272064341232181e-03" rms="3.5826957225799561e-01" purity="1.8263027071952820e-01" nType="-99"/>
        </Node>
        <Node pos="r" depth="1" NCoef="0" IVar="1" Cut="2.1932717895507812e+02" cType="1" res="2.1286159753799438e-01" rms="4.0238702297210693e-01" purity="7.8725564479827881e-01" nType="0">
          <Node pos="l" depth="2" NCoef="0" IVar="-1" Cut="0.0000000000000000e+00" cType="1" res="3.9900449337437749e-04" rms="4.3863582611083984e-01" purity="7.2830611467361450e-01" nType="-99"/>
          <Node pos="r" depth="2" NCoef="0" IVar="-1" Cut="0.0000000000000000e+00" cType="1" res="6.7550915991887450e-04" rms="2.8678330779075623e-01" purity="9.0837806463241577e-01" nType="-99"/>
        </Node>
      </Node>
    </BinaryTree>
    <BinaryTree type="DecisionTree" boostWeight="1.0000000000000000e+00" itree="353">
      <Node pos="s" depth="0" NCoef="0" IVar="2" Cut="5.3398167968750000e+04" cType="1" res="5.3178418427705765e-02" rms="4.3953579664230347e-01" purity="5.0068396329879761e-01" nType="0">
        <Node pos="l" depth="1" NCoef="0" IVar="0" Cut="3.7628732621669769e-02" cType="1" res="-3.5630021244287491e-02" rms="4.3479770421981812e-01" purity="3.4196794033050537e-01" nType="0">
          <Node pos="l" depth="2" NCoef="0" IVar="-1" Cut="0.0000000000000000e+00" cType="1" res="7.3858129326254129e-05" rms="4.6079924702644348e-01" purity="4.3546569347381592e-01" nType="-99"/>
          <Node pos="r" depth="2" NCoef="0" IVar="-1" Cut="0.0000000000000000e+00" cType="1" res="-1.2316023930907249e-03" rms="3.6994847655296326e-01" purity="1.9725929200649261e-01" nType="-99"/>
        </Node>
        <Node pos="r" depth="1" NCoef="0" IVar="0" Cut="4.4180817902088165e-02" cType="1" res="2.1516488492488861e-01" rms="4.0015318989753723e-01" purity="7.9018181562423706e-01" nType="0">
          <Node pos="l" depth="2" NCoef="0" IVar="-1" Cut="0.0000000000000000e+00" cType="1" res="5.2019552094861865e-04" rms="2.9780939221382141e-01" purity="9.0054571628570557e-01" nType="-99"/>
          <Node pos="r" depth="2" NCoef="0" IVar="-1" Cut="0.0000000000000000e+00" cType="1" res="3.8889748975634575e-04" rms="4.4415462017059326e-01" purity="7.1205574274063110e-01" nType="-99"/>
        </Node>
      </Node>
    </BinaryTree>
    <BinaryTree type="DecisionTree" boostWeight="1.0000000000000000e+00" itree="354">
      <Node pos="s" depth="0" NCoef="0" IVar="2" Cut="5.4184500000000000e+04" cType="1" res="5.8759622275829315e-02" rms="4.3984699249267578e-01" purity="5.0712561607360840e-01" nType="0">
        <Node pos="l" depth="1" NCoef="0" IVar="0" Cut="4.9881406128406525e-02" cType="1" res="-3.5937909036874771e-02" rms="4.3662992119789124e-01" purity="3.4117826819419861e-01" nType="0">
          <Node pos="l" depth="2" NCoef="0" IVar="-1" Cut="0.0000000000000000e+00" cType="1" res="3.1088358809938654e-05" rms="4.5641633868217468e-01" purity="4.0424415469169617e-01" nType="-99"/>
          <Node pos="r" depth="2" NCoef="0" IVar="-1" Cut="0.0000000000000000e+00" cType="1" res="-1.6686591552570462e-03" rms="3.4246516227722168e-01" purity="1.6391353309154510e-01" nType="-99"/>
        </Node>
        <Node pos="r" depth="1" NCoef="0" IVar="1" Cut="2.3191941833496094e+02" cType="1" res="2.2704973816871643e-01" rms="3.9270615577697754e-01" purity="8.0203616619110107e-01" nType="0">
          <Node pos="l" depth="2" NCoef="0" IVar="-1" Cut="0.0000000000000000e+00" cType="1" res="3.5488329012878239e-04" rms="4.3210208415985107e-01" purity="7.4360460042953491e-01" nType="-99"/>
          <Node pos="r" depth="2" NCoef="0" IVar="-1" Cut="0.0000000000000000e+00" cType="1" res="5.1659770542755723e-04" rms="2.5352963805198669e-01" purity="9.3031799793243408e-01" nType="-99"/>
        </Node>
      </Node>
    </BinaryTree>
    <BinaryTree type="DecisionTree" boostWeight="1.0000000000000000e+00" itree="355">
      <Node pos="s" depth="0" NCoef="0" IVar="1" Cut="1.3922813415527344e+02" cType="1" res="4.6528093516826630e-02" rms="4.3882837891578674e-01" purity="4.9396505951881409e-01" nType="0">
        <Node pos="l" depth="1" NCoef="0" IVar="0" Cut="3.8617823272943497e-02" cType="1" res="-6.1900369822978973e-02" rms="4.1776055097579956e-01" purity="2.9415711760520935e-01" nType="0">
          <Node pos="l" depth="2" NCoef="0" IVar="-1" Cut="0.0000000000000000e+00" cType="1" res="-1.5091520253918134e-05" rms="4.5235148072242737e-01" purity="3.8557675480842590e-01" nType="-99"/>
          <Node pos="r" depth="2" NCoef="0" IVar="-1" Cut="0.0000000000000000e+00" cType="1" res="-2.1636825986206532e-03" rms="3.2867649197578430e-01" purity="1.3859568536281586e-01" nType="-99"/>
        </Node>
        <Node pos="r" depth="1" NCoef="0" IVar="2" Cut="6.6204593750000000e+04" cType="1" res="1.7727236449718475e-01" rms="4.2785573005676270e-01" purity="7.3489570617675781e-01" nType="0">
          <Node pos="l" depth="2" NCoef="0" IVar="-1" Cut="0.0000000000000000e+00" cType="1" res="1.8066848861053586e-04" rms="4.7905084490776062e-01" purity="6.0052049160003662e-01" nType="-99"/>
          <Node pos="r" depth="2" NCoef="0" IVar="-1" Cut="0.0000000000000000e+00" cType="1" res="4.7836138401180506e-04" rms="3.7325575947761536e-01" purity="8.3005189895629883e-01" nType="-99"/>
        </Node>
      </Node>
    </BinaryTree>
    <BinaryTree type="DecisionTree" boostWeight="1.0000000000000000e+00" itree="356">
      <Node pos="s" depth="0" NCoef="0" IVar="2" Cut="6.6204593750000000e+04" cType="1" res="5.1583580672740936e-02" rms="4.3982532620429993e-01" purity="4.9806061387062073e-01" nType="0">
        <Node pos="l" depth="1" NCoef="0" IVar="0" Cut="3.7628732621669769e-02" cType="1" res="-1.9900977611541748e-02" rms="4.4136771559715271e-01" purity="3.7616464495658875e-01" nType="0">
          <Node pos="l" depth="2" NCoef="0" IVar="-1" Cut="0.0000000000000000e+00" cType="1" res="1.4055213250685483e-04" rms="4.5823061466217041e-01" purity="4.6471673250198364e-01" nType="-99"/>
          <Node pos="r" depth="2" NCoef="0" IVar="-1" Cut="0.0000000000000000e+00" cType="1" res="-7.5286731589585543e-04" rms="3.9990362524986267e-01" purity="2.5439101457595825e-01" nType="-99"/>
        </Node>
        <Node pos="r" depth="1" NCoef="0" IVar="1" Cut="2.3208036804199219e+02" cType="1" res="2.4816673994064331e-01" rms="3.7015005946159363e-01" purity="8.3327555656433105e-01" nType="0">
          <Node pos="l" depth="2" NCoef="0" IVar="-1" Cut="0.0000000000000000e+00" cType="1" res="3.9270747220143676e-04" rms="4.1946011781692505e-01" purity="7.6883488893508911e-01" nType="-99"/>
          <Node pos="r" depth="2" NCoef="0" IVar="-1" Cut="0.0000000000000000e+00" cType="1" res="5.1137851551175117e-04" rms="2.5131231546401978e-01" purity="9.3207466602325439e-01" nType="-99"/>
        </Node>
      </Node>
    </BinaryTree>
    <BinaryTree type="DecisionTree" boostWeight="1.0000000000000000e+00" itree="357">
      <Node pos="s" depth="0" NCoef="0" IVar="1" Cut="1.3938558959960938e+02" cType="1" res="5.6258745491504669e-02" rms="4.3988698720932007e-01" purity="5.0370264053344727e-01" nType="0">
        <Node pos="l" depth="1" NCoef="0" IVar="1" Cut="3.9093719482421875e+01" cType="1" res="-5.2331726998090744e-02" rms="4.2397168278694153e-01" purity="3.0268263816833496e-01" nType="0">
          <Node pos="l" depth="2" NCoef="0" IVar="-1" Cut="0.0000000000000000e+00" cType="1" res="-1.4164505992084742e-03" rms="3.1237062811851501e-01" purity="1.1317007988691330e-01" nType="-99"/>
          <Node pos="r" depth="2" NCoef="0" IVar="-1" Cut="0.0000000000000000e+00" cType="1" res="-1.8284110410604626e-05" rms="4.4992032647132874e-01" purity="3.7454739212989807e-01" nType="-99"/>
        </Node>
        <Node pos="r" depth="1" NCoef="0" IVar="2" Cut="6.7100117187500000e+04" cType="1" res="1.8616877496242523e-01" rms="4.2304229736328125e-01" purity="7.4418884515762329e-01" nType="0">
          <Node pos="l" depth="2" NCoef="0" IVar="-1" Cut="0.0000000000000000e+00" cType="1" res="2.4717015912756324e-04" rms="4.7496566176414490e-01" purity="6.1912512779235840e-01" nType="-99"/>
          <Node pos="r" depth="2" NCoef="0" IVar="-1" Cut="0.0000000000000000e+00" cType="1" res="4.9792567733675241e-04" rms="3.6496618390083313e-01" purity="8.3933222293853760e-01" nType="-99"/>
        </Node>
      </Node>
    </BinaryTree>
    <BinaryTree type="DecisionTree" boostWeight="1.0000000000000000e+00" itree="358">
      <Node pos="s" depth="0" NCoef="0" IVar="1" Cut="1.2402588653564453e+02" cType="1" res="4.5863796025514603e-02" rms="4.4051939249038696e-01" purity="4.8993971943855286e-01" nType="0">
        <Node pos="l" depth="1" NCoef="0" IVar="0" Cut="6.0919947922229767e-02" cType="1" res="-7.7310875058174133e-02" rms="4.0889015793800354e-01" purity="2.6237833499908447e-01" nType="0">
          <Node pos="l" depth="2" NCoef="0" IVar="-1" Cut="0.0000000000000000e+00" cType="1" res="-2.6475152117200196e-04" rms="4.2911782860755920e-01" purity="3.0232083797454834e-01" nType="-99"/>
          <Node pos="r" depth="2" NCoef="0" IVar="-1" Cut="0.0000000000000000e+00" cType="1" res="-5.1938984543085098e-03" rms="2.4521560966968536e-01" purity="6.4230903983116150e-02" nType="-99"/>
        </Node>
        <Node pos="r" depth="1" NCoef="0" IVar="1" Cut="2.3106575012207031e+02" cType="1" res="1.6381143033504486e-01" rms="4.3742838501930237e-01" purity="7.0784425735473633e-01" nType="0">
          <Node pos="l" depth="2" NCoef="0" IVar="-1" Cut="0.0000000000000000e+00" cType="1" res="3.1622074311599135e-04" rms="4.6093618869781494e-01" purity="6.5436905622482300e-01" nType="-99"/>
          <Node pos="r" depth="2" NCoef="0" IVar="-1" Cut="0.0000000000000000e+00" cType="1" res="5.3248245967552066e-04" rms="3.0001202225685120e-01" purity="8.9481449127197266e-01" nType="-99"/>
        </Node>
      </Node>
    </BinaryTree>
    <BinaryTree type="DecisionTree" boostWeight="1.0000000000000000e+00" itree="359">
      <Node pos="s" depth="0" NCoef="0" IVar="1" Cut="1.3836579895019531e+02" cType="1" res="4.7257144004106522e-02" rms="4.4042560458183289e-01" purity="4.9184513092041016e-01" nType="0">
        <Node pos="l" depth="1" NCoef="0" IVar="1" Cut="5.2019695281982422e+01" cType="1" res="-5.6837525218725204e-02" rms="4.2106333374977112e-01" purity="2.9625844955444336e-01" nType="0">
          <Node pos="l" depth="2" NCoef="0" IVar="-1" Cut="0.0000000000000000e+00" cType="1" res="-2.4421720299869776e-03" rms="3.3127304911613464e-01" purity="1.3164573907852173e-01" nType="-99"/>
          <Node pos="r" depth="2" NCoef="0" IVar="-1" Cut="0.0000000000000000e+00" cType="1" res="-5.4882475524209440e-06" rms="4.5360571146011353e-01" purity="3.8679262995719910e-01" nType="-99"/>
        </Node>
        <Node pos="r" depth="1" NCoef="0" IVar="0" Cut="3.9660222828388214e-02" cType="1" res="1.7447580397129059e-01" rms="4.3003857135772705e-01" purity="7.3088008165359497e-01" nType="0">
          <Node pos="l" depth="2" NCoef="0" IVar="-1" Cut="0.0000000000000000e+00" cType="1" res="5.3252774523571134e-04" rms="3.6956128478050232e-01" purity="8.2647013664245605e-01" nType="-99"/>
          <Node pos="r" depth="2" NCoef="0" IVar="-1" Cut="0.0000000000000000e+00" cType="1" res="2.7346223942004144e-04" rms="4.5387053489685059e-01" purity="6.7288070917129517e-01" nType="-99"/>
        </Node>
      </Node>
    </BinaryTree>
    <BinaryTree type="DecisionTree" boostWeight="1.0000000000000000e+00" itree="360">
      <Node pos="s" depth="0" NCoef="0" IVar="2" Cut="6.6204593750000000e+04" cType="1" res="5.6133247911930084e-02" rms="4.4012266397476196e-01" purity="5.0259065628051758e-01" nType="0">
        <Node pos="l" depth="1" NCoef="0" IVar="0" Cut="3.7699569016695023e-02" cType="1" res="-1.2015868909657001e-02" rms="4.4286933541297913e-01" purity="3.8471499085426331e-01" nType="0">
          <Node pos="l" depth="2" NCoef="0" IVar="-1" Cut="0.0000000000000000e+00" cType="1" res="1.7457995272707194e-04" rms="4.5684641599655151e-01" purity="4.7925570607185364e-01" nType="-99"/>
          <Node pos="r" depth="2" NCoef="0" IVar="-1" Cut="0.0000000000000000e+00" cType="1" res="-6.8267638562247157e-04" rms="4.0347957611083984e-01" purity="2.5305202603340149e-01" nType="-99"/>
        </Node>
        <Node pos="r" depth="1" NCoef="0" IVar="1" Cut="2.2618206787109375e+02" cType="1" res="2.4691118299961090e-01" rms="3.7083819508552551e-01" purity="8.3257400989532471e-01" nType="0">
          <Node pos="l" depth="2" NCoef="0" IVar="-1" Cut="0.0000000000000000e+00" cType="1" res="3.8850694545544684e-04" rms="4.1198015213012695e-01" purity="7.8010427951812744e-01" nType="-99"/>
          <Node pos="r" depth="2" NCoef="0" IVar="-1" Cut="0.0000000000000000e+00" cType="1" res="5.0103053217753768e-04" rms="2.6853048801422119e-01" purity="9.2150253057479858e-01" nType="-99"/>
        </Node>
      </Node>
    </BinaryTree>
    <BinaryTree type="DecisionTree" boostWeight="1.0000000000000000e+00" itree="361">
      <Node pos="s" depth="0" NCoef="0" IVar="2" Cut="5.4184500000000000e+04" cType="1" res="5.4629150778055191e-02" rms="4.4076696038246155e-01" purity="5.0019317865371704e-01" nType="0">
        <Node pos="l" depth="1" NCoef="0" IVar="0" Cut="1.2470351532101631e-02" cType="1" res="-3.4662455320358276e-02" rms="4.3790221214294434e-01" purity="3.3929926156997681e-01" nType="0">
          <Node pos="l" depth="2" NCoef="0" IVar="-1" Cut="0.0000000000000000e+00" cType="1" res="1.4207535423338413e-04" rms="4.6549859642982483e-01" purity="4.9784526228904724e-01" nType="-99"/>
          <Node pos="r" depth="2" NCoef="0" IVar="-1" Cut="0.0000000000000000e+00" cType="1" res="-4.3949476093985140e-04" rms="4.1862234473228455e-01" purity="2.9268789291381836e-01" nType="-99"/>
        </Node>
        <Node pos="r" depth="1" NCoef="0" IVar="0" Cut="3.9660222828388214e-02" cType="1" res="2.1831268072128296e-01" rms="3.9683997631072998e-01" purity="7.9513329267501831e-01" nType="0">
          <Node pos="l" depth="2" NCoef="0" IVar="-1" Cut="0.0000000000000000e+00" cType="1" res="5.2204640815034509e-04" rms="2.8970375657081604e-01" purity="9.0712851285934448e-01" nType="-99"/>
          <Node pos="r" depth="2" NCoef="0" IVar="-1" Cut="0.0000000000000000e+00" cType="1" res="3.8140668766573071e-04" rms="4.2947846651077271e-01" purity="7.4209487438201904e-01" nType="-99"/>
        </Node>
      </Node>
    </BinaryTree>
    <BinaryTree type="DecisionTree" boostWeight="1.0000000000000000e+00" itree="362">
      <Node pos="s" depth="0" NCoef="0" IVar="3" Cut="1.4930736541748047e+01" cType="1" res="5.6091535836458206e-02" rms="4.3877044320106506e-01" purity="5.0270050764083862e-01" nType="0">
        <Node pos="l" depth="1" NCoef="0" IVar="0" Cut="2.1601404994726181e-02" cType="1" res="-6.3884750008583069e-02" rms="4.1728642582893372e-01" purity="2.9312765598297119e-01" nType="0">
          <Node pos="l" depth="2" NCoef="0" IVar="-1" Cut="0.0000000000000000e+00" cType="1" res="1.0263775766361505e-04" rms="4.5838776230812073e-01" purity="4.2780795693397522e-01" nType="-99"/>
          <Node pos="r" depth="2" NCoef="0" IVar="-1" Cut="0.0000000000000000e+00" cType="1" res="-1.2956102145835757e-03" rms="3.6109098792076111e-01" purity="1.8592621386051178e-01" nType="-99"/>
        </Node>
        <Node pos="r" depth="1" NCoef="0" IVar="0" Cut="4.2733144015073776e-02" cType="1" res="1.6981603205204010e-01" rms="4.2822331190109253e-01" purity="7.0135277509689331e-01" nType="0">
          <Node pos="l" depth="2" NCoef="0" IVar="-1" Cut="0.0000000000000000e+00" cType="1" res="5.4136518156155944e-04" rms="3.5274219512939453e-01" purity="8.4495508670806885e-01" nType="-99"/>
          <Node pos="r" depth="2" NCoef="0" IVar="-1" Cut="0.0000000000000000e+00" cType="1" res="2.4824836873449385e-04" rms="4.5038893818855286e-01" purity="6.2302607297897339e-01" nType="-99"/>
        </Node>
      </Node>
    </BinaryTree>
    <BinaryTree type="DecisionTree" boostWeight="1.0000000000000000e+00" itree="363">
      <Node pos="s" depth="0" NCoef="0" IVar="1" Cut="1.5843783569335938e+02" cType="1" res="4.1678506880998611e-02" rms="4.3821999430656433e-01" purity="4.8664349317550659e-01" nType="0">
        <Node pos="l" depth="1" NCoef="0" IVar="1" Cut="6.7263587951660156e+01" cType="1" res="-4.6293891966342926e-02" rms="4.2738100886344910e-01" purity="3.2984021306037903e-01" nType="0">
          <Node pos="l" depth="2" NCoef="0" IVar="-1" Cut="0.0000000000000000e+00" cType="1" res="-1.2450845679268241e-03" rms="3.3751642704010010e-01" purity="1.4038036763668060e-01" nType="-99"/>
          <Node pos="r" depth="2" NCoef="0" IVar="-1" Cut="0.0000000000000000e+00" cType="1" res="6.1630242271348834e-05" rms="4.6395578980445862e-01" purity="4.4720423221588135e-01" nType="-99"/>
        </Node>
        <Node pos="r" depth="1" NCoef="0" IVar="1" Cut="2.4961164855957031e+02" cType="1" res="1.9838882982730865e-01" rms="4.1280215978622437e-01" purity="7.6596617698669434e-01" nType="0">
          <Node pos="l" depth="2" NCoef="0" IVar="-1" Cut="0.0000000000000000e+00" cType="1" res="3.3500499557703733e-04" rms="4.4306495785713196e-01" purity="7.1341234445571899e-01" nType="-99"/>
          <Node pos="r" depth="2" NCoef="0" IVar="-1" Cut="0.0000000000000000e+00" cType="1" res="5.9203716227784753e-04" rms="2.7845931053161621e-01" purity="9.1144812107086182e-01" nType="-99"/>
        </Node>
      </Node>
    </BinaryTree>
    <BinaryTree type="DecisionTree" boostWeight="1.0000000000000000e+00" itree="364">
      <Node pos="s" depth="0" NCoef="0" IVar="1" Cut="9.1871818542480469e+01" cType="1" res="5.1950819790363312e-02" rms="4.3948015570640564e-01" purity="4.9786138534545898e-01" nType="0">
        <Node pos="l" depth="1" NCoef="0" IVar="0" Cut="1.2183989398181438e-02" cType="1" res="-1.0593379288911819e-01" rms="3.8161513209342957e-01" purity="2.0750303566455841e-01" nType="0">
          <Node pos="l" depth="2" NCoef="0" IVar="-1" Cut="0.0000000000000000e+00" cType="1" res="-6.7824330471921712e-05" rms="4.4879585504531860e-01" purity="3.2325974106788635e-01" nType="-99"/>
          <Node pos="r" depth="2" NCoef="0" IVar="-1" Cut="0.0000000000000000e+00" cType="1" res="-1.5500441659241915e-03" rms="3.4573411941528320e-01" purity="1.6236411035060883e-01" nType="-99"/>
        </Node>
        <Node pos="r" depth="1" NCoef="0" IVar="0" Cut="2.8488764539361000e-02" cType="1" res="1.3752967119216919e-01" rms="4.4504043459892273e-01" purity="6.5524554252624512e-01" nType="0">
          <Node pos="l" depth="2" NCoef="0" IVar="-1" Cut="0.0000000000000000e+00" cType="1" res="4.9287796718999743e-04" rms="3.7946316599845886e-01" purity="8.1289601325988770e-01" nType="-99"/>
          <Node pos="r" depth="2" NCoef="0" IVar="-1" Cut="0.0000000000000000e+00" cType="1" res="2.4189772375393659e-04" rms="4.5579001307487488e-01" purity="5.9553462266921997e-01" nType="-99"/>
        </Node>
      </Node>
    </BinaryTree>
    <BinaryTree type="DecisionTree" boostWeight="1.0000000000000000e+00" itree="365">
      <Node pos="s" depth="0" NCoef="0" IVar="2" Cut="4.4136394531250000e+04" cType="1" res="4.7625668346881866e-02" rms="4.3779534101486206e-01" purity="4.9430418014526367e-01" nType="0">
        <Node pos="l" depth="1" NCoef="0" IVar="1" Cut="7.1885795593261719e+01" cType="1" res="-4.8622936010360718e-02" rms="4.2423859238624573e-01" purity="3.1837239861488342e-01" nType="0">
          <Node pos="l" depth="2" NCoef="0" IVar="-1" Cut="0.0000000000000000e+00" cType="1" res="-1.9581743981689215e-03" rms="3.3615821599960327e-01" purity="1.4259435236454010e-01" nType="-99"/>
          <Node pos="r" depth="2" NCoef="0" IVar="-1" Cut="0.0000000000000000e+00" cType="1" res="1.0050980927189812e-04" rms="4.6646985411643982e-01" purity="4.5056781172752380e-01" nType="-99"/>
        </Node>
        <Node pos="r" depth="1" NCoef="0" IVar="0" Cut="3.9766632020473480e-02" cType="1" res="1.8916109204292297e-01" rms="4.1856291890144348e-01" purity="7.5301533937454224e-01" nType="0">
          <Node pos="l" depth="2" NCoef="0" IVar="-1" Cut="0.0000000000000000e+00" cType="1" res="5.4164935136213899e-04" rms="3.0970090627670288e-01" purity="8.9085817337036133e-01" nType="-99"/>
          <Node pos="r" depth="2" NCoef="0" IVar="-1" Cut="0.0000000000000000e+00" cType="1" res="3.0886748572811484e-04" rms="4.5012971758842468e-01" purity="6.8500119447708130e-01" nType="-99"/>
        </Node>
      </Node>
    </BinaryTree>
    <BinaryTree type="DecisionTree" boostWeight="1.0000000000000000e+00" itree="366">
      <Node pos="s" depth="0" NCoef="0" IVar="1" Cut="1.3857240295410156e+02" cType="1" res="4.9001131206750870e-02" rms="4.3885815143585205e-01" purity="4.9401342868804932e-01" nType="0">
        <Node pos="l" depth="1" NCoef="0" IVar="1" Cut="3.8967037200927734e+01" cType="1" res="-5.3347341716289520e-02" rms="4.2088612914085388e-01" purity="2.9858079552650452e-01" nType="0">
          <Node pos="l" depth="2" NCoef="0" IVar="-1" Cut="0.0000000000000000e+00" cType="1" res="-1.9642680417746305e-03" rms="3.1389173865318298e-01" purity="1.1318823695182800e-01" nType="-99"/>
          <Node pos="r" depth="2" NCoef="0" IVar="-1" Cut="0.0000000000000000e+00" cType="1" res="-2.8048863896401599e-05" rms="4.4642043113708496e-01" purity="3.6930274963378906e-01" nType="-99"/>
        </Node>
        <Node pos="r" depth="1" NCoef="0" IVar="1" Cut="2.5809881591796875e+02" cType="1" res="1.7470870912075043e-01" rms="4.2767503857612610e-01" purity="7.3404985666275024e-01" nType="0">
          <Node pos="l" depth="2" NCoef="0" IVar="-1" Cut="0.0000000000000000e+00" cType="1" res="3.4043297637254000e-04" rms="4.5092877745628357e-01" purity="6.8766468763351440e-01" nType="-99"/>
          <Node pos="r" depth="2" NCoef="0" IVar="-1" Cut="0.0000000000000000e+00" cType="1" res="5.5916165001690388e-04" rms="2.6260954141616821e-01" purity="9.2234379053115845e-01" nType="-99"/>
        </Node>
      </Node>
    </BinaryTree>
    <BinaryTree type="DecisionTree" boostWeight="1.0000000000000000e+00" itree="367">
      <Node pos="s" depth="0" NCoef="0" IVar="3" Cut="1.4930736541748047e+01" cType="1" res="6.3501752912998199e-02" rms="4.4063088297843933e-01" purity="5.0907826423645020e-01" nType="0">
        <Node pos="l" depth="1" NCoef="0" IVar="0" Cut="2.2131901234388351e-02" cType="1" res="-5.8780599385499954e-02" rms="4.2274117469787598e-01" purity="2.9474717378616333e-01" nType="0">
          <Node pos="l" depth="2" NCoef="0" IVar="-1" Cut="0.0000000000000000e+00" cType="1" res="4.9622158257989213e-05" rms="4.5741671323776245e-01" purity="4.0186643600463867e-01" nType="-99"/>
          <Node pos="r" depth="2" NCoef="0" IVar="-1" Cut="0.0000000000000000e+00" cType="1" res="-8.1096997018903494e-04" rms="3.8173627853393555e-01" purity="2.0945581793785095e-01" nType="-99"/>
        </Node>
        <Node pos="r" depth="1" NCoef="0" IVar="0" Cut="3.9707794785499573e-02" cType="1" res="1.7601041495800018e-01" rms="4.2655658721923828e-01" purity="7.0627844333648682e-01" nType="0">
          <Node pos="l" depth="2" NCoef="0" IVar="-1" Cut="0.0000000000000000e+00" cType="1" res="4.8030287143774331e-04" rms="3.2605624198913574e-01" purity="8.7383949756622314e-01" nType="-99"/>
          <Node pos="r" depth="2" NCoef="0" IVar="-1" Cut="0.0000000000000000e+00" cType="1" res="2.4465145543217659e-04" rms="4.5316252112388611e-01" purity="6.1645758152008057e-01" nType="-99"/>
        </Node>
      </Node>
    </BinaryTree>
    <BinaryTree type="DecisionTree" boostWeight="1.0000000000000000e+00" itree="368">
      <Node pos="s" depth="0" NCoef="0" IVar="2" Cut="4.4136394531250000e+04" cType="1" res="5.0048708915710449e-02" rms="4.3918174505233765e-01" purity="4.9644115567207336e-01" nType="0">
        <Node pos="l" depth="1" NCoef="0" IVar="0" Cut="3.8101427257061005e-02" cType="1" res="-5.2179686725139618e-02" rms="4.2692962288856506e-01" purity="3.0953097343444824e-01" nType="0">
          <Node pos="l" depth="2" NCoef="0" IVar="-1" Cut="0.0000000000000000e+00" cType="1" res="1.2249705605427152e-06" rms="4.5872718095779419e-01" purity="3.9689397811889648e-01" nType="-99"/>
          <Node pos="r" depth="2" NCoef="0" IVar="-1" Cut="0.0000000000000000e+00" cType="1" res="-1.6342331655323505e-03" rms="3.4963208436965942e-01" purity="1.6212706267833710e-01" nType="-99"/>
        </Node>
        <Node pos="r" depth="1" NCoef="0" IVar="0" Cut="4.4180817902088165e-02" cType="1" res="1.9316598773002625e-01" rms="4.1547986865043640e-01" purity="7.5811088085174561e-01" nType="0">
          <Node pos="l" depth="2" NCoef="0" IVar="-1" Cut="0.0000000000000000e+00" cType="1" res="5.6995364138856530e-04" rms="3.3050283789634705e-01" purity="8.7219703197479248e-01" nType="-99"/>
          <Node pos="r" depth="2" NCoef="0" IVar="-1" Cut="0.0000000000000000e+00" cType="1" res="3.0825712019577622e-04" rms="4.4640073180198669e-01" purity="6.9227766990661621e-01" nType="-99"/>
        </Node>
      </Node>
    </BinaryTree>
    <BinaryTree type="DecisionTree" boostWeight="1.0000000000000000e+00" itree="369">
      <Node pos="s" depth="0" NCoef="0" IVar="1" Cut="1.0525318145751953e+02" cType="1" res="5.4937116801738739e-02" rms="4.3880310654640198e-01" purity="5.0110352039337158e-01" nType="0">
        <Node pos="l" depth="1" NCoef="0" IVar="1" Cut="5.4600872039794922e+01" cType="1" res="-8.5533283650875092e-02" rms="3.9506807923316956e-01" purity="2.3954556882381439e-01" nType="0">
          <Node pos="l" depth="2" NCoef="0" IVar="-1" Cut="0.0000000000000000e+00" cType="1" res="-1.9867708906531334e-03" rms="3.2447588443756104e-01" purity="1.2413949519395828e-01" nType="-99"/>
          <Node pos="r" depth="2" NCoef="0" IVar="-1" Cut="0.0000000000000000e+00" cType="1" res="-7.4646297434810549e-05" rms="4.3926849961280823e-01" purity="3.4518954157829285e-01" nType="-99"/>
        </Node>
        <Node pos="r" depth="1" NCoef="0" IVar="2" Cut="6.6204593750000000e+04" cType="1" res="1.5250854194164276e-01" rms="4.4119596481323242e-01" purity="6.8278294801712036e-01" nType="0">
          <Node pos="l" depth="2" NCoef="0" IVar="-1" Cut="0.0000000000000000e+00" cType="1" res="2.0926014985889196e-04" rms="4.7599640488624573e-01" purity="5.6896907091140747e-01" nType="-99"/>
          <Node pos="r" depth="2" NCoef="0" IVar="-1" Cut="0.0000000000000000e+00" cType="1" res="4.7569375601597130e-04" rms="3.7386435270309448e-01" purity="8.2865303754806519e-01" nType="-99"/>
        </Node>
      </Node>
    </BinaryTree>
    <BinaryTree type="DecisionTree" boostWeight="1.0000000000000000e+00" itree="370">
      <Node pos="s" depth="0" NCoef="0" IVar="2" Cut="6.1173269531250000e+04" cType="1" res="4.1277881711721420e-02" rms="4.3853148818016052e-01" purity="4.8629096150398254e-01" nType="0">
        <Node pos="l" depth="1" NCoef="0" IVar="1" Cut="1.1790930938720703e+02" cType="1" res="-3.4100554883480072e-02" rms="4.3492496013641357e-01" purity="3.5226777195930481e-01" nType="0">
          <Node pos="l" depth="2" NCoef="0" IVar="-1" Cut="0.0000000000000000e+00" cType="1" res="-6.2911654822528362e-04" rms="3.9941054582595825e-01" purity="2.4403749406337738e-01" nType="-99"/>
          <Node pos="r" depth="2" NCoef="0" IVar="-1" Cut="0.0000000000000000e+00" cType="1" res="2.2354173415806144e-04" rms="4.7852003574371338e-01" purity="5.5845344066619873e-01" nType="-99"/>
        </Node>
        <Node pos="r" depth="1" NCoef="0" IVar="1" Cut="2.2627468872070312e+02" cType="1" res="2.2029317915439606e-01" rms="3.9274764060974121e-01" purity="8.0458086729049683e-01" nType="0">
          <Node pos="l" depth="2" NCoef="0" IVar="-1" Cut="0.0000000000000000e+00" cType="1" res="4.1691842488944530e-04" rms="4.3529802560806274e-01" purity="7.4045473337173462e-01" nType="-99"/>
          <Node pos="r" depth="2" NCoef="0" IVar="-1" Cut="0.0000000000000000e+00" cType="1" res="6.1017594998702407e-04" rms="2.7288299798965454e-01" purity="9.1852730512619019e-01" nType="-99"/>
        </Node>
      </Node>
    </BinaryTree>
    <BinaryTree type="DecisionTree" boostWeight="1.0000000000000000e+00" itree="371">
      <Node pos="s" depth="0" NCoef="0" IVar="1" Cut="1.0517140960693359e+02" cType="1" res="5.0789609551429749e-02" rms="4.3993324041366577e-01" purity="4.9497759342193604e-01" nType="0">
        <Node pos="l" depth="1" NCoef="0" IVar="1" Cut="3.9318096160888672e+01" cType="1" res="-8.2538776099681854e-02" rms="3.9803630113601685e-01" purity="2.3986774682998657e-01" nType="0">
          <Node pos="l" depth="2" NCoef="0" IVar="-1" Cut="0.0000000000000000e+00" cType="1" res="-3.0767195858061314e-03" rms="2.9924219846725464e-01" purity="1.0203637927770615e-01" nType="-99"/>
          <Node pos="r" depth="2" NCoef="0" IVar="-1" Cut="0.0000000000000000e+00" cType="1" res="-1.1484787683002651e-04" rms="4.3477174639701843e-01" purity="3.1994575262069702e-01" nType="-99"/>
        </Node>
        <Node pos="r" depth="1" NCoef="0" IVar="2" Cut="6.1173269531250000e+04" cType="1" res="1.4499257504940033e-01" rms="4.4374868273735046e-01" purity="6.7522507905960083e-01" nType="0">
          <Node pos="l" depth="2" NCoef="0" IVar="-1" Cut="0.0000000000000000e+00" cType="1" res="1.9984702521469444e-04" rms="4.7840717434883118e-01" purity="5.4304248094558716e-01" nType="-99"/>
          <Node pos="r" depth="2" NCoef="0" IVar="-1" Cut="0.0000000000000000e+00" cType="1" res="4.7304338659159839e-04" rms="3.9123830199241638e-01" purity="8.0655324459075928e-01" nType="-99"/>
        </Node>
      </Node>
    </BinaryTree>
    <BinaryTree type="DecisionTree" boostWeight="1.0000000000000000e+00" itree="372">
      <Node pos="s" depth="0" NCoef="0" IVar="3" Cut="1.4930736541748047e+01" cType="1" res="5.2858740091323853e-02" rms="4.3625035881996155e-01" purity="5.0137501955032349e-01" nType="0">
        <Node pos="l" depth="1" NCoef="0" IVar="0" Cut="2.1601404994726181e-02" cType="1" res="-8.3630852401256561e-02" rms="4.0743458271026611e-01" purity="2.6816153526306152e-01" nType="0">
          <Node pos="l" depth="2" NCoef="0" IVar="-1" Cut="0.0000000000000000e+00" cType="1" res="1.5033563613542356e-05" rms="4.4919326901435852e-01" purity="3.8700658082962036e-01" nType="-99"/>
          <Node pos="r" depth="2" NCoef="0" IVar="-1" Cut="0.0000000000000000e+00" cType="1" res="-1.5808907337486744e-03" rms="3.5880205035209656e-01" purity="1.7796209454536438e-01" nType="-99"/>
        </Node>
        <Node pos="r" depth="1" NCoef="0" IVar="0" Cut="3.9660222828388214e-02" cType="1" res="1.7239360511302948e-01" rms="4.2544332146644592e-01" purity="7.0561873912811279e-01" nType="0">
          <Node pos="l" depth="2" NCoef="0" IVar="-1" Cut="0.0000000000000000e+00" cType="1" res="4.7500574146397412e-04" rms="3.3185809850692749e-01" purity="8.6952477693557739e-01" nType="-99"/>
          <Node pos="r" depth="2" NCoef="0" IVar="-1" Cut="0.0000000000000000e+00" cType="1" res="2.5114003801718354e-04" rms="4.4768145680427551e-01" purity="6.2650614976882935e-01" nType="-99"/>
        </Node>
      </Node>
    </BinaryTree>
    <BinaryTree type="DecisionTree" boostWeight="1.0000000000000000e+00" itree="373">
      <Node pos="s" depth="0" NCoef="0" IVar="2" Cut="6.1173269531250000e+04" cType="1" res="4.7341346740722656e-02" rms="4.3829098343849182e-01" purity="4.9115875363349915e-01" nType="0">
        <Node pos="l" depth="1" NCoef="0" IVar="0" Cut="3.8101427257061005e-02" cType="1" res="-2.7599317952990532e-02" rms="4.3650177121162415e-01" purity="3.5666650533676147e-01" nType="0">
          <Node pos="l" depth="2" NCoef="0" IVar="-1" Cut="0.0000000000000000e+00" cType="1" res="1.1684000492095947e-04" rms="4.5544078946113586e-01" purity="4.4855216145515442e-01" nType="-99"/>
          <Node pos="r" depth="2" NCoef="0" IVar="-1" Cut="0.0000000000000000e+00" cType="1" res="-1.0434323921799660e-03" rms="3.8783791661262512e-01" purity="2.2013019025325775e-01" nType="-99"/>
        </Node>
        <Node pos="r" depth="1" NCoef="0" IVar="1" Cut="2.2227612304687500e+02" cType="1" res="2.2484560310840607e-01" rms="3.8858231902122498e-01" purity="8.0971676111221313e-01" nType="0">
          <Node pos="l" depth="2" NCoef="0" IVar="-1" Cut="0.0000000000000000e+00" cType="1" res="3.7051533581689000e-04" rms="4.3990463018417358e-01" purity="7.3170864582061768e-01" nType="-99"/>
          <Node pos="r" depth="2" NCoef="0" IVar="-1" Cut="0.0000000000000000e+00" cType="1" res="4.0255620842799544e-04" rms="2.6621723175048828e-01" purity="9.2283648252487183e-01" nType="-99"/>
        </Node>
      </Node>
    </BinaryTree>
    <BinaryTree type="DecisionTree" boostWeight="1.0000000000000000e+00" itree="374">
      <Node pos="s" depth="0" NCoef="0" IVar="2" Cut="6.1173269531250000e+04" cType="1" res="4.6392410993576050e-02" rms="4.3745341897010803e-01" purity="4.9157994985580444e-01" nType="0">
        <Node pos="l" depth="1" NCoef="0" IVar="1" Cut="7.8204040527343750e+01" cType="1" res="-3.4866880625486374e-02" rms="4.3507668375968933e-01" purity="3.4831559658050537e-01" nType="0">
          <Node pos="l" depth="2" NCoef="0" IVar="-1" Cut="0.0000000000000000e+00" cType="1" res="-4.9216626212000847e-04" rms="3.5815888643264771e-01" purity="1.6844063997268677e-01" nType="-99"/>
          <Node pos="r" depth="2" NCoef="0" IVar="-1" Cut="0.0000000000000000e+00" cType="1" res="1.1101667041657493e-04" rms="4.7260603308677673e-01" purity="4.7781479358673096e-01" nType="-99"/>
        </Node>
        <Node pos="r" depth="1" NCoef="0" IVar="1" Cut="2.4399609375000000e+02" cType="1" res="2.2992300987243652e-01" rms="3.8399508595466614e-01" purity="8.1515389680862427e-01" nType="0">
          <Node pos="l" depth="2" NCoef="0" IVar="-1" Cut="0.0000000000000000e+00" cType="1" res="3.9866135921329260e-04" rms="4.2429348826408386e-01" purity="7.5868600606918335e-01" nType="-99"/>
          <Node pos="r" depth="2" NCoef="0" IVar="-1" Cut="0.0000000000000000e+00" cType="1" res="6.1473815003409982e-04" rms="2.4401292204856873e-01" purity="9.3623518943786621e-01" nType="-99"/>
        </Node>
      </Node>
    </BinaryTree>
    <BinaryTree type="DecisionTree" boostWeight="1.0000000000000000e+00" itree="375">
      <Node pos="s" depth="0" NCoef="0" IVar="3" Cut="1.4930736541748047e+01" cType="1" res="5.2635744214057922e-02" rms="4.3831959366798401e-01" purity="4.9858063459396362e-01" nType="0">
        <Node pos="l" depth="1" NCoef="0" IVar="0" Cut="4.0071118623018265e-02" cType="1" res="-6.9140277802944183e-02" rms="4.1415426135063171e-01" purity="2.8424283862113953e-01" nType="0">
          <Node pos="l" depth="2" NCoef="0" IVar="-1" Cut="0.0000000000000000e+00" cType="1" res="-8.9944405772257596e-05" rms="4.4887268543243408e-01" purity="3.6256244778633118e-01" nType="-99"/>
          <Node pos="r" depth="2" NCoef="0" IVar="-1" Cut="0.0000000000000000e+00" cType="1" res="-4.9290573224425316e-03" rms="2.7062869071960449e-01" purity="7.8830502927303314e-02" nType="-99"/>
        </Node>
        <Node pos="r" depth="1" NCoef="0" IVar="0" Cut="4.1265200823545456e-02" cType="1" res="1.6503913700580597e-01" rms="4.2990264296531677e-01" purity="6.9642168283462524e-01" nType="0">
          <Node pos="l" depth="2" NCoef="0" IVar="-1" Cut="0.0000000000000000e+00" cType="1" res="4.9361883429810405e-04" rms="3.3410778641700745e-01" purity="8.6420840024948120e-01" nType="-99"/>
          <Node pos="r" depth="2" NCoef="0" IVar="-1" Cut="0.0000000000000000e+00" cType="1" res="2.1979247685521841e-04" rms="4.5674866437911987e-01" purity="5.9826183319091797e-01" nType="-99"/>
        </Node>
      </Node>
    </BinaryTree>
    <BinaryTree type="DecisionTree" boostWeight="1.0000000000000000e+00" itree="376">
      <Node pos="s" depth="0" NCoef="0" IVar="2" Cut="6.6204593750000000e+04" cType="1" res="5.6414600461721420e-02" rms="4.4014748930931091e-01" purity="5.0093442201614380e-01" nType="0">
        <Node pos="l" depth="1" NCoef="0" IVar="0" Cut="3.8101427257061005e-02" cType="1" res="-1.4403794892132282e-02" rms="4.4398471713066101e-01" purity="3.7633723020553589e-01" nType="0">
          <Node pos="l" depth="2" NCoef="0" IVar="-1" Cut="0.0000000000000000e+00" cType="1" res="1.3150095765013248e-04" rms="4.5967978239059448e-01" purity="4.6885299682617188e-01" nType="-99"/>
          <Node pos="r" depth="2" NCoef="0" IVar="-1" Cut="0.0000000000000000e+00" cType="1" res="-8.6169451242312789e-04" rms="4.0176177024841309e-01" purity="2.4623869359493256e-01" nType="-99"/>
        </Node>
        <Node pos="r" depth="1" NCoef="0" IVar="1" Cut="1.9695610046386719e+02" cType="1" res="2.4700777232646942e-01" rms="3.6711850762367249e-01" purity="8.3626204729080200e-01" nType="0">
          <Node pos="l" depth="2" NCoef="0" IVar="-1" Cut="0.0000000000000000e+00" cType="1" res="4.2873536585830152e-04" rms="4.1945758461952209e-01" purity="7.6697587966918945e-01" nType="-99"/>
          <Node pos="r" depth="2" NCoef="0" IVar="-1" Cut="0.0000000000000000e+00" cType="1" res="4.9060379387810826e-04" rms="2.9748237133026123e-01" purity="9.0112948417663574e-01" nType="-99"/>
        </Node>
      </Node>
    </BinaryTree>
    <BinaryTree type="DecisionTree" boostWeight="1.0000000000000000e+00" itree="377">
      <Node pos="s" depth="0" NCoef="0" IVar="2" Cut="6.6204593750000000e+04" cType="1" res="5.4377634078264236e-02" rms="4.3670415878295898e-01" purity="5.0160789489746094e-01" nType="0">
        <Node pos="l" depth="1" NCoef="0" IVar="1" Cut="7.8370239257812500e+01" cType="1" res="-1.5517801046371460e-02" rms="4.3893000483512878e-01" purity="3.7925583124160767e-01" nType="0">
          <Node pos="l" depth="2" NCoef="0" IVar="-1" Cut="0.0000000000000000e+00" cType="1" res="-9.1126974439248443e-04" rms="3.6218118667602539e-01" purity="1.7506383359432220e-01" nType="-99"/>
          <Node pos="r" depth="2" NCoef="0" IVar="-1" Cut="0.0000000000000000e+00" cType="1" res="1.7021504754666239e-04" rms="4.7010788321495056e-01" purity="5.1073795557022095e-01" nType="-99"/>
        </Node>
        <Node pos="r" depth="1" NCoef="0" IVar="1" Cut="2.2952496337890625e+02" cType="1" res="2.4434435367584229e-01" rms="3.6884701251983643e-01" purity="8.3414506912231445e-01" nType="0">
          <Node pos="l" depth="2" NCoef="0" IVar="-1" Cut="0.0000000000000000e+00" cType="1" res="4.1323088225908577e-04" rms="4.1528922319412231e-01" purity="7.7413076162338257e-01" nType="-99"/>
          <Node pos="r" depth="2" NCoef="0" IVar="-1" Cut="0.0000000000000000e+00" cType="1" res="4.8907269956544042e-04" rms="2.5637292861938477e-01" purity="9.2895489931106567e-01" nType="-99"/>
        </Node>
      </Node>
    </BinaryTree>
    <BinaryTree type="DecisionTree" boostWeight="1.0000000000000000e+00" itree="378">
      <Node pos="s" depth="0" NCoef="0" IVar="2" Cut="3.4482546875000000e+04" cType="1" res="4.7765910625457764e-02" rms="4.3653672933578491e-01" purity="4.9412828683853149e-01" nType="0">
        <Node pos="l" depth="1" NCoef="0" IVar="0" Cut="2.4177541956305504e-02" cType="1" res="-7.4121885001659393e-02" rms="4.0981680154800415e-01" purity="2.7908289432525635e-01" nType="0">
          <Node pos="l" depth="2" NCoef="0" IVar="-1" Cut="0.0000000000000000e+00" cType="1" res="5.5677330237813294e-05" rms="4.5247268676757812e-01" purity="4.0034425258636475e-01" nType="-99"/>
          <Node pos="r" depth="2" NCoef="0" IVar="-1" Cut="0.0000000000000000e+00" cType="1" res="-1.5018061967566609e-03" rms="3.5479971766471863e-01" purity="1.7724636197090149e-01" nType="-99"/>
        </Node>
        <Node pos="r" depth="1" NCoef="0" IVar="0" Cut="3.9760161191225052e-02" cType="1" res="1.7615939676761627e-01" rms="4.2690908908843994e-01" purity="7.2065156698226929e-01" nType="0">
          <Node pos="l" depth="2" NCoef="0" IVar="-1" Cut="0.0000000000000000e+00" cType="1" res="5.3984287660568953e-04" rms="3.2494711875915527e-01" purity="8.7445944547653198e-01" nType="-99"/>
          <Node pos="r" depth="2" NCoef="0" IVar="-1" Cut="0.0000000000000000e+00" cType="1" res="2.8646975988522172e-04" rms="4.5562401413917542e-01" purity="6.4362758398056030e-01" nType="-99"/>
        </Node>
      </Node>
    </BinaryTree>
    <BinaryTree type="DecisionTree" boostWeight="1.0000000000000000e+00" itree="379">
      <Node pos="s" depth="0" NCoef="0" IVar="1" Cut="1.5836036682128906e+02" cType="1" res="5.7773228734731674e-02" rms="4.3694567680358887e-01" purity="5.0510811805725098e-01" nType="0">
        <Node pos="l" depth="1" NCoef="0" IVar="1" Cut="4.4384014129638672e+01" cType="1" res="-3.7329252809286118e-02" rms="4.3023124337196350e-01" purity="3.3586421608924866e-01" nType="0">
          <Node pos="l" depth="2" NCoef="0" IVar="-1" Cut="0.0000000000000000e+00" cType="1" res="-1.9011098193004727e-03" rms="3.3090525865554810e-01" purity="1.2759935855865479e-01" nType="-99"/>
          <Node pos="r" depth="2" NCoef="0" IVar="-1" Cut="0.0000000000000000e+00" cType="1" res="2.2957668988965452e-05" rms="4.5390653610229492e-01" purity="4.1295289993286133e-01" nType="-99"/>
        </Node>
        <Node pos="r" depth="1" NCoef="0" IVar="1" Cut="2.4954248046875000e+02" cType="1" res="2.1479743719100952e-01" rms="4.0117982029914856e-01" purity="7.8454756736755371e-01" nType="0">
          <Node pos="l" depth="2" NCoef="0" IVar="-1" Cut="0.0000000000000000e+00" cType="1" res="3.3838671515695751e-04" rms="4.2851144075393677e-01" purity="7.4275976419448853e-01" nType="-99"/>
          <Node pos="r" depth="2" NCoef="0" IVar="-1" Cut="0.0000000000000000e+00" cType="1" res="6.7903223680332303e-04" rms="2.7467933297157288e-01" purity="9.1387361288070679e-01" nType="-99"/>
        </Node>
      </Node>
    </BinaryTree>
    <BinaryTree type="DecisionTree" boostWeight="1.0000000000000000e+00" itree="380">
      <Node pos="s" depth="0" NCoef="0" IVar="1" Cut="1.3710118103027344e+02" cType="1" res="6.6109113395214081e-02" rms="4.3696632981300354e-01" purity="5.1454502344131470e-01" nType="0">
        <Node pos="l" depth="1" NCoef="0" IVar="0" Cut="3.7411056458950043e-02" cType="1" res="-4.4315245002508163e-02" rms="4.2349115014076233e-01" purity="3.0290797352790833e-01" nType="0">
          <Node pos="l" depth="2" NCoef="0" IVar="-1" Cut="0.0000000000000000e+00" cType="1" res="4.9313035560771823e-05" rms="4.5653879642486572e-01" purity="3.9660450816154480e-01" nType="-99"/>
          <Node pos="r" depth="2" NCoef="0" IVar="-1" Cut="0.0000000000000000e+00" cType="1" res="-1.6853215638548136e-03" rms="3.4636446833610535e-01" purity="1.5484383702278137e-01" nType="-99"/>
        </Node>
        <Node pos="r" depth="1" NCoef="0" IVar="2" Cut="7.3261218750000000e+04" cType="1" res="1.8844781816005707e-01" rms="4.1869977116584778e-01" purity="7.4901682138442993e-01" nType="0">
          <Node pos="l" depth="2" NCoef="0" IVar="-1" Cut="0.0000000000000000e+00" cType="1" res="2.9028957942500710e-04" rms="4.6592471003532410e-01" purity="6.4492607116699219e-01" nType="-99"/>
          <Node pos="r" depth="2" NCoef="0" IVar="-1" Cut="0.0000000000000000e+00" cType="1" res="3.9971814840100706e-04" rms="3.3154624700546265e-01" purity="8.7279486656188965e-01" nType="-99"/>
        </Node>
      </Node>
    </BinaryTree>
    <BinaryTree type="DecisionTree" boostWeight="1.0000000000000000e+00" itree="381">
      <Node pos="s" depth="0" NCoef="0" IVar="2" Cut="6.6204593750000000e+04" cType="1" res="4.5838374644517899e-02" rms="4.3489241600036621e-01" purity="4.9341428279876709e-01" nType="0">
        <Node pos="l" depth="1" NCoef="0" IVar="1" Cut="7.8204040527343750e+01" cType="1" res="-2.7021462097764015e-02" rms="4.3449056148529053e-01" purity="3.6737406253814697e-01" nType="0">
          <Node pos="l" depth="2" NCoef="0" IVar="-1" Cut="0.0000000000000000e+00" cType="1" res="-1.4989644987508655e-03" rms="3.5219734907150269e-01" purity="1.6344383358955383e-01" nType="-99"/>
          <Node pos="r" depth="2" NCoef="0" IVar="-1" Cut="0.0000000000000000e+00" cType="1" res="1.3394138659350574e-04" rms="4.6871501207351685e-01" purity="4.9893680214881897e-01" nType="-99"/>
        </Node>
        <Node pos="r" depth="1" NCoef="0" IVar="1" Cut="1.9695610046386719e+02" cType="1" res="2.4164144694805145e-01" rms="3.7076309323310852e-01" purity="8.3213406801223755e-01" nType="0">
          <Node pos="l" depth="2" NCoef="0" IVar="-1" Cut="0.0000000000000000e+00" cType="1" res="3.6113895475864410e-04" rms="4.3245473504066467e-01" purity="7.4570435285568237e-01" nType="-99"/>
          <Node pos="r" depth="2" NCoef="0" IVar="-1" Cut="0.0000000000000000e+00" cType="1" res="4.5451914775185287e-04" rms="2.9214623570442200e-01" purity="9.0494585037231445e-01" nType="-99"/>
        </Node>
      </Node>
    </BinaryTree>
    <BinaryTree type="DecisionTree" boostWeight="1.0000000000000000e+00" itree="382">
      <Node pos="s" depth="0" NCoef="0" IVar="2" Cut="5.3826414062500000e+04" cType="1" res="6.4949832856655121e-02" rms="4.3517309427261353e-01" purity="5.1435083150863647e-01" nType="0">
        <Node pos="l" depth="1" NCoef="0" IVar="0" Cut="3.6551970988512039e-02" cType="1" res="-3.2110255211591721e-02" rms="4.3359097838401794e-01" purity="3.3940711617469788e-01" nType="0">
          <Node pos="l" depth="2" NCoef="0" IVar="-1" Cut="0.0000000000000000e+00" cType="1" res="9.1813904873561114e-05" rms="4.5784467458724976e-01" purity="4.2770409584045410e-01" nType="-99"/>
          <Node pos="r" depth="2" NCoef="0" IVar="-1" Cut="0.0000000000000000e+00" cType="1" res="-1.0092202574014664e-03" rms="3.8371643424034119e-01" purity="2.1628862619400024e-01" nType="-99"/>
        </Node>
        <Node pos="r" depth="1" NCoef="0" IVar="1" Cut="2.2627468872070312e+02" cType="1" res="2.2832515835762024e-01" rms="3.8618707656860352e-01" purity="8.0882292985916138e-01" nType="0">
          <Node pos="l" depth="2" NCoef="0" IVar="-1" Cut="0.0000000000000000e+00" cType="1" res="3.9095385000109673e-04" rms="4.2795312404632568e-01" purity="7.4813246726989746e-01" nType="-99"/>
          <Node pos="r" depth="2" NCoef="0" IVar="-1" Cut="0.0000000000000000e+00" cType="1" res="4.5502424472942948e-04" rms="2.5437730550765991e-01" purity="9.2962008714675903e-01" nType="-99"/>
        </Node>
      </Node>
    </BinaryTree>
    <BinaryTree type="DecisionTree" boostWeight="1.0000000000000000e+00" itree="383">
      <Node pos="s" depth="0" NCoef="0" IVar="2" Cut="5.4184500000000000e+04" cType="1" res="5.5740129202604294e-02" rms="4.4078931212425232e-01" purity="4.9816566705703735e-01" nType="0">
        <Node pos="l" depth="1" NCoef="0" IVar="0" Cut="1.2700475752353668e-02" cType="1" res="-2.2315377369523048e-02" rms="4.3922114372253418e-01" purity="3.4802451729774475e-01" nType="0">
          <Node pos="l" depth="2" NCoef="0" IVar="-1" Cut="0.0000000000000000e+00" cType="1" res="1.4000818191561848e-04" rms="4.6823084354400635e-01" purity="4.8524922132492065e-01" nType="-99"/>
          <Node pos="r" depth="2" NCoef="0" IVar="-1" Cut="0.0000000000000000e+00" cType="1" res="-3.5674951504915953e-04" rms="4.2210528254508972e-01" purity="3.0855026841163635e-01" nType="-99"/>
        </Node>
        <Node pos="r" depth="1" NCoef="0" IVar="1" Cut="2.5155500793457031e+02" cType="1" res="2.0508411526679993e-01" rms="4.0370145440101624e-01" purity="7.8543150424957275e-01" nType="0">
          <Node pos="l" depth="2" NCoef="0" IVar="-1" Cut="0.0000000000000000e+00" cType="1" res="3.7545760278590024e-04" rms="4.3575569987297058e-01" purity="7.3429960012435913e-01" nType="-99"/>
          <Node pos="r" depth="2" NCoef="0" IVar="-1" Cut="0.0000000000000000e+00" cType="1" res="6.1134289717301726e-04" rms="2.4954640865325928e-01" purity="9.3291550874710083e-01" nType="-99"/>
        </Node>
      </Node>
    </BinaryTree>
    <BinaryTree type="DecisionTree" boostWeight="1.0000000000000000e+00" itree="384">
      <Node pos="s" depth="0" NCoef="0" IVar="1" Cut="1.3938558959960938e+02" cType="1" res="5.9495367109775543e-02" rms="4.3449252843856812e-01" purity="5.0940132141113281e-01" nType="0">
        <Node pos="l" depth="1" NCoef="0" IVar="1" Cut="6.5837532043457031e+01" cType="1" res="-5.2597407251596451e-02" rms="4.1827860474586487e-01" purity="2.9810735583305359e-01" nType="0">
          <Node pos="l" depth="2" NCoef="0" IVar="-1" Cut="0.0000000000000000e+00" cType="1" res="-2.2212108597159386e-03" rms="3.3240151405334473e-01" purity="1.3419328629970551e-01" nType="-99"/>
          <Node pos="r" depth="2" NCoef="0" IVar="-1" Cut="0.0000000000000000e+00" cType="1" res="7.2165348683483899e-05" rms="4.6019124984741211e-01" purity="4.1987779736518860e-01" nType="-99"/>
        </Node>
        <Node pos="r" depth="1" NCoef="0" IVar="2" Cut="6.6204593750000000e+04" cType="1" res="1.8798060715198517e-01" rms="4.1679951548576355e-01" purity="7.5159502029418945e-01" nType="0">
          <Node pos="l" depth="2" NCoef="0" IVar="-1" Cut="0.0000000000000000e+00" cType="1" res="2.7785042766481638e-04" rms="4.7110211849212646e-01" purity="6.2007111310958862e-01" nType="-99"/>
          <Node pos="r" depth="2" NCoef="0" IVar="-1" Cut="0.0000000000000000e+00" cType="1" res="4.2159992153756320e-04" rms="3.6072608828544617e-01" purity="8.4355884790420532e-01" nType="-99"/>
        </Node>
      </Node>
    </BinaryTree>
    <BinaryTree type="DecisionTree" boostWeight="1.0000000000000000e+00" itree="385">
      <Node pos="s" depth="0" NCoef="0" IVar="2" Cut="4.4136394531250000e+04" cType="1" res="6.8938992917537689e-02" rms="4.4105514883995056e-01" purity="5.1295745372772217e-01" nType="0">
        <Node pos="l" depth="1" NCoef="0" IVar="0" Cut="2.5133045390248299e-02" cType="1" res="-1.6645286232233047e-02" rms="4.3967843055725098e-01" purity="3.4210658073425293e-01" nType="0">
          <Node pos="l" depth="2" NCoef="0" IVar="-1" Cut="0.0000000000000000e+00" cType="1" res="1.2293414329178631e-04" rms="4.6544128656387329e-01" purity="4.5706966519355774e-01" nType="-99"/>
          <Node pos="r" depth="2" NCoef="0" IVar="-1" Cut="0.0000000000000000e+00" cType="1" res="-4.7863408690318465e-04" rms="4.0552824735641479e-01" purity="2.4952568113803864e-01" nType="-99"/>
        </Node>
        <Node pos="r" depth="1" NCoef="0" IVar="0" Cut="4.1265200823545456e-02" cType="1" res="1.9347061216831207e-01" rms="4.1246563196182251e-01" purity="7.6155847311019897e-01" nType="0">
          <Node pos="l" depth="2" NCoef="0" IVar="-1" Cut="0.0000000000000000e+00" cType="1" res="5.1053118659183383e-04" rms="3.0868965387344360e-01" purity="8.9122885465621948e-01" nType="-99"/>
          <Node pos="r" depth="2" NCoef="0" IVar="-1" Cut="0.0000000000000000e+00" cType="1" res="2.8692235355265439e-04" rms="4.4462856650352478e-01" purity="6.9447350502014160e-01" nType="-99"/>
        </Node>
      </Node>
    </BinaryTree>
    <BinaryTree type="DecisionTree" boostWeight="1.0000000000000000e+00" itree="386">
      <Node pos="s" depth="0" NCoef="0" IVar="1" Cut="1.3836579895019531e+02" cType="1" res="5.6994486600160599e-02" rms="4.3669602274894714e-01" purity="5.0305682420730591e-01" nType="0">
        <Node pos="l" depth="1" NCoef="0" IVar="1" Cut="6.5302413940429688e+01" cType="1" res="-5.0493177026510239e-02" rms="4.1908255219459534e-01" purity="2.9710265994071960e-01" nType="0">
          <Node pos="l" depth="2" NCoef="0" IVar="-1" Cut="0.0000000000000000e+00" cType="1" res="-9.8282576072961092e-04" rms="3.4400132298469543e-01" purity="1.4462900161743164e-01" nType="-99"/>
          <Node pos="r" depth="2" NCoef="0" IVar="-1" Cut="0.0000000000000000e+00" cType="1" res="5.7577013649279252e-05" rms="4.5849055051803589e-01" purity="4.1384121775627136e-01" nType="-99"/>
        </Node>
        <Node pos="r" depth="1" NCoef="0" IVar="2" Cut="7.2246000000000000e+04" cType="1" res="1.8175861239433289e-01" rms="4.2334696650505066e-01" purity="7.4211388826370239e-01" nType="0">
          <Node pos="l" depth="2" NCoef="0" IVar="-1" Cut="0.0000000000000000e+00" cType="1" res="2.9818460461683571e-04" rms="4.6658200025558472e-01" purity="6.4483976364135742e-01" nType="-99"/>
          <Node pos="r" depth="2" NCoef="0" IVar="-1" Cut="0.0000000000000000e+00" cType="1" res="5.0945224938914180e-04" rms="3.4813949465751648e-01" purity="8.5713094472885132e-01" nType="-99"/>
        </Node>
      </Node>
    </BinaryTree>
    <BinaryTree type="DecisionTree" boostWeight="1.0000000000000000e+00" itree="387">
      <Node pos="s" depth="0" NCoef="0" IVar="2" Cut="6.6204593750000000e+04" cType="1" res="5.3197443485260010e-02" rms="4.3887495994567871e-01" purity="4.9649733304977417e-01" nType="0">
        <Node pos="l" depth="1" NCoef="0" IVar="1" Cut="7.8285812377929688e+01" cType="1" res="-6.2092938460409641e-03" rms="4.4123575091362000e-01" purity="3.8744047284126282e-01" nType="0">
          <Node pos="l" depth="2" NCoef="0" IVar="-1" Cut="0.0000000000000000e+00" cType="1" res="-1.1945834849029779e-03" rms="3.6979183554649353e-01" purity="1.8332265317440033e-01" nType="-99"/>
          <Node pos="r" depth="2" NCoef="0" IVar="-1" Cut="0.0000000000000000e+00" cType="1" res="1.8986263603437692e-04" rms="4.7004559636116028e-01" purity="5.1749444007873535e-01" nType="-99"/>
        </Node>
        <Node pos="r" depth="1" NCoef="0" IVar="1" Cut="2.0048472595214844e+02" cType="1" res="2.3006001114845276e-01" rms="3.8031336665153503e-01" purity="8.2117569446563721e-01" nType="0">
          <Node pos="l" depth="2" NCoef="0" IVar="-1" Cut="0.0000000000000000e+00" cType="1" res="4.0380083373747766e-04" rms="4.2595198750495911e-01" purity="7.5732851028442383e-01" nType="-99"/>
          <Node pos="r" depth="2" NCoef="0" IVar="-1" Cut="0.0000000000000000e+00" cType="1" res="5.4566905600950122e-04" rms="3.1079560518264771e-01" purity="8.9067262411117554e-01" nType="-99"/>
        </Node>
      </Node>
    </BinaryTree>
    <BinaryTree type="DecisionTree" boostWeight="1.0000000000000000e+00" itree="388">
      <Node pos="s" depth="0" NCoef="0" IVar="1" Cut="1.3922813415527344e+02" cType="1" res="6.1368294060230255e-02" rms="4.3668630719184875e-01" purity="5.0778579711914062e-01" nType="0">
        <Node pos="l" depth="1" NCoef="0" IVar="0" Cut="2.5400951504707336e-02" cType="1" res="-4.1814804077148438e-02" rms="4.2210483551025391e-01" purity="3.0830815434455872e-01" nType="0">
          <Node pos="l" depth="2" NCoef="0" IVar="-1" Cut="0.0000000000000000e+00" cType="1" res="1.4808935520704836e-04" rms="4.5593515038490295e-01" purity="4.2822900414466858e-01" nType="-99"/>
          <Node pos="r" depth="2" NCoef="0" IVar="-1" Cut="0.0000000000000000e+00" cType="1" res="-8.1359810428693891e-04" rms="3.7874367833137512e-01" purity="2.1213600039482117e-01" nType="-99"/>
        </Node>
        <Node pos="r" depth="1" NCoef="0" IVar="1" Cut="2.1947654724121094e+02" cType="1" res="1.8449534475803375e-01" rms="4.2163124680519104e-01" purity="7.4581992626190186e-01" nType="0">
          <Node pos="l" depth="2" NCoef="0" IVar="-1" Cut="0.0000000000000000e+00" cType="1" res="3.0028869514353573e-04" rms="4.5165312290191650e-01" purity="6.8909472227096558e-01" nType="-99"/>
          <Node pos="r" depth="2" NCoef="0" IVar="-1" Cut="0.0000000000000000e+00" cType="1" res="4.3678501970134676e-04" rms="3.1021067500114441e-01" purity="8.8485759496688843e-01" nType="-99"/>
        </Node>
      </Node>
    </BinaryTree>
    <BinaryTree type="DecisionTree" boostWeight="1.0000000000000000e+00" itree="389">
      <Node pos="s" depth="0" NCoef="0" IVar="2" Cut="5.3398167968750000e+04" cType="1" res="4.9665421247482300e-02" rms="4.3618699908256531e-01" purity="4.9456655979156494e-01" nType="0">
        <Node pos="l" depth="1" NCoef="0" IVar="1" Cut="7.1541755676269531e+01" cType="1" res="-4.0633287280797958e-02" rms="4.2965263128280640e-01" purity="3.2854077219963074e-01" nType="0">
          <Node pos="l" depth="2" NCoef="0" IVar="-1" Cut="0.0000000000000000e+00" cType="1" res="-1.2535393470898271e-03" rms="3.4191018342971802e-01" purity="1.4639972150325775e-01" nType="-99"/>
          <Node pos="r" depth="2" NCoef="0" IVar="-1" Cut="0.0000000000000000e+00" cType="1" res="9.3538350483868271e-05" rms="4.6941730380058289e-01" purity="4.5141276717185974e-01" nType="-99"/>
        </Node>
        <Node pos="r" depth="1" NCoef="0" IVar="0" Cut="4.5851968228816986e-02" cType="1" res="2.1071390807628632e-01" rms="3.9983823895454407e-01" purity="7.9067480564117432e-01" nType="0">
          <Node pos="l" depth="2" NCoef="0" IVar="-1" Cut="0.0000000000000000e+00" cType="1" res="5.5609660921618342e-04" rms="3.0982810258865356e-01" purity="8.9108943939208984e-01" nType="-99"/>
          <Node pos="r" depth="2" NCoef="0" IVar="-1" Cut="0.0000000000000000e+00" cType="1" res="3.3506844192743301e-04" rms="4.4050300121307373e-01" purity="7.1957278251647949e-01" nType="-99"/>
        </Node>
      </Node>
    </BinaryTree>
    <BinaryTree type="DecisionTree" boostWeight="1.0000000000000000e+00" itree="390">
      <Node pos="s" depth="0" NCoef="0" IVar="2" Cut="5.3826414062500000e+04" cType="1" res="5.0504975020885468e-02" rms="4.3759763240814209e-01" purity="4.9398252367973328e-01" nType="0">
        <Node pos="l" depth="1" NCoef="0" IVar="0" Cut="3.7628732621669769e-02" cType="1" res="-2.8846815228462219e-02" rms="4.3309953808784485e-01" purity="3.4226030111312866e-01" nType="0">
          <Node pos="l" depth="2" NCoef="0" IVar="-1" Cut="0.0000000000000000e+00" cType="1" res="1.2327068543527275e-04" rms="4.5912826061248779e-01" purity="4.4019508361816406e-01" nType="-99"/>
          <Node pos="r" depth="2" NCoef="0" IVar="-1" Cut="0.0000000000000000e+00" cType="1" res="-1.3095800532028079e-03" rms="3.6606210470199585e-01" purity="1.8922391533851624e-01" nType="-99"/>
        </Node>
        <Node pos="r" depth="1" NCoef="0" IVar="1" Cut="2.5155500793457031e+02" cType="1" res="2.0166499912738800e-01" rms="4.0510264039039612e-01" purity="7.8300362825393677e-01" nType="0">
          <Node pos="l" depth="2" NCoef="0" IVar="-1" Cut="0.0000000000000000e+00" cType="1" res="3.5063506220467389e-04" rms="4.3432307243347168e-01" purity="7.3646891117095947e-01" nType="-99"/>
          <Node pos="r" depth="2" NCoef="0" IVar="-1" Cut="0.0000000000000000e+00" cType="1" res="6.0901680262759328e-04" rms="2.5462290644645691e-01" purity="9.2979764938354492e-01" nType="-99"/>
        </Node>
      </Node>
    </BinaryTree>
    <BinaryTree type="DecisionTree" boostWeight="1.0000000000000000e+00" itree="391">
      <Node pos="s" depth="0" NCoef="0" IVar="2" Cut="5.4184500000000000e+04" cType="1" res="4.9914706498384476e-02" rms="4.3597799539566040e-01" purity="4.9480807781219482e-01" nType="0">
        <Node pos="l" depth="1" NCoef="0" IVar="0" Cut="5.0801903009414673e-02" cType="1" res="-4.1871681809425354e-02" rms="4.3050736188888550e-01" purity="3.2590445876121521e-01" nType="0">
          <Node pos="l" depth="2" NCoef="0" IVar="-1" Cut="0.0000000000000000e+00" cType="1" res="-3.2158143312699394e-06" rms="4.4821876287460327e-01" purity="3.8516768813133240e-01" nType="-99"/>
          <Node pos="r" depth="2" NCoef="0" IVar="-1" Cut="0.0000000000000000e+00" cType="1" res="-1.9522958900779486e-03" rms="3.5224530100822449e-01" purity="1.6059488058090210e-01" nType="-99"/>
        </Node>
        <Node pos="r" depth="1" NCoef="0" IVar="1" Cut="2.4236637878417969e+02" cType="1" res="2.1347658336162567e-01" rms="3.9592754840850830e-01" purity="7.9579150676727295e-01" nType="0">
          <Node pos="l" depth="2" NCoef="0" IVar="-1" Cut="0.0000000000000000e+00" cType="1" res="3.5298077273182571e-04" rms="4.3153521418571472e-01" purity="7.4133664369583130e-01" nType="-99"/>
          <Node pos="r" depth="2" NCoef="0" IVar="-1" Cut="0.0000000000000000e+00" cType="1" res="4.4669848284684122e-04" rms="2.4799665808677673e-01" purity="9.3364930152893066e-01" nType="-99"/>
        </Node>
      </Node>
    </BinaryTree>
    <BinaryTree type="DecisionTree" boostWeight="1.0000000000000000e+00" itree="392">
      <Node pos="s" depth="0" NCoef="0" IVar="2" Cut="6.1173269531250000e+04" cType="1" res="6.4264819025993347e-02" rms="4.3779134750366211e-01" purity="5.0989234447479248e-01" nType="0">
        <Node pos="l" depth="1" NCoef="0" IVar="0" Cut="3.7699569016695023e-02" cType="1" res="-9.3940077349543571e-03" rms="4.4110646843910217e-01" purity="3.7361958622932434e-01" nType="0">
          <Node pos="l" depth="2" NCoef="0" IVar="-1" Cut="0.0000000000000000e+00" cType="1" res="1.4180126891005784e-04" rms="4.5963957905769348e-01" purity="4.6455660462379456e-01" nType="-99"/>
          <Node pos="r" depth="2" NCoef="0" IVar="-1" Cut="0.0000000000000000e+00" cType="1" res="-6.5879611065611243e-04" rms="3.9585518836975098e-01" purity="2.4395562708377838e-01" nType="-99"/>
        </Node>
        <Node pos="r" depth="1" NCoef="0" IVar="1" Cut="2.2789994812011719e+02" cType="1" res="2.3191225528717041e-01" rms="3.8023069500923157e-01" purity="8.2004904747009277e-01" nType="0">
          <Node pos="l" depth="2" NCoef="0" IVar="-1" Cut="0.0000000000000000e+00" cType="1" res="3.7750724004581571e-04" rms="4.1804158687591553e-01" purity="7.6904267072677612e-01" nType="-99"/>
          <Node pos="r" depth="2" NCoef="0" IVar="-1" Cut="0.0000000000000000e+00" cType="1" res="5.8116781292483211e-04" rms="2.6815378665924072e-01" purity="9.2154753208160400e-01" nType="-99"/>
        </Node>
      </Node>
    </BinaryTree>
    <BinaryTree type="DecisionTree" boostWeight="1.0000000000000000e+00" itree="393">
      <Node pos="s" depth="0" NCoef="0" IVar="2" Cut="6.1173269531250000e+04" cType="1" res="4.7012146562337875e-02" rms="4.3544948101043701e-01" purity="4.9293601512908936e-01" nType="0">
        <Node pos="l" depth="1" NCoef="0" IVar="1" Cut="7.8560157775878906e+01" cType="1" res="-3.2916653901338577e-02" rms="4.3334367871284485e-01" purity="3.4931090474128723e-01" nType="0">
          <Node pos="l" depth="2" NCoef="0" IVar="-1" Cut="0.0000000000000000e+00" cType="1" res="-1.2618303298950195e-03" rms="3.5796719789505005e-01" purity="1.6742010414600372e-01" nType="-99"/>
          <Node pos="r" depth="2" NCoef="0" IVar="-1" Cut="0.0000000000000000e+00" cType="1" res="1.1093847570009530e-04" rms="4.7012588381767273e-01" purity="4.7897154092788696e-01" nType="-99"/>
        </Node>
        <Node pos="r" depth="1" NCoef="0" IVar="1" Cut="2.0620263671875000e+02" cType="1" res="2.2656829655170441e-01" rms="3.8358059525489807e-01" purity="8.1558275222778320e-01" nType="0">
          <Node pos="l" depth="2" NCoef="0" IVar="-1" Cut="0.0000000000000000e+00" cType="1" res="4.3356226524338126e-04" rms="4.2978364229202271e-01" purity="7.4861282110214233e-01" nType="-99"/>
          <Node pos="r" depth="2" NCoef="0" IVar="-1" Cut="0.0000000000000000e+00" cType="1" res="6.2605144921690226e-04" rms="2.9179245233535767e-01" purity="9.0517944097518921e-01" nType="-99"/>
        </Node>
      </Node>
    </BinaryTree>
    <BinaryTree type="DecisionTree" boostWeight="1.0000000000000000e+00" itree="394">
      <Node pos="s" depth="0" NCoef="0" IVar="2" Cut="5.3826414062500000e+04" cType="1" res="5.1149189472198486e-02" rms="4.3610844016075134e-01" purity="4.9638292193412781e-01" nType="0">
        <Node pos="l" depth="1" NCoef="0" IVar="1" Cut="3.8814407348632812e+01" cType="1" res="-3.3966030925512314e-02" rms="4.3073093891143799e-01" purity="3.3773100376129150e-01" nType="0">
          <Node pos="l" depth="2" NCoef="0" IVar="-1" Cut="0.0000000000000000e+00" cType="1" res="-4.3879221193492413e-03" rms="2.7904969453811646e-01" purity="8.4228992462158203e-02" nType="-99"/>
          <Node pos="r" depth="2" NCoef="0" IVar="-1" Cut="0.0000000000000000e+00" cType="1" res="5.4589872888755053e-05" rms="4.5496672391891479e-01" purity="4.1123849153518677e-01" nType="-99"/>
        </Node>
        <Node pos="r" depth="1" NCoef="0" IVar="1" Cut="2.3322409057617188e+02" cType="1" res="2.0873668789863586e-01" rms="4.0071704983711243e-01" purity="7.9012072086334229e-01" nType="0">
          <Node pos="l" depth="2" NCoef="0" IVar="-1" Cut="0.0000000000000000e+00" cType="1" res="3.5264287726022303e-04" rms="4.3549147248268127e-01" purity="7.3583430051803589e-01" nType="-99"/>
          <Node pos="r" depth="2" NCoef="0" IVar="-1" Cut="0.0000000000000000e+00" cType="1" res="5.8150844415649772e-04" rms="2.6671800017356873e-01" purity="9.2218941450119019e-01" nType="-99"/>
        </Node>
      </Node>
    </BinaryTree>
    <BinaryTree type="DecisionTree" boostWeight="1.0000000000000000e+00" itree="395">
      <Node pos="s" depth="0" NCoef="0" IVar="2" Cut="6.6204593750000000e+04" cType="1" res="6.3576310873031616e-02" rms="4.4261583685874939e-01" purity="5.0485819578170776e-01" nType="0">
        <Node pos="l" depth="1" NCoef="0" IVar="0" Cut="5.0266090780496597e-02" cType="1" res="9.2896828427910805e-03" rms="4.4810086488723755e-01" purity="3.9945983886718750e-01" nType="0">
          <Node pos="l" depth="2" NCoef="0" IVar="-1" Cut="0.0000000000000000e+00" cType="1" res="1.4780701894778758e-04" rms="4.5543867349624634e-01" purity="4.5897316932678223e-01" nType="-99"/>
          <Node pos="r" depth="2" NCoef="0" IVar="-1" Cut="0.0000000000000000e+00" cType="1" res="-8.4892142331227660e-04" rms="4.0508809685707092e-01" purity="2.4809107184410095e-01" nType="-99"/>
        </Node>
        <Node pos="r" depth="1" NCoef="0" IVar="1" Cut="2.3110444641113281e+02" cType="1" res="2.2461898624897003e-01" rms="3.8306427001953125e-01" purity="8.1752508878707886e-01" nType="0">
          <Node pos="l" depth="2" NCoef="0" IVar="-1" Cut="0.0000000000000000e+00" cType="1" res="3.8612989010289311e-04" rms="4.2986443638801575e-01" purity="7.5057750940322876e-01" nType="-99"/>
          <Node pos="r" depth="2" NCoef="0" IVar="-1" Cut="0.0000000000000000e+00" cType="1" res="5.4071267368271947e-04" rms="2.6165837049484253e-01" purity="9.2587530612945557e-01" nType="-99"/>
        </Node>
      </Node>
    </BinaryTree>
    <BinaryTree type="DecisionTree" boostWeight="1.0000000000000000e+00" itree="396">
      <Node pos="s" depth="0" NCoef="0" IVar="2" Cut="6.1173269531250000e+04" cType="1" res="5.9022072702646255e-02" rms="4.3726307153701782e-01" purity="5.0359416007995605e-01" nType="0">
        <Node pos="l" depth="1" NCoef="0" IVar="0" Cut="5.0266090780496597e-02" cType="1" res="-8.8318409398198128e-03" rms="4.3943378329277039e-01" purity="3.7508258223533630e-01" nType="0">
          <Node pos="l" depth="2" NCoef="0" IVar="-1" Cut="0.0000000000000000e+00" cType="1" res="1.1343311780365184e-04" rms="4.5375925302505493e-01" purity="4.4358992576599121e-01" nType="-99"/>
          <Node pos="r" depth="2" NCoef="0" IVar="-1" Cut="0.0000000000000000e+00" cType="1" res="-1.5157775487750769e-03" rms="3.5410025715827942e-01" purity="1.8087109923362732e-01" nType="-99"/>
        </Node>
        <Node pos="r" depth="1" NCoef="0" IVar="1" Cut="2.2116703796386719e+02" cType="1" res="2.2191634774208069e-01" rms="3.8606068491935730e-01" purity="8.1210702657699585e-01" nType="0">
          <Node pos="l" depth="2" NCoef="0" IVar="-1" Cut="0.0000000000000000e+00" cType="1" res="3.9485449087806046e-04" rms="4.2463016510009766e-01" purity="7.5687956809997559e-01" nType="-99"/>
          <Node pos="r" depth="2" NCoef="0" IVar="-1" Cut="0.0000000000000000e+00" cType="1" res="4.3448049109429121e-04" rms="2.8117632865905762e-01" purity="9.1273629665374756e-01" nType="-99"/>
        </Node>
      </Node>
    </BinaryTree>
    <BinaryTree type="DecisionTree" boostWeight="1.0000000000000000e+00" itree="397">
      <Node pos="s" depth="0" NCoef="0" IVar="1" Cut="1.3930560302734375e+02" cType="1" res="5.7919681072235107e-02" rms="4.3696793913841248e-01" purity="5.0278955698013306e-01" nType="0">
        <Node pos="l" depth="1" NCoef="0" IVar="1" Cut="6.5750656127929688e+01" cType="1" res="-4.4168096035718918e-02" rms="4.2254617810249329e-01" purity="3.0144268274307251e-01" nType="0">
          <Node pos="l" depth="2" NCoef="0" IVar="-1" Cut="0.0000000000000000e+00" cType="1" res="-5.2405655151233077e-04" rms="3.4764426946640015e-01" purity="1.4858424663543701e-01" nType="-99"/>
          <Node pos="r" depth="2" NCoef="0" IVar="-1" Cut="0.0000000000000000e+00" cType="1" res="7.4076699092984200e-05" rms="4.6170270442962646e-01" purity="4.1714224219322205e-01" nType="-99"/>
        </Node>
        <Node pos="r" depth="1" NCoef="0" IVar="0" Cut="4.1265200823545456e-02" cType="1" res="1.7961642146110535e-01" rms="4.2247343063354492e-01" purity="7.4281102418899536e-01" nType="0">
          <Node pos="l" depth="2" NCoef="0" IVar="-1" Cut="0.0000000000000000e+00" cType="1" res="4.8191624227911234e-04" rms="3.5741764307022095e-01" purity="8.3948349952697754e-01" nType="-99"/>
          <Node pos="r" depth="2" NCoef="0" IVar="-1" Cut="0.0000000000000000e+00" cType="1" res="3.2756576547399163e-04" rms="4.5239356160163879e-01" purity="6.7139124870300293e-01" nType="-99"/>
        </Node>
      </Node>
    </BinaryTree>
    <BinaryTree type="DecisionTree" boostWeight="1.0000000000000000e+00" itree="398">
      <Node pos="s" depth="0" NCoef="0" IVar="2" Cut="5.4184500000000000e+04" cType="1" res="5.4016120731830597e-02" rms="4.3619796633720398e-01" purity="4.9889397621154785e-01" nType="0">
        <Node pos="l" depth="1" NCoef="0" IVar="1" Cut="7.8581535339355469e+01" cType="1" res="-3.1228782609105110e-02" rms="4.3270441889762878e-01" purity="3.3842226862907410e-01" nType="0">
          <Node pos="l" depth="2" NCoef="0" IVar="-1" Cut="0.0000000000000000e+00" cType="1" res="-8.9988461695611477e-04" rms="3.6711674928665161e-01" purity="1.7452736198902130e-01" nType="-99"/>
          <Node pos="r" depth="2" NCoef="0" IVar="-1" Cut="0.0000000000000000e+00" cType="1" res="1.2068102660123259e-04" rms="4.6956744790077209e-01" purity="4.7080263495445251e-01" nType="-99"/>
        </Node>
        <Node pos="r" depth="1" NCoef="0" IVar="1" Cut="2.1932717895507812e+02" cType="1" res="2.1066689491271973e-01" rms="3.9743408560752869e-01" purity="7.9378569126129150e-01" nType="0">
          <Node pos="l" depth="2" NCoef="0" IVar="-1" Cut="0.0000000000000000e+00" cType="1" res="3.6137917777523398e-04" rms="4.3449562788009644e-01" purity="7.3583614826202393e-01" nType="-99"/>
          <Node pos="r" depth="2" NCoef="0" IVar="-1" Cut="0.0000000000000000e+00" cType="1" res="5.6782562751322985e-04" rms="2.8377485275268555e-01" purity="9.1044837236404419e-01" nType="-99"/>
        </Node>
      </Node>
    </BinaryTree>
    <BinaryTree type="DecisionTree" boostWeight="1.0000000000000000e+00" itree="399">
      <Node pos="s" depth="0" NCoef="0" IVar="2" Cut="6.6204593750000000e+04" cType="1" res="5.4178457707166672e-02" rms="4.3679988384246826e-01" purity="4.9735039472579956e-01" nType="0">
        <Node pos="l" depth="1" NCoef="0" IVar="0" Cut="3.8101427257061005e-02" cType="1" res="-1.0022137314081192e-02" rms="4.3997564911842346e-01" purity="3.7959584593772888e-01" nType="0">
          <Node pos="l" depth="2" NCoef="0" IVar="-1" Cut="0.0000000000000000e+00" cType="1" res="1.5276153862942010e-04" rms="4.5656040310859680e-01" purity="4.6948856115341187e-01" nType="-99"/>
          <Node pos="r" depth="2" NCoef="0" IVar="-1" Cut="0.0000000000000000e+00" cType="1" res="-7.5624609598889947e-04" rms="3.9925631880760193e-01" purity="2.5718271732330322e-01" nType="-99"/>
        </Node>
        <Node pos="r" depth="1" NCoef="0" IVar="1" Cut="2.0048472595214844e+02" cType="1" res="2.3575541377067566e-01" rms="3.7187561392784119e-01" purity="8.3039265871047974e-01" nType="0">
          <Node pos="l" depth="2" NCoef="0" IVar="-1" Cut="0.0000000000000000e+00" cType="1" res="3.9943828596733510e-04" rms="4.2518219351768494e-01" purity="7.5751054286956787e-01" nType="-99"/>
          <Node pos="r" depth="2" NCoef="0" IVar="-1" Cut="0.0000000000000000e+00" cType="1" res="5.6144513655453920e-04" rms="2.9567575454711914e-01" purity="9.0215909481048584e-01" nType="-99"/>
        </Node>
      </Node>
    </BinaryTree>
    <BinaryTree type="DecisionTree" boostWeight="1.0000000000000000e+00" itree="400">
      <Node pos="s" depth="0" NCoef="0" IVar="2" Cut="4.4136394531250000e+04" cType="1" res="5.9714172035455704e-02" rms="4.3630978465080261e-01" purity="5.0487595796585083e-01" nType="0">
        <Node pos="l" depth="1" NCoef="0" IVar="0" Cut="2.4940703064203262e-02" cType="1" res="-3.0930705368518829e-02" rms="4.2904019355773926e-01" purity="3.2753565907478333e-01" nType="0">
          <Node pos="l" depth="2" NCoef="0" IVar="-1" Cut="0.0000000000000000e+00" cType="1" res="1.7455629131291062e-04" rms="4.5612689852714539e-01" purity="4.4838187098503113e-01" nType="-99"/>
          <Node pos="r" depth="2" NCoef="0" IVar="-1" Cut="0.0000000000000000e+00" cType="1" res="-7.2112202178686857e-04" rms="3.9360123872756958e-01" purity="2.3239055275917053e-01" nType="-99"/>
        </Node>
        <Node pos="r" depth="1" NCoef="0" IVar="0" Cut="4.0269616991281509e-02" cType="1" res="1.9012188911437988e-01" rms="4.1302484273910522e-01" purity="7.6000934839248657e-01" nType="0">
          <Node pos="l" depth="2" NCoef="0" IVar="-1" Cut="0.0000000000000000e+00" cType="1" res="5.3006265079602599e-04" rms="3.0785763263702393e-01" purity="8.9110630750656128e-01" nType="-99"/>
          <Node pos="r" depth="2" NCoef="0" IVar="-1" Cut="0.0000000000000000e+00" cType="1" res="3.6580036976374686e-04" rms="4.4566082954406738e-01" purity="6.9306892156600952e-01" nType="-99"/>
        </Node>
      </Node>
    </BinaryTree>
    <BinaryTree type="DecisionTree" boostWeight="1.0000000000000000e+00" itree="401">
      <Node pos="s" depth="0" NCoef="0" IVar="1" Cut="1.0525318145751953e+02" cType="1" res="5.9206075966358185e-02" rms="4.3425601720809937e-01" purity="5.0696063041687012e-01" nType="0">
        <Node pos="l" depth="1" NCoef="0" IVar="0" Cut="2.3371690884232521e-02" cType="1" res="-7.7505260705947876e-02" rms="3.9394190907478333e-01" purity="2.4163730442523956e-01" nType="0">
          <Node pos="l" depth="2" NCoef="0" IVar="-1" Cut="0.0000000000000000e+00" cType="1" res="2.4232692794612376e-06" rms="4.4733178615570068e-01" purity="3.5783943533897400e-01" nType="-99"/>
          <Node pos="r" depth="2" NCoef="0" IVar="-1" Cut="0.0000000000000000e+00" cType="1" res="-1.4415154000744224e-03" rms="3.2569280266761780e-01" purity="1.4030385017395020e-01" nType="-99"/>
        </Node>
        <Node pos="r" depth="1" NCoef="0" IVar="1" Cut="2.4961286926269531e+02" cType="1" res="1.5246953070163727e-01" rms="4.3578335642814636e-01" purity="6.8796223402023315e-01" nType="0">
          <Node pos="l" depth="2" NCoef="0" IVar="-1" Cut="0.0000000000000000e+00" cType="1" res="3.1007136567495763e-04" rms="4.5616617798805237e-01" purity="6.3801914453506470e-01" nType="-99"/>
          <Node pos="r" depth="2" NCoef="0" IVar="-1" Cut="0.0000000000000000e+00" cType="1" res="5.1674939459189773e-04" rms="2.5910675525665283e-01" purity="9.2418998479843140e-01" nType="-99"/>
        </Node>
      </Node>
    </BinaryTree>
    <BinaryTree type="DecisionTree" boostWeight="1.0000000000000000e+00" itree="402">
      <Node pos="s" depth="0" NCoef="0" IVar="2" Cut="3.5133074218750000e+04" cType="1" res="5.2898786962032318e-02" rms="4.3443229794502258e-01" purity="4.9994802474975586e-01" nType="0">
        <Node pos="l" depth="1" NCoef="0" IVar="0" Cut="2.4177541956305504e-02" cType="1" res="-6.2898315489292145e-02" rms="4.1325917840003967e-01" purity="2.8807729482650757e-01" nType="0">
          <Node pos="l" depth="2" NCoef="0" IVar="-1" Cut="0.0000000000000000e+00" cType="1" res="5.3985186241334304e-05" rms="4.5002254843711853e-01" purity="3.9858976006507874e-01" nType="-99"/>
          <Node pos="r" depth="2" NCoef="0" IVar="-1" Cut="0.0000000000000000e+00" cType="1" res="-1.0976546909660101e-03" rms="3.6887586116790771e-01" purity="1.9655571877956390e-01" nType="-99"/>
        </Node>
        <Node pos="r" depth="1" NCoef="0" IVar="0" Cut="4.2799498885869980e-02" cType="1" res="1.7741620540618896e-01" rms="4.2202842235565186e-01" purity="7.2777402400970459e-01" nType="0">
          <Node pos="l" depth="2" NCoef="0" IVar="-1" Cut="0.0000000000000000e+00" cType="1" res="4.6354444930329919e-04" rms="3.2872945070266724e-01" purity="8.7066149711608887e-01" nType="-99"/>
          <Node pos="r" depth="2" NCoef="0" IVar="-1" Cut="0.0000000000000000e+00" cType="1" res="2.5662567350082099e-04" rms="4.5356604456901550e-01" purity="6.3988393545150757e-01" nType="-99"/>
        </Node>
      </Node>
    </BinaryTree>
    <BinaryTree type="DecisionTree" boostWeight="1.0000000000000000e+00" itree="403">
      <Node pos="s" depth="0" NCoef="0" IVar="2" Cut="6.1173269531250000e+04" cType="1" res="5.4143294692039490e-02" rms="4.3805029988288879e-01" purity="4.9741777777671814e-01" nType="0">
        <Node pos="l" depth="1" NCoef="0" IVar="0" Cut="4.8735957592725754e-02" cType="1" res="-1.7464304342865944e-02" rms="4.3925189971923828e-01" purity="3.6147120594978333e-01" nType="0">
          <Node pos="l" depth="2" NCoef="0" IVar="-1" Cut="0.0000000000000000e+00" cType="1" res="8.9890709205064923e-05" rms="4.5405980944633484e-01" purity="4.2726007103919983e-01" nType="-99"/>
          <Node pos="r" depth="2" NCoef="0" IVar="-1" Cut="0.0000000000000000e+00" cType="1" res="-1.2529265368357301e-03" rms="3.7682551145553589e-01" purity="2.0348595082759857e-01" nType="-99"/>
        </Node>
        <Node pos="r" depth="1" NCoef="0" IVar="1" Cut="2.2627468872070312e+02" cType="1" res="2.1862110495567322e-01" rms="3.8811847567558289e-01" purity="8.0967772006988525e-01" nType="0">
          <Node pos="l" depth="2" NCoef="0" IVar="-1" Cut="0.0000000000000000e+00" cType="1" res="3.6981076118536294e-04" rms="4.3234848976135254e-01" purity="7.4466407299041748e-01" nType="-99"/>
          <Node pos="r" depth="2" NCoef="0" IVar="-1" Cut="0.0000000000000000e+00" cType="1" res="5.2649981807917356e-04" rms="2.6515343785285950e-01" purity="9.2333900928497314e-01" nType="-99"/>
        </Node>
      </Node>
    </BinaryTree>
    <BinaryTree type="DecisionTree" boostWeight="1.0000000000000000e+00" itree="404">
      <Node pos="s" depth="0" NCoef="0" IVar="2" Cut="4.4136394531250000e+04" cType="1" res="5.0606943666934967e-02" rms="4.3879145383834839e-01" purity="4.9119758605957031e-01" nType="0">
        <Node pos="l" depth="1" NCoef="0" IVar="0" Cut="2.5085821747779846e-02" cType="1" res="-3.0043980106711388e-02" rms="4.3042048811912537e-01" purity="3.2748496532440186e-01" nType="0">
          <Node pos="l" depth="2" NCoef="0" IVar="-1" Cut="0.0000000000000000e+00" cType="1" res="1.6177461657207459e-04" rms="4.5688879489898682e-01" purity="4.4065299630165100e-01" nType="-99"/>
          <Node pos="r" depth="2" NCoef="0" IVar="-1" Cut="0.0000000000000000e+00" cType="1" res="-6.8342400481924415e-04" rms="3.9721202850341797e-01" purity="2.3750779032707214e-01" nType="-99"/>
        </Node>
        <Node pos="r" depth="1" NCoef="0" IVar="0" Cut="4.0169186890125275e-02" cType="1" res="1.7556540668010712e-01" rms="4.2204123735427856e-01" purity="7.4484962224960327e-01" nType="0">
          <Node pos="l" depth="2" NCoef="0" IVar="-1" Cut="0.0000000000000000e+00" cType="1" res="6.0500903055071831e-04" rms="3.2700487971305847e-01" purity="8.7632822990417480e-01" nType="-99"/>
          <Node pos="r" depth="2" NCoef="0" IVar="-1" Cut="0.0000000000000000e+00" cType="1" res="3.0322693055495620e-04" rms="4.4793090224266052e-01" purity="6.8654465675354004e-01" nType="-99"/>
        </Node>
      </Node>
    </BinaryTree>
    <BinaryTree type="DecisionTree" boostWeight="1.0000000000000000e+00" itree="405">
      <Node pos="s" depth="0" NCoef="0" IVar="2" Cut="4.4136394531250000e+04" cType="1" res="5.5263210088014603e-02" rms="4.3554627895355225e-01" purity="5.0080877542495728e-01" nType="0">
        <Node pos="l" depth="1" NCoef="0" IVar="1" Cut="7.8204040527343750e+01" cType="1" res="-3.9470240473747253e-02" rms="4.2574512958526611e-01" purity="3.1881636381149292e-01" nType="0">
          <Node pos="l" depth="2" NCoef="0" IVar="-1" Cut="0.0000000000000000e+00" cType="1" res="-1.3677570968866348e-03" rms="3.6531129479408264e-01" purity="1.7210438847541809e-01" nType="-99"/>
          <Node pos="r" depth="2" NCoef="0" IVar="-1" Cut="0.0000000000000000e+00" cType="1" res="1.0488872067071497e-04" rms="4.6530345082283020e-01" purity="4.5590144395828247e-01" nType="-99"/>
        </Node>
        <Node pos="r" depth="1" NCoef="0" IVar="0" Cut="4.2280074208974838e-02" cType="1" res="1.9061645865440369e-01" rms="4.1306036710739136e-01" purity="7.6083576679229736e-01" nType="0">
          <Node pos="l" depth="2" NCoef="0" IVar="-1" Cut="0.0000000000000000e+00" cType="1" res="6.0237606521695852e-04" rms="3.0621764063835144e-01" purity="8.9311867952346802e-01" nType="-99"/>
          <Node pos="r" depth="2" NCoef="0" IVar="-1" Cut="0.0000000000000000e+00" cType="1" res="2.6643878663890064e-04" rms="4.5007139444351196e-01" purity="6.8268650770187378e-01" nType="-99"/>
        </Node>
      </Node>
    </BinaryTree>
    <BinaryTree type="DecisionTree" boostWeight="1.0000000000000000e+00" itree="406">
      <Node pos="s" depth="0" NCoef="0" IVar="2" Cut="5.2699613281250000e+04" cType="1" res="5.2422676235437393e-02" rms="4.3655097484588623e-01" purity="4.9670183658599854e-01" nType="0">
        <Node pos="l" depth="1" NCoef="0" IVar="0" Cut="2.5400951504707336e-02" cType="1" res="-2.6472365483641624e-02" rms="4.3309348821640015e-01" purity="3.4198594093322754e-01" nType="0">
          <Node pos="l" depth="2" NCoef="0" IVar="-1" Cut="0.0000000000000000e+00" cType="1" res="1.5752657782286406e-04" rms="4.5497483015060425e-01" purity="4.5937123894691467e-01" nType="-99"/>
          <Node pos="r" depth="2" NCoef="0" IVar="-1" Cut="0.0000000000000000e+00" cType="1" res="-6.9236947456374764e-04" rms="4.0416643023490906e-01" purity="2.5496146082878113e-01" nType="-99"/>
        </Node>
        <Node pos="r" depth="1" NCoef="0" IVar="1" Cut="2.4892790222167969e+02" cType="1" res="1.9750034809112549e-01" rms="4.0449032187461853e-01" purity="7.8120410442352295e-01" nType="0">
          <Node pos="l" depth="2" NCoef="0" IVar="-1" Cut="0.0000000000000000e+00" cType="1" res="3.2420310890302062e-04" rms="4.3683660030364990e-01" purity="7.2805643081665039e-01" nType="-99"/>
          <Node pos="r" depth="2" NCoef="0" IVar="-1" Cut="0.0000000000000000e+00" cType="1" res="4.9628224223852158e-04" rms="2.5012317299842834e-01" purity="9.3236410617828369e-01" nType="-99"/>
        </Node>
      </Node>
    </BinaryTree>
    <BinaryTree type="DecisionTree" boostWeight="1.0000000000000000e+00" itree="407">
      <Node pos="s" depth="0" NCoef="0" IVar="1" Cut="1.3953393554687500e+02" cType="1" res="5.6132804602384567e-02" rms="4.3733769655227661e-01" purity="4.9911502003669739e-01" nType="0">
        <Node pos="l" depth="1" NCoef="0" IVar="0" Cut="4.9881406128406525e-02" cType="1" res="-3.9913434535264969e-02" rms="4.2333373427391052e-01" purity="3.0612951517105103e-01" nType="0">
          <Node pos="l" depth="2" NCoef="0" IVar="-1" Cut="0.0000000000000000e+00" cType="1" res="6.9271263782866299e-06" rms="4.4676446914672852e-01" purity="3.6844235658645630e-01" nType="-99"/>
          <Node pos="r" depth="2" NCoef="0" IVar="-1" Cut="0.0000000000000000e+00" cType="1" res="-2.3691921960562468e-03" rms="3.2081788778305054e-01" purity="1.3062688708305359e-01" nType="-99"/>
        </Node>
        <Node pos="r" depth="1" NCoef="0" IVar="0" Cut="3.8821943104267120e-02" cType="1" res="1.7523162066936493e-01" rms="4.2495462298393250e-01" purity="7.3842006921768188e-01" nType="0">
          <Node pos="l" depth="2" NCoef="0" IVar="-1" Cut="0.0000000000000000e+00" cType="1" res="4.4966701534576714e-04" rms="3.6124777793884277e-01" purity="8.3769989013671875e-01" nType="-99"/>
          <Node pos="r" depth="2" NCoef="0" IVar="-1" Cut="0.0000000000000000e+00" cType="1" res="2.6438667555339634e-04" rms="4.4830095767974854e-01" purity="6.8034553527832031e-01" nType="-99"/>
        </Node>
      </Node>
    </BinaryTree>
    <BinaryTree type="DecisionTree" boostWeight="1.0000000000000000e+00" itree="408">
      <Node pos="s" depth="0" NCoef="0" IVar="2" Cut="6.1173269531250000e+04" cType="1" res="6.1787560582160950e-02" rms="4.3618872761726379e-01" purity="5.0674265623092651e-01" nType="0">
        <Node pos="l" depth="1" NCoef="0" IVar="1" Cut="3.5167625427246094e+01" cType="1" res="-1.3294917531311512e-02" rms="4.3958187103271484e-01" purity="3.6581641435623169e-01" nType="0">
          <Node pos="l" depth="2" NCoef="0" IVar="-1" Cut="0.0000000000000000e+00" cType="1" res="-2.1697534248232841e-03" rms="3.2089045643806458e-01" purity="1.1815610527992249e-01" nType="-99"/>
          <Node pos="r" depth="2" NCoef="0" IVar="-1" Cut="0.0000000000000000e+00" cType="1" res="7.2274902777280658e-05" rms="4.5699334144592285e-01" purity="4.2690715193748474e-01" nType="-99"/>
        </Node>
        <Node pos="r" depth="1" NCoef="0" IVar="1" Cut="2.1997988891601562e+02" cType="1" res="2.2986026108264923e-01" rms="3.7781059741973877e-01" purity="8.2220697402954102e-01" nType="0">
          <Node pos="l" depth="2" NCoef="0" IVar="-1" Cut="0.0000000000000000e+00" cType="1" res="3.9334749453701079e-04" rms="4.2770597338676453e-01" purity="7.5234806537628174e-01" nType="-99"/>
          <Node pos="r" depth="2" NCoef="0" IVar="-1" Cut="0.0000000000000000e+00" cType="1" res="3.8178652175702155e-04" rms="2.5833809375762939e-01" purity="9.2751640081405640e-01" nType="-99"/>
        </Node>
      </Node>
    </BinaryTree>
    <BinaryTree type="DecisionTree" boostWeight="1.0000000000000000e+00" itree="409">
      <Node pos="s" depth="0" NCoef="0" IVar="2" Cut="6.6204593750000000e+04" cType="1" res="6.0118444263935089e-02" rms="4.3204495310783386e-01" purity="5.0941282510757446e-01" nType="0">
        <Node pos="l" depth="1" NCoef="0" IVar="1" Cut="7.2004119873046875e+01" cType="1" res="-1.3080883771181107e-02" rms="4.3569174408912659e-01" purity="3.7928158044815063e-01" nType="0">
          <Node pos="l" depth="2" NCoef="0" IVar="-1" Cut="0.0000000000000000e+00" cType="1" res="-2.1483874879777431e-03" rms="3.3163544535636902e-01" purity="1.3713514804840088e-01" nType="-99"/>
          <Node pos="r" depth="2" NCoef="0" IVar="-1" Cut="0.0000000000000000e+00" cType="1" res="1.6399653395637870e-04" rms="4.6813312172889709e-01" purity="5.0686866044998169e-01" nType="-99"/>
        </Node>
        <Node pos="r" depth="1" NCoef="0" IVar="1" Cut="2.0048472595214844e+02" cType="1" res="2.4844862520694733e-01" rms="3.5953763127326965e-01" purity="8.4421974420547485e-01" nType="0">
          <Node pos="l" depth="2" NCoef="0" IVar="-1" Cut="0.0000000000000000e+00" cType="1" res="4.2103699524886906e-04" rms="4.1228356957435608e-01" purity="7.7807074785232544e-01" nType="-99"/>
          <Node pos="r" depth="2" NCoef="0" IVar="-1" Cut="0.0000000000000000e+00" cType="1" res="4.0545986848883331e-04" rms="2.8289550542831421e-01" purity="9.1155123710632324e-01" nType="-99"/>
        </Node>
      </Node>
    </BinaryTree>
    <BinaryTree type="DecisionTree" boostWeight="1.0000000000000000e+00" itree="410">
      <Node pos="s" depth="0" NCoef="0" IVar="2" Cut="3.4482546875000000e+04" cType="1" res="4.4999469071626663e-02" rms="4.3424049019813538e-01" purity="4.8896849155426025e-01" nType="0">
        <Node pos="l" depth="1" NCoef="0" IVar="1" Cut="7.2126808166503906e+01" cType="1" res="-6.5699949860572815e-02" rms="4.0960767865180969e-01" purity="2.8284394741058350e-01" nType="0">
          <Node pos="l" depth="2" NCoef="0" IVar="-1" Cut="0.0000000000000000e+00" cType="1" res="-1.8349966267123818e-03" rms="3.2880958914756775e-01" purity="1.3370570540428162e-01" nType="-99"/>
          <Node pos="r" depth="2" NCoef="0" IVar="-1" Cut="0.0000000000000000e+00" cType="1" res="3.9496102544944733e-05" rms="4.6300527453422546e-01" purity="4.2722496390342712e-01" nType="-99"/>
        </Node>
        <Node pos="r" depth="1" NCoef="0" IVar="0" Cut="4.2612448334693909e-02" cType="1" res="1.6560705006122589e-01" rms="4.2815211415290833e-01" purity="7.1354228258132935e-01" nType="0">
          <Node pos="l" depth="2" NCoef="0" IVar="-1" Cut="0.0000000000000000e+00" cType="1" res="5.8122654445469379e-04" rms="3.3850061893463135e-01" purity="8.6159545183181763e-01" nType="-99"/>
          <Node pos="r" depth="2" NCoef="0" IVar="-1" Cut="0.0000000000000000e+00" cType="1" res="2.4004053557291627e-04" rms="4.5674061775207520e-01" purity="6.2436240911483765e-01" nType="-99"/>
        </Node>
      </Node>
    </BinaryTree>
    <BinaryTree type="DecisionTree" boostWeight="1.0000000000000000e+00" itree="411">
      <Node pos="s" depth="0" NCoef="0" IVar="1" Cut="1.5854992675781250e+02" cType="1" res="5.1662214100360870e-02" rms="4.3381091952323914e-01" purity="4.9677664041519165e-01" nType="0">
        <Node pos="l" depth="1" NCoef="0" IVar="0" Cut="2.5400951504707336e-02" cType="1" res="-3.7519939243793488e-02" rms="4.2682287096977234e-01" purity="3.2935324311256409e-01" nType="0">
          <Node pos="l" depth="2" NCoef="0" IVar="-1" Cut="0.0000000000000000e+00" cType="1" res="1.3373864931054413e-04" rms="4.5581227540969849e-01" purity="4.6141776442527771e-01" nType="-99"/>
          <Node pos="r" depth="2" NCoef="0" IVar="-1" Cut="0.0000000000000000e+00" cType="1" res="-9.7352400189265609e-04" rms="3.8403779268264771e-01" purity="2.2961601614952087e-01" nType="-99"/>
        </Node>
        <Node pos="r" depth="1" NCoef="0" IVar="1" Cut="2.4971400451660156e+02" cType="1" res="2.0168377459049225e-01" rms="4.0301755070686340e-01" purity="7.7841514348983765e-01" nType="0">
          <Node pos="l" depth="2" NCoef="0" IVar="-1" Cut="0.0000000000000000e+00" cType="1" res="3.4640327794477344e-04" rms="4.3989467620849609e-01" purity="7.1702480316162109e-01" nType="-99"/>
          <Node pos="r" depth="2" NCoef="0" IVar="-1" Cut="0.0000000000000000e+00" cType="1" res="4.7842282219789922e-04" rms="2.5368335843086243e-01" purity="9.2741429805755615e-01" nType="-99"/>
        </Node>
      </Node>
    </BinaryTree>
    <BinaryTree type="DecisionTree" boostWeight="1.0000000000000000e+00" itree="412">
      <Node pos="s" depth="0" NCoef="0" IVar="1" Cut="1.3828833007812500e+02" cType="1" res="5.5631279945373535e-02" rms="4.3649384379386902e-01" purity="4.9750450253486633e-01" nType="0">
        <Node pos="l" depth="1" NCoef="0" IVar="0" Cut="1.2872608378529549e-02" cType="1" res="-4.7163914889097214e-02" rms="4.2048627138137817e-01" purity="2.9268464446067810e-01" nType="0">
          <Node pos="l" depth="2" NCoef="0" IVar="-1" Cut="0.0000000000000000e+00" cType="1" res="1.2346562289167196e-04" rms="4.6360635757446289e-01" purity="4.3195071816444397e-01" nType="-99"/>
          <Node pos="r" depth="2" NCoef="0" IVar="-1" Cut="0.0000000000000000e+00" cType="1" res="-5.8290071319788694e-04" rms="3.9806595444679260e-01" purity="2.4882836639881134e-01" nType="-99"/>
        </Node>
        <Node pos="r" depth="1" NCoef="0" IVar="1" Cut="2.5785595703125000e+02" cType="1" res="1.7769835889339447e-01" rms="4.2351931333541870e-01" purity="7.4072366952896118e-01" nType="0">
          <Node pos="l" depth="2" NCoef="0" IVar="-1" Cut="0.0000000000000000e+00" cType="1" res="3.2024522079154849e-04" rms="4.4584259390830994e-01" purity="6.9929838180541992e-01" nType="-99"/>
          <Node pos="r" depth="2" NCoef="0" IVar="-1" Cut="0.0000000000000000e+00" cType="1" res="5.5602524662390351e-04" rms="2.6148670911788940e-01" purity="9.2252779006958008e-01" nType="-99"/>
        </Node>
      </Node>
    </BinaryTree>
    <BinaryTree type="DecisionTree" boostWeight="1.0000000000000000e+00" itree="413">
      <Node pos="s" depth="0" NCoef="0" IVar="1" Cut="1.3930560302734375e+02" cType="1" res="5.5843636393547058e-02" rms="4.3424987792968750e-01" purity="5.0052899122238159e-01" nType="0">
        <Node pos="l" depth="1" NCoef="0" IVar="1" Cut="3.2317512512207031e+01" cType="1" res="-4.5438267290592194e-02" rms="4.1668659448623657e-01" purity="2.9918432235717773e-01" nType="0">
          <Node pos="l" depth="2" NCoef="0" IVar="-1" Cut="0.0000000000000000e+00" cType="1" res="-2.4526729248464108e-03" rms="2.9132261872291565e-01" purity="9.4951771199703217e-02" nType="-99"/>
          <Node pos="r" depth="2" NCoef="0" IVar="-1" Cut="0.0000000000000000e+00" cType="1" res="-1.3967289305583108e-05" rms="4.3903601169586182e-01" purity="3.6026090383529663e-01" nType="-99"/>
        </Node>
        <Node pos="r" depth="1" NCoef="0" IVar="2" Cut="6.6204593750000000e+04" cType="1" res="1.7687028646469116e-01" rms="4.2370566725730896e-01" purity="7.4112540483474731e-01" nType="0">
          <Node pos="l" depth="2" NCoef="0" IVar="-1" Cut="0.0000000000000000e+00" cType="1" res="2.2229681781027466e-04" rms="4.7608047723770142e-01" purity="6.1372721195220947e-01" nType="-99"/>
          <Node pos="r" depth="2" NCoef="0" IVar="-1" Cut="0.0000000000000000e+00" cType="1" res="4.5414298074319959e-04" rms="3.6973169445991516e-01" purity="8.3372515439987183e-01" nType="-99"/>
        </Node>
      </Node>
    </BinaryTree>
    <BinaryTree type="DecisionTree" boostWeight="1.0000000000000000e+00" itree="414">
      <Node pos="s" depth="0" NCoef="0" IVar="1" Cut="1.3938558959960938e+02" cType="1" res="5.1755487918853760e-02" rms="4.3566757440567017e-01" purity="4.9451959133148193e-01" nType="0">
        <Node pos="l" depth="1" NCoef="0" IVar="0" Cut="2.5133045390248299e-02" cType="1" res="-4.6679954975843430e-02" rms="4.1897886991500854e-01" purity="2.9444995522499084e-01" nType="0">
          <Node pos="l" depth="2" NCoef="0" IVar="-1" Cut="0.0000000000000000e+00" cType="1" res="1.2663681991398335e-04" rms="4.5047149062156677e-01" purity="4.0701341629028320e-01" nType="-99"/>
          <Node pos="r" depth="2" NCoef="0" IVar="-1" Cut="0.0000000000000000e+00" cType="1" res="-9.2702719848603010e-04" rms="3.8339847326278687e-01" purity="2.0898133516311646e-01" nType="-99"/>
        </Node>
        <Node pos="r" depth="1" NCoef="0" IVar="2" Cut="8.8272789062500000e+04" cType="1" res="1.7055404186248779e-01" rms="4.2569077014923096e-01" purity="7.3597723245620728e-01" nType="0">
          <Node pos="l" depth="2" NCoef="0" IVar="-1" Cut="0.0000000000000000e+00" cType="1" res="3.1180988298729062e-04" rms="4.4913330674171448e-01" purity="6.8899762630462646e-01" nType="-99"/>
          <Node pos="r" depth="2" NCoef="0" IVar="-1" Cut="0.0000000000000000e+00" cType="1" res="6.6462490940466523e-04" rms="2.8263419866561890e-01" purity="9.1174131631851196e-01" nType="-99"/>
        </Node>
      </Node>
    </BinaryTree>
    <BinaryTree type="DecisionTree" boostWeight="1.0000000000000000e+00" itree="415">
      <Node pos="s" depth="0" NCoef="0" IVar="3" Cut="1.4930736541748047e+01" cType="1" res="4.7273974865674973e-02" rms="4.3574154376983643e-01" purity="4.8921433091163635e-01" nType="0">
        <Node pos="l" depth="1" NCoef="0" IVar="0" Cut="2.0740222185850143e-02" cType="1" res="-6.5714918076992035e-02" rms="4.1142520308494568e-01" purity="2.7858799695968628e-01" nType="0">
          <Node pos="l" depth="2" NCoef="0" IVar="-1" Cut="0.0000000000000000e+00" cType="1" res="1.0021139314631000e-04" rms="4.5875626802444458e-01" purity="4.2269882559776306e-01" nType="-99"/>
          <Node pos="r" depth="2" NCoef="0" IVar="-1" Cut="0.0000000000000000e+00" cType="1" res="-1.6467395471408963e-03" rms="3.4800329804420471e-01" purity="1.6912759840488434e-01" nType="-99"/>
        </Node>
        <Node pos="r" depth="1" NCoef="0" IVar="0" Cut="4.2733144015073776e-02" cType="1" res="1.5442150831222534e-01" rms="4.3106684088706970e-01" purity="6.8895161151885986e-01" nType="0">
          <Node pos="l" depth="2" NCoef="0" IVar="-1" Cut="0.0000000000000000e+00" cType="1" res="5.1300990162417293e-04" rms="3.5104545950889587e-01" purity="8.4812253713607788e-01" nType="-99"/>
          <Node pos="r" depth="2" NCoef="0" IVar="-1" Cut="0.0000000000000000e+00" cType="1" res="2.3293313279282302e-04" rms="4.5275470614433289e-01" purity="5.9574019908905029e-01" nType="-99"/>
        </Node>
      </Node>
    </BinaryTree>
    <BinaryTree type="DecisionTree" boostWeight="1.0000000000000000e+00" itree="416">
      <Node pos="s" depth="0" NCoef="0" IVar="2" Cut="3.5884277343750000e+04" cType="1" res="5.0200317054986954e-02" rms="4.3684750795364380e-01" purity="4.9228519201278687e-01" nType="0">
        <Node pos="l" depth="1" NCoef="0" IVar="0" Cut="2.4177541956305504e-02" cType="1" res="-4.9215782433748245e-02" rms="4.1953334212303162e-01" purity="2.9732459783554077e-01" nType="0">
          <Node pos="l" depth="2" NCoef="0" IVar="-1" Cut="0.0000000000000000e+00" cType="1" res="7.8140205005183816e-05" rms="4.5673456788063049e-01" purity="4.1495671868324280e-01" nType="-99"/>
          <Node pos="r" depth="2" NCoef="0" IVar="-1" Cut="0.0000000000000000e+00" cType="1" res="-9.8568992689251900e-04" rms="3.7235113978385925e-01" purity="1.9937877357006073e-01" nType="-99"/>
        </Node>
        <Node pos="r" depth="1" NCoef="0" IVar="0" Cut="4.3363869190216064e-02" cType="1" res="1.6531787812709808e-01" rms="4.2814543843269348e-01" purity="7.1803718805313110e-01" nType="0">
          <Node pos="l" depth="2" NCoef="0" IVar="-1" Cut="0.0000000000000000e+00" cType="1" res="5.3769157966598868e-04" rms="3.4775951504707336e-01" purity="8.5175448656082153e-01" nType="-99"/>
          <Node pos="r" depth="2" NCoef="0" IVar="-1" Cut="0.0000000000000000e+00" cType="1" res="2.5981868384405971e-04" rms="4.5503184199333191e-01" purity="6.4219510555267334e-01" nType="-99"/>
        </Node>
      </Node>
    </BinaryTree>
    <BinaryTree type="DecisionTree" boostWeight="1.0000000000000000e+00" itree="417">
      <Node pos="s" depth="0" NCoef="0" IVar="1" Cut="1.3938558959960938e+02" cType="1" res="4.8159208148717880e-02" rms="4.3374699354171753e-01" purity="4.9158018827438354e-01" nType="0">
        <Node pos="l" depth="1" NCoef="0" IVar="1" Cut="3.2407630920410156e+01" cType="1" res="-5.4565325379371643e-02" rms="4.1342383623123169e-01" purity="2.8832238912582397e-01" nType="0">
          <Node pos="l" depth="2" NCoef="0" IVar="-1" Cut="0.0000000000000000e+00" cType="1" res="-4.1083120740950108e-03" rms="2.8658086061477661e-01" purity="9.0725839138031006e-02" nType="-99"/>
          <Node pos="r" depth="2" NCoef="0" IVar="-1" Cut="0.0000000000000000e+00" cType="1" res="-4.9841208237921819e-05" rms="4.3684861063957214e-01" purity="3.4760040044784546e-01" nType="-99"/>
        </Node>
        <Node pos="r" depth="1" NCoef="0" IVar="1" Cut="2.5973712158203125e+02" cType="1" res="1.7272381484508514e-01" rms="4.2509058117866516e-01" purity="7.3805230855941772e-01" nType="0">
          <Node pos="l" depth="2" NCoef="0" IVar="-1" Cut="0.0000000000000000e+00" cType="1" res="3.1945129740051925e-04" rms="4.4589778780937195e-01" purity="6.9873404502868652e-01" nType="-99"/>
          <Node pos="r" depth="2" NCoef="0" IVar="-1" Cut="0.0000000000000000e+00" cType="1" res="7.2811607969924808e-04" rms="2.6743492484092712e-01" purity="9.1890150308609009e-01" nType="-99"/>
        </Node>
      </Node>
    </BinaryTree>
    <BinaryTree type="DecisionTree" boostWeight="1.0000000000000000e+00" itree="418">
      <Node pos="s" depth="0" NCoef="0" IVar="1" Cut="1.3930560302734375e+02" cType="1" res="5.3536068648099899e-02" rms="4.3636706471443176e-01" purity="4.9540257453918457e-01" nType="0">
        <Node pos="l" depth="1" NCoef="0" IVar="0" Cut="2.5745216757059097e-02" cType="1" res="-4.2319979518651962e-02" rms="4.2211359739303589e-01" purity="2.9798728227615356e-01" nType="0">
          <Node pos="l" depth="2" NCoef="0" IVar="-1" Cut="0.0000000000000000e+00" cType="1" res="8.9709268650040030e-05" rms="4.5320457220077515e-01" purity="4.0316888689994812e-01" nType="-99"/>
          <Node pos="r" depth="2" NCoef="0" IVar="-1" Cut="0.0000000000000000e+00" cType="1" res="-8.1713212421163917e-04" rms="3.8726729154586792e-01" purity="2.1532560884952545e-01" nType="-99"/>
        </Node>
        <Node pos="r" depth="1" NCoef="0" IVar="1" Cut="2.5966711425781250e+02" cType="1" res="1.7091616988182068e-01" rms="4.2470049858093262e-01" purity="7.3714655637741089e-01" nType="0">
          <Node pos="l" depth="2" NCoef="0" IVar="-1" Cut="0.0000000000000000e+00" cType="1" res="3.2212189398705959e-04" rms="4.4726198911666870e-01" purity="6.9324457645416260e-01" nType="-99"/>
          <Node pos="r" depth="2" NCoef="0" IVar="-1" Cut="0.0000000000000000e+00" cType="1" res="5.3735286928713322e-04" rms="2.6128140091896057e-01" purity="9.2306667566299438e-01" nType="-99"/>
        </Node>
      </Node>
    </BinaryTree>
    <BinaryTree type="DecisionTree" boostWeight="1.0000000000000000e+00" itree="419">
      <Node pos="s" depth="0" NCoef="0" IVar="2" Cut="5.2699613281250000e+04" cType="1" res="6.8085670471191406e-02" rms="4.3823930621147156e-01" purity="5.1049071550369263e-01" nType="0">
        <Node pos="l" depth="1" NCoef="0" IVar="0" Cut="3.7628732621669769e-02" cType="1" res="-4.4717942364513874e-03" rms="4.4020026922225952e-01" purity="3.6121124029159546e-01" nType="0">
          <Node pos="l" depth="2" NCoef="0" IVar="-1" Cut="0.0000000000000000e+00" cType="1" res="1.2341693218331784e-04" rms="4.6128049492835999e-01" purity="4.5902693271636963e-01" nType="-99"/>
          <Node pos="r" depth="2" NCoef="0" IVar="-1" Cut="0.0000000000000000e+00" cType="1" res="-1.0114534525200725e-03" rms="3.8419377803802490e-01" purity="2.0717477798461914e-01" nType="-99"/>
        </Node>
        <Node pos="r" depth="1" NCoef="0" IVar="0" Cut="4.4384025037288666e-02" cType="1" res="2.0235550403594971e-01" rms="4.0136680006980896e-01" purity="7.8673714399337769e-01" nType="0">
          <Node pos="l" depth="2" NCoef="0" IVar="-1" Cut="0.0000000000000000e+00" cType="1" res="5.0140428356826305e-04" rms="3.1547176837921143e-01" purity="8.8694155216217041e-01" nType="-99"/>
          <Node pos="r" depth="2" NCoef="0" IVar="-1" Cut="0.0000000000000000e+00" cType="1" res="3.0691819847561419e-04" rms="4.3629652261734009e-01" purity="7.2423964738845825e-01" nType="-99"/>
        </Node>
      </Node>
    </BinaryTree>
    <BinaryTree type="DecisionTree" boostWeight="1.0000000000000000e+00" itree="420">
      <Node pos="s" depth="0" NCoef="0" IVar="1" Cut="1.3844578552246094e+02" cType="1" res="5.3124818950891495e-02" rms="4.3453449010848999e-01" purity="4.9663957953453064e-01" nType="0">
        <Node pos="l" depth="1" NCoef="0" IVar="1" Cut="3.8825187683105469e+01" cType="1" res="-4.9374338239431381e-02" rms="4.1622459888458252e-01" purity="2.9097202420234680e-01" nType="0">
          <Node pos="l" depth="2" NCoef="0" IVar="-1" Cut="0.0000000000000000e+00" cType="1" res="-3.0907392501831055e-03" rms="3.0638614296913147e-01" purity="1.0611435025930405e-01" nType="-99"/>
          <Node pos="r" depth="2" NCoef="0" IVar="-1" Cut="0.0000000000000000e+00" cType="1" res="-2.2640366296400316e-05" rms="4.4318780303001404e-01" purity="3.6173355579376221e-01" nType="-99"/>
        </Node>
        <Node pos="r" depth="1" NCoef="0" IVar="1" Cut="2.5799047851562500e+02" cType="1" res="1.7374947667121887e-01" rms="4.2454433441162109e-01" purity="7.3867642879486084e-01" nType="0">
          <Node pos="l" depth="2" NCoef="0" IVar="-1" Cut="0.0000000000000000e+00" cType="1" res="3.4000599407590926e-04" rms="4.4736701250076294e-01" purity="6.9566285610198975e-01" nType="-99"/>
          <Node pos="r" depth="2" NCoef="0" IVar="-1" Cut="0.0000000000000000e+00" cType="1" res="4.4368288945406675e-04" rms="2.5912305712699890e-01" purity="9.2416125535964966e-01" nType="-99"/>
        </Node>
      </Node>
    </BinaryTree>
    <BinaryTree type="DecisionTree" boostWeight="1.0000000000000000e+00" itree="421">
      <Node pos="s" depth="0" NCoef="0" IVar="2" Cut="4.4136394531250000e+04" cType="1" res="7.0344813168048859e-02" rms="4.3645408749580383e-01" purity="5.1399058103561401e-01" nType="0">
        <Node pos="l" depth="1" NCoef="0" IVar="0" Cut="2.4367978796362877e-02" cType="1" res="-1.1232622899115086e-02" rms="4.3353608250617981e-01" purity="3.4538906812667847e-01" nType="0">
          <Node pos="l" depth="2" NCoef="0" IVar="-1" Cut="0.0000000000000000e+00" cType="1" res="1.4598546840716153e-04" rms="4.5924845337867737e-01" purity="4.7342237830162048e-01" nType="-99"/>
          <Node pos="r" depth="2" NCoef="0" IVar="-1" Cut="0.0000000000000000e+00" cType="1" res="-4.9311917973682284e-04" rms="3.9709934592247009e-01" purity="2.4533173441886902e-01" nType="-99"/>
        </Node>
        <Node pos="r" depth="1" NCoef="0" IVar="0" Cut="4.2733144015073776e-02" cType="1" res="1.9063153862953186e-01" rms="4.1225463151931763e-01" purity="7.6259517669677734e-01" nType="0">
          <Node pos="l" depth="2" NCoef="0" IVar="-1" Cut="0.0000000000000000e+00" cType="1" res="5.6111492449417710e-04" rms="3.1925666332244873e-01" purity="8.8215959072113037e-01" nType="-99"/>
          <Node pos="r" depth="2" NCoef="0" IVar="-1" Cut="0.0000000000000000e+00" cType="1" res="3.2408456900157034e-04" rms="4.4495528936386108e-01" purity="6.9516235589981079e-01" nType="-99"/>
        </Node>
      </Node>
    </BinaryTree>
    <BinaryTree type="DecisionTree" boostWeight="1.0000000000000000e+00" itree="422">
      <Node pos="s" depth="0" NCoef="0" IVar="3" Cut="1.4930736541748047e+01" cType="1" res="6.1210341751575470e-02" rms="4.3737840652465820e-01" purity="5.0303161144256592e-01" nType="0">
        <Node pos="l" depth="1" NCoef="0" IVar="0" Cut="2.0980533212423325e-02" cType="1" res="-4.8701100051403046e-02" rms="4.2009219527244568e-01" purity="2.9404225945472717e-01" nType="0">
          <Node pos="l" depth="2" NCoef="0" IVar="-1" Cut="0.0000000000000000e+00" cType="1" res="1.0753529204521328e-04" rms="4.5533487200737000e-01" purity="4.1847962141036987e-01" nType="-99"/>
          <Node pos="r" depth="2" NCoef="0" IVar="-1" Cut="0.0000000000000000e+00" cType="1" res="-6.6147028701379895e-04" rms="3.7879508733749390e-01" purity="2.0288354158401489e-01" nType="-99"/>
        </Node>
        <Node pos="r" depth="1" NCoef="0" IVar="0" Cut="4.2733144015073776e-02" cType="1" res="1.6464596986770630e-01" rms="4.2799684405326843e-01" purity="6.9970762729644775e-01" nType="0">
          <Node pos="l" depth="2" NCoef="0" IVar="-1" Cut="0.0000000000000000e+00" cType="1" res="5.7657132856547832e-04" rms="3.4224855899810791e-01" purity="8.5452270507812500e-01" nType="-99"/>
          <Node pos="r" depth="2" NCoef="0" IVar="-1" Cut="0.0000000000000000e+00" cType="1" res="2.3674572003073990e-04" rms="4.5497030019760132e-01" purity="6.0692673921585083e-01" nType="-99"/>
        </Node>
      </Node>
    </BinaryTree>
    <BinaryTree type="DecisionTree" boostWeight="1.0000000000000000e+00" itree="423">
      <Node pos="s" depth="0" NCoef="0" IVar="1" Cut="1.5836036682128906e+02" cType="1" res="5.8898061513900757e-02" rms="4.3411281704902649e-01" purity="5.0233751535415649e-01" nType="0">
        <Node pos="l" depth="1" NCoef="0" IVar="0" Cut="2.5745216757059097e-02" cType="1" res="-2.2623047232627869e-02" rms="4.3056222796440125e-01" purity="3.4304344654083252e-01" nType="0">
          <Node pos="l" depth="2" NCoef="0" IVar="-1" Cut="0.0000000000000000e+00" cType="1" res="1.4038715744391084e-04" rms="4.5373275876045227e-01" purity="4.6235376596450806e-01" nType="-99"/>
          <Node pos="r" depth="2" NCoef="0" IVar="-1" Cut="0.0000000000000000e+00" cType="1" res="-6.9384626112878323e-04" rms="3.9706683158874512e-01" purity="2.5171014666557312e-01" nType="-99"/>
        </Node>
        <Node pos="r" depth="1" NCoef="0" IVar="1" Cut="2.4954237365722656e+02" cType="1" res="2.0010182261466980e-01" rms="4.0289220213890076e-01" purity="7.7825278043746948e-01" nType="0">
          <Node pos="l" depth="2" NCoef="0" IVar="-1" Cut="0.0000000000000000e+00" cType="1" res="3.3730306313373148e-04" rms="4.3600696325302124e-01" purity="7.2420960664749146e-01" nType="-99"/>
          <Node pos="r" depth="2" NCoef="0" IVar="-1" Cut="0.0000000000000000e+00" cType="1" res="4.8941472778096795e-04" rms="2.6099011301994324e-01" purity="9.2237836122512817e-01" nType="-99"/>
        </Node>
      </Node>
    </BinaryTree>
    <BinaryTree type="DecisionTree" boostWeight="1.0000000000000000e+00" itree="424">
      <Node pos="s" depth="0" NCoef="0" IVar="1" Cut="1.3458947753906250e+02" cType="1" res="6.2081836163997650e-02" rms="4.3461781740188599e-01" purity="5.0702792406082153e-01" nType="0">
        <Node pos="l" depth="1" NCoef="0" IVar="0" Cut="5.0266090780496597e-02" cType="1" res="-4.1656251996755600e-02" rms="4.1898876428604126e-01" purity="2.9489073157310486e-01" nType="0">
          <Node pos="l" depth="2" NCoef="0" IVar="-1" Cut="0.0000000000000000e+00" cType="1" res="-3.1870690975210891e-08" rms="4.4377776980400085e-01" purity="3.5853788256645203e-01" nType="-99"/>
          <Node pos="r" depth="2" NCoef="0" IVar="-1" Cut="0.0000000000000000e+00" cType="1" res="-3.2806007657200098e-03" rms="3.0073213577270508e-01" purity="1.0369379073381424e-01" nType="-99"/>
        </Node>
        <Node pos="r" depth="1" NCoef="0" IVar="0" Cut="2.7510134503245354e-02" cType="1" res="1.7510132491588593e-01" rms="4.2300063371658325e-01" purity="7.3814499378204346e-01" nType="0">
          <Node pos="l" depth="2" NCoef="0" IVar="-1" Cut="0.0000000000000000e+00" cType="1" res="4.5816690544597805e-04" rms="3.1527495384216309e-01" purity="8.8091135025024414e-01" nType="-99"/>
          <Node pos="r" depth="2" NCoef="0" IVar="-1" Cut="0.0000000000000000e+00" cType="1" res="3.5832039429806173e-04" rms="4.4267705082893372e-01" purity="6.9271165132522583e-01" nType="-99"/>
        </Node>
      </Node>
    </BinaryTree>
    <BinaryTree type="DecisionTree" boostWeight="1.0000000000000000e+00" itree="425">
      <Node pos="s" depth="0" NCoef="0" IVar="2" Cut="5.4184500000000000e+04" cType="1" res="5.7210445404052734e-02" rms="4.3306496739387512e-01" purity="5.0263136625289917e-01" nType="0">
        <Node pos="l" depth="1" NCoef="0" IVar="0" Cut="4.9881406128406525e-02" cType="1" res="-2.6884701102972031e-02" rms="4.3071618676185608e-01" purity="3.3989599347114563e-01" nType="0">
          <Node pos="l" depth="2" NCoef="0" IVar="-1" Cut="0.0000000000000000e+00" cType="1" res="6.8232722696848214e-05" rms="4.4999182224273682e-01" purity="4.0578952431678772e-01" nType="-99"/>
          <Node pos="r" depth="2" NCoef="0" IVar="-1" Cut="0.0000000000000000e+00" cType="1" res="-2.0058730151504278e-03" rms="3.3953723311424255e-01" purity="1.5539716184139252e-01" nType="-99"/>
        </Node>
        <Node pos="r" depth="1" NCoef="0" IVar="1" Cut="2.4932723999023438e+02" cType="1" res="2.0988425612449646e-01" rms="3.9380219578742981e-01" purity="7.9807555675506592e-01" nType="0">
          <Node pos="l" depth="2" NCoef="0" IVar="-1" Cut="0.0000000000000000e+00" cType="1" res="3.8938381476327777e-04" rms="4.3288365006446838e-01" purity="7.3875594139099121e-01" nType="-99"/>
          <Node pos="r" depth="2" NCoef="0" IVar="-1" Cut="0.0000000000000000e+00" cType="1" res="4.9533287528902292e-04" rms="2.3079766333103180e-01" purity="9.4322854280471802e-01" nType="-99"/>
        </Node>
      </Node>
    </BinaryTree>
    <BinaryTree type="DecisionTree" boostWeight="1.0000000000000000e+00" itree="426">
      <Node pos="s" depth="0" NCoef="0" IVar="1" Cut="1.0517140960693359e+02" cType="1" res="6.2589779496192932e-02" rms="4.3524789810180664e-01" purity="5.0610840320587158e-01" nType="0">
        <Node pos="l" depth="1" NCoef="0" IVar="1" Cut="3.4252773284912109e+01" cType="1" res="-6.5432913601398468e-02" rms="3.9949950575828552e-01" purity="2.4502032995223999e-01" nType="0">
          <Node pos="l" depth="2" NCoef="0" IVar="-1" Cut="0.0000000000000000e+00" cType="1" res="-2.9451637528836727e-03" rms="3.0593219399452209e-01" purity="1.0431988537311554e-01" nType="-99"/>
          <Node pos="r" depth="2" NCoef="0" IVar="-1" Cut="0.0000000000000000e+00" cType="1" res="-4.7062858357094228e-05" rms="4.2869797348976135e-01" purity="3.1209838390350342e-01" nType="-99"/>
        </Node>
        <Node pos="r" depth="1" NCoef="0" IVar="0" Cut="4.1265200823545456e-02" cType="1" res="1.5116576850414276e-01" rms="4.3692275881767273e-01" purity="6.8674927949905396e-01" nType="0">
          <Node pos="l" depth="2" NCoef="0" IVar="-1" Cut="0.0000000000000000e+00" cType="1" res="4.6784826554358006e-04" rms="3.9922252297401428e-01" purity="7.7999472618103027e-01" nType="-99"/>
          <Node pos="r" depth="2" NCoef="0" IVar="-1" Cut="0.0000000000000000e+00" cType="1" res="2.1841062698513269e-04" rms="4.5282042026519775e-01" purity="6.1609816551208496e-01" nType="-99"/>
        </Node>
      </Node>
    </BinaryTree>
    <BinaryTree type="DecisionTree" boostWeight="1.0000000000000000e+00" itree="427">
      <Node pos="s" depth="0" NCoef="0" IVar="2" Cut="6.1173269531250000e+04" cType="1" res="6.0081969946622849e-02" rms="4.3420863151550293e-01" purity="5.0452125072479248e-01" nType="0">
        <Node pos="l" depth="1" NCoef="0" IVar="0" Cut="3.8101427257061005e-02" cType="1" res="-1.0218889452517033e-02" rms="4.3612286448478699e-01" purity="3.6872109770774841e-01" nType="0">
          <Node pos="l" depth="2" NCoef="0" IVar="-1" Cut="0.0000000000000000e+00" cType="1" res="1.7949730681721121e-04" rms="4.5454978942871094e-01" purity="4.7237601876258850e-01" nType="-99"/>
          <Node pos="r" depth="2" NCoef="0" IVar="-1" Cut="0.0000000000000000e+00" cType="1" res="-1.1638227151706815e-03" rms="3.7898850440979004e-01" purity="2.0731647312641144e-01" nType="-99"/>
        </Node>
        <Node pos="r" depth="1" NCoef="0" IVar="0" Cut="4.5879330486059189e-02" cType="1" res="2.2076550126075745e-01" rms="3.8420543074607849e-01" purity="8.1491363048553467e-01" nType="0">
          <Node pos="l" depth="2" NCoef="0" IVar="-1" Cut="0.0000000000000000e+00" cType="1" res="4.3223061948083341e-04" rms="3.0496987700462341e-01" purity="8.9531242847442627e-01" nType="-99"/>
          <Node pos="r" depth="2" NCoef="0" IVar="-1" Cut="0.0000000000000000e+00" cType="1" res="3.4451304236426950e-04" rms="4.1951608657836914e-01" purity="7.6460504531860352e-01" nType="-99"/>
        </Node>
      </Node>
    </BinaryTree>
    <BinaryTree type="DecisionTree" boostWeight="1.0000000000000000e+00" itree="428">
      <Node pos="s" depth="0" NCoef="0" IVar="2" Cut="6.6204593750000000e+04" cType="1" res="6.4711630344390869e-02" rms="4.3864622712135315e-01" purity="5.0529283285140991e-01" nType="0">
        <Node pos="l" depth="1" NCoef="0" IVar="0" Cut="5.0266090780496597e-02" cType="1" res="7.5034145265817642e-03" rms="4.4515672326087952e-01" purity="3.9318212866783142e-01" nType="0">
          <Node pos="l" depth="2" NCoef="0" IVar="-1" Cut="0.0000000000000000e+00" cType="1" res="1.5926046762615442e-04" rms="4.5532560348510742e-01" purity="4.5888108015060425e-01" nType="-99"/>
          <Node pos="r" depth="2" NCoef="0" IVar="-1" Cut="0.0000000000000000e+00" cType="1" res="-1.0205112630501390e-03" rms="3.8554781675338745e-01" purity="2.2182048857212067e-01" nType="-99"/>
        </Node>
        <Node pos="r" depth="1" NCoef="0" IVar="1" Cut="2.0048472595214844e+02" cType="1" res="2.3012548685073853e-01" rms="3.7275788187980652e-01" purity="8.2945388555526733e-01" nType="0">
          <Node pos="l" depth="2" NCoef="0" IVar="-1" Cut="0.0000000000000000e+00" cType="1" res="3.5077924258075655e-04" rms="4.2374855279922485e-01" purity="7.5978255271911621e-01" nType="-99"/>
          <Node pos="r" depth="2" NCoef="0" IVar="-1" Cut="0.0000000000000000e+00" cType="1" res="5.5039074504747987e-04" rms="2.9838526248931885e-01" purity="9.0024733543395996e-01" nType="-99"/>
        </Node>
      </Node>
    </BinaryTree>
    <BinaryTree type="DecisionTree" boostWeight="1.0000000000000000e+00" itree="429">
      <Node pos="s" depth="0" NCoef="0" IVar="2" Cut="4.4136394531250000e+04" cType="1" res="6.1684727668762207e-02" rms="4.3362092971801758e-01" purity="5.0613731145858765e-01" nType="0">
        <Node pos="l" depth="1" NCoef="0" IVar="0" Cut="2.5400951504707336e-02" cType="1" res="-2.9625587165355682e-02" rms="4.2698889970779419e-01" purity="3.2217970490455627e-01" nType="0">
          <Node pos="l" depth="2" NCoef="0" IVar="-1" Cut="0.0000000000000000e+00" cType="1" res="1.4423881657421589e-04" rms="4.5701065659523010e-01" purity="4.4263836741447449e-01" nType="-99"/>
          <Node pos="r" depth="2" NCoef="0" IVar="-1" Cut="0.0000000000000000e+00" cType="1" res="-7.8556319931522012e-04" rms="3.8803553581237793e-01" purity="2.2497583925724030e-01" nType="-99"/>
        </Node>
        <Node pos="r" depth="1" NCoef="0" IVar="0" Cut="4.2733144015073776e-02" cType="1" res="1.8940031528472900e-01" rms="4.0992346405982971e-01" purity="7.6343852281570435e-01" nType="0">
          <Node pos="l" depth="2" NCoef="0" IVar="-1" Cut="0.0000000000000000e+00" cType="1" res="5.8026990154758096e-04" rms="3.1612715125083923e-01" purity="8.8408017158508301e-01" nType="-99"/>
          <Node pos="r" depth="2" NCoef="0" IVar="-1" Cut="0.0000000000000000e+00" cType="1" res="3.1722243875265121e-04" rms="4.4344887137413025e-01" purity="6.9433802366256714e-01" nType="-99"/>
        </Node>
      </Node>
    </BinaryTree>
    <BinaryTree type="DecisionTree" boostWeight="1.0000000000000000e+00" itree="430">
      <Node pos="s" depth="0" NCoef="0" IVar="3" Cut="1.4930736541748047e+01" cType="1" res="7.2579771280288696e-02" rms="4.3535462021827698e-01" purity="5.1687896251678467e-01" nType="0">
        <Node pos="l" depth="1" NCoef="0" IVar="0" Cut="2.4367978796362877e-02" cType="1" res="-4.8090159893035889e-02" rms="4.1854545474052429e-01" purity="2.9451918601989746e-01" nType="0">
          <Node pos="l" depth="2" NCoef="0" IVar="-1" Cut="0.0000000000000000e+00" cType="1" res="1.3174093328416348e-04" rms="4.5739182829856873e-01" purity="4.2175120115280151e-01" nType="-99"/>
          <Node pos="r" depth="2" NCoef="0" IVar="-1" Cut="0.0000000000000000e+00" cType="1" res="-1.3919081538915634e-03" rms="3.5403597354888916e-01" purity="1.6742597520351410e-01" nType="-99"/>
        </Node>
        <Node pos="r" depth="1" NCoef="0" IVar="0" Cut="4.2733144015073776e-02" cType="1" res="1.8016523122787476e-01" rms="4.2163211107254028e-01" purity="7.1512782573699951e-01" nType="0">
          <Node pos="l" depth="2" NCoef="0" IVar="-1" Cut="0.0000000000000000e+00" cType="1" res="4.4748923392035067e-04" rms="3.2995066046714783e-01" purity="8.6987239122390747e-01" nType="-99"/>
          <Node pos="r" depth="2" NCoef="0" IVar="-1" Cut="0.0000000000000000e+00" cType="1" res="2.7126036002300680e-04" rms="4.5223999023437500e-01" purity="6.1411780118942261e-01" nType="-99"/>
        </Node>
      </Node>
    </BinaryTree>
    <BinaryTree type="DecisionTree" boostWeight="1.0000000000000000e+00" itree="431">
      <Node pos="s" depth="0" NCoef="0" IVar="2" Cut="5.3826414062500000e+04" cType="1" res="5.3499482572078705e-02" rms="4.3372678756713867e-01" purity="4.9606442451477051e-01" nType="0">
        <Node pos="l" depth="1" NCoef="0" IVar="0" Cut="2.4177541956305504e-02" cType="1" res="-2.1949777379631996e-02" rms="4.3083858489990234e-01" purity="3.4417259693145752e-01" nType="0">
          <Node pos="l" depth="2" NCoef="0" IVar="-1" Cut="0.0000000000000000e+00" cType="1" res="2.0930363098159432e-04" rms="4.5268803834915161e-01" purity="4.7102063894271851e-01" nType="-99"/>
          <Node pos="r" depth="2" NCoef="0" IVar="-1" Cut="0.0000000000000000e+00" cType="1" res="-6.2016217270866036e-04" rms="4.0178129076957703e-01" purity="2.5611412525177002e-01" nType="-99"/>
        </Node>
        <Node pos="r" depth="1" NCoef="0" IVar="1" Cut="2.3999024963378906e+02" cType="1" res="1.9762584567070007e-01" rms="4.0154978632926941e-01" purity="7.8621464967727661e-01" nType="0">
          <Node pos="l" depth="2" NCoef="0" IVar="-1" Cut="0.0000000000000000e+00" cType="1" res="3.5592610947787762e-04" rms="4.3598753213882446e-01" purity="7.3067927360534668e-01" nType="-99"/>
          <Node pos="r" depth="2" NCoef="0" IVar="-1" Cut="0.0000000000000000e+00" cType="1" res="5.7882018154487014e-04" rms="2.5716495513916016e-01" purity="9.2809450626373291e-01" nType="-99"/>
        </Node>
      </Node>
    </BinaryTree>
    <BinaryTree type="DecisionTree" boostWeight="1.0000000000000000e+00" itree="432">
      <Node pos="s" depth="0" NCoef="0" IVar="2" Cut="6.6204593750000000e+04" cType="1" res="6.0680266469717026e-02" rms="4.3408995866775513e-01" purity="5.0517541170120239e-01" nType="0">
        <Node pos="l" depth="1" NCoef="0" IVar="1" Cut="7.8592842102050781e+01" cType="1" res="-7.4521279893815517e-03" rms="4.3913596868515015e-01" purity="3.7811860442161560e-01" nType="0">
          <Node pos="l" depth="2" NCoef="0" IVar="-1" Cut="0.0000000000000000e+00" cType="1" res="-7.4144802056252956e-04" rms="3.7043452262878418e-01" purity="1.8361498415470123e-01" nType="-99"/>
          <Node pos="r" depth="2" NCoef="0" IVar="-1" Cut="0.0000000000000000e+00" cType="1" res="1.6760401194915175e-04" rms="4.7001442313194275e-01" purity="5.0586324930191040e-01" nType="-99"/>
        </Node>
        <Node pos="r" depth="1" NCoef="0" IVar="1" Cut="2.3041674804687500e+02" cType="1" res="2.4003963172435760e-01" rms="3.6392918229103088e-01" purity="8.3965408802032471e-01" nType="0">
          <Node pos="l" depth="2" NCoef="0" IVar="-1" Cut="0.0000000000000000e+00" cType="1" res="3.6414657370187342e-04" rms="4.1180408000946045e-01" purity="7.8020137548446655e-01" nType="-99"/>
          <Node pos="r" depth="2" NCoef="0" IVar="-1" Cut="0.0000000000000000e+00" cType="1" res="4.6826183097437024e-04" rms="2.4676796793937683e-01" purity="9.3459558486938477e-01" nType="-99"/>
        </Node>
      </Node>
    </BinaryTree>
    <BinaryTree type="DecisionTree" boostWeight="1.0000000000000000e+00" itree="433">
      <Node pos="s" depth="0" NCoef="0" IVar="2" Cut="5.3826414062500000e+04" cType="1" res="5.8786120265722275e-02" rms="4.3324556946754456e-01" purity="5.0343918800354004e-01" nType="0">
        <Node pos="l" depth="1" NCoef="0" IVar="0" Cut="1.2566522695124149e-02" cType="1" res="-2.4869032204151154e-02" rms="4.3171408772468567e-01" purity="3.3865410089492798e-01" nType="0">
          <Node pos="l" depth="2" NCoef="0" IVar="-1" Cut="0.0000000000000000e+00" cType="1" res="2.1726317936554551e-04" rms="4.5601198077201843e-01" purity="4.8319077491760254e-01" nType="-99"/>
          <Node pos="r" depth="2" NCoef="0" IVar="-1" Cut="0.0000000000000000e+00" cType="1" res="-3.7043436896055937e-04" rms="4.1657480597496033e-01" purity="2.9799768328666687e-01" nType="-99"/>
        </Node>
        <Node pos="r" depth="1" NCoef="0" IVar="0" Cut="4.2280074208974838e-02" cType="1" res="2.0768167078495026e-01" rms="3.9425086975097656e-01" purity="7.9673564434051514e-01" nType="0">
          <Node pos="l" depth="2" NCoef="0" IVar="-1" Cut="0.0000000000000000e+00" cType="1" res="5.7590292999520898e-04" rms="2.9842725396156311e-01" purity="8.9958751201629639e-01" nType="-99"/>
          <Node pos="r" depth="2" NCoef="0" IVar="-1" Cut="0.0000000000000000e+00" cType="1" res="3.4114066511392593e-04" rms="4.2879319190979004e-01" purity="7.4132990837097168e-01" nType="-99"/>
        </Node>
      </Node>
    </BinaryTree>
    <BinaryTree type="DecisionTree" boostWeight="1.0000000000000000e+00" itree="434">
      <Node pos="s" depth="0" NCoef="0" IVar="1" Cut="1.3710118103027344e+02" cType="1" res="6.4551308751106262e-02" rms="4.3497121334075928e-01" purity="5.0840246677398682e-01" nType="0">
        <Node pos="l" depth="1" NCoef="0" IVar="0" Cut="2.5400951504707336e-02" cType="1" res="-3.1855493783950806e-02" rms="4.2247477173805237e-01" purity="3.0668210983276367e-01" nType="0">
          <Node pos="l" depth="2" NCoef="0" IVar="-1" Cut="0.0000000000000000e+00" cType="1" res="1.5372876077890396e-04" rms="4.5197692513465881e-01" purity="4.2527338862419128e-01" nType="-99"/>
          <Node pos="r" depth="2" NCoef="0" IVar="-1" Cut="0.0000000000000000e+00" cType="1" res="-7.1448122616857290e-04" rms="3.8604086637496948e-01" purity="2.1177695691585541e-01" nType="-99"/>
        </Node>
        <Node pos="r" depth="1" NCoef="0" IVar="1" Cut="2.5565106201171875e+02" cType="1" res="1.7611658573150635e-01" rms="4.2237102985382080e-01" purity="7.4184024333953857e-01" nType="0">
          <Node pos="l" depth="2" NCoef="0" IVar="-1" Cut="0.0000000000000000e+00" cType="1" res="3.4431193489581347e-04" rms="4.4536086916923523e-01" purity="6.9938188791275024e-01" nType="-99"/>
          <Node pos="r" depth="2" NCoef="0" IVar="-1" Cut="0.0000000000000000e+00" cType="1" res="5.4999795975163579e-04" rms="2.6572731137275696e-01" purity="9.1968196630477905e-01" nType="-99"/>
        </Node>
      </Node>
    </BinaryTree>
    <BinaryTree type="DecisionTree" boostWeight="1.0000000000000000e+00" itree="435">
      <Node pos="s" depth="0" NCoef="0" IVar="2" Cut="6.6204593750000000e+04" cType="1" res="6.2084954231977463e-02" rms="4.3821105360984802e-01" purity="5.0298970937728882e-01" nType="0">
        <Node pos="l" depth="1" NCoef="0" IVar="0" Cut="3.8101427257061005e-02" cType="1" res="4.0145996026694775e-03" rms="4.4443255662918091e-01" purity="3.8834667205810547e-01" nType="0">
          <Node pos="l" depth="2" NCoef="0" IVar="-1" Cut="0.0000000000000000e+00" cType="1" res="1.5684742538724095e-04" rms="4.5864626765251160e-01" purity="4.7921141982078552e-01" nType="-99"/>
          <Node pos="r" depth="2" NCoef="0" IVar="-1" Cut="0.0000000000000000e+00" cType="1" res="-5.5758986854925752e-04" rms="4.0552520751953125e-01" purity="2.5959578156471252e-01" nType="-99"/>
        </Node>
        <Node pos="r" depth="1" NCoef="0" IVar="1" Cut="1.9695610046386719e+02" cType="1" res="2.2647690773010254e-01" rms="3.7404847145080566e-01" purity="8.2753378152847290e-01" nType="0">
          <Node pos="l" depth="2" NCoef="0" IVar="-1" Cut="0.0000000000000000e+00" cType="1" res="3.5362999187782407e-04" rms="4.3391224741935730e-01" purity="7.4121594429016113e-01" nType="-99"/>
          <Node pos="r" depth="2" NCoef="0" IVar="-1" Cut="0.0000000000000000e+00" cType="1" res="3.8564560236409307e-04" rms="2.9748755693435669e-01" purity="9.0082490444183350e-01" nType="-99"/>
        </Node>
      </Node>
    </BinaryTree>
    <BinaryTree type="DecisionTree" boostWeight="1.0000000000000000e+00" itree="436">
      <Node pos="s" depth="0" NCoef="0" IVar="1" Cut="1.0517140960693359e+02" cType="1" res="5.8626148849725723e-02" rms="4.3515968322753906e-01" purity="5.0151640176773071e-01" nType="0">
        <Node pos="l" depth="1" NCoef="0" IVar="0" Cut="2.5133045390248299e-02" cType="1" res="-6.4045019447803497e-02" rms="3.9930370450019836e-01" purity="2.4552406370639801e-01" nType="0">
          <Node pos="l" depth="2" NCoef="0" IVar="-1" Cut="0.0000000000000000e+00" cType="1" res="7.1166410634759814e-05" rms="4.5189139246940613e-01" purity="3.6398544907569885e-01" nType="-99"/>
          <Node pos="r" depth="2" NCoef="0" IVar="-1" Cut="0.0000000000000000e+00" cType="1" res="-1.8429311458021402e-03" rms="3.2367280125617981e-01" purity="1.3053114712238312e-01" nType="-99"/>
        </Node>
        <Node pos="r" depth="1" NCoef="0" IVar="0" Cut="4.2733144015073776e-02" cType="1" res="1.4438925683498383e-01" rms="4.3864142894744873e-01" purity="6.8048834800720215e-01" nType="0">
          <Node pos="l" depth="2" NCoef="0" IVar="-1" Cut="0.0000000000000000e+00" cType="1" res="4.6707724686712027e-04" rms="3.9686596393585205e-01" purity="7.8085672855377197e-01" nType="-99"/>
          <Node pos="r" depth="2" NCoef="0" IVar="-1" Cut="0.0000000000000000e+00" cType="1" res="1.8608603568281978e-04" rms="4.5768016576766968e-01" purity="5.9196150302886963e-01" nType="-99"/>
        </Node>
      </Node>
    </BinaryTree>
    <BinaryTree type="DecisionTree" boostWeight="1.0000000000000000e+00" itree="437">
      <Node pos="s" depth="0" NCoef="0" IVar="1" Cut="1.3725863647460938e+02" cType="1" res="5.6440588086843491e-02" rms="4.3407240509986877e-01" purity="4.9955022335052490e-01" nType="0">
        <Node pos="l" depth="1" NCoef="0" IVar="0" Cut="3.6266315728425980e-02" cType="1" res="-4.1753474622964859e-02" rms="4.1683462262153625e-01" purity="2.9745253920555115e-01" nType="0">
          <Node pos="l" depth="2" NCoef="0" IVar="-1" Cut="0.0000000000000000e+00" cType="1" res="5.0962149543920532e-05" rms="4.5131099224090576e-01" purity="3.9422184228897095e-01" nType="-99"/>
          <Node pos="r" depth="2" NCoef="0" IVar="-1" Cut="0.0000000000000000e+00" cType="1" res="-1.5386535087600350e-03" rms="3.4002214670181274e-01" purity="1.4994512498378754e-01" nType="-99"/>
        </Node>
        <Node pos="r" depth="1" NCoef="0" IVar="1" Cut="2.5578575134277344e+02" cType="1" res="1.7153321206569672e-01" rms="4.2551511526107788e-01" purity="7.3642766475677490e-01" nType="0">
          <Node pos="l" depth="2" NCoef="0" IVar="-1" Cut="0.0000000000000000e+00" cType="1" res="3.1012090039439499e-04" rms="4.4872602820396423e-01" purity="6.9225066900253296e-01" nType="-99"/>
          <Node pos="r" depth="2" NCoef="0" IVar="-1" Cut="0.0000000000000000e+00" cType="1" res="5.8235455071553588e-04" rms="2.6354402303695679e-01" purity="9.2129081487655640e-01" nType="-99"/>
        </Node>
      </Node>
    </BinaryTree>
    <BinaryTree type="DecisionTree" boostWeight="1.0000000000000000e+00" itree="438">
      <Node pos="s" depth="0" NCoef="0" IVar="2" Cut="4.4136394531250000e+04" cType="1" res="5.7924188673496246e-02" rms="4.3499398231506348e-01" purity="5.0072830915451050e-01" nType="0">
        <Node pos="l" depth="1" NCoef="0" IVar="0" Cut="3.7699569016695023e-02" cType="1" res="-2.7429899200797081e-02" rms="4.2822465300559998e-01" purity="3.2361158728599548e-01" nType="0">
          <Node pos="l" depth="2" NCoef="0" IVar="-1" Cut="0.0000000000000000e+00" cType="1" res="9.8519034509081393e-05" rms="4.5926254987716675e-01" purity="4.1808634996414185e-01" nType="-99"/>
          <Node pos="r" depth="2" NCoef="0" IVar="-1" Cut="0.0000000000000000e+00" cType="1" res="-1.5568118542432785e-03" rms="3.4772461652755737e-01" purity="1.5991522371768951e-01" nType="-99"/>
        </Node>
        <Node pos="r" depth="1" NCoef="0" IVar="1" Cut="2.3509387207031250e+02" cType="1" res="1.8081015348434448e-01" rms="4.1478049755096436e-01" purity="7.5572675466537476e-01" nType="0">
          <Node pos="l" depth="2" NCoef="0" IVar="-1" Cut="0.0000000000000000e+00" cType="1" res="3.1604780815541744e-04" rms="4.4402202963829041e-01" purity="7.0159387588500977e-01" nType="-99"/>
          <Node pos="r" depth="2" NCoef="0" IVar="-1" Cut="0.0000000000000000e+00" cType="1" res="5.0819461466744542e-04" rms="2.7259325981140137e-01" purity="9.1747570037841797e-01" nType="-99"/>
        </Node>
      </Node>
    </BinaryTree>
    <BinaryTree type="DecisionTree" boostWeight="1.0000000000000000e+00" itree="439">
      <Node pos="s" depth="0" NCoef="0" IVar="1" Cut="1.3828833007812500e+02" cType="1" res="4.1868142783641815e-02" rms="4.3021598458290100e-01" purity="4.8625695705413818e-01" nType="0">
        <Node pos="l" depth="1" NCoef="0" IVar="0" Cut="5.0801903009414673e-02" cType="1" res="-6.1531137675046921e-02" rms="4.0563356876373291e-01" purity="2.7703920006752014e-01" nType="0">
          <Node pos="l" depth="2" NCoef="0" IVar="-1" Cut="0.0000000000000000e+00" cType="1" res="-7.3247276304755360e-05" rms="4.3510627746582031e-01" purity="3.4491157531738281e-01" nType="-99"/>
          <Node pos="r" depth="2" NCoef="0" IVar="-1" Cut="0.0000000000000000e+00" cType="1" res="-5.3639691323041916e-03" rms="2.4791732430458069e-01" purity="6.7688710987567902e-02" nType="-99"/>
        </Node>
        <Node pos="r" depth="1" NCoef="0" IVar="0" Cut="4.1265200823545456e-02" cType="1" res="1.6289892792701721e-01" rms="4.2658376693725586e-01" purity="7.3115026950836182e-01" nType="0">
          <Node pos="l" depth="2" NCoef="0" IVar="-1" Cut="0.0000000000000000e+00" cType="1" res="4.7058911877684295e-04" rms="3.6768537759780884e-01" purity="8.2496130466461182e-01" nType="-99"/>
          <Node pos="r" depth="2" NCoef="0" IVar="-1" Cut="0.0000000000000000e+00" cType="1" res="2.1474744426086545e-04" rms="4.5290729403495789e-01" purity="6.6583752632141113e-01" nType="-99"/>
        </Node>
      </Node>
    </BinaryTree>
    <BinaryTree type="DecisionTree" boostWeight="1.0000000000000000e+00" itree="440">
      <Node pos="s" depth="0" NCoef="0" IVar="3" Cut="2.2916530609130859e+01" cType="1" res="6.8953745067119598e-02" rms="4.3545585870742798e-01" purity="5.1111859083175659e-01" nType="0">
        <Node pos="l" depth="1" NCoef="0" IVar="0" Cut="4.9881406128406525e-02" cType="1" res="-1.3952035456895828e-02" rms="4.3281352519989014e-01" purity="3.4137710928916931e-01" nType="0">
          <Node pos="l" depth="2" NCoef="0" IVar="-1" Cut="0.0000000000000000e+00" cType="1" res="8.4988161688670516e-05" rms="4.5549967885017395e-01" purity="4.0732127428054810e-01" nType="-99"/>
          <Node pos="r" depth="2" NCoef="0" IVar="-1" Cut="0.0000000000000000e+00" cType="1" res="-2.2952705621719360e-03" rms="3.0292975902557373e-01" purity="1.2087655812501907e-01" nType="-99"/>
        </Node>
        <Node pos="r" depth="1" NCoef="0" IVar="0" Cut="4.2799498885869980e-02" cType="1" res="1.8821679055690765e-01" rms="4.1086602210998535e-01" purity="7.5529801845550537e-01" nType="0">
          <Node pos="l" depth="2" NCoef="0" IVar="-1" Cut="0.0000000000000000e+00" cType="1" res="4.7748937504366040e-04" rms="3.1296464800834656e-01" purity="8.8639885187149048e-01" nType="-99"/>
          <Node pos="r" depth="2" NCoef="0" IVar="-1" Cut="0.0000000000000000e+00" cType="1" res="3.2307708170264959e-04" rms="4.4549489021301270e-01" purity="6.7828750610351562e-01" nType="-99"/>
        </Node>
      </Node>
    </BinaryTree>
    <BinaryTree type="DecisionTree" boostWeight="1.0000000000000000e+00" itree="441">
      <Node pos="s" depth="0" NCoef="0" IVar="1" Cut="1.3922813415527344e+02" cType="1" res="6.5583586692810059e-02" rms="4.3618127703666687e-01" purity="5.0737696886062622e-01" nType="0">
        <Node pos="l" depth="1" NCoef="0" IVar="1" Cut="3.2230094909667969e+01" cType="1" res="-2.0796122029423714e-02" rms="4.2599174380302429e-01" purity="3.2049360871315002e-01" nType="0">
          <Node pos="l" depth="2" NCoef="0" IVar="-1" Cut="0.0000000000000000e+00" cType="1" res="-4.2804847471415997e-03" rms="2.8757423162460327e-01" purity="9.1134384274482727e-02" nType="-99"/>
          <Node pos="r" depth="2" NCoef="0" IVar="-1" Cut="0.0000000000000000e+00" cType="1" res="7.2262431785929948e-05" rms="4.4732218980789185e-01" purity="3.8560801744461060e-01" nType="-99"/>
        </Node>
        <Node pos="r" depth="1" NCoef="0" IVar="0" Cut="4.2733144015073776e-02" cType="1" res="1.7284323275089264e-01" rms="4.2472711205482483e-01" purity="7.3943424224853516e-01" nType="0">
          <Node pos="l" depth="2" NCoef="0" IVar="-1" Cut="0.0000000000000000e+00" cType="1" res="4.1207022150047123e-04" rms="3.7315055727958679e-01" purity="8.2078778743743896e-01" nType="-99"/>
          <Node pos="r" depth="2" NCoef="0" IVar="-1" Cut="0.0000000000000000e+00" cType="1" res="2.8077111346647143e-04" rms="4.4990152120590210e-01" purity="6.7991471290588379e-01" nType="-99"/>
        </Node>
      </Node>
    </BinaryTree>
    <BinaryTree type="DecisionTree" boostWeight="1.0000000000000000e+00" itree="442">
      <Node pos="s" depth="0" NCoef="0" IVar="3" Cut="1.2480910301208496e+01" cType="1" res="5.8233845978975296e-02" rms="4.3035307526588440e-01" purity="5.0430119037628174e-01" nType="0">
        <Node pos="l" depth="1" NCoef="0" IVar="1" Cut="7.1970230102539062e+01" cType="1" res="-7.5948357582092285e-02" rms="3.9892134070396423e-01" purity="2.6256677508354187e-01" nType="0">
          <Node pos="l" depth="2" NCoef="0" IVar="-1" Cut="0.0000000000000000e+00" cType="1" res="-2.6069125160574913e-03" rms="3.2091262936592102e-01" purity="1.2347945570945740e-01" nType="-99"/>
          <Node pos="r" depth="2" NCoef="0" IVar="-1" Cut="0.0000000000000000e+00" cType="1" res="2.5662122425273992e-05" rms="4.6378123760223389e-01" purity="4.3207356333732605e-01" nType="-99"/>
        </Node>
        <Node pos="r" depth="1" NCoef="0" IVar="0" Cut="3.8108117878437042e-02" cType="1" res="1.5877087414264679e-01" rms="4.2560029029846191e-01" purity="6.8542259931564331e-01" nType="0">
          <Node pos="l" depth="2" NCoef="0" IVar="-1" Cut="0.0000000000000000e+00" cType="1" res="5.2251224406063557e-04" rms="3.4412720799446106e-01" purity="8.4975779056549072e-01" nType="-99"/>
          <Node pos="r" depth="2" NCoef="0" IVar="-1" Cut="0.0000000000000000e+00" cType="1" res="2.4770351592451334e-04" rms="4.4469135999679565e-01" purity="6.1641448736190796e-01" nType="-99"/>
        </Node>
      </Node>
    </BinaryTree>
    <BinaryTree type="DecisionTree" boostWeight="1.0000000000000000e+00" itree="443">
      <Node pos="s" depth="0" NCoef="0" IVar="2" Cut="5.4184500000000000e+04" cType="1" res="5.1533404737710953e-02" rms="4.3247258663177490e-01" purity="4.9394121766090393e-01" nType="0">
        <Node pos="l" depth="1" NCoef="0" IVar="0" Cut="3.7699569016695023e-02" cType="1" res="-2.2920329123735428e-02" rms="4.2837581038475037e-01" purity="3.4226655960083008e-01" nType="0">
          <Node pos="l" depth="2" NCoef="0" IVar="-1" Cut="0.0000000000000000e+00" cType="1" res="1.3835534628015012e-04" rms="4.5364001393318176e-01" purity="4.4052842259407043e-01" nType="-99"/>
          <Node pos="r" depth="2" NCoef="0" IVar="-1" Cut="0.0000000000000000e+00" cType="1" res="-9.9782389588654041e-04" rms="3.6415201425552368e-01" purity="1.8790511786937714e-01" nType="-99"/>
        </Node>
        <Node pos="r" depth="1" NCoef="0" IVar="0" Cut="3.9660222828388214e-02" cType="1" res="1.9400408864021301e-01" rms="4.0357863903045654e-01" purity="7.8417772054672241e-01" nType="0">
          <Node pos="l" depth="2" NCoef="0" IVar="-1" Cut="0.0000000000000000e+00" cType="1" res="5.4693972924724221e-04" rms="2.9150909185409546e-01" purity="9.0525186061859131e-01" nType="-99"/>
          <Node pos="r" depth="2" NCoef="0" IVar="-1" Cut="0.0000000000000000e+00" cType="1" res="3.1427241628989577e-04" rms="4.3777695298194885e-01" purity="7.2579038143157959e-01" nType="-99"/>
        </Node>
      </Node>
    </BinaryTree>
    <BinaryTree type="DecisionTree" boostWeight="1.0000000000000000e+00" itree="444">
      <Node pos="s" depth="0" NCoef="0" IVar="1" Cut="1.3158508300781250e+02" cType="1" res="6.5147101879119873e-02" rms="4.3392053246498108e-01" purity="5.0913357734680176e-01" nType="0">
        <Node pos="l" depth="1" NCoef="0" IVar="0" Cut="2.4367978796362877e-02" cType="1" res="-3.2275758683681488e-02" rms="4.1977214813232422e-01" purity="2.9962605237960815e-01" nType="0">
          <Node pos="l" depth="2" NCoef="0" IVar="-1" Cut="0.0000000000000000e+00" cType="1" res="1.2844930461142212e-04" rms="4.5792514085769653e-01" purity="4.2967909574508667e-01" nType="-99"/>
          <Node pos="r" depth="2" NCoef="0" IVar="-1" Cut="0.0000000000000000e+00" cType="1" res="-9.5530372345820069e-04" rms="3.7010467052459717e-01" purity="1.9407311081886292e-01" nType="-99"/>
        </Node>
        <Node pos="r" depth="1" NCoef="0" IVar="0" Cut="3.8859125226736069e-02" cType="1" res="1.6814436018466949e-01" rms="4.2475143074989319e-01" purity="7.3062896728515625e-01" nType="0">
          <Node pos="l" depth="2" NCoef="0" IVar="-1" Cut="0.0000000000000000e+00" cType="1" res="4.8466611769981682e-04" rms="3.5719043016433716e-01" purity="8.3924853801727295e-01" nType="-99"/>
          <Node pos="r" depth="2" NCoef="0" IVar="-1" Cut="0.0000000000000000e+00" cType="1" res="2.9158798861317337e-04" rms="4.5129850506782532e-01" purity="6.5859216451644897e-01" nType="-99"/>
        </Node>
      </Node>
    </BinaryTree>
    <BinaryTree type="DecisionTree" boostWeight="1.0000000000000000e+00" itree="445">
      <Node pos="s" depth="0" NCoef="0" IVar="2" Cut="6.6204593750000000e+04" cType="1" res="5.7330995798110962e-02" rms="4.3174937367439270e-01" purity="5.0095456838607788e-01" nType="0">
        <Node pos="l" depth="1" NCoef="0" IVar="1" Cut="1.1798677825927734e+02" cType="1" res="-9.6084196120500565e-03" rms="4.3566030263900757e-01" purity="3.7440395355224609e-01" nType="0">
          <Node pos="l" depth="2" NCoef="0" IVar="-1" Cut="0.0000000000000000e+00" cType="1" res="-3.2079842640087008e-04" rms="4.0133067965507507e-01" purity="2.5571674108505249e-01" nType="-99"/>
          <Node pos="r" depth="2" NCoef="0" IVar="-1" Cut="0.0000000000000000e+00" cType="1" res="2.3055887140799314e-04" rms="4.7527199983596802e-01" purity="5.7451981306076050e-01" nType="-99"/>
        </Node>
        <Node pos="r" depth="1" NCoef="0" IVar="1" Cut="2.0215196228027344e+02" cType="1" res="2.3514480888843536e-01" rms="3.6589029431343079e-01" purity="8.3711600303649902e-01" nType="0">
          <Node pos="l" depth="2" NCoef="0" IVar="-1" Cut="0.0000000000000000e+00" cType="1" res="3.9850102621130645e-04" rms="4.0958771109580994e-01" purity="7.8193765878677368e-01" nType="-99"/>
          <Node pos="r" depth="2" NCoef="0" IVar="-1" Cut="0.0000000000000000e+00" cType="1" res="5.4983660811558366e-04" rms="2.9564344882965088e-01" purity="9.0221416950225830e-01" nType="-99"/>
        </Node>
      </Node>
    </BinaryTree>
    <BinaryTree type="DecisionTree" boostWeight="1.0000000000000000e+00" itree="446">
      <Node pos="s" depth="0" NCoef="0" IVar="2" Cut="4.4136394531250000e+04" cType="1" res="4.9368824809789658e-02" rms="4.3511253595352173e-01" purity="4.8870021104812622e-01" nType="0">
        <Node pos="l" depth="1" NCoef="0" IVar="0" Cut="1.2566522695124149e-02" cType="1" res="-3.3343210816383362e-02" rms="4.2575123906135559e-01" purity="3.1512597203254700e-01" nType="0">
          <Node pos="l" depth="2" NCoef="0" IVar="-1" Cut="0.0000000000000000e+00" cType="1" res="2.6770989643409848e-04" rms="4.6210178732872009e-01" purity="4.7414064407348633e-01" nType="-99"/>
          <Node pos="r" depth="2" NCoef="0" IVar="-1" Cut="0.0000000000000000e+00" cType="1" res="-5.5921933380886912e-04" rms="4.0338370203971863e-01" purity="2.6584208011627197e-01" nType="-99"/>
        </Node>
        <Node pos="r" depth="1" NCoef="0" IVar="0" Cut="3.9251808077096939e-02" cType="1" res="1.7246866226196289e-01" rms="4.1950133442878723e-01" purity="7.4702972173690796e-01" nType="0">
          <Node pos="l" depth="2" NCoef="0" IVar="-1" Cut="0.0000000000000000e+00" cType="1" res="5.2419363055378199e-04" rms="3.1881919503211975e-01" purity="8.8382065296173096e-01" nType="-99"/>
          <Node pos="r" depth="2" NCoef="0" IVar="-1" Cut="0.0000000000000000e+00" cType="1" res="3.1367232440970838e-04" rms="4.4505634903907776e-01" purity="6.9005465507507324e-01" nType="-99"/>
        </Node>
      </Node>
    </BinaryTree>
    <BinaryTree type="DecisionTree" boostWeight="1.0000000000000000e+00" itree="447">
      <Node pos="s" depth="0" NCoef="0" IVar="2" Cut="3.5133074218750000e+04" cType="1" res="5.4330792278051376e-02" rms="4.3258073925971985e-01" purity="4.9736878275871277e-01" nType="0">
        <Node pos="l" depth="1" NCoef="0" IVar="0" Cut="1.1377927847206593e-02" cType="1" res="-5.1409624516963959e-02" rms="4.1319808363914490e-01" purity="2.9093319177627563e-01" nType="0">
          <Node pos="l" depth="2" NCoef="0" IVar="-1" Cut="0.0000000000000000e+00" cType="1" res="2.7388180023990571e-04" rms="4.4486692547798157e-01" purity="4.4491967558860779e-01" nType="-99"/>
          <Node pos="r" depth="2" NCoef="0" IVar="-1" Cut="0.0000000000000000e+00" cType="1" res="-6.9591432111337781e-04" rms="3.9464509487152100e-01" purity="2.4298352003097534e-01" nType="-99"/>
        </Node>
        <Node pos="r" depth="1" NCoef="0" IVar="0" Cut="4.0290929377079010e-02" cType="1" res="1.7016288638114929e-01" rms="4.2357867956161499e-01" purity="7.2350627183914185e-01" nType="0">
          <Node pos="l" depth="2" NCoef="0" IVar="-1" Cut="0.0000000000000000e+00" cType="1" res="5.7482725242152810e-04" rms="3.3077281713485718e-01" purity="8.6965668201446533e-01" nType="-99"/>
          <Node pos="r" depth="2" NCoef="0" IVar="-1" Cut="0.0000000000000000e+00" cType="1" res="2.6252865791320801e-04" rms="4.5044520497322083e-01" purity="6.5071636438369751e-01" nType="-99"/>
        </Node>
      </Node>
    </BinaryTree>
    <BinaryTree type="DecisionTree" boostWeight="1.0000000000000000e+00" itree="448">
      <Node pos="s" depth="0" NCoef="0" IVar="2" Cut="6.6204593750000000e+04" cType="1" res="5.6951671838760376e-02" rms="4.3264168500900269e-01" purity="5.0171583890914917e-01" nType="0">
        <Node pos="l" depth="1" NCoef="0" IVar="0" Cut="3.8101427257061005e-02" cType="1" res="-1.1681807227432728e-02" rms="4.3707600235939026e-01" purity="3.7192815542221069e-01" nType="0">
          <Node pos="l" depth="2" NCoef="0" IVar="-1" Cut="0.0000000000000000e+00" cType="1" res="1.2452459486667067e-04" rms="4.5129346847534180e-01" purity="4.5553484559059143e-01" nType="-99"/>
          <Node pos="r" depth="2" NCoef="0" IVar="-1" Cut="0.0000000000000000e+00" cType="1" res="-6.2327465275302529e-04" rms="4.0408989787101746e-01" purity="2.5819024443626404e-01" nType="-99"/>
        </Node>
        <Node pos="r" depth="1" NCoef="0" IVar="1" Cut="2.3110444641113281e+02" cType="1" res="2.3464238643646240e-01" rms="3.6527332663536072e-01" purity="8.3773356676101685e-01" nType="0">
          <Node pos="l" depth="2" NCoef="0" IVar="-1" Cut="0.0000000000000000e+00" cType="1" res="4.2498685070313513e-04" rms="4.1524732112884521e-01" purity="7.7394825220108032e-01" nType="-99"/>
          <Node pos="r" depth="2" NCoef="0" IVar="-1" Cut="0.0000000000000000e+00" cType="1" res="4.7349912347272038e-04" rms="2.4855689704418182e-01" purity="9.3357157707214355e-01" nType="-99"/>
        </Node>
      </Node>
    </BinaryTree>
    <BinaryTree type="DecisionTree" boostWeight="1.0000000000000000e+00" itree="449">
      <Node pos="s" depth="0" NCoef="0" IVar="2" Cut="6.1173269531250000e+04" cType="1" res="5.4211273789405823e-02" rms="4.3389180302619934e-01" purity="4.9482265114784241e-01" nType="0">
        <Node pos="l" depth="1" NCoef="0" IVar="1" Cut="7.1970230102539062e+01" cType="1" res="-1.3482478447258472e-02" rms="4.3514612317085266e-01" purity="3.5962489247322083e-01" nType="0">
          <Node pos="l" depth="2" NCoef="0" IVar="-1" Cut="0.0000000000000000e+00" cType="1" res="-4.6652060700580478e-04" rms="3.5907083749771118e-01" purity="1.6902159154415131e-01" nType="-99"/>
          <Node pos="r" depth="2" NCoef="0" IVar="-1" Cut="0.0000000000000000e+00" cType="1" res="1.3440479233395308e-04" rms="4.6820640563964844e-01" purity="4.7709235548973083e-01" nType="-99"/>
        </Node>
        <Node pos="r" depth="1" NCoef="0" IVar="1" Cut="2.2395787048339844e+02" cType="1" res="2.1237017214298248e-01" rms="3.8729146122932434e-01" purity="8.1069713830947876e-01" nType="0">
          <Node pos="l" depth="2" NCoef="0" IVar="-1" Cut="0.0000000000000000e+00" cType="1" res="3.8551859324797988e-04" rms="4.2856049537658691e-01" purity="7.5154781341552734e-01" nType="-99"/>
          <Node pos="r" depth="2" NCoef="0" IVar="-1" Cut="0.0000000000000000e+00" cType="1" res="5.0137232756242156e-04" rms="2.7333095669746399e-01" purity="9.1796165704727173e-01" nType="-99"/>
        </Node>
      </Node>
    </BinaryTree>
    <BinaryTree type="DecisionTree" boostWeight="1.0000000000000000e+00" itree="450">
      <Node pos="s" depth="0" NCoef="0" IVar="2" Cut="6.1173269531250000e+04" cType="1" res="5.9418763965368271e-02" rms="4.3756425380706787e-01" purity="4.9747186899185181e-01" nType="0">
        <Node pos="l" depth="1" NCoef="0" IVar="0" Cut="5.0171643495559692e-02" cType="1" res="8.1583531573414803e-04" rms="4.4077122211456299e-01" purity="3.7510809302330017e-01" nType="0">
          <Node pos="l" depth="2" NCoef="0" IVar="-1" Cut="0.0000000000000000e+00" cType="1" res="1.2297423381824046e-04" rms="4.5354557037353516e-01" purity="4.3561941385269165e-01" nType="-99"/>
          <Node pos="r" depth="2" NCoef="0" IVar="-1" Cut="0.0000000000000000e+00" cType="1" res="-1.0031827259808779e-03" rms="3.8202998042106628e-01" purity="2.1586713194847107e-01" nType="-99"/>
        </Node>
        <Node pos="r" depth="1" NCoef="0" IVar="1" Cut="2.2947694396972656e+02" cType="1" res="2.0623911917209625e-01" rms="3.9274045825004578e-01" purity="8.0403506755828857e-01" nType="0">
          <Node pos="l" depth="2" NCoef="0" IVar="-1" Cut="0.0000000000000000e+00" cType="1" res="3.3992363023571670e-04" rms="4.3452984094619751e-01" purity="7.4215781688690186e-01" nType="-99"/>
          <Node pos="r" depth="2" NCoef="0" IVar="-1" Cut="0.0000000000000000e+00" cType="1" res="6.2944053206592798e-04" rms="2.6938816905021667e-01" purity="9.2063105106353760e-01" nType="-99"/>
        </Node>
      </Node>
    </BinaryTree>
    <BinaryTree type="DecisionTree" boostWeight="1.0000000000000000e+00" itree="451">
      <Node pos="s" depth="0" NCoef="0" IVar="1" Cut="1.3922813415527344e+02" cType="1" res="6.7139305174350739e-02" rms="4.3438246846199036e-01" purity="5.0878047943115234e-01" nType="0">
        <Node pos="l" depth="1" NCoef="0" IVar="0" Cut="3.8617823272943497e-02" cType="1" res="-1.7736930400133133e-02" rms="4.2531734704971313e-01" purity="3.2170519232749939e-01" nType="0">
          <Node pos="l" depth="2" NCoef="0" IVar="-1" Cut="0.0000000000000000e+00" cType="1" res="9.9807941296603531e-05" rms="4.5651525259017944e-01" purity="4.2526486515998840e-01" nType="-99"/>
          <Node pos="r" depth="2" NCoef="0" IVar="-1" Cut="0.0000000000000000e+00" cType="1" res="-1.9834346603602171e-03" rms="3.3245062828063965e-01" purity="1.3584652543067932e-01" nType="-99"/>
        </Node>
        <Node pos="r" depth="1" NCoef="0" IVar="2" Cut="6.6204593750000000e+04" cType="1" res="1.7273847758769989e-01" rms="4.2222043871879578e-01" purity="7.4153113365173340e-01" nType="0">
          <Node pos="l" depth="2" NCoef="0" IVar="-1" Cut="0.0000000000000000e+00" cType="1" res="2.3771129781380296e-04" rms="4.7179818153381348e-01" purity="6.2123239040374756e-01" nType="-99"/>
          <Node pos="r" depth="2" NCoef="0" IVar="-1" Cut="0.0000000000000000e+00" cType="1" res="4.7677004477009177e-04" rms="3.7075984477996826e-01" purity="8.3241504430770874e-01" nType="-99"/>
        </Node>
      </Node>
    </BinaryTree>
    <BinaryTree type="DecisionTree" boostWeight="1.0000000000000000e+00" itree="452">
      <Node pos="s" depth="0" NCoef="0" IVar="2" Cut="6.6204593750000000e+04" cType="1" res="6.4391560852527618e-02" rms="4.3122723698616028e-01" purity="5.0989454984664917e-01" nType="0">
        <Node pos="l" depth="1" NCoef="0" IVar="0" Cut="5.0801903009414673e-02" cType="1" res="1.9246274605393410e-03" rms="4.3648567795753479e-01" purity="3.8951137661933899e-01" nType="0">
          <Node pos="l" depth="2" NCoef="0" IVar="-1" Cut="0.0000000000000000e+00" cType="1" res="1.8162520427722484e-04" rms="4.4464397430419922e-01" purity="4.5753550529479980e-01" nType="-99"/>
          <Node pos="r" depth="2" NCoef="0" IVar="-1" Cut="0.0000000000000000e+00" cType="1" res="-1.3636827934533358e-03" rms="3.7865936756134033e-01" purity="2.0071871578693390e-01" nType="-99"/>
        </Node>
        <Node pos="r" depth="1" NCoef="0" IVar="1" Cut="2.0048472595214844e+02" cType="1" res="2.3416814208030701e-01" rms="3.6623257398605347e-01" purity="8.3707940578460693e-01" nType="0">
          <Node pos="l" depth="2" NCoef="0" IVar="-1" Cut="0.0000000000000000e+00" cType="1" res="3.7927678204141557e-04" rms="4.2271339893341064e-01" purity="7.6271981000900269e-01" nType="-99"/>
          <Node pos="r" depth="2" NCoef="0" IVar="-1" Cut="0.0000000000000000e+00" cType="1" res="4.8173675895668566e-04" rms="2.8750929236412048e-01" purity="9.0826493501663208e-01" nType="-99"/>
        </Node>
      </Node>
    </BinaryTree>
    <BinaryTree type="DecisionTree" boostWeight="1.0000000000000000e+00" itree="453">
      <Node pos="s" depth="0" NCoef="0" IVar="2" Cut="4.0782179687500000e+04" cType="1" res="6.3455894589424133e-02" rms="4.3468058109283447e-01" purity="5.0513803958892822e-01" nType="0">
        <Node pos="l" depth="1" NCoef="0" IVar="0" Cut="2.4177541956305504e-02" cType="1" res="-1.7188141122460365e-02" rms="4.2811936140060425e-01" purity="3.3110415935516357e-01" nType="0">
          <Node pos="l" depth="2" NCoef="0" IVar="-1" Cut="0.0000000000000000e+00" cType="1" res="1.7249477969016880e-04" rms="4.5796960592269897e-01" purity="4.5709702372550964e-01" nType="-99"/>
          <Node pos="r" depth="2" NCoef="0" IVar="-1" Cut="0.0000000000000000e+00" cType="1" res="-5.9288542252033949e-04" rms="3.8884371519088745e-01" purity="2.3005042970180511e-01" nType="-99"/>
        </Node>
        <Node pos="r" depth="1" NCoef="0" IVar="0" Cut="3.9358217269182205e-02" cType="1" res="1.7319582402706146e-01" rms="4.1923502087593079e-01" purity="7.4196231365203857e-01" nType="0">
          <Node pos="l" depth="2" NCoef="0" IVar="-1" Cut="0.0000000000000000e+00" cType="1" res="5.0895160529762506e-04" rms="3.1305250525474548e-01" purity="8.8729959726333618e-01" nType="-99"/>
          <Node pos="r" depth="2" NCoef="0" IVar="-1" Cut="0.0000000000000000e+00" cType="1" res="3.0720600625500083e-04" rms="4.4891312718391418e-01" purity="6.7280668020248413e-01" nType="-99"/>
        </Node>
      </Node>
    </BinaryTree>
    <BinaryTree type="DecisionTree" boostWeight="1.0000000000000000e+00" itree="454">
      <Node pos="s" depth="0" NCoef="0" IVar="2" Cut="4.4136394531250000e+04" cType="1" res="4.7309357672929764e-02" rms="4.3107309937477112e-01" purity="4.8908588290214539e-01" nType="0">
        <Node pos="l" depth="1" NCoef="0" IVar="0" Cut="1.2566522695124149e-02" cType="1" res="-3.8723163306713104e-02" rms="4.1875961422920227e-01" purity="3.1105676293373108e-01" nType="0">
          <Node pos="l" depth="2" NCoef="0" IVar="-1" Cut="0.0000000000000000e+00" cType="1" res="3.2317836303263903e-04" rms="4.4971013069152832e-01" purity="4.8273557424545288e-01" nType="-99"/>
          <Node pos="r" depth="2" NCoef="0" IVar="-1" Cut="0.0000000000000000e+00" cType="1" res="-4.1427151882089674e-04" rms="3.9757248759269714e-01" purity="2.5700217485427856e-01" nType="-99"/>
        </Node>
        <Node pos="r" depth="1" NCoef="0" IVar="0" Cut="4.2839553207159042e-02" cType="1" res="1.7328962683677673e-01" rms="4.1765767335891724e-01" purity="7.4977988004684448e-01" nType="0">
          <Node pos="l" depth="2" NCoef="0" IVar="-1" Cut="0.0000000000000000e+00" cType="1" res="5.7994702365249395e-04" rms="3.3305332064628601e-01" purity="8.6942750215530396e-01" nType="-99"/>
          <Node pos="r" depth="2" NCoef="0" IVar="-1" Cut="0.0000000000000000e+00" cType="1" res="3.1795565155334771e-04" rms="4.4583100080490112e-01" purity="6.8683445453643799e-01" nType="-99"/>
        </Node>
      </Node>
    </BinaryTree>
    <BinaryTree type="DecisionTree" boostWeight="1.0000000000000000e+00" itree="455">
      <Node pos="s" depth="0" NCoef="0" IVar="2" Cut="4.0782179687500000e+04" cType="1" res="5.8220595121383667e-02" rms="4.3233796954154968e-01" purity="5.0211673974990845e-01" nType="0">
        <Node pos="l" depth="1" NCoef="0" IVar="1" Cut="3.4435253143310547e+01" cType="1" res="-3.8698274642229080e-02" rms="4.2210400104522705e-01" purity="3.0513495206832886e-01" nType="0">
          <Node pos="l" depth="2" NCoef="0" IVar="-1" Cut="0.0000000000000000e+00" cType="1" res="-1.2211955618113279e-03" rms="3.2674211263656616e-01" purity="1.2351658940315247e-01" nType="-99"/>
          <Node pos="r" depth="2" NCoef="0" IVar="-1" Cut="0.0000000000000000e+00" cType="1" res="-2.2076234017731622e-05" rms="4.4302424788475037e-01" purity="3.6328387260437012e-01" nType="-99"/>
        </Node>
        <Node pos="r" depth="1" NCoef="0" IVar="0" Cut="4.2733144015073776e-02" cType="1" res="1.8036696314811707e-01" rms="4.1373729705810547e-01" purity="7.5037193298339844e-01" nType="0">
          <Node pos="l" depth="2" NCoef="0" IVar="-1" Cut="0.0000000000000000e+00" cType="1" res="5.3326698252931237e-04" rms="3.2740551233291626e-01" purity="8.7365883588790894e-01" nType="-99"/>
          <Node pos="r" depth="2" NCoef="0" IVar="-1" Cut="0.0000000000000000e+00" cType="1" res="2.8491590637713671e-04" rms="4.4378063082695007e-01" purity="6.8124431371688843e-01" nType="-99"/>
        </Node>
      </Node>
    </BinaryTree>
    <BinaryTree type="DecisionTree" boostWeight="1.0000000000000000e+00" itree="456">
      <Node pos="s" depth="0" NCoef="0" IVar="2" Cut="6.6204593750000000e+04" cType="1" res="5.7040657848119736e-02" rms="4.3396195769309998e-01" purity="4.9840232729911804e-01" nType="0">
        <Node pos="l" depth="1" NCoef="0" IVar="0" Cut="4.9954801797866821e-02" cType="1" res="1.5787260781507939e-04" rms="4.3804636597633362e-01" purity="3.8507398962974548e-01" nType="0">
          <Node pos="l" depth="2" NCoef="0" IVar="-1" Cut="0.0000000000000000e+00" cType="1" res="1.7961791309062392e-04" rms="4.4693765044212341e-01" purity="4.5479834079742432e-01" nType="-99"/>
          <Node pos="r" depth="2" NCoef="0" IVar="-1" Cut="0.0000000000000000e+00" cType="1" res="-1.3406219659373164e-03" rms="3.8385108113288879e-01" purity="2.0447945594787598e-01" nType="-99"/>
        </Node>
        <Node pos="r" depth="1" NCoef="0" IVar="1" Cut="2.2618206787109375e+02" cType="1" res="2.2092054784297943e-01" rms="3.7667393684387207e-01" purity="8.2490247488021851e-01" nType="0">
          <Node pos="l" depth="2" NCoef="0" IVar="-1" Cut="0.0000000000000000e+00" cType="1" res="3.4764831070788205e-04" rms="4.2475804686546326e-01" purity="7.5926607847213745e-01" nType="-99"/>
          <Node pos="r" depth="2" NCoef="0" IVar="-1" Cut="0.0000000000000000e+00" cType="1" res="4.1512894676998258e-04" rms="2.6456040143966675e-01" purity="9.2387789487838745e-01" nType="-99"/>
        </Node>
      </Node>
    </BinaryTree>
    <BinaryTree type="DecisionTree" boostWeight="1.0000000000000000e+00" itree="457">
      <Node pos="s" depth="0" NCoef="0" IVar="2" Cut="4.4136394531250000e+04" cType="1" res="5.2380166947841644e-02" rms="4.3233415484428406e-01" purity="4.9409371614456177e-01" nType="0">
        <Node pos="l" depth="1" NCoef="0" IVar="0" Cut="3.7411056458950043e-02" cType="1" res="-3.1750116497278214e-02" rms="4.2318713665008545e-01" purity="3.1739482283592224e-01" nType="0">
          <Node pos="l" depth="2" NCoef="0" IVar="-1" Cut="0.0000000000000000e+00" cType="1" res="6.5763764723669738e-05" rms="4.5502904057502747e-01" purity="4.1247361898422241e-01" nType="-99"/>
          <Node pos="r" depth="2" NCoef="0" IVar="-1" Cut="0.0000000000000000e+00" cType="1" res="-1.5664718812331557e-03" rms="3.4393742680549622e-01" purity="1.5592104196548462e-01" nType="-99"/>
        </Node>
        <Node pos="r" depth="1" NCoef="0" IVar="0" Cut="4.0699481964111328e-02" cType="1" res="1.7544221878051758e-01" rms="4.1576680541038513e-01" purity="7.5256097316741943e-01" nType="0">
          <Node pos="l" depth="2" NCoef="0" IVar="-1" Cut="0.0000000000000000e+00" cType="1" res="5.0723861204460263e-04" rms="3.1250372529029846e-01" purity="8.8815033435821533e-01" nType="-99"/>
          <Node pos="r" depth="2" NCoef="0" IVar="-1" Cut="0.0000000000000000e+00" cType="1" res="2.7060386491939425e-04" rms="4.4723162055015564e-01" purity="6.8325424194335938e-01" nType="-99"/>
        </Node>
      </Node>
    </BinaryTree>
    <BinaryTree type="DecisionTree" boostWeight="1.0000000000000000e+00" itree="458">
      <Node pos="s" depth="0" NCoef="0" IVar="3" Cut="1.4930736541748047e+01" cType="1" res="6.1928741633892059e-02" rms="4.3212392926216125e-01" purity="5.0584900379180908e-01" nType="0">
        <Node pos="l" depth="1" NCoef="0" IVar="0" Cut="2.2131901234388351e-02" cType="1" res="-6.0342267155647278e-02" rms="4.0943333506584167e-01" purity="2.7841791510581970e-01" nType="0">
          <Node pos="l" depth="2" NCoef="0" IVar="-1" Cut="0.0000000000000000e+00" cType="1" res="1.1523284047143534e-04" rms="4.5070123672485352e-01" purity="4.0746194124221802e-01" nType="-99"/>
          <Node pos="r" depth="2" NCoef="0" IVar="-1" Cut="0.0000000000000000e+00" cType="1" res="-1.6014464199542999e-03" rms="3.5646498203277588e-01" purity="1.7429313063621521e-01" nType="-99"/>
        </Node>
        <Node pos="r" depth="1" NCoef="0" IVar="0" Cut="4.2733144015073776e-02" cType="1" res="1.7088708281517029e-01" rms="4.2255541682243347e-01" purity="7.0851773023605347e-01" nType="0">
          <Node pos="l" depth="2" NCoef="0" IVar="-1" Cut="0.0000000000000000e+00" cType="1" res="5.3922540973871946e-04" rms="3.4001207351684570e-01" purity="8.5767978429794312e-01" nType="-99"/>
          <Node pos="r" depth="2" NCoef="0" IVar="-1" Cut="0.0000000000000000e+00" cType="1" res="2.6764842914417386e-04" rms="4.4963440299034119e-01" purity="6.2098848819732666e-01" nType="-99"/>
        </Node>
      </Node>
    </BinaryTree>
    <BinaryTree type="DecisionTree" boostWeight="1.0000000000000000e+00" itree="459">
      <Node pos="s" depth="0" NCoef="0" IVar="2" Cut="6.6204593750000000e+04" cType="1" res="5.9568669646978378e-02" rms="4.3449395895004272e-01" purity="4.9980565905570984e-01" nType="0">
        <Node pos="l" depth="1" NCoef="0" IVar="0" Cut="6.2832608819007874e-02" cType="1" res="3.1084886286407709e-03" rms="4.3967571854591370e-01" purity="3.8606750965118408e-01" nType="0">
          <Node pos="l" depth="2" NCoef="0" IVar="-1" Cut="0.0000000000000000e+00" cType="1" res="1.2089421215932816e-04" rms="4.4711086153984070e-01" purity="4.2647820711135864e-01" nType="-99"/>
          <Node pos="r" depth="2" NCoef="0" IVar="-1" Cut="0.0000000000000000e+00" cType="1" res="-1.2264137621968985e-03" rms="3.7131801247596741e-01" purity="2.0898862183094025e-01" nType="-99"/>
        </Node>
        <Node pos="r" depth="1" NCoef="0" IVar="1" Cut="2.2618206787109375e+02" cType="1" res="2.2217458486557007e-01" rms="3.7432321906089783e-01" purity="8.2737267017364502e-01" nType="0">
          <Node pos="l" depth="2" NCoef="0" IVar="-1" Cut="0.0000000000000000e+00" cType="1" res="3.2897514756768942e-04" rms="4.2342031002044678e-01" purity="7.6052725315093994e-01" nType="-99"/>
          <Node pos="r" depth="2" NCoef="0" IVar="-1" Cut="0.0000000000000000e+00" cType="1" res="5.9218029491603374e-04" rms="2.6191672682762146e-01" purity="9.2557656764984131e-01" nType="-99"/>
        </Node>
      </Node>
    </BinaryTree>
    <BinaryTree type="DecisionTree" boostWeight="1.0000000000000000e+00" itree="460">
      <Node pos="s" depth="0" NCoef="0" IVar="1" Cut="1.3717864990234375e+02" cType="1" res="6.0265503823757172e-02" rms="4.3363901972770691e-01" purity="5.0201064348220825e-01" nType="0">
        <Node pos="l" depth="1" NCoef="0" IVar="0" Cut="2.5133045390248299e-02" cType="1" res="-3.1040899455547333e-02" rms="4.1934350132942200e-01" purity="3.0386450886726379e-01" nType="0">
          <Node pos="l" depth="2" NCoef="0" IVar="-1" Cut="0.0000000000000000e+00" cType="1" res="1.3176462380215526e-04" rms="4.5941171050071716e-01" purity="4.2969942092895508e-01" nType="-99"/>
          <Node pos="r" depth="2" NCoef="0" IVar="-1" Cut="0.0000000000000000e+00" cType="1" res="-8.6144538363441825e-04" rms="3.6872735619544983e-01" purity="2.0220507681369781e-01" nType="-99"/>
        </Node>
        <Node pos="r" depth="1" NCoef="0" IVar="1" Cut="2.5571865844726562e+02" cType="1" res="1.6740371286869049e-01" rms="4.2554661631584167e-01" purity="7.3451364040374756e-01" nType="0">
          <Node pos="l" depth="2" NCoef="0" IVar="-1" Cut="0.0000000000000000e+00" cType="1" res="2.9785823426209390e-04" rms="4.4881898164749146e-01" purity="6.9028693437576294e-01" nType="-99"/>
          <Node pos="r" depth="2" NCoef="0" IVar="-1" Cut="0.0000000000000000e+00" cType="1" res="5.3648179164156318e-04" rms="2.6351177692413330e-01" purity="9.2074412107467651e-01" nType="-99"/>
        </Node>
      </Node>
    </BinaryTree>
    <BinaryTree type="DecisionTree" boostWeight="1.0000000000000000e+00" itree="461">
      <Node pos="s" depth="0" NCoef="0" IVar="2" Cut="3.5598781250000000e+04" cType="1" res="6.5681695938110352e-02" rms="4.3294045329093933e-01" purity="5.0895810127258301e-01" nType="0">
        <Node pos="l" depth="1" NCoef="0" IVar="0" Cut="2.5085821747779846e-02" cType="1" res="-2.8876800090074539e-02" rms="4.2245617508888245e-01" purity="3.1327930092811584e-01" nType="0">
          <Node pos="l" depth="2" NCoef="0" IVar="-1" Cut="0.0000000000000000e+00" cType="1" res="1.1752664431696758e-04" rms="4.5924791693687439e-01" purity="4.4572311639785767e-01" nType="-99"/>
          <Node pos="r" depth="2" NCoef="0" IVar="-1" Cut="0.0000000000000000e+00" cType="1" res="-1.2528294464573264e-03" rms="3.6530205607414246e-01" purity="1.8929910659790039e-01" nType="-99"/>
        </Node>
        <Node pos="r" depth="1" NCoef="0" IVar="0" Cut="4.2733144015073776e-02" cType="1" res="1.7242203652858734e-01" rms="4.1961210966110229e-01" purity="7.2984606027603149e-01" nType="0">
          <Node pos="l" depth="2" NCoef="0" IVar="-1" Cut="0.0000000000000000e+00" cType="1" res="6.1057897983118892e-04" rms="3.3016550540924072e-01" purity="8.6802405118942261e-01" nType="-99"/>
          <Node pos="r" depth="2" NCoef="0" IVar="-1" Cut="0.0000000000000000e+00" cType="1" res="2.6734196580946445e-04" rms="4.5130541920661926e-01" purity="6.4706277847290039e-01" nType="-99"/>
        </Node>
      </Node>
    </BinaryTree>
    <BinaryTree type="DecisionTree" boostWeight="1.0000000000000000e+00" itree="462">
      <Node pos="s" depth="0" NCoef="0" IVar="1" Cut="1.3857240295410156e+02" cType="1" res="6.4572364091873169e-02" rms="4.3272557854652405e-01" purity="5.0767374038696289e-01" nType="0">
        <Node pos="l" depth="1" NCoef="0" IVar="0" Cut="4.9881406128406525e-02" cType="1" res="-2.7793269604444504e-02" rms="4.2175105214118958e-01" purity="3.0714789032936096e-01" nType="0">
          <Node pos="l" depth="2" NCoef="0" IVar="-1" Cut="0.0000000000000000e+00" cType="1" res="5.1497820095391944e-05" rms="4.4727942347526550e-01" purity="3.7324365973472595e-01" nType="-99"/>
          <Node pos="r" depth="2" NCoef="0" IVar="-1" Cut="0.0000000000000000e+00" cType="1" res="-2.6865913532674313e-03" rms="2.9869785904884338e-01" purity="1.1015729606151581e-01" nType="-99"/>
        </Node>
        <Node pos="r" depth="1" NCoef="0" IVar="0" Cut="4.2733144015073776e-02" cType="1" res="1.7299880087375641e-01" rms="4.2010509967803955e-01" purity="7.4306762218475342e-01" nType="0">
          <Node pos="l" depth="2" NCoef="0" IVar="-1" Cut="0.0000000000000000e+00" cType="1" res="4.6128491521812975e-04" rms="3.6483159661293030e-01" purity="8.2768440246582031e-01" nType="-99"/>
          <Node pos="r" depth="2" NCoef="0" IVar="-1" Cut="0.0000000000000000e+00" cType="1" res="2.3763750505167991e-04" rms="4.4747212529182434e-01" purity="6.8069297075271606e-01" nType="-99"/>
        </Node>
      </Node>
    </BinaryTree>
    <BinaryTree type="DecisionTree" boostWeight="1.0000000000000000e+00" itree="463">
      <Node pos="s" depth="0" NCoef="0" IVar="3" Cut="1.4930736541748047e+01" cType="1" res="6.0906577855348587e-02" rms="4.3821215629577637e-01" purity="4.9630075693130493e-01" nType="0">
        <Node pos="l" depth="1" NCoef="0" IVar="0" Cut="2.2131901234388351e-02" cType="1" res="-2.6006199419498444e-02" rms="4.2725184559822083e-01" purity="3.0991658568382263e-01" nType="0">
          <Node pos="l" depth="2" NCoef="0" IVar="-1" Cut="0.0000000000000000e+00" cType="1" res="1.2712208263110369e-04" rms="4.6143904328346252e-01" purity="4.3272477388381958e-01" nType="-99"/>
          <Node pos="r" depth="2" NCoef="0" IVar="-1" Cut="0.0000000000000000e+00" cType="1" res="-6.8695750087499619e-04" rms="3.8410761952400208e-01" purity="2.1087548136711121e-01" nType="-99"/>
        </Node>
        <Node pos="r" depth="1" NCoef="0" IVar="0" Cut="3.8928352296352386e-02" cType="1" res="1.4819319546222687e-01" rms="4.3168410658836365e-01" purity="6.8348664045333862e-01" nType="0">
          <Node pos="l" depth="2" NCoef="0" IVar="-1" Cut="0.0000000000000000e+00" cType="1" res="5.5130873806774616e-04" rms="3.2532483339309692e-01" purity="8.7624979019165039e-01" nType="-99"/>
          <Node pos="r" depth="2" NCoef="0" IVar="-1" Cut="0.0000000000000000e+00" cType="1" res="2.0770047558471560e-04" rms="4.5536789298057556e-01" purity="5.8298128843307495e-01" nType="-99"/>
        </Node>
      </Node>
    </BinaryTree>
    <BinaryTree type="DecisionTree" boostWeight="1.0000000000000000e+00" itree="464">
      <Node pos="s" depth="0" NCoef="0" IVar="1" Cut="1.0547126770019531e+02" cType="1" res="6.5762057900428772e-02" rms="4.3138560652732849e-01" purity="5.0870448350906372e-01" nType="0">
        <Node pos="l" depth="1" NCoef="0" IVar="1" Cut="2.4445449829101562e+01" cType="1" res="-5.4522261023521423e-02" rms="3.9738199114799500e-01" purity="2.5373074412345886e-01" nType="0">
          <Node pos="l" depth="2" NCoef="0" IVar="-1" Cut="0.0000000000000000e+00" cType="1" res="-4.3421173468232155e-03" rms="2.8258576989173889e-01" purity="8.7731011211872101e-02" nType="-99"/>
          <Node pos="r" depth="2" NCoef="0" IVar="-1" Cut="0.0000000000000000e+00" cType="1" res="-7.5323412602301687e-05" rms="4.1649955511093140e-01" purity="3.0070510506629944e-01" nType="-99"/>
        </Node>
        <Node pos="r" depth="1" NCoef="0" IVar="2" Cut="7.3169921875000000e+04" cType="1" res="1.5003170073032379e-01" rms="4.3428006768226624e-01" purity="6.8733572959899902e-01" nType="0">
          <Node pos="l" depth="2" NCoef="0" IVar="-1" Cut="0.0000000000000000e+00" cType="1" res="2.2804630862083286e-04" rms="4.6582597494125366e-01" purity="5.9650731086730957e-01" nType="-99"/>
          <Node pos="r" depth="2" NCoef="0" IVar="-1" Cut="0.0000000000000000e+00" cType="1" res="4.5357234193943441e-04" rms="3.4276422858238220e-01" purity="8.6190831661224365e-01" nType="-99"/>
        </Node>
      </Node>
    </BinaryTree>
    <BinaryTree type="DecisionTree" boostWeight="1.0000000000000000e+00" itree="465">
      <Node pos="s" depth="0" NCoef="0" IVar="3" Cut="1.4930736541748047e+01" cType="1" res="6.0534760355949402e-02" rms="4.3206477165222168e-01" purity="5.0336277484893799e-01" nType="0">
        <Node pos="l" depth="1" NCoef="0" IVar="0" Cut="3.1470797955989838e-02" cType="1" res="-4.3232459574937820e-02" rms="4.1755348443984985e-01" purity="2.9482230544090271e-01" nType="0">
          <Node pos="l" depth="2" NCoef="0" IVar="-1" Cut="0.0000000000000000e+00" cType="1" res="4.4110092858318239e-05" rms="4.5544067025184631e-01" purity="4.0138432383537292e-01" nType="-99"/>
          <Node pos="r" depth="2" NCoef="0" IVar="-1" Cut="0.0000000000000000e+00" cType="1" res="-2.4110202211886644e-03" rms="3.2505819201469421e-01" purity="1.2741532921791077e-01" nType="-99"/>
        </Node>
        <Node pos="r" depth="1" NCoef="0" IVar="0" Cut="4.2733144015073776e-02" cType="1" res="1.5758757293224335e-01" rms="4.2275416851043701e-01" purity="6.9840937852859497e-01" nType="0">
          <Node pos="l" depth="2" NCoef="0" IVar="-1" Cut="0.0000000000000000e+00" cType="1" res="4.9293559277430177e-04" rms="3.4219950437545776e-01" purity="8.5471957921981812e-01" nType="-99"/>
          <Node pos="r" depth="2" NCoef="0" IVar="-1" Cut="0.0000000000000000e+00" cType="1" res="1.9985079416073859e-04" rms="4.4726178050041199e-01" purity="6.0320955514907837e-01" nType="-99"/>
        </Node>
      </Node>
    </BinaryTree>
    <BinaryTree type="DecisionTree" boostWeight="1.0000000000000000e+00" itree="466">
      <Node pos="s" depth="0" NCoef="0" IVar="1" Cut="1.5851782226562500e+02" cType="1" res="5.7858478277921677e-02" rms="4.3368384242057800e-01" purity="4.9838340282440186e-01" nType="0">
        <Node pos="l" depth="1" NCoef="0" IVar="0" Cut="5.0171643495559692e-02" cType="1" res="-1.3873554766178131e-02" rms="4.3021506071090698e-01" purity="3.4869503974914551e-01" nType="0">
          <Node pos="l" depth="2" NCoef="0" IVar="-1" Cut="0.0000000000000000e+00" cType="1" res="9.5098774181678891e-05" rms="4.4626051187515259e-01" purity="4.1580447554588318e-01" nType="-99"/>
          <Node pos="r" depth="2" NCoef="0" IVar="-1" Cut="0.0000000000000000e+00" cType="1" res="-1.5665425453335047e-03" rms="3.5282588005065918e-01" purity="1.6674403846263885e-01" nType="-99"/>
        </Node>
        <Node pos="r" depth="1" NCoef="0" IVar="1" Cut="2.4968482971191406e+02" cType="1" res="1.8780110776424408e-01" rms="4.0902814269065857e-01" purity="7.6954388618469238e-01" nType="0">
          <Node pos="l" depth="2" NCoef="0" IVar="-1" Cut="0.0000000000000000e+00" cType="1" res="2.9545012512244284e-04" rms="4.4017556309700012e-01" purity="7.1589112281799316e-01" nType="-99"/>
          <Node pos="r" depth="2" NCoef="0" IVar="-1" Cut="0.0000000000000000e+00" cType="1" res="5.8204209199175239e-04" rms="2.7348551154136658e-01" purity="9.1560119390487671e-01" nType="-99"/>
        </Node>
      </Node>
    </BinaryTree>
    <BinaryTree type="DecisionTree" boostWeight="1.0000000000000000e+00" itree="467">
      <Node pos="s" depth="0" NCoef="0" IVar="1" Cut="1.5836036682128906e+02" cType="1" res="6.1872646212577820e-02" rms="4.2987382411956787e-01" purity="5.0691497325897217e-01" nType="0">
        <Node pos="l" depth="1" NCoef="0" IVar="0" Cut="4.6815194189548492e-02" cType="1" res="-1.7374815419316292e-02" rms="4.2644062638282776e-01" purity="3.4614691138267517e-01" nType="0">
          <Node pos="l" depth="2" NCoef="0" IVar="-1" Cut="0.0000000000000000e+00" cType="1" res="1.2419320410117507e-04" rms="4.4573363661766052e-01" purity="4.2063128948211670e-01" nType="-99"/>
          <Node pos="r" depth="2" NCoef="0" IVar="-1" Cut="0.0000000000000000e+00" cType="1" res="-1.5043369494378567e-03" rms="3.4899419546127319e-01" purity="1.7363947629928589e-01" nType="-99"/>
        </Node>
        <Node pos="r" depth="1" NCoef="0" IVar="1" Cut="2.4954237365722656e+02" cType="1" res="1.9672654569149017e-01" rms="4.0115064382553101e-01" purity="7.8049093484878540e-01" nType="0">
          <Node pos="l" depth="2" NCoef="0" IVar="-1" Cut="0.0000000000000000e+00" cType="1" res="3.2507992000319064e-04" rms="4.3618333339691162e-01" purity="7.2420078516006470e-01" nType="-99"/>
          <Node pos="r" depth="2" NCoef="0" IVar="-1" Cut="0.0000000000000000e+00" cType="1" res="6.6704844357445836e-04" rms="2.5970602035522461e-01" purity="9.2326623201370239e-01" nType="-99"/>
        </Node>
      </Node>
    </BinaryTree>
    <BinaryTree type="DecisionTree" boostWeight="1.0000000000000000e+00" itree="468">
      <Node pos="s" depth="0" NCoef="0" IVar="1" Cut="4.5291774749755859e+01" cType="1" res="6.6616922616958618e-02" rms="4.2980286478996277e-01" purity="5.1110881567001343e-01" nType="0">
        <Node pos="l" depth="1" NCoef="0" IVar="1" Cut="2.0935297012329102e+01" cType="1" res="-1.6677358746528625e-01" rms="2.9225811362266541e-01" purity="9.5487847924232483e-02" nType="0">
          <Node pos="l" depth="2" NCoef="0" IVar="-1" Cut="0.0000000000000000e+00" cType="1" res="-6.4933397807180882e-03" rms="2.3322920501232147e-01" purity="5.8120764791965485e-02" nType="-99"/>
          <Node pos="r" depth="2" NCoef="0" IVar="-1" Cut="0.0000000000000000e+00" cType="1" res="-2.1553153637796640e-03" rms="3.2356211543083191e-01" purity="1.2321440130472183e-01" nType="-99"/>
        </Node>
        <Node pos="r" depth="1" NCoef="0" IVar="0" Cut="2.8488764539361000e-02" cType="1" res="1.1187555640935898e-01" rms="4.3746811151504517e-01" purity="5.9170520305633545e-01" nType="0">
          <Node pos="l" depth="2" NCoef="0" IVar="-1" Cut="0.0000000000000000e+00" cType="1" res="5.0122610991820693e-04" rms="4.1309997439384460e-01" purity="7.4616312980651855e-01" nType="-99"/>
          <Node pos="r" depth="2" NCoef="0" IVar="-1" Cut="0.0000000000000000e+00" cType="1" res="1.8047283811029047e-04" rms="4.3576663732528687e-01" purity="5.2718096971511841e-01" nType="-99"/>
        </Node>
      </Node>
    </BinaryTree>
    <BinaryTree type="DecisionTree" boostWeight="1.0000000000000000e+00" itree="469">
      <Node pos="s" depth="0" NCoef="0" IVar="3" Cut="2.2861642837524414e+01" cType="1" res="8.5215151309967041e-02" rms="4.3725621700286865e-01" purity="5.2463537454605103e-01" nType="0">
        <Node pos="l" depth="1" NCoef="0" IVar="0" Cut="4.8355083912611008e-02" cType="1" res="1.4653519727289677e-02" rms="4.4011244177818298e-01" purity="3.6744448542594910e-01" nType="0">
          <Node pos="l" depth="2" NCoef="0" IVar="-1" Cut="0.0000000000000000e+00" cType="1" res="1.0367616050643846e-04" rms="4.6037074923515320e-01" purity="4.3976321816444397e-01" nType="-99"/>
          <Node pos="r" depth="2" NCoef="0" IVar="-1" Cut="0.0000000000000000e+00" cType="1" res="-2.4601584300398827e-03" rms="3.1254971027374268e-01" purity="1.2422875314950943e-01" nType="-99"/>
        </Node>
        <Node pos="r" depth="1" NCoef="0" IVar="0" Cut="4.2966179549694061e-02" cType="1" res="1.8893016874790192e-01" rms="4.1162419319152832e-01" purity="7.5568246841430664e-01" nType="0">
          <Node pos="l" depth="2" NCoef="0" IVar="-1" Cut="0.0000000000000000e+00" cType="1" res="5.0151563482359052e-04" rms="3.1675422191619873e-01" purity="8.8423073291778564e-01" nType="-99"/>
          <Node pos="r" depth="2" NCoef="0" IVar="-1" Cut="0.0000000000000000e+00" cType="1" res="2.8905962244607508e-04" rms="4.4437351822853088e-01" purity="6.8556976318359375e-01" nType="-99"/>
        </Node>
      </Node>
    </BinaryTree>
    <BinaryTree type="DecisionTree" boostWeight="1.0000000000000000e+00" itree="470">
      <Node pos="s" depth="0" NCoef="0" IVar="1" Cut="1.5843783569335938e+02" cType="1" res="5.8113198727369308e-02" rms="4.2919501662254333e-01" purity="5.0184786319732666e-01" nType="0">
        <Node pos="l" depth="1" NCoef="0" IVar="0" Cut="2.5745216757059097e-02" cType="1" res="-2.3996638134121895e-02" rms="4.2351263761520386e-01" purity="3.3680412173271179e-01" nType="0">
          <Node pos="l" depth="2" NCoef="0" IVar="-1" Cut="0.0000000000000000e+00" cType="1" res="1.5968311345204711e-04" rms="4.4769597053527832e-01" purity="4.6094655990600586e-01" nType="-99"/>
          <Node pos="r" depth="2" NCoef="0" IVar="-1" Cut="0.0000000000000000e+00" cType="1" res="-7.7629188308492303e-04" rms="3.9023476839065552e-01" purity="2.4352276325225830e-01" nType="-99"/>
        </Node>
        <Node pos="r" depth="1" NCoef="0" IVar="1" Cut="2.4961219787597656e+02" cType="1" res="1.9634115695953369e-01" rms="4.0237855911254883e-01" purity="7.7969115972518921e-01" nType="0">
          <Node pos="l" depth="2" NCoef="0" IVar="-1" Cut="0.0000000000000000e+00" cType="1" res="3.1166954431682825e-04" rms="4.3673390150070190e-01" purity="7.2475832700729370e-01" nType="-99"/>
          <Node pos="r" depth="2" NCoef="0" IVar="-1" Cut="0.0000000000000000e+00" cType="1" res="4.6140723861753941e-04" rms="2.6425409317016602e-01" purity="9.2038697004318237e-01" nType="-99"/>
        </Node>
      </Node>
    </BinaryTree>
    <BinaryTree type="DecisionTree" boostWeight="1.0000000000000000e+00" itree="471">
      <Node pos="s" depth="0" NCoef="0" IVar="1" Cut="1.0533761596679688e+02" cType="1" res="6.0075748711824417e-02" rms="4.3268442153930664e-01" purity="5.0090736150741577e-01" nType="0">
        <Node pos="l" depth="1" NCoef="0" IVar="0" Cut="1.1647507548332214e-02" cType="1" res="-4.8912882804870605e-02" rms="4.0201979875564575e-01" purity="2.5455492734909058e-01" nType="0">
          <Node pos="l" depth="2" NCoef="0" IVar="-1" Cut="0.0000000000000000e+00" cType="1" res="1.4455303607974201e-04" rms="4.6447354555130005e-01" purity="4.5492771267890930e-01" nType="-99"/>
          <Node pos="r" depth="2" NCoef="0" IVar="-1" Cut="0.0000000000000000e+00" cType="1" res="-1.1048964224755764e-03" rms="3.5404518246650696e-01" purity="1.7515701055526733e-01" nType="-99"/>
        </Node>
        <Node pos="r" depth="1" NCoef="0" IVar="0" Cut="2.8488764539361000e-02" cType="1" res="1.3793514668941498e-01" rms="4.3698182702064514e-01" purity="6.7689687013626099e-01" nType="0">
          <Node pos="l" depth="2" NCoef="0" IVar="-1" Cut="0.0000000000000000e+00" cType="1" res="5.6305661564692855e-04" rms="3.6381164193153381e-01" purity="8.3067768812179565e-01" nType="-99"/>
          <Node pos="r" depth="2" NCoef="0" IVar="-1" Cut="0.0000000000000000e+00" cType="1" res="2.4824924184940755e-04" rms="4.4959285855293274e-01" purity="6.2288099527359009e-01" nType="-99"/>
        </Node>
      </Node>
    </BinaryTree>
    <BinaryTree type="DecisionTree" boostWeight="1.0000000000000000e+00" itree="472">
      <Node pos="s" depth="0" NCoef="0" IVar="1" Cut="1.0552753448486328e+02" cType="1" res="5.9719726443290710e-02" rms="4.2942786216735840e-01" purity="5.0363940000534058e-01" nType="0">
        <Node pos="l" depth="1" NCoef="0" IVar="1" Cut="6.5015861511230469e+01" cType="1" res="-6.8130232393741608e-02" rms="3.8657215237617493e-01" purity="2.3705007135868073e-01" nType="0">
          <Node pos="l" depth="2" NCoef="0" IVar="-1" Cut="0.0000000000000000e+00" cType="1" res="-2.2819342557340860e-03" rms="3.1694513559341431e-01" purity="1.2070752680301666e-01" nType="-99"/>
          <Node pos="r" depth="2" NCoef="0" IVar="-1" Cut="0.0000000000000000e+00" cType="1" res="8.9656794443726540e-05" rms="4.4325673580169678e-01" purity="3.8034278154373169e-01" nType="-99"/>
        </Node>
        <Node pos="r" depth="1" NCoef="0" IVar="1" Cut="2.4984759521484375e+02" cType="1" res="1.4683555066585541e-01" rms="4.3532723188400269e-01" purity="6.8529099225997925e-01" nType="0">
          <Node pos="l" depth="2" NCoef="0" IVar="-1" Cut="0.0000000000000000e+00" cType="1" res="2.8143989038653672e-04" rms="4.5393607020378113e-01" purity="6.4087682962417603e-01" nType="-99"/>
          <Node pos="r" depth="2" NCoef="0" IVar="-1" Cut="0.0000000000000000e+00" cType="1" res="4.7251034993678331e-04" rms="2.7229708433151245e-01" purity="9.1494113206863403e-01" nType="-99"/>
        </Node>
      </Node>
    </BinaryTree>
    <BinaryTree type="DecisionTree" boostWeight="1.0000000000000000e+00" itree="473">
      <Node pos="s" depth="0" NCoef="0" IVar="1" Cut="1.3710118103027344e+02" cType="1" res="7.0905059576034546e-02" rms="4.3081778287887573e-01" purity="5.1468670368194580e-01" nType="0">
        <Node pos="l" depth="1" NCoef="0" IVar="1" Cut="6.4653839111328125e+01" cType="1" res="-3.2342892140150070e-02" rms="4.1894316673278809e-01" purity="2.9640600085258484e-01" nType="0">
          <Node pos="l" depth="2" NCoef="0" IVar="-1" Cut="0.0000000000000000e+00" cType="1" res="-4.1577077354304492e-04" rms="3.5125765204429626e-01" purity="1.5737935900688171e-01" nType="-99"/>
          <Node pos="r" depth="2" NCoef="0" IVar="-1" Cut="0.0000000000000000e+00" cType="1" res="1.0011805716203526e-04" rms="4.5750391483306885e-01" purity="4.0462076663970947e-01" nType="-99"/>
        </Node>
        <Node pos="r" depth="1" NCoef="0" IVar="0" Cut="3.9251808077096939e-02" cType="1" res="1.8383981287479401e-01" rms="4.1500207781791687e-01" purity="7.5344657897949219e-01" nType="0">
          <Node pos="l" depth="2" NCoef="0" IVar="-1" Cut="0.0000000000000000e+00" cType="1" res="4.4556069769896567e-04" rms="3.5359901189804077e-01" purity="8.4303694963455200e-01" nType="-99"/>
          <Node pos="r" depth="2" NCoef="0" IVar="-1" Cut="0.0000000000000000e+00" cType="1" res="3.0018735560588539e-04" rms="4.4035455584526062e-01" purity="6.9979983568191528e-01" nType="-99"/>
        </Node>
      </Node>
    </BinaryTree>
    <BinaryTree type="DecisionTree" boostWeight="1.0000000000000000e+00" itree="474">
      <Node pos="s" depth="0" NCoef="0" IVar="2" Cut="5.3826414062500000e+04" cType="1" res="6.1529174447059631e-02" rms="4.3061974644660950e-01" purity="5.0522875785827637e-01" nType="0">
        <Node pos="l" depth="1" NCoef="0" IVar="1" Cut="7.1885795593261719e+01" cType="1" res="-1.5391006134450436e-02" rms="4.3027651309967041e-01" purity="3.4493666887283325e-01" nType="0">
          <Node pos="l" depth="2" NCoef="0" IVar="-1" Cut="0.0000000000000000e+00" cType="1" res="-7.5121806003153324e-04" rms="3.5338973999023438e-01" purity="1.5986774861812592e-01" nType="-99"/>
          <Node pos="r" depth="2" NCoef="0" IVar="-1" Cut="0.0000000000000000e+00" cType="1" res="1.5581335173919797e-04" rms="4.6499249339103699e-01" purity="4.6572673320770264e-01" nType="-99"/>
        </Node>
        <Node pos="r" depth="1" NCoef="0" IVar="1" Cut="2.4078350830078125e+02" cType="1" res="2.0074079930782318e-01" rms="3.9481654763221741e-01" purity="7.9532831907272339e-01" nType="0">
          <Node pos="l" depth="2" NCoef="0" IVar="-1" Cut="0.0000000000000000e+00" cType="1" res="3.3219347824342549e-04" rms="4.3086928129196167e-01" purity="7.4016970396041870e-01" nType="-99"/>
          <Node pos="r" depth="2" NCoef="0" IVar="-1" Cut="0.0000000000000000e+00" cType="1" res="5.6848523672670126e-04" rms="2.5024926662445068e-01" purity="9.3232041597366333e-01" nType="-99"/>
        </Node>
      </Node>
    </BinaryTree>
    <BinaryTree type="DecisionTree" boostWeight="1.0000000000000000e+00" itree="475">
      <Node pos="s" depth="0" NCoef="0" IVar="2" Cut="6.6204593750000000e+04" cType="1" res="5.2209455519914627e-02" rms="4.3036213517189026e-01" purity="4.9277314543724060e-01" nType="0">
        <Node pos="l" depth="1" NCoef="0" IVar="1" Cut="3.5509387969970703e+01" cType="1" res="-6.9574830122292042e-03" rms="4.3319815397262573e-01" purity="3.7453150749206543e-01" nType="0">
          <Node pos="l" depth="2" NCoef="0" IVar="-1" Cut="0.0000000000000000e+00" cType="1" res="-3.1375701073557138e-03" rms="2.9868471622467041e-01" purity="1.0004645586013794e-01" nType="-99"/>
          <Node pos="r" depth="2" NCoef="0" IVar="-1" Cut="0.0000000000000000e+00" cType="1" res="8.1246362242382020e-05" rms="4.5133233070373535e-01" purity="4.3835800886154175e-01" nType="-99"/>
        </Node>
        <Node pos="r" depth="1" NCoef="0" IVar="1" Cut="2.2618206787109375e+02" cType="1" res="2.1930946409702301e-01" rms="3.7481415271759033e-01" purity="8.2671248912811279e-01" nType="0">
          <Node pos="l" depth="2" NCoef="0" IVar="-1" Cut="0.0000000000000000e+00" cType="1" res="3.3464157604612410e-04" rms="4.2170286178588867e-01" purity="7.6340645551681519e-01" nType="-99"/>
          <Node pos="r" depth="2" NCoef="0" IVar="-1" Cut="0.0000000000000000e+00" cType="1" res="4.9039965961128473e-04" rms="2.6666122674942017e-01" purity="9.2252391576766968e-01" nType="-99"/>
        </Node>
      </Node>
    </BinaryTree>
    <BinaryTree type="DecisionTree" boostWeight="1.0000000000000000e+00" itree="476">
      <Node pos="s" depth="0" NCoef="0" IVar="3" Cut="1.4930736541748047e+01" cType="1" res="5.8546479791402817e-02" rms="4.3168157339096069e-01" purity="4.9887734651565552e-01" nType="0">
        <Node pos="l" depth="1" NCoef="0" IVar="1" Cut="7.1804023742675781e+01" cType="1" res="-3.9435289800167084e-02" rms="4.1315445303916931e-01" purity="3.0060943961143494e-01" nType="0">
          <Node pos="l" depth="2" NCoef="0" IVar="-1" Cut="0.0000000000000000e+00" cType="1" res="-1.0341518791392446e-03" rms="3.4244704246520996e-01" purity="1.4825841784477234e-01" nType="-99"/>
          <Node pos="r" depth="2" NCoef="0" IVar="-1" Cut="0.0000000000000000e+00" cType="1" res="1.2715208868030459e-04" rms="4.6300032734870911e-01" purity="4.5843991637229919e-01" nType="-99"/>
        </Node>
        <Node pos="r" depth="1" NCoef="0" IVar="0" Cut="4.2733144015073776e-02" cType="1" res="1.5385229885578156e-01" rms="4.2796310782432556e-01" purity="6.9173038005828857e-01" nType="0">
          <Node pos="l" depth="2" NCoef="0" IVar="-1" Cut="0.0000000000000000e+00" cType="1" res="4.4250869541428983e-04" rms="3.4111475944519043e-01" purity="8.5385495424270630e-01" nType="-99"/>
          <Node pos="r" depth="2" NCoef="0" IVar="-1" Cut="0.0000000000000000e+00" cType="1" res="2.2901392367202789e-04" rms="4.5491859316825867e-01" purity="5.9657329320907593e-01" nType="-99"/>
        </Node>
      </Node>
    </BinaryTree>
    <BinaryTree type="DecisionTree" boostWeight="1.0000000000000000e+00" itree="477">
      <Node pos="s" depth="0" NCoef="0" IVar="1" Cut="1.3158508300781250e+02" cType="1" res="6.0029115527868271e-02" rms="4.2870533466339111e-01" purity="5.0330889225006104e-01" nType="0">
        <Node pos="l" depth="1" NCoef="0" IVar="0" Cut="2.5133045390248299e-02" cType="1" res="-4.4582363218069077e-02" rms="4.0887212753295898e-01" purity="2.8038367629051208e-01" nType="0">
          <Node pos="l" depth="2" NCoef="0" IVar="-1" Cut="0.0000000000000000e+00" cType="1" res="6.9380024797283113e-05" rms="4.5113575458526611e-01" purity="3.9740502834320068e-01" nType="-99"/>
          <Node pos="r" depth="2" NCoef="0" IVar="-1" Cut="0.0000000000000000e+00" cType="1" res="-9.4212114345282316e-04" rms="3.6017939448356628e-01" purity="1.8654435873031616e-01" nType="-99"/>
        </Node>
        <Node pos="r" depth="1" NCoef="0" IVar="1" Cut="2.4540650939941406e+02" cType="1" res="1.6861629486083984e-01" rms="4.2175915837287903e-01" purity="7.3470628261566162e-01" nType="0">
          <Node pos="l" depth="2" NCoef="0" IVar="-1" Cut="0.0000000000000000e+00" cType="1" res="3.0602826154790819e-04" rms="4.4791847467422485e-01" purity="6.8348711729049683e-01" nType="-99"/>
          <Node pos="r" depth="2" NCoef="0" IVar="-1" Cut="0.0000000000000000e+00" cType="1" res="5.0730200018733740e-04" rms="2.6490092277526855e-01" purity="9.1952335834503174e-01" nType="-99"/>
        </Node>
      </Node>
    </BinaryTree>
    <BinaryTree type="DecisionTree" boostWeight="1.0000000000000000e+00" itree="478">
      <Node pos="s" depth="0" NCoef="0" IVar="1" Cut="1.5836036682128906e+02" cType="1" res="5.4744523018598557e-02" rms="4.3316403031349182e-01" purity="4.9368292093276978e-01" nType="0">
        <Node pos="l" depth="1" NCoef="0" IVar="0" Cut="1.2470351532101631e-02" cType="1" res="-2.0901182666420937e-02" rms="4.2988118529319763e-01" purity="3.3402815461158752e-01" nType="0">
          <Node pos="l" depth="2" NCoef="0" IVar="-1" Cut="0.0000000000000000e+00" cType="1" res="2.0346873498056084e-04" rms="4.6554708480834961e-01" purity="4.8231205344200134e-01" nType="-99"/>
          <Node pos="r" depth="2" NCoef="0" IVar="-1" Cut="0.0000000000000000e+00" cType="1" res="-4.0463462937623262e-04" rms="4.0917444229125977e-01" purity="2.9182016849517822e-01" nType="-99"/>
        </Node>
        <Node pos="r" depth="1" NCoef="0" IVar="1" Cut="2.4954165649414062e+02" cType="1" res="1.8634857237339020e-01" rms="4.0655294060707092e-01" purity="7.7144104242324829e-01" nType="0">
          <Node pos="l" depth="2" NCoef="0" IVar="-1" Cut="0.0000000000000000e+00" cType="1" res="2.8378888964653015e-04" rms="4.3713963031768799e-01" purity="7.2027730941772461e-01" nType="-99"/>
          <Node pos="r" depth="2" NCoef="0" IVar="-1" Cut="0.0000000000000000e+00" cType="1" res="5.8065878693014383e-04" rms="2.7375751733779907e-01" purity="9.1410160064697266e-01" nType="-99"/>
        </Node>
      </Node>
    </BinaryTree>
    <BinaryTree type="DecisionTree" boostWeight="1.0000000000000000e+00" itree="479">
      <Node pos="s" depth="0" NCoef="0" IVar="2" Cut="6.1173269531250000e+04" cType="1" res="6.5568022429943085e-02" rms="4.3292525410652161e-01" purity="5.0682437419891357e-01" nType="0">
        <Node pos="l" depth="1" NCoef="0" IVar="0" Cut="5.0266090780496597e-02" cType="1" res="-1.8479457357898355e-03" rms="4.3866974115371704e-01" purity="3.6687111854553223e-01" nType="0">
          <Node pos="l" depth="2" NCoef="0" IVar="-1" Cut="0.0000000000000000e+00" cType="1" res="1.3112137094140053e-04" rms="4.5357400178909302e-01" purity="4.3056285381317139e-01" nType="-99"/>
          <Node pos="r" depth="2" NCoef="0" IVar="-1" Cut="0.0000000000000000e+00" cType="1" res="-1.1746569070965052e-03" rms="3.6762994527816772e-01" purity="1.9526265561580658e-01" nType="-99"/>
        </Node>
        <Node pos="r" depth="1" NCoef="0" IVar="1" Cut="2.4892790222167969e+02" cType="1" res="2.1677722036838531e-01" rms="3.7833330035209656e-01" purity="8.2072949409484863e-01" nType="0">
          <Node pos="l" depth="2" NCoef="0" IVar="-1" Cut="0.0000000000000000e+00" cType="1" res="4.0599913336336613e-04" rms="4.1758358478546143e-01" purity="7.6798790693283081e-01" nType="-99"/>
          <Node pos="r" depth="2" NCoef="0" IVar="-1" Cut="0.0000000000000000e+00" cType="1" res="5.6991225574165583e-04" rms="2.3354449868202209e-01" purity="9.4195240736007690e-01" nType="-99"/>
        </Node>
      </Node>
    </BinaryTree>
    <BinaryTree type="DecisionTree" boostWeight="1.0000000000000000e+00" itree="480">
      <Node pos="s" depth="0" NCoef="0" IVar="3" Cut="1.4930736541748047e+01" cType="1" res="5.7751070708036423e-02" rms="4.2946389317512512e-01" purity="5.0104475021362305e-01" nType="0">
        <Node pos="l" depth="1" NCoef="0" IVar="0" Cut="1.2183989398181438e-02" cType="1" res="-5.3841535001993179e-02" rms="4.0895417332649231e-01" purity="2.8140261769294739e-01" nType="0">
          <Node pos="l" depth="2" NCoef="0" IVar="-1" Cut="0.0000000000000000e+00" cType="1" res="2.5884996284730732e-04" rms="4.5837479829788208e-01" purity="4.5153471827507019e-01" nType="-99"/>
          <Node pos="r" depth="2" NCoef="0" IVar="-1" Cut="0.0000000000000000e+00" cType="1" res="-7.1967625990509987e-04" rms="3.7524777650833130e-01" purity="2.1954298019409180e-01" nType="-99"/>
        </Node>
        <Node pos="r" depth="1" NCoef="0" IVar="0" Cut="3.9660222828388214e-02" cType="1" res="1.5950390696525574e-01" rms="4.2238628864288330e-01" purity="7.0131975412368774e-01" nType="0">
          <Node pos="l" depth="2" NCoef="0" IVar="-1" Cut="0.0000000000000000e+00" cType="1" res="5.4110388737171888e-04" rms="3.4314665198326111e-01" purity="8.5684174299240112e-01" nType="-99"/>
          <Node pos="r" depth="2" NCoef="0" IVar="-1" Cut="0.0000000000000000e+00" cType="1" res="2.3734032583888620e-04" rms="4.4168004393577576e-01" purity="6.3087606430053711e-01" nType="-99"/>
        </Node>
      </Node>
    </BinaryTree>
    <BinaryTree type="DecisionTree" boostWeight="1.0000000000000000e+00" itree="481">
      <Node pos="s" depth="0" NCoef="0" IVar="1" Cut="1.0517140960693359e+02" cType="1" res="5.3848974406719208e-02" rms="4.2986944317817688e-01" purity="4.9507886171340942e-01" nType="0">
        <Node pos="l" depth="1" NCoef="0" IVar="1" Cut="6.9712051391601562e+01" cType="1" res="-7.0092350244522095e-02" rms="3.8545745611190796e-01" purity="2.3080918192863464e-01" nType="0">
          <Node pos="l" depth="2" NCoef="0" IVar="-1" Cut="0.0000000000000000e+00" cType="1" res="-1.8193176947534084e-03" rms="3.3225527405738831e-01" purity="1.3618683815002441e-01" nType="-99"/>
          <Node pos="r" depth="2" NCoef="0" IVar="-1" Cut="0.0000000000000000e+00" cType="1" res="3.5064502299064770e-05" rms="4.4360461831092834e-01" purity="3.7634631991386414e-01" nType="-99"/>
        </Node>
        <Node pos="r" depth="1" NCoef="0" IVar="0" Cut="3.9660222828388214e-02" cType="1" res="1.3956490159034729e-01" rms="4.3801739811897278e-01" purity="6.7784374952316284e-01" nType="0">
          <Node pos="l" depth="2" NCoef="0" IVar="-1" Cut="0.0000000000000000e+00" cType="1" res="4.7044188249856234e-04" rms="3.9820942282676697e-01" purity="7.8071457147598267e-01" nType="-99"/>
          <Node pos="r" depth="2" NCoef="0" IVar="-1" Cut="0.0000000000000000e+00" cType="1" res="2.5314808590337634e-04" rms="4.5339143276214600e-01" purity="6.0592722892761230e-01" nType="-99"/>
        </Node>
      </Node>
    </BinaryTree>
    <BinaryTree type="DecisionTree" boostWeight="1.0000000000000000e+00" itree="482">
      <Node pos="s" depth="0" NCoef="0" IVar="2" Cut="5.4184500000000000e+04" cType="1" res="6.6209487617015839e-02" rms="4.2879098653793335e-01" purity="5.1116645336151123e-01" nType="0">
        <Node pos="l" depth="1" NCoef="0" IVar="1" Cut="3.4664817810058594e+01" cType="1" res="-1.0154462419450283e-02" rms="4.2998477816581726e-01" purity="3.5069301724433899e-01" nType="0">
          <Node pos="l" depth="2" NCoef="0" IVar="-1" Cut="0.0000000000000000e+00" cType="1" res="-2.9606290627270937e-03" rms="3.0661413073539734e-01" purity="1.0633931308984756e-01" nType="-99"/>
          <Node pos="r" depth="2" NCoef="0" IVar="-1" Cut="0.0000000000000000e+00" cType="1" res="1.0586425923975185e-04" rms="4.4909906387329102e-01" purity="4.1397178173065186e-01" nType="-99"/>
        </Node>
        <Node pos="r" depth="1" NCoef="0" IVar="1" Cut="2.3056416320800781e+02" cType="1" res="2.0426931977272034e-01" rms="3.9039078354835510e-01" purity="8.0128937959671021e-01" nType="0">
          <Node pos="l" depth="2" NCoef="0" IVar="-1" Cut="0.0000000000000000e+00" cType="1" res="3.3566870843060315e-04" rms="4.2547270655632019e-01" purity="7.4924963712692261e-01" nType="-99"/>
          <Node pos="r" depth="2" NCoef="0" IVar="-1" Cut="0.0000000000000000e+00" cType="1" res="4.8202319885604084e-04" rms="2.6482942700386047e-01" purity="9.2316454648971558e-01" nType="-99"/>
        </Node>
      </Node>
    </BinaryTree>
    <BinaryTree type="DecisionTree" boostWeight="1.0000000000000000e+00" itree="483">
      <Node pos="s" depth="0" NCoef="0" IVar="1" Cut="1.5871800231933594e+02" cType="1" res="6.5399557352066040e-02" rms="4.3106955289840698e-01" purity="5.0647431612014771e-01" nType="0">
        <Node pos="l" depth="1" NCoef="0" IVar="0" Cut="2.5745216757059097e-02" cType="1" res="-7.8091984614729881e-03" rms="4.2988869547843933e-01" purity="3.5219678282737732e-01" nType="0">
          <Node pos="l" depth="2" NCoef="0" IVar="-1" Cut="0.0000000000000000e+00" cType="1" res="1.6287363541778177e-04" rms="4.5390936732292175e-01" purity="4.7453784942626953e-01" nType="-99"/>
          <Node pos="r" depth="2" NCoef="0" IVar="-1" Cut="0.0000000000000000e+00" cType="1" res="-5.8097217697650194e-04" rms="3.9539712667465210e-01" purity="2.5898289680480957e-01" nType="-99"/>
        </Node>
        <Node pos="r" depth="1" NCoef="0" IVar="1" Cut="2.4986639404296875e+02" cType="1" res="1.9519738852977753e-01" rms="4.0158891677856445e-01" purity="7.8000575304031372e-01" nType="0">
          <Node pos="l" depth="2" NCoef="0" IVar="-1" Cut="0.0000000000000000e+00" cType="1" res="3.5357571323402226e-04" rms="4.3434250354766846e-01" purity="7.2763371467590332e-01" nType="-99"/>
          <Node pos="r" depth="2" NCoef="0" IVar="-1" Cut="0.0000000000000000e+00" cType="1" res="5.0620530964806676e-04" rms="2.6504549384117126e-01" purity="9.2000609636306763e-01" nType="-99"/>
        </Node>
      </Node>
    </BinaryTree>
    <BinaryTree type="DecisionTree" boostWeight="1.0000000000000000e+00" itree="484">
      <Node pos="s" depth="0" NCoef="0" IVar="2" Cut="6.1173269531250000e+04" cType="1" res="5.2097301930189133e-02" rms="4.3028029799461365e-01" purity="4.9282518029212952e-01" nType="0">
        <Node pos="l" depth="1" NCoef="0" IVar="0" Cut="3.8101427257061005e-02" cType="1" res="-1.8793517723679543e-02" rms="4.3158787488937378e-01" purity="3.4851837158203125e-01" nType="0">
          <Node pos="l" depth="2" NCoef="0" IVar="-1" Cut="0.0000000000000000e+00" cType="1" res="1.3062739162705839e-04" rms="4.5138603448867798e-01" purity="4.3734106421470642e-01" nType="-99"/>
          <Node pos="r" depth="2" NCoef="0" IVar="-1" Cut="0.0000000000000000e+00" cType="1" res="-8.7961077224463224e-04" rms="3.8688045740127563e-01" purity="2.1986320614814758e-01" nType="-99"/>
        </Node>
        <Node pos="r" depth="1" NCoef="0" IVar="1" Cut="2.0620263671875000e+02" cType="1" res="2.1072542667388916e-01" rms="3.8237574696540833e-01" purity="8.1573170423507690e-01" nType="0">
          <Node pos="l" depth="2" NCoef="0" IVar="-1" Cut="0.0000000000000000e+00" cType="1" res="3.6777876084670424e-04" rms="4.2433324456214905e-01" purity="7.5568795204162598e-01" nType="-99"/>
          <Node pos="r" depth="2" NCoef="0" IVar="-1" Cut="0.0000000000000000e+00" cType="1" res="4.6198084601201117e-04" rms="2.9792162775993347e-01" purity="9.0027093887329102e-01" nType="-99"/>
        </Node>
      </Node>
    </BinaryTree>
    <BinaryTree type="DecisionTree" boostWeight="1.0000000000000000e+00" itree="485">
      <Node pos="s" depth="0" NCoef="0" IVar="1" Cut="1.3847789001464844e+02" cType="1" res="6.1757642775774002e-02" rms="4.3143516778945923e-01" purity="5.0249707698822021e-01" nType="0">
        <Node pos="l" depth="1" NCoef="0" IVar="0" Cut="3.7411056458950043e-02" cType="1" res="-2.4341439828276634e-02" rms="4.2040881514549255e-01" purity="3.0653515458106995e-01" nType="0">
          <Node pos="l" depth="2" NCoef="0" IVar="-1" Cut="0.0000000000000000e+00" cType="1" res="9.6593183116056025e-05" rms="4.5419442653656006e-01" purity="4.0673229098320007e-01" nType="-99"/>
          <Node pos="r" depth="2" NCoef="0" IVar="-1" Cut="0.0000000000000000e+00" cType="1" res="-1.8783175619319081e-03" rms="3.3770543336868286e-01" purity="1.4279656112194061e-01" nType="-99"/>
        </Node>
        <Node pos="r" depth="1" NCoef="0" IVar="1" Cut="2.5801995849609375e+02" cType="1" res="1.6572532057762146e-01" rms="4.2156559228897095e-01" purity="7.3912805318832397e-01" nType="0">
          <Node pos="l" depth="2" NCoef="0" IVar="-1" Cut="0.0000000000000000e+00" cType="1" res="3.1774540548212826e-04" rms="4.4598639011383057e-01" purity="6.9272524118423462e-01" nType="-99"/>
          <Node pos="r" depth="2" NCoef="0" IVar="-1" Cut="0.0000000000000000e+00" cType="1" res="4.6267235302366316e-04" rms="2.5435799360275269e-01" purity="9.2690324783325195e-01" nType="-99"/>
        </Node>
      </Node>
    </BinaryTree>
    <BinaryTree type="DecisionTree" boostWeight="1.0000000000000000e+00" itree="486">
      <Node pos="s" depth="0" NCoef="0" IVar="1" Cut="1.0525318145751953e+02" cType="1" res="5.9031907469034195e-02" rms="4.2844185233116150e-01" purity="5.0274521112442017e-01" nType="0">
        <Node pos="l" depth="1" NCoef="0" IVar="0" Cut="1.2470351532101631e-02" cType="1" res="-7.4057415127754211e-02" rms="3.8388893008232117e-01" purity="2.2421029210090637e-01" nType="0">
          <Node pos="l" depth="2" NCoef="0" IVar="-1" Cut="0.0000000000000000e+00" cType="1" res="5.0279657443752512e-05" rms="4.4414994120597839e-01" purity="3.5682913661003113e-01" nType="-99"/>
          <Node pos="r" depth="2" NCoef="0" IVar="-1" Cut="0.0000000000000000e+00" cType="1" res="-1.2320243986323476e-03" rms="3.5319465398788452e-01" purity="1.7658361792564392e-01" nType="-99"/>
        </Node>
        <Node pos="r" depth="1" NCoef="0" IVar="2" Cut="7.2152898437500000e+04" cType="1" res="1.4763073623180389e-01" rms="4.3360611796379089e-01" purity="6.8816852569580078e-01" nType="0">
          <Node pos="l" depth="2" NCoef="0" IVar="-1" Cut="0.0000000000000000e+00" cType="1" res="2.7237337781116366e-04" rms="4.6892410516738892e-01" purity="5.8575665950775146e-01" nType="-99"/>
          <Node pos="r" depth="2" NCoef="0" IVar="-1" Cut="0.0000000000000000e+00" cType="1" res="4.1882452205754817e-04" rms="3.4135961532592773e-01" purity="8.6290615797042847e-01" nType="-99"/>
        </Node>
      </Node>
    </BinaryTree>
    <BinaryTree type="DecisionTree" boostWeight="1.0000000000000000e+00" itree="487">
      <Node pos="s" depth="0" NCoef="0" IVar="2" Cut="3.6123000000000000e+04" cType="1" res="5.8322280645370483e-02" rms="4.2932969331741333e-01" purity="4.9999055266380310e-01" nType="0">
        <Node pos="l" depth="1" NCoef="0" IVar="1" Cut="3.8584842681884766e+01" cType="1" res="-3.5369347780942917e-02" rms="4.1535767912864685e-01" purity="3.0284738540649414e-01" nType="0">
          <Node pos="l" depth="2" NCoef="0" IVar="-1" Cut="0.0000000000000000e+00" cType="1" res="-3.0128178186714649e-03" rms="3.0779105424880981e-01" purity="1.0478821396827698e-01" nType="-99"/>
          <Node pos="r" depth="2" NCoef="0" IVar="-1" Cut="0.0000000000000000e+00" cType="1" res="3.6360997910378501e-05" rms="4.4194906949996948e-01" purity="3.7904375791549683e-01" nType="-99"/>
        </Node>
        <Node pos="r" depth="1" NCoef="0" IVar="0" Cut="4.1371610015630722e-02" cType="1" res="1.6608716547489166e-01" rms="4.1974848508834839e-01" purity="7.2674626111984253e-01" nType="0">
          <Node pos="l" depth="2" NCoef="0" IVar="-1" Cut="0.0000000000000000e+00" cType="1" res="4.4866406824439764e-04" rms="3.3037665486335754e-01" purity="8.7153834104537964e-01" nType="-99"/>
          <Node pos="r" depth="2" NCoef="0" IVar="-1" Cut="0.0000000000000000e+00" cType="1" res="2.6032380992546678e-04" rms="4.4626906514167786e-01" purity="6.5066653490066528e-01" nType="-99"/>
        </Node>
      </Node>
    </BinaryTree>
    <BinaryTree type="DecisionTree" boostWeight="1.0000000000000000e+00" itree="488">
      <Node pos="s" depth="0" NCoef="0" IVar="3" Cut="1.3542619705200195e+01" cType="1" res="6.7951850593090057e-02" rms="4.3439373373985291e-01" purity="5.0646650791168213e-01" nType="0">
        <Node pos="l" depth="1" NCoef="0" IVar="1" Cut="3.3853912353515625e+01" cType="1" res="-2.7730537578463554e-02" rms="4.2357611656188965e-01" purity="3.0446171760559082e-01" nType="0">
          <Node pos="l" depth="2" NCoef="0" IVar="-1" Cut="0.0000000000000000e+00" cType="1" res="-1.8498814897611737e-03" rms="3.2125219702720642e-01" purity="1.1822360008955002e-01" nType="-99"/>
          <Node pos="r" depth="2" NCoef="0" IVar="-1" Cut="0.0000000000000000e+00" cType="1" res="4.5601776946568862e-05" rms="4.4998905062675476e-01" purity="3.7777459621429443e-01" nType="-99"/>
        </Node>
        <Node pos="r" depth="1" NCoef="0" IVar="0" Cut="4.2966179549694061e-02" cType="1" res="1.5295371413230896e-01" rms="4.2612743377685547e-01" purity="6.8592256307601929e-01" nType="0">
          <Node pos="l" depth="2" NCoef="0" IVar="-1" Cut="0.0000000000000000e+00" cType="1" res="5.0543469842523336e-04" rms="3.5499596595764160e-01" purity="8.4123343229293823e-01" nType="-99"/>
          <Node pos="r" depth="2" NCoef="0" IVar="-1" Cut="0.0000000000000000e+00" cType="1" res="2.0157694234512746e-04" rms="4.4636839628219604e-01" purity="5.8972740173339844e-01" nType="-99"/>
        </Node>
      </Node>
    </BinaryTree>
    <BinaryTree type="DecisionTree" boostWeight="1.0000000000000000e+00" itree="489">
      <Node pos="s" depth="0" NCoef="0" IVar="2" Cut="4.4136394531250000e+04" cType="1" res="5.1931299269199371e-02" rms="4.3051481246948242e-01" purity="4.9042049050331116e-01" nType="0">
        <Node pos="l" depth="1" NCoef="0" IVar="1" Cut="3.4349178314208984e+01" cType="1" res="-3.0806159600615501e-02" rms="4.2081007361412048e-01" purity="3.1118598580360413e-01" nType="0">
          <Node pos="l" depth="2" NCoef="0" IVar="-1" Cut="0.0000000000000000e+00" cType="1" res="-2.9524278361350298e-03" rms="3.0630156397819519e-01" purity="1.0566431283950806e-01" nType="-99"/>
          <Node pos="r" depth="2" NCoef="0" IVar="-1" Cut="0.0000000000000000e+00" cType="1" res="2.6137904569623061e-05" rms="4.4341453909873962e-01" purity="3.7343299388885498e-01" nType="-99"/>
        </Node>
        <Node pos="r" depth="1" NCoef="0" IVar="0" Cut="4.2733144015073776e-02" cType="1" res="1.7336097359657288e-01" rms="4.1554376482963562e-01" purity="7.5347405672073364e-01" nType="0">
          <Node pos="l" depth="2" NCoef="0" IVar="-1" Cut="0.0000000000000000e+00" cType="1" res="5.1790848374366760e-04" rms="3.1912690401077271e-01" purity="8.8193428516387939e-01" nType="-99"/>
          <Node pos="r" depth="2" NCoef="0" IVar="-1" Cut="0.0000000000000000e+00" cType="1" res="3.0461722053587437e-04" rms="4.5075961947441101e-01" purity="6.7692762613296509e-01" nType="-99"/>
        </Node>
      </Node>
    </BinaryTree>
    <BinaryTree type="DecisionTree" boostWeight="1.0000000000000000e+00" itree="490">
      <Node pos="s" depth="0" NCoef="0" IVar="1" Cut="1.2484600830078125e+02" cType="1" res="6.3063353300094604e-02" rms="4.3044602870941162e-01" purity="5.0497645139694214e-01" nType="0">
        <Node pos="l" depth="1" NCoef="0" IVar="1" Cut="3.4807918548583984e+01" cType="1" res="-4.1311040520668030e-02" rms="4.0850114822387695e-01" purity="2.7509996294975281e-01" nType="0">
          <Node pos="l" depth="2" NCoef="0" IVar="-1" Cut="0.0000000000000000e+00" cType="1" res="-2.9423991218209267e-03" rms="3.0514973402023315e-01" purity="1.0412453860044479e-01" nType="-99"/>
          <Node pos="r" depth="2" NCoef="0" IVar="-1" Cut="0.0000000000000000e+00" cType="1" res="4.3837162593263201e-06" rms="4.3456575274467468e-01" purity="3.4119480848312378e-01" nType="-99"/>
        </Node>
        <Node pos="r" depth="1" NCoef="0" IVar="0" Cut="3.9660222828388214e-02" cType="1" res="1.6103832423686981e-01" rms="4.2748144268989563e-01" purity="7.2075873613357544e-01" nType="0">
          <Node pos="l" depth="2" NCoef="0" IVar="-1" Cut="0.0000000000000000e+00" cType="1" res="4.0925695793703198e-04" rms="3.7899476289749146e-01" purity="8.1222963333129883e-01" nType="-99"/>
          <Node pos="r" depth="2" NCoef="0" IVar="-1" Cut="0.0000000000000000e+00" cType="1" res="2.7428465546108782e-04" rms="4.4720512628555298e-01" purity="6.6198390722274780e-01" nType="-99"/>
        </Node>
      </Node>
    </BinaryTree>
    <BinaryTree type="DecisionTree" boostWeight="1.0000000000000000e+00" itree="491">
      <Node pos="s" depth="0" NCoef="0" IVar="3" Cut="2.4961820602416992e+01" cType="1" res="6.4723320305347443e-02" rms="4.3089699745178223e-01" purity="5.0488889217376709e-01" nType="0">
        <Node pos="l" depth="1" NCoef="0" IVar="0" Cut="3.7411056458950043e-02" cType="1" res="-1.4375506900250912e-02" rms="4.2834651470184326e-01" purity="3.3592918515205383e-01" nType="0">
          <Node pos="l" depth="2" NCoef="0" IVar="-1" Cut="0.0000000000000000e+00" cType="1" res="9.9370990938041359e-05" rms="4.5633050799369812e-01" purity="4.2787331342697144e-01" nType="-99"/>
          <Node pos="r" depth="2" NCoef="0" IVar="-1" Cut="0.0000000000000000e+00" cType="1" res="-1.1622483143582940e-03" rms="3.5997018218040466e-01" purity="1.8450602889060974e-01" nType="-99"/>
        </Node>
        <Node pos="r" depth="1" NCoef="0" IVar="0" Cut="4.0206369012594223e-02" cType="1" res="1.8682929873466492e-01" rms="4.0556994080543518e-01" purity="7.6571440696716309e-01" nType="0">
          <Node pos="l" depth="2" NCoef="0" IVar="-1" Cut="0.0000000000000000e+00" cType="1" res="4.9538241000846028e-04" rms="2.9950574040412903e-01" purity="8.9989614486694336e-01" nType="-99"/>
          <Node pos="r" depth="2" NCoef="0" IVar="-1" Cut="0.0000000000000000e+00" cType="1" res="2.5599510991014540e-04" rms="4.3484380841255188e-01" purity="7.0533990859985352e-01" nType="-99"/>
        </Node>
      </Node>
    </BinaryTree>
    <BinaryTree type="DecisionTree" boostWeight="1.0000000000000000e+00" itree="492">
      <Node pos="s" depth="0" NCoef="0" IVar="1" Cut="8.2077896118164062e+01" cType="1" res="5.1763877272605896e-02" rms="4.3107220530509949e-01" purity="4.9019283056259155e-01" nType="0">
        <Node pos="l" depth="1" NCoef="0" IVar="1" Cut="2.2588274002075195e+01" cType="1" res="-8.8745690882205963e-02" rms="3.6387401819229126e-01" purity="1.8391069769859314e-01" nType="0">
          <Node pos="l" depth="2" NCoef="0" IVar="-1" Cut="0.0000000000000000e+00" cType="1" res="-1.1502481065690517e-03" rms="3.0056956410408020e-01" purity="1.0205744951963425e-01" nType="-99"/>
          <Node pos="r" depth="2" NCoef="0" IVar="-1" Cut="0.0000000000000000e+00" cType="1" res="-4.6581422793678939e-04" rms="3.8144448399543762e-01" purity="2.1528816223144531e-01" nType="-99"/>
        </Node>
        <Node pos="r" depth="1" NCoef="0" IVar="0" Cut="2.8488764539361000e-02" cType="1" res="1.1471000313758850e-01" rms="4.4378751516342163e-01" purity="6.2740248441696167e-01" nType="0">
          <Node pos="l" depth="2" NCoef="0" IVar="-1" Cut="0.0000000000000000e+00" cType="1" res="5.0306232878938317e-04" rms="3.9748752117156982e-01" purity="7.8666484355926514e-01" nType="-99"/>
          <Node pos="r" depth="2" NCoef="0" IVar="-1" Cut="0.0000000000000000e+00" cType="1" res="1.9526155665516853e-04" rms="4.4922336935997009e-01" purity="5.6700319051742554e-01" nType="-99"/>
        </Node>
      </Node>
    </BinaryTree>
    <BinaryTree type="DecisionTree" boostWeight="1.0000000000000000e+00" itree="493">
      <Node pos="s" depth="0" NCoef="0" IVar="2" Cut="7.0266148437500000e+04" cType="1" res="7.4058733880519867e-02" rms="4.3236458301544189e-01" purity="5.1545053720474243e-01" nType="0">
        <Node pos="l" depth="1" NCoef="0" IVar="0" Cut="5.0810825079679489e-02" cType="1" res="2.3925721645355225e-02" rms="4.4165986776351929e-01" purity="4.1405504941940308e-01" nType="0">
          <Node pos="l" depth="2" NCoef="0" IVar="-1" Cut="0.0000000000000000e+00" cType="1" res="2.1189084509387612e-04" rms="4.4758772850036621e-01" purity="4.8355108499526978e-01" nType="-99"/>
          <Node pos="r" depth="2" NCoef="0" IVar="-1" Cut="0.0000000000000000e+00" cType="1" res="-9.7115861717611551e-04" rms="3.8980057835578918e-01" purity="2.2752739489078522e-01" nType="-99"/>
        </Node>
        <Node pos="r" depth="1" NCoef="0" IVar="1" Cut="2.2947694396972656e+02" cType="1" res="2.4056424200534821e-01" rms="3.5197240114212036e-01" purity="8.5221302509307861e-01" nType="0">
          <Node pos="l" depth="2" NCoef="0" IVar="-1" Cut="0.0000000000000000e+00" cType="1" res="3.9678430766798556e-04" rms="3.9621096849441528e-01" purity="8.0142682790756226e-01" nType="-99"/>
          <Node pos="r" depth="2" NCoef="0" IVar="-1" Cut="0.0000000000000000e+00" cType="1" res="6.0073815984651446e-04" rms="2.5935620069503784e-01" purity="9.2718482017517090e-01" nType="-99"/>
        </Node>
      </Node>
    </BinaryTree>
    <BinaryTree type="DecisionTree" boostWeight="1.0000000000000000e+00" itree="494">
      <Node pos="s" depth="0" NCoef="0" IVar="2" Cut="6.6204593750000000e+04" cType="1" res="5.9749394655227661e-02" rms="4.2597031593322754e-01" purity="5.0515878200531006e-01" nType="0">
        <Node pos="l" depth="1" NCoef="0" IVar="1" Cut="1.1790930938720703e+02" cType="1" res="-6.2921778298914433e-03" rms="4.3042245507240295e-01" purity="3.7538802623748779e-01" nType="0">
          <Node pos="l" depth="2" NCoef="0" IVar="-1" Cut="0.0000000000000000e+00" cType="1" res="-5.1665469072759151e-04" rms="3.9299440383911133e-01" purity="2.4578799307346344e-01" nType="-99"/>
          <Node pos="r" depth="2" NCoef="0" IVar="-1" Cut="0.0000000000000000e+00" cType="1" res="2.3354445875156671e-04" rms="4.7048956155776978e-01" purity="5.8532893657684326e-01" nType="-99"/>
        </Node>
        <Node pos="r" depth="1" NCoef="0" IVar="1" Cut="2.2952496337890625e+02" cType="1" res="2.3077635467052460e-01" rms="3.6198306083679199e-01" purity="8.4122437238693237e-01" nType="0">
          <Node pos="l" depth="2" NCoef="0" IVar="-1" Cut="0.0000000000000000e+00" cType="1" res="3.6699281190522015e-04" rms="4.0981203317642212e-01" purity="7.8237134218215942e-01" nType="-99"/>
          <Node pos="r" depth="2" NCoef="0" IVar="-1" Cut="0.0000000000000000e+00" cType="1" res="4.9828999908640981e-04" rms="2.5190964341163635e-01" purity="9.3153089284896851e-01" nType="-99"/>
        </Node>
      </Node>
    </BinaryTree>
    <BinaryTree type="DecisionTree" boostWeight="1.0000000000000000e+00" itree="495">
      <Node pos="s" depth="0" NCoef="0" IVar="2" Cut="6.1173269531250000e+04" cType="1" res="5.8025028556585312e-02" rms="4.3064013123512268e-01" purity="4.9754518270492554e-01" nType="0">
        <Node pos="l" depth="1" NCoef="0" IVar="0" Cut="3.8101427257061005e-02" cType="1" res="-6.2853582203388214e-03" rms="4.3365767598152161e-01" purity="3.6191433668136597e-01" nType="0">
          <Node pos="l" depth="2" NCoef="0" IVar="-1" Cut="0.0000000000000000e+00" cType="1" res="1.9897347374353558e-04" rms="4.4983598589897156e-01" purity="4.5349347591400146e-01" nType="-99"/>
          <Node pos="r" depth="2" NCoef="0" IVar="-1" Cut="0.0000000000000000e+00" cType="1" res="-7.3315337067469954e-04" rms="3.9428225159645081e-01" purity="2.2765588760375977e-01" nType="-99"/>
        </Node>
        <Node pos="r" depth="1" NCoef="0" IVar="1" Cut="2.4123907470703125e+02" cType="1" res="2.0808741450309753e-01" rms="3.8366124033927917e-01" purity="8.1402736902236938e-01" nType="0">
          <Node pos="l" depth="2" NCoef="0" IVar="-1" Cut="0.0000000000000000e+00" cType="1" res="3.6246608942747116e-04" rms="4.1974136233329773e-01" purity="7.6396214962005615e-01" nType="-99"/>
          <Node pos="r" depth="2" NCoef="0" IVar="-1" Cut="0.0000000000000000e+00" cType="1" res="6.1524222837761045e-04" rms="2.5426065921783447e-01" purity="9.3030023574829102e-01" nType="-99"/>
        </Node>
      </Node>
    </BinaryTree>
    <BinaryTree type="DecisionTree" boostWeight="1.0000000000000000e+00" itree="496">
      <Node pos="s" depth="0" NCoef="0" IVar="2" Cut="5.1204988281250000e+04" cType="1" res="5.4684795439243317e-02" rms="4.3131068348884583e-01" purity="4.9364104866981506e-01" nType="0">
        <Node pos="l" depth="1" NCoef="0" IVar="1" Cut="3.8498767852783203e+01" cType="1" res="-1.5017936937510967e-02" rms="4.2860510945320129e-01" purity="3.3760580420494080e-01" nType="0">
          <Node pos="l" depth="2" NCoef="0" IVar="-1" Cut="0.0000000000000000e+00" cType="1" res="-2.7079659048467875e-03" rms="3.0691140890121460e-01" purity="1.0766977816820145e-01" nType="-99"/>
          <Node pos="r" depth="2" NCoef="0" IVar="-1" Cut="0.0000000000000000e+00" cType="1" res="9.9254990345798433e-05" rms="4.5167255401611328e-01" purity="4.0693598985671997e-01" nType="-99"/>
        </Node>
        <Node pos="r" depth="1" NCoef="0" IVar="1" Cut="2.1800962829589844e+02" cType="1" res="1.7962364852428436e-01" rms="4.0728473663330078e-01" purity="7.7332675457000732e-01" nType="0">
          <Node pos="l" depth="2" NCoef="0" IVar="-1" Cut="0.0000000000000000e+00" cType="1" res="3.0166871147230268e-04" rms="4.4120696187019348e-01" purity="7.1368467807769775e-01" nType="-99"/>
          <Node pos="r" depth="2" NCoef="0" IVar="-1" Cut="0.0000000000000000e+00" cType="1" res="4.6617060434073210e-04" rms="2.9438543319702148e-01" purity="9.0228718519210815e-01" nType="-99"/>
        </Node>
      </Node>
    </BinaryTree>
    <BinaryTree type="DecisionTree" boostWeight="1.0000000000000000e+00" itree="497">
      <Node pos="s" depth="0" NCoef="0" IVar="1" Cut="1.3828833007812500e+02" cType="1" res="5.4673917591571808e-02" rms="4.2828819155693054e-01" purity="4.9602559208869934e-01" nType="0">
        <Node pos="l" depth="1" NCoef="0" IVar="0" Cut="3.7699569016695023e-02" cType="1" res="-3.9828289300203323e-02" rms="4.1130900382995605e-01" purity="2.8752848505973816e-01" nType="0">
          <Node pos="l" depth="2" NCoef="0" IVar="-1" Cut="0.0000000000000000e+00" cType="1" res="3.5840916098095477e-05" rms="4.4597795605659485e-01" purity="3.7769383192062378e-01" nType="-99"/>
          <Node pos="r" depth="2" NCoef="0" IVar="-1" Cut="0.0000000000000000e+00" cType="1" res="-1.6725899185985327e-03" rms="3.3364593982696533e-01" purity="1.4239537715911865e-01" nType="-99"/>
        </Node>
        <Node pos="r" depth="1" NCoef="0" IVar="1" Cut="2.5785623168945312e+02" cType="1" res="1.6516549885272980e-01" rms="4.2124620079994202e-01" purity="7.3979955911636353e-01" nType="0">
          <Node pos="l" depth="2" NCoef="0" IVar="-1" Cut="0.0000000000000000e+00" cType="1" res="2.8167080017738044e-04" rms="4.4606715440750122e-01" purity="6.9290226697921753e-01" nType="-99"/>
          <Node pos="r" depth="2" NCoef="0" IVar="-1" Cut="0.0000000000000000e+00" cType="1" res="4.8282914212904871e-04" rms="2.5805658102035522e-01" purity="9.2437446117401123e-01" nType="-99"/>
        </Node>
      </Node>
    </BinaryTree>
    <BinaryTree type="DecisionTree" boostWeight="1.0000000000000000e+00" itree="498">
      <Node pos="s" depth="0" NCoef="0" IVar="1" Cut="1.5843783569335938e+02" cType="1" res="6.1854451894760132e-02" rms="4.2729139328002930e-01" purity="5.0612717866897583e-01" nType="0">
        <Node pos="l" depth="1" NCoef="0" IVar="0" Cut="5.1490433514118195e-02" cType="1" res="-1.8286058679223061e-02" rms="4.2409002780914307e-01" purity="3.4047162532806396e-01" nType="0">
          <Node pos="l" depth="2" NCoef="0" IVar="-1" Cut="0.0000000000000000e+00" cType="1" res="9.9313023383729160e-05" rms="4.4210919737815857e-01" purity="4.0165448188781738e-01" nType="-99"/>
          <Node pos="r" depth="2" NCoef="0" IVar="-1" Cut="0.0000000000000000e+00" cType="1" res="-1.7061732942238450e-03" rms="3.3768749237060547e-01" purity="1.6674169898033142e-01" nType="-99"/>
        </Node>
        <Node pos="r" depth="1" NCoef="0" IVar="2" Cut="6.9998937500000000e+04" cType="1" res="1.9657278060913086e-01" rms="3.9776155352592468e-01" purity="7.8459864854812622e-01" nType="0">
          <Node pos="l" depth="2" NCoef="0" IVar="-1" Cut="0.0000000000000000e+00" cType="1" res="2.5941562489606440e-04" rms="4.5827051997184753e-01" purity="6.6628140211105347e-01" nType="-99"/>
          <Node pos="r" depth="2" NCoef="0" IVar="-1" Cut="0.0000000000000000e+00" cType="1" res="4.2511973879300058e-04" rms="3.4388765692710876e-01" purity="8.6087119579315186e-01" nType="-99"/>
        </Node>
      </Node>
    </BinaryTree>
    <BinaryTree type="DecisionTree" boostWeight="1.0000000000000000e+00" itree="499">
      <Node pos="s" depth="0" NCoef="0" IVar="3" Cut="1.4930736541748047e+01" cType="1" res="5.3001962602138519e-02" rms="4.2762786149978638e-01" purity="4.9440512061119080e-01" nType="0">
        <Node pos="l" depth="1" NCoef="0" IVar="0" Cut="2.2131901234388351e-02" cType="1" res="-5.4216682910919189e-02" rms="4.0547916293144226e-01" purity="2.7730375528335571e-01" nType="0">
          <Node pos="l" depth="2" NCoef="0" IVar="-1" Cut="0.0000000000000000e+00" cType="1" res="1.2122804764658213e-04" rms="4.4347566366195679e-01" purity="3.9876684546470642e-01" nType="-99"/>
          <Node pos="r" depth="2" NCoef="0" IVar="-1" Cut="0.0000000000000000e+00" cType="1" res="-1.1744925286620855e-03" rms="3.5917842388153076e-01" purity="1.7938269674777985e-01" nType="-99"/>
        </Node>
        <Node pos="r" depth="1" NCoef="0" IVar="0" Cut="3.8025218993425369e-02" cType="1" res="1.5158158540725708e-01" rms="4.2372578382492065e-01" purity="6.9401377439498901e-01" nType="0">
          <Node pos="l" depth="2" NCoef="0" IVar="-1" Cut="0.0000000000000000e+00" cType="1" res="5.9217255329713225e-04" rms="3.2855856418609619e-01" purity="8.7348759174346924e-01" nType="-99"/>
          <Node pos="r" depth="2" NCoef="0" IVar="-1" Cut="0.0000000000000000e+00" cType="1" res="2.5638364604674280e-04" rms="4.4384247064590454e-01" purity="6.1342853307723999e-01" nType="-99"/>
        </Node>
      </Node>
    </BinaryTree>
    <BinaryTree type="DecisionTree" boostWeight="1.0000000000000000e+00" itree="500">
      <Node pos="s" depth="0" NCoef="0" IVar="1" Cut="1.3922813415527344e+02" cType="1" res="6.4911790192127228e-02" rms="4.2767056822776794e-01" purity="5.0864976644515991e-01" nType="0">
        <Node pos="l" depth="1" NCoef="0" IVar="1" Cut="5.8978927612304688e+01" cType="1" res="-2.3561472073197365e-02" rms="4.1577625274658203e-01" purity="3.0769982933998108e-01" nType="0">
          <Node pos="l" depth="2" NCoef="0" IVar="-1" Cut="0.0000000000000000e+00" cType="1" res="-2.0772758871316910e-03" rms="3.1900626420974731e-01" purity="1.2161665409803391e-01" nType="-99"/>
          <Node pos="r" depth="2" NCoef="0" IVar="-1" Cut="0.0000000000000000e+00" cType="1" res="1.4436033961828798e-04" rms="4.5359078049659729e-01" purity="4.2218390107154846e-01" nType="-99"/>
        </Node>
        <Node pos="r" depth="1" NCoef="0" IVar="1" Cut="2.5960073852539062e+02" cType="1" res="1.6957148909568787e-01" rms="4.1779962182044983e-01" purity="7.4636399745941162e-01" nType="0">
          <Node pos="l" depth="2" NCoef="0" IVar="-1" Cut="0.0000000000000000e+00" cType="1" res="3.2634934177622199e-04" rms="4.4092798233032227e-01" purity="7.0378822088241577e-01" nType="-99"/>
          <Node pos="r" depth="2" NCoef="0" IVar="-1" Cut="0.0000000000000000e+00" cType="1" res="4.3176708277314901e-04" rms="2.5660642981529236e-01" purity="9.2604899406433105e-01" nType="-99"/>
        </Node>
      </Node>
    </BinaryTree>
    <BinaryTree type="DecisionTree" boostWeight="1.0000000000000000e+00" itree="501">
      <Node pos="s" depth="0" NCoef="0" IVar="3" Cut="1.2480910301208496e+01" cType="1" res="5.4673515260219574e-02" rms="4.2770254611968994e-01" purity="4.9714076519012451e-01" nType="0">
        <Node pos="l" depth="1" NCoef="0" IVar="0" Cut="2.0076300948858261e-02" cType="1" res="-7.3014095425605774e-02" rms="3.9469552040100098e-01" purity="2.5569099187850952e-01" nType="0">
          <Node pos="l" depth="2" NCoef="0" IVar="-1" Cut="0.0000000000000000e+00" cType="1" res="3.1651808967581019e-05" rms="4.3931767344474792e-01" purity="3.6847931146621704e-01" nType="-99"/>
          <Node pos="r" depth="2" NCoef="0" IVar="-1" Cut="0.0000000000000000e+00" cType="1" res="-1.2276188936084509e-03" rms="3.4693464636802673e-01" purity="1.7240391671657562e-01" nType="-99"/>
        </Node>
        <Node pos="r" depth="1" NCoef="0" IVar="0" Cut="4.1265200823545456e-02" cType="1" res="1.5044628083705902e-01" rms="4.2648357152938843e-01" purity="6.7824143171310425e-01" nType="0">
          <Node pos="l" depth="2" NCoef="0" IVar="-1" Cut="0.0000000000000000e+00" cType="1" res="4.8470080946572125e-04" rms="3.5300904512405396e-01" purity="8.3960443735122681e-01" nType="-99"/>
          <Node pos="r" depth="2" NCoef="0" IVar="-1" Cut="0.0000000000000000e+00" cType="1" res="2.1941064915154129e-04" rms="4.4656580686569214e-01" purity="5.8903682231903076e-01" nType="-99"/>
        </Node>
      </Node>
    </BinaryTree>
    <BinaryTree type="DecisionTree" boostWeight="1.0000000000000000e+00" itree="502">
      <Node pos="s" depth="0" NCoef="0" IVar="2" Cut="6.1173269531250000e+04" cType="1" res="6.1396278440952301e-02" rms="4.2835488915443420e-01" purity="5.0389051437377930e-01" nType="0">
        <Node pos="l" depth="1" NCoef="0" IVar="1" Cut="7.1804023742675781e+01" cType="1" res="-6.8849255330860615e-03" rms="4.3209472298622131e-01" purity="3.6161276698112488e-01" nType="0">
          <Node pos="l" depth="2" NCoef="0" IVar="-1" Cut="0.0000000000000000e+00" cType="1" res="-8.3594414172694087e-04" rms="3.5145562887191772e-01" purity="1.5494975447654724e-01" nType="-99"/>
          <Node pos="r" depth="2" NCoef="0" IVar="-1" Cut="0.0000000000000000e+00" cType="1" res="1.6068962577264756e-04" rms="4.6465659141540527e-01" purity="4.8229247331619263e-01" nType="-99"/>
        </Node>
        <Node pos="r" depth="1" NCoef="0" IVar="1" Cut="2.1997988891601562e+02" cType="1" res="2.1367928385734558e-01" rms="3.7778687477111816e-01" purity="8.2120293378829956e-01" nType="0">
          <Node pos="l" depth="2" NCoef="0" IVar="-1" Cut="0.0000000000000000e+00" cType="1" res="3.2635315437801182e-04" rms="4.2038321495056152e-01" purity="7.6332396268844604e-01" nType="-99"/>
          <Node pos="r" depth="2" NCoef="0" IVar="-1" Cut="0.0000000000000000e+00" cType="1" res="4.7227513277903199e-04" rms="2.7119037508964539e-01" purity="9.1911810636520386e-01" nType="-99"/>
        </Node>
      </Node>
    </BinaryTree>
    <BinaryTree type="DecisionTree" boostWeight="1.0000000000000000e+00" itree="503">
      <Node pos="s" depth="0" NCoef="0" IVar="3" Cut="1.4930736541748047e+01" cType="1" res="5.1220029592514038e-02" rms="4.2791271209716797e-01" purity="4.9141412973403931e-01" nType="0">
        <Node pos="l" depth="1" NCoef="0" IVar="1" Cut="3.5509387969970703e+01" cType="1" res="-5.6949902325868607e-02" rms="4.0605729818344116e-01" purity="2.7095490694046021e-01" nType="0">
          <Node pos="l" depth="2" NCoef="0" IVar="-1" Cut="0.0000000000000000e+00" cType="1" res="-2.1352102048695087e-03" rms="3.0639439821243286e-01" purity="1.0538411885499954e-01" nType="-99"/>
          <Node pos="r" depth="2" NCoef="0" IVar="-1" Cut="0.0000000000000000e+00" cType="1" res="-8.9818662672769278e-05" rms="4.3526950478553772e-01" purity="3.3887794613838196e-01" nType="-99"/>
        </Node>
        <Node pos="r" depth="1" NCoef="0" IVar="0" Cut="4.1312772780656815e-02" cType="1" res="1.5057376027107239e-01" rms="4.2335832118988037e-01" purity="6.9390517473220825e-01" nType="0">
          <Node pos="l" depth="2" NCoef="0" IVar="-1" Cut="0.0000000000000000e+00" cType="1" res="5.3103704703971744e-04" rms="3.4120026230812073e-01" purity="8.5724067687988281e-01" nType="-99"/>
          <Node pos="r" depth="2" NCoef="0" IVar="-1" Cut="0.0000000000000000e+00" cType="1" res="2.2224163694772869e-04" rms="4.4493633508682251e-01" purity="6.0642755031585693e-01" nType="-99"/>
        </Node>
      </Node>
    </BinaryTree>
    <BinaryTree type="DecisionTree" boostWeight="1.0000000000000000e+00" itree="504">
      <Node pos="s" depth="0" NCoef="0" IVar="1" Cut="1.1806676483154297e+02" cType="1" res="5.6708581745624542e-02" rms="4.3037384748458862e-01" purity="4.9519979953765869e-01" nType="0">
        <Node pos="l" depth="1" NCoef="0" IVar="0" Cut="1.2566522695124149e-02" cType="1" res="-4.7029618173837662e-02" rms="4.0119469165802002e-01" purity="2.6054346561431885e-01" nType="0">
          <Node pos="l" depth="2" NCoef="0" IVar="-1" Cut="0.0000000000000000e+00" cType="1" res="1.0483145888429135e-04" rms="4.4931477308273315e-01" purity="3.8919028639793396e-01" nType="-99"/>
          <Node pos="r" depth="2" NCoef="0" IVar="-1" Cut="0.0000000000000000e+00" cType="1" res="-6.9726043147966266e-04" rms="3.7723591923713684e-01" purity="2.1695020794868469e-01" nType="-99"/>
        </Node>
        <Node pos="r" depth="1" NCoef="0" IVar="0" Cut="4.1265200823545456e-02" cType="1" res="1.4684386551380157e-01" rms="4.3454521894454956e-01" purity="6.9908624887466431e-01" nType="0">
          <Node pos="l" depth="2" NCoef="0" IVar="-1" Cut="0.0000000000000000e+00" cType="1" res="4.2618313455022871e-04" rms="3.9012715220451355e-01" purity="7.9373133182525635e-01" nType="-99"/>
          <Node pos="r" depth="2" NCoef="0" IVar="-1" Cut="0.0000000000000000e+00" cType="1" res="2.3980070545803756e-04" rms="4.5409965515136719e-01" purity="6.3074493408203125e-01" nType="-99"/>
        </Node>
      </Node>
    </BinaryTree>
    <BinaryTree type="DecisionTree" boostWeight="1.0000000000000000e+00" itree="505">
      <Node pos="s" depth="0" NCoef="0" IVar="1" Cut="1.3922813415527344e+02" cType="1" res="4.8634111881256104e-02" rms="4.2725116014480591e-01" purity="4.8935347795486450e-01" nType="0">
        <Node pos="l" depth="1" NCoef="0" IVar="1" Cut="5.2292049407958984e+01" cType="1" res="-4.2463999241590500e-02" rms="4.0859532356262207e-01" purity="2.8532683849334717e-01" nType="0">
          <Node pos="l" depth="2" NCoef="0" IVar="-1" Cut="0.0000000000000000e+00" cType="1" res="-2.4762901011854410e-03" rms="3.1781703233718872e-01" purity="1.1789444833993912e-01" nType="-99"/>
          <Node pos="r" depth="2" NCoef="0" IVar="-1" Cut="0.0000000000000000e+00" cType="1" res="2.2562693629879504e-05" rms="4.4276112318038940e-01" purity="3.7572926282882690e-01" nType="-99"/>
        </Node>
        <Node pos="r" depth="1" NCoef="0" IVar="1" Cut="2.5960382080078125e+02" cType="1" res="1.5805497765541077e-01" rms="4.2347645759582520e-01" purity="7.3441630601882935e-01" nType="0">
          <Node pos="l" depth="2" NCoef="0" IVar="-1" Cut="0.0000000000000000e+00" cType="1" res="3.2751107937656343e-04" rms="4.4307884573936462e-01" purity="6.9643348455429077e-01" nType="-99"/>
          <Node pos="r" depth="2" NCoef="0" IVar="-1" Cut="0.0000000000000000e+00" cType="1" res="3.9688131073489785e-04" rms="2.7126309275627136e-01" purity="9.1607332229614258e-01" nType="-99"/>
        </Node>
      </Node>
    </BinaryTree>
    <BinaryTree type="DecisionTree" boostWeight="1.0000000000000000e+00" itree="506">
      <Node pos="s" depth="0" NCoef="0" IVar="1" Cut="1.2484600830078125e+02" cType="1" res="6.3826397061347961e-02" rms="4.2436006665229797e-01" purity="5.0919681787490845e-01" nType="0">
        <Node pos="l" depth="1" NCoef="0" IVar="1" Cut="7.0823364257812500e+01" cType="1" res="-4.8353489488363266e-02" rms="3.9539557695388794e-01" purity="2.6953595876693726e-01" nType="0">
          <Node pos="l" depth="2" NCoef="0" IVar="-1" Cut="0.0000000000000000e+00" cType="1" res="-1.9133846508339047e-03" rms="3.1243878602981567e-01" purity="1.2195280194282532e-01" nType="-99"/>
          <Node pos="r" depth="2" NCoef="0" IVar="-1" Cut="0.0000000000000000e+00" cType="1" res="1.2805771257262677e-04" rms="4.5069599151611328e-01" purity="4.2202371358871460e-01" nType="-99"/>
        </Node>
        <Node pos="r" depth="1" NCoef="0" IVar="0" Cut="3.8821943104267120e-02" cType="1" res="1.6593666374683380e-01" rms="4.2404329776763916e-01" purity="7.2734498977661133e-01" nType="0">
          <Node pos="l" depth="2" NCoef="0" IVar="-1" Cut="0.0000000000000000e+00" cType="1" res="4.6475799172185361e-04" rms="3.6868798732757568e-01" purity="8.2336360216140747e-01" nType="-99"/>
          <Node pos="r" depth="2" NCoef="0" IVar="-1" Cut="0.0000000000000000e+00" cType="1" res="2.7519598370417953e-04" rms="4.4685077667236328e-01" purity="6.6789871454238892e-01" nType="-99"/>
        </Node>
      </Node>
    </BinaryTree>
    <BinaryTree type="DecisionTree" boostWeight="1.0000000000000000e+00" itree="507">
      <Node pos="s" depth="0" NCoef="0" IVar="2" Cut="4.4136394531250000e+04" cType="1" res="5.7688791304826736e-02" rms="4.2838418483734131e-01" purity="4.9750581383705139e-01" nType="0">
        <Node pos="l" depth="1" NCoef="0" IVar="0" Cut="2.4940703064203262e-02" cType="1" res="-2.0725341513752937e-02" rms="4.2153087258338928e-01" purity="3.2051444053649902e-01" nType="0">
          <Node pos="l" depth="2" NCoef="0" IVar="-1" Cut="0.0000000000000000e+00" cType="1" res="2.3166697064880282e-04" rms="4.5214736461639404e-01" purity="4.4050702452659607e-01" nType="-99"/>
          <Node pos="r" depth="2" NCoef="0" IVar="-1" Cut="0.0000000000000000e+00" cType="1" res="-6.7795964423567057e-04" rms="3.8472869992256165e-01" purity="2.2787259519100189e-01" nType="-99"/>
        </Node>
        <Node pos="r" depth="1" NCoef="0" IVar="0" Cut="3.8859125226736069e-02" cType="1" res="1.7245197296142578e-01" rms="4.1215068101882935e-01" purity="7.5654196739196777e-01" nType="0">
          <Node pos="l" depth="2" NCoef="0" IVar="-1" Cut="0.0000000000000000e+00" cType="1" res="5.2846228936687112e-04" rms="3.0039992928504944e-01" purity="8.9773577451705933e-01" nType="-99"/>
          <Node pos="r" depth="2" NCoef="0" IVar="-1" Cut="0.0000000000000000e+00" cType="1" res="2.9204317252151668e-04" rms="4.4303360581398010e-01" purity="6.9182765483856201e-01" nType="-99"/>
        </Node>
      </Node>
    </BinaryTree>
    <BinaryTree type="DecisionTree" boostWeight="1.0000000000000000e+00" itree="508">
      <Node pos="s" depth="0" NCoef="0" IVar="1" Cut="1.1890337371826172e+02" cType="1" res="5.6649848818778992e-02" rms="4.3005543947219849e-01" purity="4.9531957507133484e-01" nType="0">
        <Node pos="l" depth="1" NCoef="0" IVar="1" Cut="7.3180763244628906e+01" cType="1" res="-4.6670097857713699e-02" rms="3.9970186352729797e-01" purity="2.6237648725509644e-01" nType="0">
          <Node pos="l" depth="2" NCoef="0" IVar="-1" Cut="0.0000000000000000e+00" cType="1" res="-9.8533369600772858e-04" rms="3.4151631593704224e-01" purity="1.4995433390140533e-01" nType="-99"/>
          <Node pos="r" depth="2" NCoef="0" IVar="-1" Cut="0.0000000000000000e+00" cType="1" res="9.9378856248222291e-05" rms="4.5344308018684387e-01" purity="4.0698143839836121e-01" nType="-99"/>
        </Node>
        <Node pos="r" depth="1" NCoef="0" IVar="0" Cut="4.2733144015073776e-02" cType="1" res="1.4747239649295807e-01" rms="4.3526408076286316e-01" purity="7.0008623600006104e-01" nType="0">
          <Node pos="l" depth="2" NCoef="0" IVar="-1" Cut="0.0000000000000000e+00" cType="1" res="4.1652211803011596e-04" rms="3.8897848129272461e-01" purity="7.9412132501602173e-01" nType="-99"/>
          <Node pos="r" depth="2" NCoef="0" IVar="-1" Cut="0.0000000000000000e+00" cType="1" res="2.3150631750468165e-04" rms="4.5830714702606201e-01" purity="6.2413191795349121e-01" nType="-99"/>
        </Node>
      </Node>
    </BinaryTree>
    <BinaryTree type="DecisionTree" boostWeight="1.0000000000000000e+00" itree="509">
      <Node pos="s" depth="0" NCoef="0" IVar="2" Cut="6.6204593750000000e+04" cType="1" res="7.2255760431289673e-02" rms="4.2984777688980103e-01" purity="5.1441830396652222e-01" nType="0">
        <Node pos="l" depth="1" NCoef="0" IVar="0" Cut="5.0801903009414673e-02" cType="1" res="1.4869185164570808e-02" rms="4.3840602040290833e-01" purity="3.9396518468856812e-01" nType="0">
          <Node pos="l" depth="2" NCoef="0" IVar="-1" Cut="0.0000000000000000e+00" cType="1" res="2.0143290748819709e-04" rms="4.4808673858642578e-01" purity="4.5960804820060730e-01" nType="-99"/>
          <Node pos="r" depth="2" NCoef="0" IVar="-1" Cut="0.0000000000000000e+00" cType="1" res="-9.6848187968134880e-04" rms="3.7981408834457397e-01" purity="2.1653273701667786e-01" nType="-99"/>
        </Node>
        <Node pos="r" depth="1" NCoef="0" IVar="1" Cut="1.9695610046386719e+02" cType="1" res="2.2730466723442078e-01" rms="3.6298030614852905e-01" purity="8.3986252546310425e-01" nType="0">
          <Node pos="l" depth="2" NCoef="0" IVar="-1" Cut="0.0000000000000000e+00" cType="1" res="3.2601234852336347e-04" rms="4.0779608488082886e-01" purity="7.8335177898406982e-01" nType="-99"/>
          <Node pos="r" depth="2" NCoef="0" IVar="-1" Cut="0.0000000000000000e+00" cType="1" res="4.3062883196398616e-04" rms="3.0196335911750793e-01" purity="8.9736384153366089e-01" nType="-99"/>
        </Node>
      </Node>
    </BinaryTree>
    <BinaryTree type="DecisionTree" boostWeight="1.0000000000000000e+00" itree="510">
      <Node pos="s" depth="0" NCoef="0" IVar="2" Cut="5.4184500000000000e+04" cType="1" res="5.9709511697292328e-02" rms="4.2795759439468384e-01" purity="5.0207972526550293e-01" nType="0">
        <Node pos="l" depth="1" NCoef="0" IVar="1" Cut="6.6760757446289062e+01" cType="1" res="-1.6218444332480431e-02" rms="4.2861282825469971e-01" purity="3.3671838045120239e-01" nType="0">
          <Node pos="l" depth="2" NCoef="0" IVar="-1" Cut="0.0000000000000000e+00" cType="1" res="-1.3314113020896912e-03" rms="3.4617167711257935e-01" purity="1.4609766006469727e-01" nType="-99"/>
          <Node pos="r" depth="2" NCoef="0" IVar="-1" Cut="0.0000000000000000e+00" cType="1" res="1.3211210898589343e-04" rms="4.6362191438674927e-01" purity="4.5028242468833923e-01" nType="-99"/>
        </Node>
        <Node pos="r" depth="1" NCoef="0" IVar="1" Cut="2.1066026306152344e+02" cType="1" res="1.9531996548175812e-01" rms="3.9173781871795654e-01" purity="7.9742193222045898e-01" nType="0">
          <Node pos="l" depth="2" NCoef="0" IVar="-1" Cut="0.0000000000000000e+00" cType="1" res="3.0821579275652766e-04" rms="4.3276745080947876e-01" purity="7.3157757520675659e-01" nType="-99"/>
          <Node pos="r" depth="2" NCoef="0" IVar="-1" Cut="0.0000000000000000e+00" cType="1" res="4.3950713006779552e-04" rms="2.8660821914672852e-01" purity="9.0812063217163086e-01" nType="-99"/>
        </Node>
      </Node>
    </BinaryTree>
    <BinaryTree type="DecisionTree" boostWeight="1.0000000000000000e+00" itree="511">
      <Node pos="s" depth="0" NCoef="0" IVar="2" Cut="6.6204593750000000e+04" cType="1" res="6.2023982405662537e-02" rms="4.2875525355339050e-01" purity="5.0293183326721191e-01" nType="0">
        <Node pos="l" depth="1" NCoef="0" IVar="0" Cut="5.0266090780496597e-02" cType="1" res="5.4372460581362247e-03" rms="4.3405950069427490e-01" purity="3.8423523306846619e-01" nType="0">
          <Node pos="l" depth="2" NCoef="0" IVar="-1" Cut="0.0000000000000000e+00" cType="1" res="1.6772160597611219e-04" rms="4.4389948248863220e-01" purity="4.5106735825538635e-01" nType="-99"/>
          <Node pos="r" depth="2" NCoef="0" IVar="-1" Cut="0.0000000000000000e+00" cType="1" res="-1.2007459299638867e-03" rms="3.7752720713615417e-01" purity="2.0829641819000244e-01" nType="-99"/>
        </Node>
        <Node pos="r" depth="1" NCoef="0" IVar="1" Cut="2.2952496337890625e+02" cType="1" res="2.1838809549808502e-01" rms="3.7133115530014038e-01" purity="8.3092206716537476e-01" nType="0">
          <Node pos="l" depth="2" NCoef="0" IVar="-1" Cut="0.0000000000000000e+00" cType="1" res="3.6065024323761463e-04" rms="4.1939708590507507e-01" purity="7.6771259307861328e-01" nType="-99"/>
          <Node pos="r" depth="2" NCoef="0" IVar="-1" Cut="0.0000000000000000e+00" cType="1" res="3.7689911550842226e-04" rms="2.5845581293106079e-01" purity="9.2777049541473389e-01" nType="-99"/>
        </Node>
      </Node>
    </BinaryTree>
    <BinaryTree type="DecisionTree" boostWeight="1.0000000000000000e+00" itree="512">
      <Node pos="s" depth="0" NCoef="0" IVar="1" Cut="1.0547126770019531e+02" cType="1" res="5.9313889592885971e-02" rms="4.2692929506301880e-01" purity="5.0070303678512573e-01" nType="0">
        <Node pos="l" depth="1" NCoef="0" IVar="0" Cut="1.1499576270580292e-02" cType="1" res="-5.8431103825569153e-02" rms="3.9061737060546875e-01" purity="2.3491443693637848e-01" nType="0">
          <Node pos="l" depth="2" NCoef="0" IVar="-1" Cut="0.0000000000000000e+00" cType="1" res="2.4993121041916311e-04" rms="4.4782328605651855e-01" purity="3.9459884166717529e-01" nType="-99"/>
          <Node pos="r" depth="2" NCoef="0" IVar="-1" Cut="0.0000000000000000e+00" cType="1" res="-1.0355323320254683e-03" rms="3.5861289501190186e-01" purity="1.7906022071838379e-01" nType="-99"/>
        </Node>
        <Node pos="r" depth="1" NCoef="0" IVar="2" Cut="7.2246000000000000e+04" cType="1" res="1.4094538986682892e-01" rms="4.3194293975830078e-01" purity="6.8497180938720703e-01" nType="0">
          <Node pos="l" depth="2" NCoef="0" IVar="-1" Cut="0.0000000000000000e+00" cType="1" res="2.3150302877184004e-04" rms="4.6466866135597229e-01" purity="5.8623909950256348e-01" nType="-99"/>
          <Node pos="r" depth="2" NCoef="0" IVar="-1" Cut="0.0000000000000000e+00" cType="1" res="4.3836655095219612e-04" rms="3.4321519732475281e-01" purity="8.6066144704818726e-01" nType="-99"/>
        </Node>
      </Node>
    </BinaryTree>
    <BinaryTree type="DecisionTree" boostWeight="1.0000000000000000e+00" itree="513">
      <Node pos="s" depth="0" NCoef="0" IVar="3" Cut="1.4930736541748047e+01" cType="1" res="5.6134600192308426e-02" rms="4.2783072590827942e-01" purity="4.9545481801033020e-01" nType="0">
        <Node pos="l" depth="1" NCoef="0" IVar="0" Cut="2.0980533212423325e-02" cType="1" res="-5.0414565950632095e-02" rms="4.0610700845718384e-01" purity="2.7839702367782593e-01" nType="0">
          <Node pos="l" depth="2" NCoef="0" IVar="-1" Cut="0.0000000000000000e+00" cType="1" res="1.4554605877492577e-04" rms="4.4367793202400208e-01" purity="4.0252336859703064e-01" nType="-99"/>
          <Node pos="r" depth="2" NCoef="0" IVar="-1" Cut="0.0000000000000000e+00" cType="1" res="-1.0324508184567094e-03" rms="3.6410161852836609e-01" purity="1.8718743324279785e-01" nType="-99"/>
        </Node>
        <Node pos="r" depth="1" NCoef="0" IVar="0" Cut="4.2733144015073776e-02" cType="1" res="1.5568251907825470e-01" rms="4.2361351847648621e-01" purity="6.9824987649917603e-01" nType="0">
          <Node pos="l" depth="2" NCoef="0" IVar="-1" Cut="0.0000000000000000e+00" cType="1" res="5.5345491273328662e-04" rms="3.4872415661811829e-01" purity="8.4766465425491333e-01" nType="-99"/>
          <Node pos="r" depth="2" NCoef="0" IVar="-1" Cut="0.0000000000000000e+00" cType="1" res="2.3670436348766088e-04" rms="4.4721314311027527e-01" purity="6.1181396245956421e-01" nType="-99"/>
        </Node>
      </Node>
    </BinaryTree>
    <BinaryTree type="DecisionTree" boostWeight="1.0000000000000000e+00" itree="514">
      <Node pos="s" depth="0" NCoef="0" IVar="3" Cut="1.4930736541748047e+01" cType="1" res="6.8480283021926880e-02" rms="4.2905706167221069e-01" purity="5.1001840829849243e-01" nType="0">
        <Node pos="l" depth="1" NCoef="0" IVar="0" Cut="2.0067924633622169e-02" cType="1" res="-3.7859778851270676e-02" rms="4.1430374979972839e-01" purity="2.9044765233993530e-01" nType="0">
          <Node pos="l" depth="2" NCoef="0" IVar="-1" Cut="0.0000000000000000e+00" cType="1" res="1.8217311298940331e-04" rms="4.4639578461647034e-01" purity="4.1371604800224304e-01" nType="-99"/>
          <Node pos="r" depth="2" NCoef="0" IVar="-1" Cut="0.0000000000000000e+00" cType="1" res="-8.5493765072897077e-04" rms="3.7976336479187012e-01" purity="2.0536264777183533e-01" nType="-99"/>
        </Node>
        <Node pos="r" depth="1" NCoef="0" IVar="0" Cut="4.1265200823545456e-02" cType="1" res="1.6479234397411346e-01" rms="4.1933420300483704e-01" purity="7.0888340473175049e-01" nType="0">
          <Node pos="l" depth="2" NCoef="0" IVar="-1" Cut="0.0000000000000000e+00" cType="1" res="5.6800170568749309e-04" rms="3.4346917271614075e-01" purity="8.5542786121368408e-01" nType="-99"/>
          <Node pos="r" depth="2" NCoef="0" IVar="-1" Cut="0.0000000000000000e+00" cType="1" res="2.4311366723850369e-04" rms="4.4065013527870178e-01" purity="6.3793861865997314e-01" nType="-99"/>
        </Node>
      </Node>
    </BinaryTree>
    <BinaryTree type="DecisionTree" boostWeight="1.0000000000000000e+00" itree="515">
      <Node pos="s" depth="0" NCoef="0" IVar="3" Cut="1.3542619705200195e+01" cType="1" res="6.1794258654117584e-02" rms="4.2944410443305969e-01" purity="5.0128120183944702e-01" nType="0">
        <Node pos="l" depth="1" NCoef="0" IVar="0" Cut="1.2183989398181438e-02" cType="1" res="-3.9538800716400146e-02" rms="4.1142132878303528e-01" purity="2.8867927193641663e-01" nType="0">
          <Node pos="l" depth="2" NCoef="0" IVar="-1" Cut="0.0000000000000000e+00" cType="1" res="3.4515777952037752e-04" rms="4.4999921321868896e-01" purity="4.3024972081184387e-01" nType="-99"/>
          <Node pos="r" depth="2" NCoef="0" IVar="-1" Cut="0.0000000000000000e+00" cType="1" res="-4.7137192450463772e-04" rms="3.8696965575218201e-01" purity="2.3634189367294312e-01" nType="-99"/>
        </Node>
        <Node pos="r" depth="1" NCoef="0" IVar="0" Cut="4.2733144015073776e-02" cType="1" res="1.4933392405509949e-01" rms="4.2541772127151489e-01" purity="6.8494391441345215e-01" nType="0">
          <Node pos="l" depth="2" NCoef="0" IVar="-1" Cut="0.0000000000000000e+00" cType="1" res="5.1074393559247255e-04" rms="3.5455867648124695e-01" purity="8.3909881114959717e-01" nType="-99"/>
          <Node pos="r" depth="2" NCoef="0" IVar="-1" Cut="0.0000000000000000e+00" cType="1" res="2.3370832786895335e-04" rms="4.4648429751396179e-01" purity="5.9725606441497803e-01" nType="-99"/>
        </Node>
      </Node>
    </BinaryTree>
    <BinaryTree type="DecisionTree" boostWeight="1.0000000000000000e+00" itree="516">
      <Node pos="s" depth="0" NCoef="0" IVar="2" Cut="5.0693644531250000e+04" cType="1" res="4.5930638909339905e-02" rms="4.3034729361534119e-01" purity="4.8171824216842651e-01" nType="0">
        <Node pos="l" depth="1" NCoef="0" IVar="0" Cut="2.4975391104817390e-02" cType="1" res="-2.2148141637444496e-02" rms="4.2477357387542725e-01" purity="3.2503950595855713e-01" nType="0">
          <Node pos="l" depth="2" NCoef="0" IVar="-1" Cut="0.0000000000000000e+00" cType="1" res="1.3919961929786950e-04" rms="4.5071706175804138e-01" purity="4.3403849005699158e-01" nType="-99"/>
          <Node pos="r" depth="2" NCoef="0" IVar="-1" Cut="0.0000000000000000e+00" cType="1" res="-5.7823373936116695e-04" rms="3.9707392454147339e-01" purity="2.4772432446479797e-01" nType="-99"/>
        </Node>
        <Node pos="r" depth="1" NCoef="0" IVar="0" Cut="3.9873994886875153e-02" cType="1" res="1.6862088441848755e-01" rms="4.1277456283569336e-01" purity="7.6408165693283081e-01" nType="0">
          <Node pos="l" depth="2" NCoef="0" IVar="-1" Cut="0.0000000000000000e+00" cType="1" res="4.5098733971826732e-04" rms="3.0918380618095398e-01" purity="8.9261019229888916e-01" nType="-99"/>
          <Node pos="r" depth="2" NCoef="0" IVar="-1" Cut="0.0000000000000000e+00" cType="1" res="2.9039842775091529e-04" rms="4.4280764460563660e-01" purity="7.0379459857940674e-01" nType="-99"/>
        </Node>
      </Node>
    </BinaryTree>
    <BinaryTree type="DecisionTree" boostWeight="1.0000000000000000e+00" itree="517">
      <Node pos="s" depth="0" NCoef="0" IVar="2" Cut="6.1173269531250000e+04" cType="1" res="5.7894535362720490e-02" rms="4.2617645859718323e-01" purity="5.0017672777175903e-01" nType="0">
        <Node pos="l" depth="1" NCoef="0" IVar="0" Cut="3.7699569016695023e-02" cType="1" res="-7.3145041242241859e-03" rms="4.2840626835823059e-01" purity="3.6159712076187134e-01" nType="0">
          <Node pos="l" depth="2" NCoef="0" IVar="-1" Cut="0.0000000000000000e+00" cType="1" res="1.7225992633029819e-04" rms="4.4609725475311279e-01" purity="4.6171632409095764e-01" nType="-99"/>
          <Node pos="r" depth="2" NCoef="0" IVar="-1" Cut="0.0000000000000000e+00" cType="1" res="-1.0247041936963797e-03" rms="3.8030835986137390e-01" purity="2.1196883916854858e-01" nType="-99"/>
        </Node>
        <Node pos="r" depth="1" NCoef="0" IVar="1" Cut="2.3999024963378906e+02" cType="1" res="2.0677548646926880e-01" rms="3.8131591677665710e-01" purity="8.1657248735427856e-01" nType="0">
          <Node pos="l" depth="2" NCoef="0" IVar="-1" Cut="0.0000000000000000e+00" cType="1" res="4.0834204992279410e-04" rms="4.1849893331527710e-01" purity="7.6555287837982178e-01" nType="-99"/>
          <Node pos="r" depth="2" NCoef="0" IVar="-1" Cut="0.0000000000000000e+00" cType="1" res="4.7238272964023054e-04" rms="2.5323128700256348e-01" purity="9.3081790208816528e-01" nType="-99"/>
        </Node>
      </Node>
    </BinaryTree>
    <BinaryTree type="DecisionTree" boostWeight="1.0000000000000000e+00" itree="518">
      <Node pos="s" depth="0" NCoef="0" IVar="2" Cut="5.4184500000000000e+04" cType="1" res="4.8011723905801773e-02" rms="4.2640322446823120e-01" purity="4.8821040987968445e-01" nType="0">
        <Node pos="l" depth="1" NCoef="0" IVar="1" Cut="1.1790930938720703e+02" cType="1" res="-2.7423830702900887e-02" rms="4.2231586575508118e-01" purity="3.2459864020347595e-01" nType="0">
          <Node pos="l" depth="2" NCoef="0" IVar="-1" Cut="0.0000000000000000e+00" cType="1" res="-5.2501237951219082e-04" rms="3.8722553849220276e-01" purity="2.3000703752040863e-01" nType="-99"/>
          <Node pos="r" depth="2" NCoef="0" IVar="-1" Cut="0.0000000000000000e+00" cType="1" res="1.6162027895916253e-04" rms="4.7868594527244568e-01" purity="5.4015022516250610e-01" nType="-99"/>
        </Node>
        <Node pos="r" depth="1" NCoef="0" IVar="1" Cut="2.4078350830078125e+02" cType="1" res="1.8676529824733734e-01" rms="3.9809677004814148e-01" purity="7.8915244340896606e-01" nType="0">
          <Node pos="l" depth="2" NCoef="0" IVar="-1" Cut="0.0000000000000000e+00" cType="1" res="2.8109244885854423e-04" rms="4.3050864338874817e-01" purity="7.3806983232498169e-01" nType="-99"/>
          <Node pos="r" depth="2" NCoef="0" IVar="-1" Cut="0.0000000000000000e+00" cType="1" res="5.8419641572982073e-04" rms="2.6317492127418518e-01" purity="9.2432814836502075e-01" nType="-99"/>
        </Node>
      </Node>
    </BinaryTree>
    <BinaryTree type="DecisionTree" boostWeight="1.0000000000000000e+00" itree="519">
      <Node pos="s" depth="0" NCoef="0" IVar="2" Cut="7.1768554687500000e+04" cType="1" res="5.8718770742416382e-02" rms="4.2920917272567749e-01" purity="4.9800178408622742e-01" nType="0">
        <Node pos="l" depth="1" NCoef="0" IVar="0" Cut="5.0801903009414673e-02" cType="1" res="1.1958073824644089e-02" rms="4.3544179201126099e-01" purity="4.0348553657531738e-01" nType="0">
          <Node pos="l" depth="2" NCoef="0" IVar="-1" Cut="0.0000000000000000e+00" cType="1" res="2.5960933999158442e-04" rms="4.4337308406829834e-01" purity="4.7067299485206604e-01" nType="-99"/>
          <Node pos="r" depth="2" NCoef="0" IVar="-1" Cut="0.0000000000000000e+00" cType="1" res="-1.1492996709421277e-03" rms="3.8036805391311646e-01" purity="2.2949753701686859e-01" nType="-99"/>
        </Node>
        <Node pos="r" depth="1" NCoef="0" IVar="1" Cut="2.3288417053222656e+02" cType="1" res="2.3256956040859222e-01" rms="3.5472702980041504e-01" purity="8.4940236806869507e-01" nType="0">
          <Node pos="l" depth="2" NCoef="0" IVar="-1" Cut="0.0000000000000000e+00" cType="1" res="3.9976410334929824e-04" rms="4.0597316622734070e-01" purity="7.8826451301574707e-01" nType="-99"/>
          <Node pos="r" depth="2" NCoef="0" IVar="-1" Cut="0.0000000000000000e+00" cType="1" res="6.3317810418084264e-04" rms="2.5618734955787659e-01" purity="9.2919397354125977e-01" nType="-99"/>
        </Node>
      </Node>
    </BinaryTree>
    <BinaryTree type="DecisionTree" boostWeight="1.0000000000000000e+00" itree="520">
      <Node pos="s" depth="0" NCoef="0" IVar="2" Cut="6.6204593750000000e+04" cType="1" res="7.2959460318088531e-02" rms="4.3252247571945190e-01" purity="5.1228201389312744e-01" nType="0">
        <Node pos="l" depth="1" NCoef="0" IVar="0" Cut="3.7522803992033005e-02" cType="1" res="2.0701410248875618e-02" rms="4.4179874658584595e-01" purity="3.9722117781639099e-01" nType="0">
          <Node pos="l" depth="2" NCoef="0" IVar="-1" Cut="0.0000000000000000e+00" cType="1" res="1.5472220547962934e-04" rms="4.5630234479904175e-01" purity="4.9129095673561096e-01" nType="-99"/>
          <Node pos="r" depth="2" NCoef="0" IVar="-1" Cut="0.0000000000000000e+00" cType="1" res="-5.7158520212396979e-04" rms="4.0165370702743530e-01" purity="2.6407307386398315e-01" nType="-99"/>
        </Node>
        <Node pos="r" depth="1" NCoef="0" IVar="1" Cut="2.2952496337890625e+02" cType="1" res="2.1915309131145477e-01" rms="3.6793226003646851e-01" purity="8.3416843414306641e-01" nType="0">
          <Node pos="l" depth="2" NCoef="0" IVar="-1" Cut="0.0000000000000000e+00" cType="1" res="3.4224157570861280e-04" rms="4.1512927412986755e-01" purity="7.7300947904586792e-01" nType="-99"/>
          <Node pos="r" depth="2" NCoef="0" IVar="-1" Cut="0.0000000000000000e+00" cType="1" res="5.0310767255723476e-04" rms="2.5749263167381287e-01" purity="9.2833232879638672e-01" nType="-99"/>
        </Node>
      </Node>
    </BinaryTree>
    <BinaryTree type="DecisionTree" boostWeight="1.0000000000000000e+00" itree="521">
      <Node pos="s" depth="0" NCoef="0" IVar="3" Cut="2.3991142272949219e+01" cType="1" res="5.8764442801475525e-02" rms="4.2982655763626099e-01" purity="4.9823674559593201e-01" nType="0">
        <Node pos="l" depth="1" NCoef="0" IVar="0" Cut="6.0443855822086334e-02" cType="1" res="-1.7174897715449333e-02" rms="4.2647391557693481e-01" purity="3.2727736234664917e-01" nType="0">
          <Node pos="l" depth="2" NCoef="0" IVar="-1" Cut="0.0000000000000000e+00" cType="1" res="2.8522725187940523e-05" rms="4.4036513566970825e-01" purity="3.6818155646324158e-01" nType="-99"/>
          <Node pos="r" depth="2" NCoef="0" IVar="-1" Cut="0.0000000000000000e+00" cType="1" res="-2.8449611272662878e-03" rms="3.0622842907905579e-01" purity="1.0663294047117233e-01" nType="-99"/>
        </Node>
        <Node pos="r" depth="1" NCoef="0" IVar="0" Cut="4.2733144015073776e-02" cType="1" res="1.7185844480991364e-01" rms="4.0944823622703552e-01" purity="7.5284105539321899e-01" nType="0">
          <Node pos="l" depth="2" NCoef="0" IVar="-1" Cut="0.0000000000000000e+00" cType="1" res="5.1623588660731912e-04" rms="3.0356490612030029e-01" purity="8.9412891864776611e-01" nType="-99"/>
          <Node pos="r" depth="2" NCoef="0" IVar="-1" Cut="0.0000000000000000e+00" cType="1" res="2.8758784173987806e-04" rms="4.4612213969230652e-01" purity="6.6806274652481079e-01" nType="-99"/>
        </Node>
      </Node>
    </BinaryTree>
    <BinaryTree type="DecisionTree" boostWeight="1.0000000000000000e+00" itree="522">
      <Node pos="s" depth="0" NCoef="0" IVar="1" Cut="1.3922813415527344e+02" cType="1" res="5.6432362645864487e-02" rms="4.2806395888328552e-01" purity="4.9704328179359436e-01" nType="0">
        <Node pos="l" depth="1" NCoef="0" IVar="0" Cut="3.8617823272943497e-02" cType="1" res="-2.8745584189891815e-02" rms="4.1451352834701538e-01" purity="2.9655495285987854e-01" nType="0">
          <Node pos="l" depth="2" NCoef="0" IVar="-1" Cut="0.0000000000000000e+00" cType="1" res="7.2586612077429891e-05" rms="4.4933727383613586e-01" purity="3.9010557532310486e-01" nType="-99"/>
          <Node pos="r" depth="2" NCoef="0" IVar="-1" Cut="0.0000000000000000e+00" cType="1" res="-1.9582668319344521e-03" rms="3.2672217488288879e-01" purity="1.3617466390132904e-01" nType="-99"/>
        </Node>
        <Node pos="r" depth="1" NCoef="0" IVar="1" Cut="2.5960180664062500e+02" cType="1" res="1.5846630930900574e-01" rms="4.2167934775352478e-01" purity="7.3720657825469971e-01" nType="0">
          <Node pos="l" depth="2" NCoef="0" IVar="-1" Cut="0.0000000000000000e+00" cType="1" res="2.8065557125955820e-04" rms="4.4321772456169128e-01" purity="6.9578367471694946e-01" nType="-99"/>
          <Node pos="r" depth="2" NCoef="0" IVar="-1" Cut="0.0000000000000000e+00" cType="1" res="4.3624031241051853e-04" rms="2.6364326477050781e-01" purity="9.2110973596572876e-01" nType="-99"/>
        </Node>
      </Node>
    </BinaryTree>
    <BinaryTree type="DecisionTree" boostWeight="1.0000000000000000e+00" itree="523">
      <Node pos="s" depth="0" NCoef="0" IVar="3" Cut="1.4930736541748047e+01" cType="1" res="5.3799714893102646e-02" rms="4.2636838555335999e-01" purity="4.9513259530067444e-01" nType="0">
        <Node pos="l" depth="1" NCoef="0" IVar="0" Cut="2.0980533212423325e-02" cType="1" res="-4.9559965729713440e-02" rms="4.0598881244659424e-01" purity="2.7855622768402100e-01" nType="0">
          <Node pos="l" depth="2" NCoef="0" IVar="-1" Cut="0.0000000000000000e+00" cType="1" res="1.6219272220041603e-04" rms="4.4436550140380859e-01" purity="4.0944859385490417e-01" nType="-99"/>
          <Node pos="r" depth="2" NCoef="0" IVar="-1" Cut="0.0000000000000000e+00" cType="1" res="-1.3808304211124778e-03" rms="3.6035895347595215e-01" purity="1.8076109886169434e-01" nType="-99"/>
        </Node>
        <Node pos="r" depth="1" NCoef="0" IVar="0" Cut="3.9660222828388214e-02" cType="1" res="1.4872881770133972e-01" rms="4.2254716157913208e-01" purity="6.9404387474060059e-01" nType="0">
          <Node pos="l" depth="2" NCoef="0" IVar="-1" Cut="0.0000000000000000e+00" cType="1" res="5.6506413966417313e-04" rms="3.3282318711280823e-01" purity="8.6577898263931274e-01" nType="-99"/>
          <Node pos="r" depth="2" NCoef="0" IVar="-1" Cut="0.0000000000000000e+00" cType="1" res="2.4144770577549934e-04" rms="4.4494768977165222e-01" purity="6.0918354988098145e-01" nType="-99"/>
        </Node>
      </Node>
    </BinaryTree>
    <BinaryTree type="DecisionTree" boostWeight="1.0000000000000000e+00" itree="524">
      <Node pos="s" depth="0" NCoef="0" IVar="1" Cut="1.3828833007812500e+02" cType="1" res="7.1104422211647034e-02" rms="4.3344548344612122e-01" purity="5.0826609134674072e-01" nType="0">
        <Node pos="l" depth="1" NCoef="0" IVar="0" Cut="5.1490433514118195e-02" cType="1" res="-3.7554905284196138e-03" rms="4.2807394266128540e-01" purity="3.1960493326187134e-01" nType="0">
          <Node pos="l" depth="2" NCoef="0" IVar="-1" Cut="0.0000000000000000e+00" cType="1" res="1.0603992268443108e-04" rms="4.4867533445358276e-01" purity="3.7992125749588013e-01" nType="-99"/>
          <Node pos="r" depth="2" NCoef="0" IVar="-1" Cut="0.0000000000000000e+00" cType="1" res="-1.8928735516965389e-03" rms="3.2817423343658447e-01" purity="1.2914653122425079e-01" nType="-99"/>
        </Node>
        <Node pos="r" depth="1" NCoef="0" IVar="0" Cut="3.9660222828388214e-02" cType="1" res="1.6265062987804413e-01" rms="4.2225626111030579e-01" purity="7.3897981643676758e-01" nType="0">
          <Node pos="l" depth="2" NCoef="0" IVar="-1" Cut="0.0000000000000000e+00" cType="1" res="5.0326442578807473e-04" rms="3.6051869392395020e-01" purity="8.3504068851470947e-01" nType="-99"/>
          <Node pos="r" depth="2" NCoef="0" IVar="-1" Cut="0.0000000000000000e+00" cType="1" res="2.7848008903674781e-04" rms="4.4802969694137573e-01" purity="6.7743521928787231e-01" nType="-99"/>
        </Node>
      </Node>
    </BinaryTree>
    <BinaryTree type="DecisionTree" boostWeight="1.0000000000000000e+00" itree="525">
      <Node pos="s" depth="0" NCoef="0" IVar="3" Cut="1.4930736541748047e+01" cType="1" res="6.1389002948999405e-02" rms="4.2839032411575317e-01" purity="5.0203979015350342e-01" nType="0">
        <Node pos="l" depth="1" NCoef="0" IVar="1" Cut="3.5473712921142578e+01" cType="1" res="-3.2278269529342651e-02" rms="4.1379597783088684e-01" purity="2.9851278662681580e-01" nType="0">
          <Node pos="l" depth="2" NCoef="0" IVar="-1" Cut="0.0000000000000000e+00" cType="1" res="-2.8259293176233768e-03" rms="3.0624625086784363e-01" purity="1.0709467530250549e-01" nType="-99"/>
          <Node pos="r" depth="2" NCoef="0" IVar="-1" Cut="0.0000000000000000e+00" cType="1" res="3.5526059946278110e-05" rms="4.4184911251068115e-01" purity="3.7397772073745728e-01" nType="-99"/>
        </Node>
        <Node pos="r" depth="1" NCoef="0" IVar="0" Cut="3.8859125226736069e-02" cType="1" res="1.5033327043056488e-01" rms="4.2302179336547852e-01" purity="6.9530421495437622e-01" nType="0">
          <Node pos="l" depth="2" NCoef="0" IVar="-1" Cut="0.0000000000000000e+00" cType="1" res="6.2366289785131812e-04" rms="3.3491575717926025e-01" purity="8.6487144231796265e-01" nType="-99"/>
          <Node pos="r" depth="2" NCoef="0" IVar="-1" Cut="0.0000000000000000e+00" cType="1" res="2.4739032960496843e-04" rms="4.4398224353790283e-01" purity="6.1798191070556641e-01" nType="-99"/>
        </Node>
      </Node>
    </BinaryTree>
    <BinaryTree type="DecisionTree" boostWeight="1.0000000000000000e+00" itree="526">
      <Node pos="s" depth="0" NCoef="0" IVar="3" Cut="1.3542619705200195e+01" cType="1" res="5.0915095955133438e-02" rms="4.2716079950332642e-01" purity="4.9018570780754089e-01" nType="0">
        <Node pos="l" depth="1" NCoef="0" IVar="0" Cut="1.2183989398181438e-02" cType="1" res="-5.4576285183429718e-02" rms="4.0239250659942627e-01" purity="2.7187135815620422e-01" nType="0">
          <Node pos="l" depth="2" NCoef="0" IVar="-1" Cut="0.0000000000000000e+00" cType="1" res="3.0120692099444568e-04" rms="4.4066810607910156e-01" purity="4.2562428116798401e-01" nType="-99"/>
          <Node pos="r" depth="2" NCoef="0" IVar="-1" Cut="0.0000000000000000e+00" cType="1" res="-8.0114335287362337e-04" rms="3.7664434313774109e-01" purity="2.1413621306419373e-01" nType="-99"/>
        </Node>
        <Node pos="r" depth="1" NCoef="0" IVar="0" Cut="4.1265200823545456e-02" cType="1" res="1.4176389575004578e-01" rms="4.2699384689331055e-01" purity="6.7819720506668091e-01" nType="0">
          <Node pos="l" depth="2" NCoef="0" IVar="-1" Cut="0.0000000000000000e+00" cType="1" res="5.4394023027271032e-04" rms="3.5157501697540283e-01" purity="8.4297680854797363e-01" nType="-99"/>
          <Node pos="r" depth="2" NCoef="0" IVar="-1" Cut="0.0000000000000000e+00" cType="1" res="2.3634832177776843e-04" rms="4.4727826118469238e-01" purity="5.9058374166488647e-01" nType="-99"/>
        </Node>
      </Node>
    </BinaryTree>
    <BinaryTree type="DecisionTree" boostWeight="1.0000000000000000e+00" itree="527">
      <Node pos="s" depth="0" NCoef="0" IVar="3" Cut="1.3542619705200195e+01" cType="1" res="5.9477638453245163e-02" rms="4.2922395467758179e-01" purity="4.9785292148590088e-01" nType="0">
        <Node pos="l" depth="1" NCoef="0" IVar="0" Cut="2.2131901234388351e-02" cType="1" res="-4.4338569045066833e-02" rms="4.1175812482833862e-01" purity="2.7825772762298584e-01" nType="0">
          <Node pos="l" depth="2" NCoef="0" IVar="-1" Cut="0.0000000000000000e+00" cType="1" res="7.7987504482734948e-05" rms="4.5348295569419861e-01" purity="3.9478692412376404e-01" nType="-99"/>
          <Node pos="r" depth="2" NCoef="0" IVar="-1" Cut="0.0000000000000000e+00" cType="1" res="-1.0903764050453901e-03" rms="3.5991331934928894e-01" purity="1.7997372150421143e-01" nType="-99"/>
        </Node>
        <Node pos="r" depth="1" NCoef="0" IVar="0" Cut="4.1265200823545456e-02" cType="1" res="1.4812338352203369e-01" rms="4.2392727732658386e-01" purity="6.8535906076431274e-01" nType="0">
          <Node pos="l" depth="2" NCoef="0" IVar="-1" Cut="0.0000000000000000e+00" cType="1" res="4.9514201236888766e-04" rms="3.4358540177345276e-01" purity="8.5334581136703491e-01" nType="-99"/>
          <Node pos="r" depth="2" NCoef="0" IVar="-1" Cut="0.0000000000000000e+00" cType="1" res="2.0613706146832556e-04" rms="4.4543135166168213e-01" purity="5.9086447954177856e-01" nType="-99"/>
        </Node>
      </Node>
    </BinaryTree>
    <BinaryTree type="DecisionTree" boostWeight="1.0000000000000000e+00" itree="528">
      <Node pos="s" depth="0" NCoef="0" IVar="2" Cut="3.4136656250000000e+04" cType="1" res="5.8867484331130981e-02" rms="4.2779576778411865e-01" purity="4.9791851639747620e-01" nType="0">
        <Node pos="l" depth="1" NCoef="0" IVar="0" Cut="1.2183989398181438e-02" cType="1" res="-3.1115679070353508e-02" rms="4.1308268904685974e-01" purity="2.9754915833473206e-01" nType="0">
          <Node pos="l" depth="2" NCoef="0" IVar="-1" Cut="0.0000000000000000e+00" cType="1" res="3.2312530674971640e-04" rms="4.4375756382942200e-01" purity="4.5177146792411804e-01" nType="-99"/>
          <Node pos="r" depth="2" NCoef="0" IVar="-1" Cut="0.0000000000000000e+00" cType="1" res="-5.9721304569393396e-04" rms="3.9354938268661499e-01" purity="2.4535815417766571e-01" nType="-99"/>
        </Node>
        <Node pos="r" depth="1" NCoef="0" IVar="0" Cut="4.2733144015073776e-02" cType="1" res="1.5750172734260559e-01" rms="4.2186072468757629e-01" purity="7.1755158901214600e-01" nType="0">
          <Node pos="l" depth="2" NCoef="0" IVar="-1" Cut="0.0000000000000000e+00" cType="1" res="5.4323137737810612e-04" rms="3.2918310165405273e-01" purity="8.6807531118392944e-01" nType="-99"/>
          <Node pos="r" depth="2" NCoef="0" IVar="-1" Cut="0.0000000000000000e+00" cType="1" res="2.3887286079116166e-04" rms="4.5466044545173645e-01" purity="6.2286287546157837e-01" nType="-99"/>
        </Node>
      </Node>
    </BinaryTree>
    <BinaryTree type="DecisionTree" boostWeight="1.0000000000000000e+00" itree="529">
      <Node pos="s" depth="0" NCoef="0" IVar="3" Cut="1.4930736541748047e+01" cType="1" res="6.6921845078468323e-02" rms="4.2917981743812561e-01" purity="5.0703746080398560e-01" nType="0">
        <Node pos="l" depth="1" NCoef="0" IVar="0" Cut="3.3197853714227676e-02" cType="1" res="-3.5969298332929611e-02" rms="4.1470506787300110e-01" purity="2.8833141922950745e-01" nType="0">
          <Node pos="l" depth="2" NCoef="0" IVar="-1" Cut="0.0000000000000000e+00" cType="1" res="6.6884211264550686e-05" rms="4.5394754409790039e-01" purity="3.8467672467231750e-01" nType="-99"/>
          <Node pos="r" depth="2" NCoef="0" IVar="-1" Cut="0.0000000000000000e+00" cType="1" res="-1.9505496602505445e-03" rms="3.1466874480247498e-01" purity="1.2187597900629044e-01" nType="-99"/>
        </Node>
        <Node pos="r" depth="1" NCoef="0" IVar="0" Cut="4.2733144015073776e-02" cType="1" res="1.6057945787906647e-01" rms="4.2060178518295288e-01" purity="7.0611667633056641e-01" nType="0">
          <Node pos="l" depth="2" NCoef="0" IVar="-1" Cut="0.0000000000000000e+00" cType="1" res="5.4498005192726851e-04" rms="3.4343662858009338e-01" purity="8.5445374250411987e-01" nType="-99"/>
          <Node pos="r" depth="2" NCoef="0" IVar="-1" Cut="0.0000000000000000e+00" cType="1" res="2.3504861746914685e-04" rms="4.4517454504966736e-01" purity="6.2016266584396362e-01" nType="-99"/>
        </Node>
      </Node>
    </BinaryTree>
    <BinaryTree type="DecisionTree" boostWeight="1.0000000000000000e+00" itree="530">
      <Node pos="s" depth="0" NCoef="0" IVar="2" Cut="6.6204593750000000e+04" cType="1" res="7.3065400123596191e-02" rms="4.3128725886344910e-01" purity="5.1147109270095825e-01" nType="0">
        <Node pos="l" depth="1" NCoef="0" IVar="0" Cut="3.8101427257061005e-02" cType="1" res="2.7885291725397110e-02" rms="4.3910211324691772e-01" purity="4.0711137652397156e-01" nType="0">
          <Node pos="l" depth="2" NCoef="0" IVar="-1" Cut="0.0000000000000000e+00" cType="1" res="2.1216321329120547e-04" rms="4.5100691914558411e-01" purity="5.0374960899353027e-01" nType="-99"/>
          <Node pos="r" depth="2" NCoef="0" IVar="-1" Cut="0.0000000000000000e+00" cType="1" res="-4.5056620729155838e-04" rms="3.9938157796859741e-01" purity="2.6132440567016602e-01" nType="-99"/>
        </Node>
        <Node pos="r" depth="1" NCoef="0" IVar="1" Cut="2.0048472595214844e+02" cType="1" res="2.0904186367988586e-01" rms="3.7537190318107605e-01" purity="8.2555752992630005e-01" nType="0">
          <Node pos="l" depth="2" NCoef="0" IVar="-1" Cut="0.0000000000000000e+00" cType="1" res="3.7507686647586524e-04" rms="4.2795029282569885e-01" purity="7.5157868862152100e-01" nType="-99"/>
          <Node pos="r" depth="2" NCoef="0" IVar="-1" Cut="0.0000000000000000e+00" cType="1" res="4.9387640319764614e-04" rms="3.0004081130027771e-01" purity="8.9873439073562622e-01" nType="-99"/>
        </Node>
      </Node>
    </BinaryTree>
    <BinaryTree type="DecisionTree" boostWeight="1.0000000000000000e+00" itree="531">
      <Node pos="s" depth="0" NCoef="0" IVar="2" Cut="4.0782179687500000e+04" cType="1" res="5.4723564535379410e-02" rms="4.2776423692703247e-01" purity="4.9375340342521667e-01" nType="0">
        <Node pos="l" depth="1" NCoef="0" IVar="0" Cut="2.2959232330322266e-02" cType="1" res="-2.7748050168156624e-02" rms="4.1825422644615173e-01" purity="3.0535936355590820e-01" nType="0">
          <Node pos="l" depth="2" NCoef="0" IVar="-1" Cut="0.0000000000000000e+00" cType="1" res="1.7338867473881692e-04" rms="4.4789645075798035e-01" purity="4.1898766160011292e-01" nType="-99"/>
          <Node pos="r" depth="2" NCoef="0" IVar="-1" Cut="0.0000000000000000e+00" cType="1" res="-6.4819038379937410e-04" rms="3.8838559389114380e-01" purity="2.2612434625625610e-01" nType="-99"/>
        </Node>
        <Node pos="r" depth="1" NCoef="0" IVar="0" Cut="4.2839553207159042e-02" cType="1" res="1.6353377699851990e-01" rms="4.1567289829254150e-01" purity="7.4231392145156860e-01" nType="0">
          <Node pos="l" depth="2" NCoef="0" IVar="-1" Cut="0.0000000000000000e+00" cType="1" res="6.0029246378690004e-04" rms="3.3249804377555847e-01" purity="8.6809611320495605e-01" nType="-99"/>
          <Node pos="r" depth="2" NCoef="0" IVar="-1" Cut="0.0000000000000000e+00" cType="1" res="2.5702739367261529e-04" rms="4.4374039769172668e-01" purity="6.7581456899642944e-01" nType="-99"/>
        </Node>
      </Node>
    </BinaryTree>
    <BinaryTree type="DecisionTree" boostWeight="1.0000000000000000e+00" itree="532">
      <Node pos="s" depth="0" NCoef="0" IVar="2" Cut="4.4136394531250000e+04" cType="1" res="6.6761776804924011e-02" rms="4.2979893088340759e-01" purity="5.0666815042495728e-01" nType="0">
        <Node pos="l" depth="1" NCoef="0" IVar="0" Cut="2.5400951504707336e-02" cType="1" res="-7.5291246175765991e-03" rms="4.2925304174423218e-01" purity="3.2823711633682251e-01" nType="0">
          <Node pos="l" depth="2" NCoef="0" IVar="-1" Cut="0.0000000000000000e+00" cType="1" res="1.3194599887356162e-04" rms="4.5360860228538513e-01" purity="4.3414792418479919e-01" nType="-99"/>
          <Node pos="r" depth="2" NCoef="0" IVar="-1" Cut="0.0000000000000000e+00" cType="1" res="-4.0436440031044185e-04" rms="4.0219390392303467e-01" purity="2.4543417990207672e-01" nType="-99"/>
        </Node>
        <Node pos="r" depth="1" NCoef="0" IVar="0" Cut="4.3547160923480988e-02" cType="1" res="1.7280161380767822e-01" rms="4.0776735544204712e-01" purity="7.6135343313217163e-01" nType="0">
          <Node pos="l" depth="2" NCoef="0" IVar="-1" Cut="0.0000000000000000e+00" cType="1" res="4.9397588009014726e-04" rms="3.1095770001411438e-01" purity="8.8799834251403809e-01" nType="-99"/>
          <Node pos="r" depth="2" NCoef="0" IVar="-1" Cut="0.0000000000000000e+00" cType="1" res="2.6238197460770607e-04" rms="4.4474059343338013e-01" purity="6.8115991353988647e-01" nType="-99"/>
        </Node>
      </Node>
    </BinaryTree>
    <BinaryTree type="DecisionTree" boostWeight="1.0000000000000000e+00" itree="533">
      <Node pos="s" depth="0" NCoef="0" IVar="2" Cut="5.3826414062500000e+04" cType="1" res="5.8487337082624435e-02" rms="4.2760607600212097e-01" purity="4.9927604198455811e-01" nType="0">
        <Node pos="l" depth="1" NCoef="0" IVar="1" Cut="3.8498767852783203e+01" cType="1" res="-1.4476791024208069e-02" rms="4.2799144983291626e-01" purity="3.3511766791343689e-01" nType="0">
          <Node pos="l" depth="2" NCoef="0" IVar="-1" Cut="0.0000000000000000e+00" cType="1" res="-1.6053856816142797e-03" rms="3.2094421982765198e-01" purity="1.1937978118658066e-01" nType="-99"/>
          <Node pos="r" depth="2" NCoef="0" IVar="-1" Cut="0.0000000000000000e+00" cType="1" res="7.7951212006155401e-05" rms="4.5007956027984619e-01" purity="4.0084400773048401e-01" nType="-99"/>
        </Node>
        <Node pos="r" depth="1" NCoef="0" IVar="0" Cut="4.1107896715402603e-02" cType="1" res="1.8940892815589905e-01" rms="3.9441379904747009e-01" purity="7.9383003711700439e-01" nType="0">
          <Node pos="l" depth="2" NCoef="0" IVar="-1" Cut="0.0000000000000000e+00" cType="1" res="6.5334810642525554e-04" rms="2.9247361421585083e-01" purity="9.0455818176269531e-01" nType="-99"/>
          <Node pos="r" depth="2" NCoef="0" IVar="-1" Cut="0.0000000000000000e+00" cType="1" res="3.1702080741524696e-04" rms="4.2891034483909607e-01" purity="7.3679703474044800e-01" nType="-99"/>
        </Node>
      </Node>
    </BinaryTree>
    <BinaryTree type="DecisionTree" boostWeight="1.0000000000000000e+00" itree="534">
      <Node pos="s" depth="0" NCoef="0" IVar="1" Cut="1.2503556823730469e+02" cType="1" res="7.0223145186901093e-02" rms="4.3040576577186584e-01" purity="5.0930809974670410e-01" nType="0">
        <Node pos="l" depth="1" NCoef="0" IVar="1" Cut="3.5020339965820312e+01" cType="1" res="-2.1381778642535210e-02" rms="4.1477343440055847e-01" purity="2.8880903124809265e-01" nType="0">
          <Node pos="l" depth="2" NCoef="0" IVar="-1" Cut="0.0000000000000000e+00" cType="1" res="-2.1521116141229868e-03" rms="3.3057886362075806e-01" purity="1.2462454289197922e-01" nType="-99"/>
          <Node pos="r" depth="2" NCoef="0" IVar="-1" Cut="0.0000000000000000e+00" cType="1" res="6.6232852987013757e-05" rms="4.3698588013648987e-01" purity="3.5193100571632385e-01" nType="-99"/>
        </Node>
        <Node pos="r" depth="1" NCoef="0" IVar="0" Cut="3.9251808077096939e-02" cType="1" res="1.5856260061264038e-01" rms="4.2672485113143921e-01" purity="7.2194707393646240e-01" nType="0">
          <Node pos="l" depth="2" NCoef="0" IVar="-1" Cut="0.0000000000000000e+00" cType="1" res="4.5125457108952105e-04" rms="3.7315386533737183e-01" purity="8.1850087642669678e-01" nType="-99"/>
          <Node pos="r" depth="2" NCoef="0" IVar="-1" Cut="0.0000000000000000e+00" cType="1" res="2.4357991060242057e-04" rms="4.4887426495552063e-01" purity="6.6053867340087891e-01" nType="-99"/>
        </Node>
      </Node>
    </BinaryTree>
    <BinaryTree type="DecisionTree" boostWeight="1.0000000000000000e+00" itree="535">
      <Node pos="s" depth="0" NCoef="0" IVar="3" Cut="1.2596701622009277e+01" cType="1" res="4.5343928039073944e-02" rms="4.2427486181259155e-01" purity="4.8599642515182495e-01" nType="0">
        <Node pos="l" depth="1" NCoef="0" IVar="0" Cut="1.0490266606211662e-02" cType="1" res="-6.8681992590427399e-02" rms="3.9516842365264893e-01" purity="2.5326290726661682e-01" nType="0">
          <Node pos="l" depth="2" NCoef="0" IVar="-1" Cut="0.0000000000000000e+00" cType="1" res="3.4619594225659966e-04" rms="4.4586262106895447e-01" purity="4.1490486264228821e-01" nType="-99"/>
          <Node pos="r" depth="2" NCoef="0" IVar="-1" Cut="0.0000000000000000e+00" cType="1" res="-1.0922118090093136e-03" rms="3.6677315831184387e-01" purity="2.0168918371200562e-01" nType="-99"/>
        </Node>
        <Node pos="r" depth="1" NCoef="0" IVar="0" Cut="4.1265200823545456e-02" cType="1" res="1.3456837832927704e-01" rms="4.2489707469940186e-01" purity="6.6810876131057739e-01" nType="0">
          <Node pos="l" depth="2" NCoef="0" IVar="-1" Cut="0.0000000000000000e+00" cType="1" res="4.5830357703380287e-04" rms="3.5135918855667114e-01" purity="8.3839350938796997e-01" nType="-99"/>
          <Node pos="r" depth="2" NCoef="0" IVar="-1" Cut="0.0000000000000000e+00" cType="1" res="1.6469928959850222e-04" rms="4.4431281089782715e-01" purity="5.7116329669952393e-01" nType="-99"/>
        </Node>
      </Node>
    </BinaryTree>
    <BinaryTree type="DecisionTree" boostWeight="1.0000000000000000e+00" itree="536">
      <Node pos="s" depth="0" NCoef="0" IVar="1" Cut="1.5836036682128906e+02" cType="1" res="6.1615105718374252e-02" rms="4.2653769254684448e-01" purity="5.0345885753631592e-01" nType="0">
        <Node pos="l" depth="1" NCoef="0" IVar="0" Cut="4.9881406128406525e-02" cType="1" res="-9.6957683563232422e-03" rms="4.2343679070472717e-01" purity="3.4522199630737305e-01" nType="0">
          <Node pos="l" depth="2" NCoef="0" IVar="-1" Cut="0.0000000000000000e+00" cType="1" res="1.4247352373786271e-04" rms="4.4016841053962708e-01" purity="4.1037562489509583e-01" nType="-99"/>
          <Node pos="r" depth="2" NCoef="0" IVar="-1" Cut="0.0000000000000000e+00" cType="1" res="-1.6758962301537395e-03" rms="3.4642830491065979e-01" purity="1.7021572589874268e-01" nType="-99"/>
        </Node>
        <Node pos="r" depth="1" NCoef="0" IVar="1" Cut="2.4954165649414062e+02" cType="1" res="1.8480966985225677e-01" rms="4.0314483642578125e-01" purity="7.7682423591613770e-01" nType="0">
          <Node pos="l" depth="2" NCoef="0" IVar="-1" Cut="0.0000000000000000e+00" cType="1" res="3.0238213366828859e-04" rms="4.3893447518348694e-01" purity="7.1938276290893555e-01" nType="-99"/>
          <Node pos="r" depth="2" NCoef="0" IVar="-1" Cut="0.0000000000000000e+00" cType="1" res="5.4948881734162569e-04" rms="2.5948730111122131e-01" purity="9.2283707857131958e-01" nType="-99"/>
        </Node>
      </Node>
    </BinaryTree>
    <BinaryTree type="DecisionTree" boostWeight="1.0000000000000000e+00" itree="537">
      <Node pos="s" depth="0" NCoef="0" IVar="2" Cut="4.4136394531250000e+04" cType="1" res="6.9092720746994019e-02" rms="4.3052512407302856e-01" purity="5.0846230983734131e-01" nType="0">
        <Node pos="l" depth="1" NCoef="0" IVar="0" Cut="2.5085821747779846e-02" cType="1" res="-2.3903683759272099e-03" rms="4.2916810512542725e-01" purity="3.3633980154991150e-01" nType="0">
          <Node pos="l" depth="2" NCoef="0" IVar="-1" Cut="0.0000000000000000e+00" cType="1" res="1.9719931879080832e-04" rms="4.5944905281066895e-01" purity="4.6545290946960449e-01" nType="-99"/>
          <Node pos="r" depth="2" NCoef="0" IVar="-1" Cut="0.0000000000000000e+00" cType="1" res="-6.4826657762750983e-04" rms="3.8673773407936096e-01" purity="2.2934092581272125e-01" nType="-99"/>
        </Node>
        <Node pos="r" depth="1" NCoef="0" IVar="1" Cut="2.3196244812011719e+02" cType="1" res="1.7373020946979523e-01" rms="4.1064673662185669e-01" purity="7.6041650772094727e-01" nType="0">
          <Node pos="l" depth="2" NCoef="0" IVar="-1" Cut="0.0000000000000000e+00" cType="1" res="3.2048346474766731e-04" rms="4.4291633367538452e-01" purity="7.0243769884109497e-01" nType="-99"/>
          <Node pos="r" depth="2" NCoef="0" IVar="-1" Cut="0.0000000000000000e+00" cType="1" res="4.8796308692544699e-04" rms="2.7354362607002258e-01" purity="9.1648602485656738e-01" nType="-99"/>
        </Node>
      </Node>
    </BinaryTree>
    <BinaryTree type="DecisionTree" boostWeight="1.0000000000000000e+00" itree="538">
      <Node pos="s" depth="0" NCoef="0" IVar="1" Cut="1.3177465820312500e+02" cType="1" res="5.5944241583347321e-02" rms="4.2640629410743713e-01" purity="4.9554464221000671e-01" nType="0">
        <Node pos="l" depth="1" NCoef="0" IVar="1" Cut="4.3267826080322266e+01" cType="1" res="-3.6337208002805710e-02" rms="4.0455809235572815e-01" purity="2.8094097971916199e-01" nType="0">
          <Node pos="l" depth="2" NCoef="0" IVar="-1" Cut="0.0000000000000000e+00" cType="1" res="-1.8916912376880646e-03" rms="3.1716471910476685e-01" purity="1.1394571512937546e-01" nType="-99"/>
          <Node pos="r" depth="2" NCoef="0" IVar="-1" Cut="0.0000000000000000e+00" cType="1" res="3.6568042560247704e-05" rms="4.3297091126441956e-01" purity="3.5999715328216553e-01" nType="-99"/>
        </Node>
        <Node pos="r" depth="1" NCoef="0" IVar="0" Cut="2.8488764539361000e-02" cType="1" res="1.5416091680526733e-01" rms="4.2712405323982239e-01" purity="7.2395086288452148e-01" nType="0">
          <Node pos="l" depth="2" NCoef="0" IVar="-1" Cut="0.0000000000000000e+00" cType="1" res="5.4452882613986731e-04" rms="3.3045798540115356e-01" purity="8.6578518152236938e-01" nType="-99"/>
          <Node pos="r" depth="2" NCoef="0" IVar="-1" Cut="0.0000000000000000e+00" cType="1" res="3.1646806746721268e-04" rms="4.4574615359306335e-01" purity="6.7800450325012207e-01" nType="-99"/>
        </Node>
      </Node>
    </BinaryTree>
    <BinaryTree type="DecisionTree" boostWeight="1.0000000000000000e+00" itree="539">
      <Node pos="s" depth="0" NCoef="0" IVar="2" Cut="5.3398167968750000e+04" cType="1" res="6.9672055542469025e-02" rms="4.2718830704689026e-01" purity="5.1222634315490723e-01" nType="0">
        <Node pos="l" depth="1" NCoef="0" IVar="0" Cut="3.8101427257061005e-02" cType="1" res="-3.3407367300242186e-04" rms="4.3115338683128357e-01" purity="3.5087576508522034e-01" nType="0">
          <Node pos="l" depth="2" NCoef="0" IVar="-1" Cut="0.0000000000000000e+00" cType="1" res="1.4724791981279850e-04" rms="4.5455792546272278e-01" purity="4.4684797525405884e-01" nType="-99"/>
          <Node pos="r" depth="2" NCoef="0" IVar="-1" Cut="0.0000000000000000e+00" cType="1" res="-9.5121894264593720e-04" rms="3.7405386567115784e-01" purity="1.9941759109497070e-01" nType="-99"/>
        </Node>
        <Node pos="r" depth="1" NCoef="0" IVar="0" Cut="4.2839553207159042e-02" cType="1" res="1.9404196739196777e-01" rms="3.9021661877632141e-01" purity="7.9887485504150391e-01" nType="0">
          <Node pos="l" depth="2" NCoef="0" IVar="-1" Cut="0.0000000000000000e+00" cType="1" res="5.3772574756294489e-04" rms="3.0124554038047791e-01" purity="8.9765900373458862e-01" nType="-99"/>
          <Node pos="r" depth="2" NCoef="0" IVar="-1" Cut="0.0000000000000000e+00" cType="1" res="3.2021367223933339e-04" rms="4.2469301819801331e-01" purity="7.4316561222076416e-01" nType="-99"/>
        </Node>
      </Node>
    </BinaryTree>
    <BinaryTree type="DecisionTree" boostWeight="1.0000000000000000e+00" itree="540">
      <Node pos="s" depth="0" NCoef="0" IVar="1" Cut="1.5836036682128906e+02" cType="1" res="6.7169480025768280e-02" rms="4.2966097593307495e-01" purity="5.0561463832855225e-01" nType="0">
        <Node pos="l" depth="1" NCoef="0" IVar="0" Cut="3.7282038480043411e-02" cType="1" res="6.4997505396604538e-03" rms="4.3035244941711426e-01" purity="3.6110386252403259e-01" nType="0">
          <Node pos="l" depth="2" NCoef="0" IVar="-1" Cut="0.0000000000000000e+00" cType="1" res="2.0001544908154756e-04" rms="4.5049622654914856e-01" purity="4.5855617523193359e-01" nType="-99"/>
          <Node pos="r" depth="2" NCoef="0" IVar="-1" Cut="0.0000000000000000e+00" cType="1" res="-8.0020469613373280e-04" rms="3.7966454029083252e-01" purity="2.1599037945270538e-01" nType="-99"/>
        </Node>
        <Node pos="r" depth="1" NCoef="0" IVar="1" Cut="2.4954165649414062e+02" cType="1" res="1.7875570058822632e-01" rms="4.0533122420310974e-01" purity="7.7140480279922485e-01" nType="0">
          <Node pos="l" depth="2" NCoef="0" IVar="-1" Cut="0.0000000000000000e+00" cType="1" res="3.6764782271347940e-04" rms="4.3410316109657288e-01" purity="7.2344404458999634e-01" nType="-99"/>
          <Node pos="r" depth="2" NCoef="0" IVar="-1" Cut="0.0000000000000000e+00" cType="1" res="4.0969610563479364e-04" rms="2.7702045440673828e-01" purity="9.1163748502731323e-01" nType="-99"/>
        </Node>
      </Node>
    </BinaryTree>
    <BinaryTree type="DecisionTree" boostWeight="1.0000000000000000e+00" itree="541">
      <Node pos="s" depth="0" NCoef="0" IVar="3" Cut="1.1949813842773438e+01" cType="1" res="6.0040738433599472e-02" rms="4.2418843507766724e-01" purity="5.0295031070709229e-01" nType="0">
        <Node pos="l" depth="1" NCoef="0" IVar="0" Cut="2.8527205809950829e-02" cType="1" res="-5.3933691233396530e-02" rms="3.9892873167991638e-01" purity="2.7003741264343262e-01" nType="0">
          <Node pos="l" depth="2" NCoef="0" IVar="-1" Cut="0.0000000000000000e+00" cType="1" res="3.8038142520235851e-05" rms="4.3903130292892456e-01" purity="3.7635785341262817e-01" nType="-99"/>
          <Node pos="r" depth="2" NCoef="0" IVar="-1" Cut="0.0000000000000000e+00" cType="1" res="-2.3695265408605337e-03" rms="3.0679941177368164e-01" purity="1.0999091714620590e-01" nType="-99"/>
        </Node>
        <Node pos="r" depth="1" NCoef="0" IVar="0" Cut="4.2733144015073776e-02" cType="1" res="1.4375880360603333e-01" rms="4.2267906665802002e-01" purity="6.7403280735015869e-01" nType="0">
          <Node pos="l" depth="2" NCoef="0" IVar="-1" Cut="0.0000000000000000e+00" cType="1" res="5.0095288315787911e-04" rms="3.6260953545570374e-01" purity="8.2556617259979248e-01" nType="-99"/>
          <Node pos="r" depth="2" NCoef="0" IVar="-1" Cut="0.0000000000000000e+00" cType="1" res="2.3161141143646091e-04" rms="4.3959566950798035e-01" purity="5.8571618795394897e-01" nType="-99"/>
        </Node>
      </Node>
    </BinaryTree>
    <BinaryTree type="DecisionTree" boostWeight="1.0000000000000000e+00" itree="542">
      <Node pos="s" depth="0" NCoef="0" IVar="1" Cut="1.3930560302734375e+02" cType="1" res="5.7231020182371140e-02" rms="4.2400249838829041e-01" purity="5.0015097856521606e-01" nType="0">
        <Node pos="l" depth="1" NCoef="0" IVar="0" Cut="3.8101427257061005e-02" cType="1" res="-3.0787095427513123e-02" rms="4.0831390023231506e-01" purity="2.9425373673439026e-01" nType="0">
          <Node pos="l" depth="2" NCoef="0" IVar="-1" Cut="0.0000000000000000e+00" cType="1" res="8.1113612395711243e-05" rms="4.4355785846710205e-01" purity="3.9134037494659424e-01" nType="-99"/>
          <Node pos="r" depth="2" NCoef="0" IVar="-1" Cut="0.0000000000000000e+00" cType="1" res="-1.7127358587458730e-03" rms="3.2173436880111694e-01" purity="1.3119615614414215e-01" nType="-99"/>
        </Node>
        <Node pos="r" depth="1" NCoef="0" IVar="1" Cut="2.5966711425781250e+02" cType="1" res="1.6059637069702148e-01" rms="4.1872471570968628e-01" purity="7.4194937944412231e-01" nType="0">
          <Node pos="l" depth="2" NCoef="0" IVar="-1" Cut="0.0000000000000000e+00" cType="1" res="2.9095675563439727e-04" rms="4.4202718138694763e-01" purity="6.9845157861709595e-01" nType="-99"/>
          <Node pos="r" depth="2" NCoef="0" IVar="-1" Cut="0.0000000000000000e+00" cType="1" res="4.4727249769493937e-04" rms="2.5409042835235596e-01" purity="9.2706304788589478e-01" nType="-99"/>
        </Node>
      </Node>
    </BinaryTree>
    <BinaryTree type="DecisionTree" boostWeight="1.0000000000000000e+00" itree="543">
      <Node pos="s" depth="0" NCoef="0" IVar="2" Cut="3.4482546875000000e+04" cType="1" res="6.4650818705558777e-02" rms="4.2586019635200500e-01" purity="5.0678080320358276e-01" nType="0">
        <Node pos="l" depth="1" NCoef="0" IVar="0" Cut="2.4177541956305504e-02" cType="1" res="-2.5573950260877609e-02" rms="4.1507729887962341e-01" purity="3.0260515213012695e-01" nType="0">
          <Node pos="l" depth="2" NCoef="0" IVar="-1" Cut="0.0000000000000000e+00" cType="1" res="1.7016132187563926e-04" rms="4.4564768671989441e-01" purity="4.2038637399673462e-01" nType="-99"/>
          <Node pos="r" depth="2" NCoef="0" IVar="-1" Cut="0.0000000000000000e+00" cType="1" res="-7.2597316466271877e-04" rms="3.7749379873275757e-01" purity="2.0312628149986267e-01" nType="-99"/>
        </Node>
        <Node pos="r" depth="1" NCoef="0" IVar="0" Cut="3.9660222828388214e-02" cType="1" res="1.6100117564201355e-01" rms="4.1600927710533142e-01" purity="7.2481852769851685e-01" nType="0">
          <Node pos="l" depth="2" NCoef="0" IVar="-1" Cut="0.0000000000000000e+00" cType="1" res="4.9904233310371637e-04" rms="3.1664431095123291e-01" purity="8.8177698850631714e-01" nType="-99"/>
          <Node pos="r" depth="2" NCoef="0" IVar="-1" Cut="0.0000000000000000e+00" cType="1" res="2.5017498410306871e-04" rms="4.4494715332984924e-01" purity="6.4321500062942505e-01" nType="-99"/>
        </Node>
      </Node>
    </BinaryTree>
    <BinaryTree type="DecisionTree" boostWeight="1.0000000000000000e+00" itree="544">
      <Node pos="s" depth="0" NCoef="0" IVar="3" Cut="2.5193403244018555e+01" cType="1" res="6.0329880565404892e-02" rms="4.2774000763893127e-01" purity="4.9992719292640686e-01" nType="0">
        <Node pos="l" depth="1" NCoef="0" IVar="0" Cut="4.8735957592725754e-02" cType="1" res="-1.1803940869867802e-02" rms="4.2271059751510620e-01" purity="3.3513277769088745e-01" nType="0">
          <Node pos="l" depth="2" NCoef="0" IVar="-1" Cut="0.0000000000000000e+00" cType="1" res="8.8663291535340250e-05" rms="4.4169223308563232e-01" purity="3.9933413267135620e-01" nType="-99"/>
          <Node pos="r" depth="2" NCoef="0" IVar="-1" Cut="0.0000000000000000e+00" cType="1" res="-1.5478840796276927e-03" rms="3.3938431739807129e-01" purity="1.4710302650928497e-01" nType="-99"/>
        </Node>
        <Node pos="r" depth="1" NCoef="0" IVar="1" Cut="2.0869271850585938e+02" cType="1" res="1.7325995862483978e-01" rms="4.1080236434936523e-01" purity="7.5792330503463745e-01" nType="0">
          <Node pos="l" depth="2" NCoef="0" IVar="-1" Cut="0.0000000000000000e+00" cType="1" res="2.8863726765848696e-04" rms="4.4740116596221924e-01" purity="6.8736588954925537e-01" nType="-99"/>
          <Node pos="r" depth="2" NCoef="0" IVar="-1" Cut="0.0000000000000000e+00" cType="1" res="5.5450305808335543e-04" rms="3.0516558885574341e-01" purity="8.9303028583526611e-01" nType="-99"/>
        </Node>
      </Node>
    </BinaryTree>
    <BinaryTree type="DecisionTree" boostWeight="1.0000000000000000e+00" itree="545">
      <Node pos="s" depth="0" NCoef="0" IVar="3" Cut="1.3542619705200195e+01" cType="1" res="6.6076360642910004e-02" rms="4.2800265550613403e-01" purity="5.0731337070465088e-01" nType="0">
        <Node pos="l" depth="1" NCoef="0" IVar="0" Cut="1.2183989398181438e-02" cType="1" res="-3.6561504006385803e-02" rms="4.1041812300682068e-01" purity="2.8944632411003113e-01" nType="0">
          <Node pos="l" depth="2" NCoef="0" IVar="-1" Cut="0.0000000000000000e+00" cType="1" res="3.3896847162395716e-04" rms="4.4972109794616699e-01" purity="4.3629780411720276e-01" nType="-99"/>
          <Node pos="r" depth="2" NCoef="0" IVar="-1" Cut="0.0000000000000000e+00" cType="1" res="-6.4643344376236200e-04" rms="3.8460284471511841e-01" purity="2.3395267128944397e-01" nType="-99"/>
        </Node>
        <Node pos="r" depth="1" NCoef="0" IVar="0" Cut="4.2733144015073776e-02" cType="1" res="1.5237528085708618e-01" rms="4.2341172695159912e-01" purity="6.9049805402755737e-01" nType="0">
          <Node pos="l" depth="2" NCoef="0" IVar="-1" Cut="0.0000000000000000e+00" cType="1" res="5.2787165623158216e-04" rms="3.5252851247787476e-01" purity="8.4496706724166870e-01" nType="-99"/>
          <Node pos="r" depth="2" NCoef="0" IVar="-1" Cut="0.0000000000000000e+00" cType="1" res="2.4914884124882519e-04" rms="4.4457140564918518e-01" purity="5.9783357381820679e-01" nType="-99"/>
        </Node>
      </Node>
    </BinaryTree>
    <BinaryTree type="DecisionTree" boostWeight="1.0000000000000000e+00" itree="546">
      <Node pos="s" depth="0" NCoef="0" IVar="1" Cut="4.5605045318603516e+01" cType="1" res="6.1614613980054855e-02" rms="4.2935243248939514e-01" purity="4.9867781996726990e-01" nType="0">
        <Node pos="l" depth="1" NCoef="0" IVar="1" Cut="2.1084579467773438e+01" cType="1" res="-1.3889747858047485e-01" rms="3.0484062433242798e-01" purity="1.0400608181953430e-01" nType="0">
          <Node pos="l" depth="2" NCoef="0" IVar="-1" Cut="0.0000000000000000e+00" cType="1" res="-4.7425949014723301e-03" rms="2.4927930533885956e-01" purity="6.7247919738292694e-02" nType="-99"/>
          <Node pos="r" depth="2" NCoef="0" IVar="-1" Cut="0.0000000000000000e+00" cType="1" res="-1.8949894001707435e-03" rms="3.3624774217605591e-01" purity="1.3247764110565186e-01" nType="-99"/>
        </Node>
        <Node pos="r" depth="1" NCoef="0" IVar="0" Cut="2.8488764539361000e-02" cType="1" res="1.0195925831794739e-01" rms="4.3934017419815063e-01" purity="5.7808887958526611e-01" nType="0">
          <Node pos="l" depth="2" NCoef="0" IVar="-1" Cut="0.0000000000000000e+00" cType="1" res="5.5091374088078737e-04" rms="4.1649138927459717e-01" purity="7.4047136306762695e-01" nType="-99"/>
          <Node pos="r" depth="2" NCoef="0" IVar="-1" Cut="0.0000000000000000e+00" cType="1" res="1.4809213462285697e-04" rms="4.3681791424751282e-01" purity="5.0943374633789062e-01" nType="-99"/>
        </Node>
      </Node>
    </BinaryTree>
    <BinaryTree type="DecisionTree" boostWeight="1.0000000000000000e+00" itree="547">
      <Node pos="s" depth="0" NCoef="0" IVar="2" Cut="6.6204593750000000e+04" cType="1" res="5.6528612971305847e-02" rms="4.2835128307342529e-01" purity="4.9340635538101196e-01" nType="0">
        <Node pos="l" depth="1" NCoef="0" IVar="0" Cut="3.8101427257061005e-02" cType="1" res="2.8696630615741014e-03" rms="4.3321600556373596e-01" purity="3.7624067068099976e-01" nType="0">
          <Node pos="l" depth="2" NCoef="0" IVar="-1" Cut="0.0000000000000000e+00" cType="1" res="2.2375819389708340e-04" rms="4.4837397336959839e-01" purity="4.6974170207977295e-01" nType="-99"/>
          <Node pos="r" depth="2" NCoef="0" IVar="-1" Cut="0.0000000000000000e+00" cType="1" res="-7.3971145320683718e-04" rms="3.9296203851699829e-01" purity="2.4238678812980652e-01" nType="-99"/>
        </Node>
        <Node pos="r" depth="1" NCoef="0" IVar="1" Cut="2.2952496337890625e+02" cType="1" res="2.0954719185829163e-01" rms="3.7404158711433411e-01" purity="8.2752639055252075e-01" nType="0">
          <Node pos="l" depth="2" NCoef="0" IVar="-1" Cut="0.0000000000000000e+00" cType="1" res="3.7567486288025975e-04" rms="4.1412517428398132e-01" purity="7.7509540319442749e-01" nType="-99"/>
          <Node pos="r" depth="2" NCoef="0" IVar="-1" Cut="0.0000000000000000e+00" cType="1" res="4.7967681894078851e-04" rms="2.6890987157821655e-01" purity="9.2124152183532715e-01" nType="-99"/>
        </Node>
      </Node>
    </BinaryTree>
    <BinaryTree type="DecisionTree" boostWeight="1.0000000000000000e+00" itree="548">
      <Node pos="s" depth="0" NCoef="0" IVar="3" Cut="1.2596701622009277e+01" cType="1" res="5.3376860916614532e-02" rms="4.2828094959259033e-01" purity="4.8910185694694519e-01" nType="0">
        <Node pos="l" depth="1" NCoef="0" IVar="0" Cut="2.0980533212423325e-02" cType="1" res="-3.6710813641548157e-02" rms="4.0819117426872253e-01" purity="2.8798243403434753e-01" nType="0">
          <Node pos="l" depth="2" NCoef="0" IVar="-1" Cut="0.0000000000000000e+00" cType="1" res="1.6968372801784426e-04" rms="4.4565650820732117e-01" purity="4.1433876752853394e-01" nType="-99"/>
          <Node pos="r" depth="2" NCoef="0" IVar="-1" Cut="0.0000000000000000e+00" cType="1" res="-8.0029701348394156e-04" rms="3.6010581254959106e-01" purity="1.8406954407691956e-01" nType="-99"/>
        </Node>
        <Node pos="r" depth="1" NCoef="0" IVar="0" Cut="4.2733144015073776e-02" cType="1" res="1.3010676205158234e-01" rms="4.3004360795021057e-01" purity="6.6040015220642090e-01" nType="0">
          <Node pos="l" depth="2" NCoef="0" IVar="-1" Cut="0.0000000000000000e+00" cType="1" res="5.2675901679322124e-04" rms="3.6698931455612183e-01" purity="8.2388669252395630e-01" nType="-99"/>
          <Node pos="r" depth="2" NCoef="0" IVar="-1" Cut="0.0000000000000000e+00" cType="1" res="1.7185331671498716e-04" rms="4.4563031196594238e-01" purity="5.6412750482559204e-01" nType="-99"/>
        </Node>
      </Node>
    </BinaryTree>
    <BinaryTree type="DecisionTree" boostWeight="1.0000000000000000e+00" itree="549">
      <Node pos="s" depth="0" NCoef="0" IVar="2" Cut="6.6204593750000000e+04" cType="1" res="6.6508762538433075e-02" rms="4.3279430270195007e-01" purity="5.0199085474014282e-01" nType="0">
        <Node pos="l" depth="1" NCoef="0" IVar="0" Cut="5.0266090780496597e-02" cType="1" res="2.0547788590192795e-02" rms="4.4013434648513794e-01" purity="3.9420908689498901e-01" nType="0">
          <Node pos="l" depth="2" NCoef="0" IVar="-1" Cut="0.0000000000000000e+00" cType="1" res="1.4266604557633400e-04" rms="4.5045801997184753e-01" purity="4.6052590012550354e-01" nType="-99"/>
          <Node pos="r" depth="2" NCoef="0" IVar="-1" Cut="0.0000000000000000e+00" cType="1" res="-8.7169435573741794e-04" rms="3.8251549005508423e-01" purity="2.1867531538009644e-01" nType="-99"/>
        </Node>
        <Node pos="r" depth="1" NCoef="0" IVar="1" Cut="2.0048472595214844e+02" cType="1" res="2.0269654691219330e-01" rms="3.7883865833282471e-01" purity="8.2136112451553345e-01" nType="0">
          <Node pos="l" depth="2" NCoef="0" IVar="-1" Cut="0.0000000000000000e+00" cType="1" res="3.5436110920272768e-04" rms="4.2954656481742859e-01" purity="7.4874258041381836e-01" nType="-99"/>
          <Node pos="r" depth="2" NCoef="0" IVar="-1" Cut="0.0000000000000000e+00" cType="1" res="5.1958055701106787e-04" rms="3.0390939116477966e-01" purity="8.9576083421707153e-01" nType="-99"/>
        </Node>
      </Node>
    </BinaryTree>
    <BinaryTree type="DecisionTree" boostWeight="1.0000000000000000e+00" itree="550">
      <Node pos="s" depth="0" NCoef="0" IVar="2" Cut="6.8273312500000000e+04" cType="1" res="5.8537725359201431e-02" rms="4.2640945315361023e-01" purity="4.9798327684402466e-01" nType="0">
        <Node pos="l" depth="1" NCoef="0" IVar="0" Cut="5.1490433514118195e-02" cType="1" res="1.5159264439716935e-03" rms="4.3306475877761841e-01" purity="3.7829926609992981e-01" nType="0">
          <Node pos="l" depth="2" NCoef="0" IVar="-1" Cut="0.0000000000000000e+00" cType="1" res="1.6020938346628100e-04" rms="4.4221031665802002e-01" purity="4.4169303774833679e-01" nType="-99"/>
          <Node pos="r" depth="2" NCoef="0" IVar="-1" Cut="0.0000000000000000e+00" cType="1" res="-1.1115366360172629e-03" rms="3.8099583983421326e-01" purity="2.1011923253536224e-01" nType="-99"/>
        </Node>
        <Node pos="r" depth="1" NCoef="0" IVar="1" Cut="2.2828979492187500e+02" cType="1" res="2.2361660003662109e-01" rms="3.5861018300056458e-01" purity="8.4447020292282104e-01" nType="0">
          <Node pos="l" depth="2" NCoef="0" IVar="-1" Cut="0.0000000000000000e+00" cType="1" res="3.6006976733915508e-04" rms="3.9751285314559937e-01" purity="7.9830324649810791e-01" nType="-99"/>
          <Node pos="r" depth="2" NCoef="0" IVar="-1" Cut="0.0000000000000000e+00" cType="1" res="4.9515656428411603e-04" rms="2.6695543527603149e-01" purity="9.2229008674621582e-01" nType="-99"/>
        </Node>
      </Node>
    </BinaryTree>
    <BinaryTree type="DecisionTree" boostWeight="1.0000000000000000e+00" itree="551">
      <Node pos="s" depth="0" NCoef="0" IVar="1" Cut="1.3857240295410156e+02" cType="1" res="6.8200178444385529e-02" rms="4.2541539669036865e-01" purity="5.1021611690521240e-01" nType="0">
        <Node pos="l" depth="1" NCoef="0" IVar="1" Cut="6.5527931213378906e+01" cType="1" res="-1.1725198477506638e-02" rms="4.1670021414756775e-01" purity="3.1257095932960510e-01" nType="0">
          <Node pos="l" depth="2" NCoef="0" IVar="-1" Cut="0.0000000000000000e+00" cType="1" res="-8.2947249757125974e-04" rms="3.4713307023048401e-01" purity="1.5008318424224854e-01" nType="-99"/>
          <Node pos="r" depth="2" NCoef="0" IVar="-1" Cut="0.0000000000000000e+00" cType="1" res="1.8058960267808288e-04" rms="4.5279094576835632e-01" purity="4.3407633900642395e-01" nType="-99"/>
        </Node>
        <Node pos="r" depth="1" NCoef="0" IVar="1" Cut="2.5809881591796875e+02" cType="1" res="1.6332586109638214e-01" rms="4.1600650548934937e-01" purity="7.4544966220855713e-01" nType="0">
          <Node pos="l" depth="2" NCoef="0" IVar="-1" Cut="0.0000000000000000e+00" cType="1" res="2.9774394351989031e-04" rms="4.3913817405700684e-01" purity="7.0254725217819214e-01" nType="-99"/>
          <Node pos="r" depth="2" NCoef="0" IVar="-1" Cut="0.0000000000000000e+00" cType="1" res="5.0419452600181103e-04" rms="2.5819334387779236e-01" purity="9.2449307441711426e-01" nType="-99"/>
        </Node>
      </Node>
    </BinaryTree>
    <BinaryTree type="DecisionTree" boostWeight="1.0000000000000000e+00" itree="552">
      <Node pos="s" depth="0" NCoef="0" IVar="3" Cut="2.5193403244018555e+01" cType="1" res="4.2693395167589188e-02" rms="4.2504599690437317e-01" purity="4.8049986362457275e-01" nType="0">
        <Node pos="l" depth="1" NCoef="0" IVar="1" Cut="3.8673717498779297e+01" cType="1" res="-3.1837791204452515e-02" rms="4.1466400027275085e-01" purity="3.1302371621131897e-01" nType="0">
          <Node pos="l" depth="2" NCoef="0" IVar="-1" Cut="0.0000000000000000e+00" cType="1" res="-3.0756706837564707e-03" rms="2.9802682995796204e-01" purity="1.0226719081401825e-01" nType="-99"/>
          <Node pos="r" depth="2" NCoef="0" IVar="-1" Cut="0.0000000000000000e+00" cType="1" res="2.0699064407381229e-05" rms="4.4074830412864685e-01" purity="3.8291686773300171e-01" nType="-99"/>
        </Node>
        <Node pos="r" depth="1" NCoef="0" IVar="0" Cut="3.9726577699184418e-02" cType="1" res="1.6160506010055542e-01" rms="4.1421070694923401e-01" purity="7.4770158529281616e-01" nType="0">
          <Node pos="l" depth="2" NCoef="0" IVar="-1" Cut="0.0000000000000000e+00" cType="1" res="5.5868475465103984e-04" rms="3.0525124073028564e-01" purity="8.9486104249954224e-01" nType="-99"/>
          <Node pos="r" depth="2" NCoef="0" IVar="-1" Cut="0.0000000000000000e+00" cType="1" res="2.6720637106336653e-04" rms="4.4425803422927856e-01" purity="6.8013149499893188e-01" nType="-99"/>
        </Node>
      </Node>
    </BinaryTree>
    <BinaryTree type="DecisionTree" boostWeight="1.0000000000000000e+00" itree="553">
      <Node pos="s" depth="0" NCoef="0" IVar="2" Cut="6.1173269531250000e+04" cType="1" res="5.9295471757650375e-02" rms="4.2454037070274353e-01" purity="5.0068354606628418e-01" nType="0">
        <Node pos="l" depth="1" NCoef="0" IVar="1" Cut="7.1741851806640625e+01" cType="1" res="-3.3065781462937593e-03" rms="4.2830866575241089e-01" purity="3.6029374599456787e-01" nType="0">
          <Node pos="l" depth="2" NCoef="0" IVar="-1" Cut="0.0000000000000000e+00" cType="1" res="-8.6318672401830554e-04" rms="3.4166562557220459e-01" purity="1.5299855172634125e-01" nType="-99"/>
          <Node pos="r" depth="2" NCoef="0" IVar="-1" Cut="0.0000000000000000e+00" cType="1" res="1.7139795818366110e-04" rms="4.6392101049423218e-01" purity="4.8316890001296997e-01" nType="-99"/>
        </Node>
        <Node pos="r" depth="1" NCoef="0" IVar="1" Cut="2.2789994812011719e+02" cType="1" res="2.0038029551506042e-01" rms="3.7980854511260986e-01" purity="8.1707686185836792e-01" nType="0">
          <Node pos="l" depth="2" NCoef="0" IVar="-1" Cut="0.0000000000000000e+00" cType="1" res="3.0618859454989433e-04" rms="4.2822182178497314e-01" purity="7.4709731340408325e-01" nType="-99"/>
          <Node pos="r" depth="2" NCoef="0" IVar="-1" Cut="0.0000000000000000e+00" cType="1" res="4.4003594666719437e-04" rms="2.5513723492622375e-01" purity="9.2939692735671997e-01" nType="-99"/>
        </Node>
      </Node>
    </BinaryTree>
    <BinaryTree type="DecisionTree" boostWeight="1.0000000000000000e+00" itree="554">
      <Node pos="s" depth="0" NCoef="0" IVar="1" Cut="1.5843783569335938e+02" cType="1" res="6.8502701818943024e-02" rms="4.2538267374038696e-01" purity="5.1083225011825562e-01" nType="0">
        <Node pos="l" depth="1" NCoef="0" IVar="1" Cut="4.4470390319824219e+01" cType="1" res="1.0454397415742278e-03" rms="4.2490738630294800e-01" purity="3.5691171884536743e-01" nType="0">
          <Node pos="l" depth="2" NCoef="0" IVar="-1" Cut="0.0000000000000000e+00" cType="1" res="-3.0838605016469955e-03" rms="2.9822885990142822e-01" purity="9.9653877317905426e-02" nType="-99"/>
          <Node pos="r" depth="2" NCoef="0" IVar="-1" Cut="0.0000000000000000e+00" cType="1" res="1.8145462672691792e-04" rms="4.4994243979454041e-01" purity="4.4408956170082092e-01" nType="-99"/>
        </Node>
        <Node pos="r" depth="1" NCoef="0" IVar="1" Cut="2.4961164855957031e+02" cType="1" res="1.8717096745967865e-01" rms="3.9946734905242920e-01" purity="7.8160339593887329e-01" nType="0">
          <Node pos="l" depth="2" NCoef="0" IVar="-1" Cut="0.0000000000000000e+00" cType="1" res="3.1922516063787043e-04" rms="4.3496987223625183e-01" purity="7.2517824172973633e-01" nType="-99"/>
          <Node pos="r" depth="2" NCoef="0" IVar="-1" Cut="0.0000000000000000e+00" cType="1" res="3.5428442060947418e-04" rms="2.5720289349555969e-01" purity="9.2492371797561646e-01" nType="-99"/>
        </Node>
      </Node>
    </BinaryTree>
    <BinaryTree type="DecisionTree" boostWeight="1.0000000000000000e+00" itree="555">
      <Node pos="s" depth="0" NCoef="0" IVar="2" Cut="6.1173269531250000e+04" cType="1" res="5.4716527462005615e-02" rms="4.2803823947906494e-01" purity="4.9007698893547058e-01" nType="0">
        <Node pos="l" depth="1" NCoef="0" IVar="0" Cut="6.2438476830720901e-02" cType="1" res="5.6601240066811442e-04" rms="4.2992481589317322e-01" purity="3.6381417512893677e-01" nType="0">
          <Node pos="l" depth="2" NCoef="0" IVar="-1" Cut="0.0000000000000000e+00" cType="1" res="1.5556231664959341e-04" rms="4.3998372554779053e-01" purity="4.0880283713340759e-01" nType="-99"/>
          <Node pos="r" depth="2" NCoef="0" IVar="-1" Cut="0.0000000000000000e+00" cType="1" res="-2.2826816421002150e-03" rms="3.3209505677223206e-01" purity="1.5063391625881195e-01" nType="-99"/>
        </Node>
        <Node pos="r" depth="1" NCoef="0" IVar="1" Cut="2.4353530883789062e+02" cType="1" res="1.8885613977909088e-01" rms="3.9236468076705933e-01" purity="8.0285042524337769e-01" nType="0">
          <Node pos="l" depth="2" NCoef="0" IVar="-1" Cut="0.0000000000000000e+00" cType="1" res="3.4185545518994331e-04" rms="4.2607459425926208e-01" purity="7.5384914875030518e-01" nType="-99"/>
          <Node pos="r" depth="2" NCoef="0" IVar="-1" Cut="0.0000000000000000e+00" cType="1" res="6.0673040570691228e-04" rms="2.6408776640892029e-01" purity="9.2432171106338501e-01" nType="-99"/>
        </Node>
      </Node>
    </BinaryTree>
    <BinaryTree type="DecisionTree" boostWeight="1.0000000000000000e+00" itree="556">
      <Node pos="s" depth="0" NCoef="0" IVar="2" Cut="6.6204593750000000e+04" cType="1" res="5.7489067316055298e-02" rms="4.2451089620590210e-01" purity="4.9754983186721802e-01" nType="0">
        <Node pos="l" depth="1" NCoef="0" IVar="0" Cut="5.0171643495559692e-02" cType="1" res="5.9271330246701837e-04" rms="4.2943832278251648e-01" purity="3.7388834357261658e-01" nType="0">
          <Node pos="l" depth="2" NCoef="0" IVar="-1" Cut="0.0000000000000000e+00" cType="1" res="1.6072054859250784e-04" rms="4.3916985392570496e-01" purity="4.3114292621612549e-01" nType="-99"/>
          <Node pos="r" depth="2" NCoef="0" IVar="-1" Cut="0.0000000000000000e+00" cType="1" res="-7.9704640666022897e-04" rms="3.8686051964759827e-01" purity="2.3282872140407562e-01" nType="-99"/>
        </Node>
        <Node pos="r" depth="1" NCoef="0" IVar="1" Cut="2.3110444641113281e+02" cType="1" res="2.1149128675460815e-01" rms="3.6924448609352112e-01" purity="8.3226627111434937e-01" nType="0">
          <Node pos="l" depth="2" NCoef="0" IVar="-1" Cut="0.0000000000000000e+00" cType="1" res="3.4698995295912027e-04" rms="4.1674834489822388e-01" purity="7.7007257938385010e-01" nType="-99"/>
          <Node pos="r" depth="2" NCoef="0" IVar="-1" Cut="0.0000000000000000e+00" cType="1" res="4.8292570863850415e-04" rms="2.5464144349098206e-01" purity="9.3001478910446167e-01" nType="-99"/>
        </Node>
      </Node>
    </BinaryTree>
    <BinaryTree type="DecisionTree" boostWeight="1.0000000000000000e+00" itree="557">
      <Node pos="s" depth="0" NCoef="0" IVar="2" Cut="4.4136394531250000e+04" cType="1" res="6.3952229917049408e-02" rms="4.2492744326591492e-01" purity="5.0612580776214600e-01" nType="0">
        <Node pos="l" depth="1" NCoef="0" IVar="1" Cut="7.1885795593261719e+01" cType="1" res="-1.3885122723877430e-02" rms="4.2161676287651062e-01" purity="3.2123693823814392e-01" nType="0">
          <Node pos="l" depth="2" NCoef="0" IVar="-1" Cut="0.0000000000000000e+00" cType="1" res="-6.4550916431471705e-04" rms="3.5259827971458435e-01" purity="1.6343359649181366e-01" nType="-99"/>
          <Node pos="r" depth="2" NCoef="0" IVar="-1" Cut="0.0000000000000000e+00" cType="1" res="1.5108093793969601e-04" rms="4.6157720685005188e-01" purity="4.4503995776176453e-01" nType="-99"/>
        </Node>
        <Node pos="r" depth="1" NCoef="0" IVar="0" Cut="4.2733144015073776e-02" cType="1" res="1.7324848473072052e-01" rms="4.0502557158470154e-01" purity="7.6573979854583740e-01" nType="0">
          <Node pos="l" depth="2" NCoef="0" IVar="-1" Cut="0.0000000000000000e+00" cType="1" res="5.4196047130972147e-04" rms="3.1071355938911438e-01" purity="8.8869577646255493e-01" nType="-99"/>
          <Node pos="r" depth="2" NCoef="0" IVar="-1" Cut="0.0000000000000000e+00" cType="1" res="2.5780955911614001e-04" rms="4.3919962644577026e-01" purity="6.9458997249603271e-01" nType="-99"/>
        </Node>
      </Node>
    </BinaryTree>
    <BinaryTree type="DecisionTree" boostWeight="1.0000000000000000e+00" itree="558">
      <Node pos="s" depth="0" NCoef="0" IVar="2" Cut="7.2246000000000000e+04" cType="1" res="6.7221097648143768e-02" rms="4.3002715706825256e-01" purity="5.0439453125000000e-01" nType="0">
        <Node pos="l" depth="1" NCoef="0" IVar="0" Cut="4.9954801797866821e-02" cType="1" res="2.8905624523758888e-02" rms="4.3800151348114014e-01" purity="4.1993513703346252e-01" nType="0">
          <Node pos="l" depth="2" NCoef="0" IVar="-1" Cut="0.0000000000000000e+00" cType="1" res="2.0568173204082996e-04" rms="4.4097766280174255e-01" purity="4.8193284869194031e-01" nType="-99"/>
          <Node pos="r" depth="2" NCoef="0" IVar="-1" Cut="0.0000000000000000e+00" cType="1" res="-6.3535454683005810e-04" rms="4.0948215126991272e-01" purity="2.6779940724372864e-01" nType="-99"/>
        </Node>
        <Node pos="r" depth="1" NCoef="0" IVar="1" Cut="2.1018479919433594e+02" cType="1" res="2.2290001809597015e-01" rms="3.5580605268478394e-01" purity="8.4756016731262207e-01" nType="0">
          <Node pos="l" depth="2" NCoef="0" IVar="-1" Cut="0.0000000000000000e+00" cType="1" res="3.7794964737258852e-04" rms="4.1139534115791321e-01" purity="7.7804464101791382e-01" nType="-99"/>
          <Node pos="r" depth="2" NCoef="0" IVar="-1" Cut="0.0000000000000000e+00" cType="1" res="6.2174577033147216e-04" rms="2.8532150387763977e-01" purity="9.0968322753906250e-01" nType="-99"/>
        </Node>
      </Node>
    </BinaryTree>
    <BinaryTree type="DecisionTree" boostWeight="1.0000000000000000e+00" itree="559">
      <Node pos="s" depth="0" NCoef="0" IVar="3" Cut="1.4930736541748047e+01" cType="1" res="4.5142013579607010e-02" rms="4.2426624894142151e-01" purity="4.8230528831481934e-01" nType="0">
        <Node pos="l" depth="1" NCoef="0" IVar="0" Cut="2.0350033417344093e-02" cType="1" res="-5.2909210324287415e-02" rms="3.9945268630981445e-01" purity="2.6978823542594910e-01" nType="0">
          <Node pos="l" depth="2" NCoef="0" IVar="-1" Cut="0.0000000000000000e+00" cType="1" res="2.2527859255205840e-04" rms="4.4318830966949463e-01" purity="4.1485479474067688e-01" nType="-99"/>
          <Node pos="r" depth="2" NCoef="0" IVar="-1" Cut="0.0000000000000000e+00" cType="1" res="-1.5609919792041183e-03" rms="3.4701713919639587e-01" purity="1.6515900194644928e-01" nType="-99"/>
        </Node>
        <Node pos="r" depth="1" NCoef="0" IVar="0" Cut="3.9766632020473480e-02" cType="1" res="1.3903346657752991e-01" rms="4.2608961462974548e-01" purity="6.8580633401870728e-01" nType="0">
          <Node pos="l" depth="2" NCoef="0" IVar="-1" Cut="0.0000000000000000e+00" cType="1" res="5.4808513959869742e-04" rms="3.3593544363975525e-01" purity="8.6519193649291992e-01" nType="-99"/>
          <Node pos="r" depth="2" NCoef="0" IVar="-1" Cut="0.0000000000000000e+00" cType="1" res="2.0576159295160323e-04" rms="4.4796156883239746e-01" purity="5.9218049049377441e-01" nType="-99"/>
        </Node>
      </Node>
    </BinaryTree>
    <BinaryTree type="DecisionTree" boostWeight="1.0000000000000000e+00" itree="560">
      <Node pos="s" depth="0" NCoef="0" IVar="2" Cut="6.6204593750000000e+04" cType="1" res="5.9365075081586838e-02" rms="4.2308554053306580e-01" purity="5.0106447935104370e-01" nType="0">
        <Node pos="l" depth="1" NCoef="0" IVar="0" Cut="4.9760408699512482e-02" cType="1" res="4.2542512528598309e-03" rms="4.2771422863006592e-01" purity="3.8157895207405090e-01" nType="0">
          <Node pos="l" depth="2" NCoef="0" IVar="-1" Cut="0.0000000000000000e+00" cType="1" res="1.8745630222838372e-04" rms="4.3711552023887634e-01" purity="4.5079049468040466e-01" nType="-99"/>
          <Node pos="r" depth="2" NCoef="0" IVar="-1" Cut="0.0000000000000000e+00" cType="1" res="-9.5652864547446370e-04" rms="3.7586283683776855e-01" purity="2.0477293431758881e-01" nType="-99"/>
        </Node>
        <Node pos="r" depth="1" NCoef="0" IVar="1" Cut="2.2952496337890625e+02" cType="1" res="2.1248748898506165e-01" rms="3.6901828646659851e-01" purity="8.3304870128631592e-01" nType="0">
          <Node pos="l" depth="2" NCoef="0" IVar="-1" Cut="0.0000000000000000e+00" cType="1" res="3.2626741449348629e-04" rms="4.1453224420547485e-01" purity="7.7446240186691284e-01" nType="-99"/>
          <Node pos="r" depth="2" NCoef="0" IVar="-1" Cut="0.0000000000000000e+00" cType="1" res="5.3993752226233482e-04" rms="2.5733929872512817e-01" purity="9.2841160297393799e-01" nType="-99"/>
        </Node>
      </Node>
    </BinaryTree>
    <BinaryTree type="DecisionTree" boostWeight="1.0000000000000000e+00" itree="561">
      <Node pos="s" depth="0" NCoef="0" IVar="2" Cut="5.4184500000000000e+04" cType="1" res="5.2273642271757126e-02" rms="4.2502373456954956e-01" purity="4.9144577980041504e-01" nType="0">
        <Node pos="l" depth="1" NCoef="0" IVar="1" Cut="3.8498767852783203e+01" cType="1" res="-1.1460282839834690e-02" rms="4.2384201288223267e-01" purity="3.3943170309066772e-01" nType="0">
          <Node pos="l" depth="2" NCoef="0" IVar="-1" Cut="0.0000000000000000e+00" cType="1" res="-1.9529485143721104e-03" rms="3.1327417492866516e-01" purity="1.1142872273921967e-01" nType="-99"/>
          <Node pos="r" depth="2" NCoef="0" IVar="-1" Cut="0.0000000000000000e+00" cType="1" res="1.0575522173894569e-04" rms="4.4567155838012695e-01" purity="4.0735912322998047e-01" nType="-99"/>
        </Node>
        <Node pos="r" depth="1" NCoef="0" IVar="1" Cut="2.2627468872070312e+02" cType="1" res="1.7512333393096924e-01" rms="3.9957106113433838e-01" purity="7.8445911407470703e-01" nType="0">
          <Node pos="l" depth="2" NCoef="0" IVar="-1" Cut="0.0000000000000000e+00" cType="1" res="3.0366328428499401e-04" rms="4.4034856557846069e-01" purity="7.1470248699188232e-01" nType="-99"/>
          <Node pos="r" depth="2" NCoef="0" IVar="-1" Cut="0.0000000000000000e+00" cType="1" res="3.4642231184989214e-04" rms="2.6683056354522705e-01" purity="9.2167633771896362e-01" nType="-99"/>
        </Node>
      </Node>
    </BinaryTree>
    <BinaryTree type="DecisionTree" boostWeight="1.0000000000000000e+00" itree="562">
      <Node pos="s" depth="0" NCoef="0" IVar="3" Cut="1.2596701622009277e+01" cType="1" res="5.7796407490968704e-02" rms="4.2267322540283203e-01" purity="5.0110316276550293e-01" nType="0">
        <Node pos="l" depth="1" NCoef="0" IVar="0" Cut="1.1065950617194176e-02" cType="1" res="-5.9237316250801086e-02" rms="3.9665642380714417e-01" purity="2.6170915365219116e-01" nType="0">
          <Node pos="l" depth="2" NCoef="0" IVar="-1" Cut="0.0000000000000000e+00" cType="1" res="2.4365003628190607e-04" rms="4.2944312095642090e-01" purity="3.9841663837432861e-01" nType="-99"/>
          <Node pos="r" depth="2" NCoef="0" IVar="-1" Cut="0.0000000000000000e+00" cType="1" res="-6.9074769271537662e-04" rms="3.7886026501655579e-01" purity="2.1668066084384918e-01" nType="-99"/>
        </Node>
        <Node pos="r" depth="1" NCoef="0" IVar="0" Cut="4.1265200823545456e-02" cType="1" res="1.4679114520549774e-01" rms="4.2015063762664795e-01" purity="6.8314313888549805e-01" nType="0">
          <Node pos="l" depth="2" NCoef="0" IVar="-1" Cut="0.0000000000000000e+00" cType="1" res="5.4912216728553176e-04" rms="3.5096213221549988e-01" purity="8.4145414829254150e-01" nType="-99"/>
          <Node pos="r" depth="2" NCoef="0" IVar="-1" Cut="0.0000000000000000e+00" cType="1" res="2.3470919404644519e-04" rms="4.3890807032585144e-01" purity="5.9798008203506470e-01" nType="-99"/>
        </Node>
      </Node>
    </BinaryTree>
    <BinaryTree type="DecisionTree" boostWeight="1.0000000000000000e+00" itree="563">
      <Node pos="s" depth="0" NCoef="0" IVar="1" Cut="1.0537150573730469e+02" cType="1" res="5.8454949408769608e-02" rms="4.2525362968444824e-01" purity="4.9849945306777954e-01" nType="0">
        <Node pos="l" depth="1" NCoef="0" IVar="1" Cut="1.9272983551025391e+01" cType="1" res="-5.3107935935258865e-02" rms="3.8592156767845154e-01" purity="2.3365883529186249e-01" nType="0">
          <Node pos="l" depth="2" NCoef="0" IVar="-1" Cut="0.0000000000000000e+00" cType="1" res="-5.9327315539121628e-03" rms="2.3955623805522919e-01" purity="6.1617758125066757e-02" nType="-99"/>
          <Node pos="r" depth="2" NCoef="0" IVar="-1" Cut="0.0000000000000000e+00" cType="1" res="-1.7557111277710646e-04" rms="4.0191006660461426e-01" purity="2.6538389921188354e-01" nType="-99"/>
        </Node>
        <Node pos="r" depth="1" NCoef="0" IVar="0" Cut="2.7510134503245354e-02" cType="1" res="1.3486413657665253e-01" rms="4.3396964669227600e-01" purity="6.7988818883895874e-01" nType="0">
          <Node pos="l" depth="2" NCoef="0" IVar="-1" Cut="0.0000000000000000e+00" cType="1" res="5.5016489932313561e-04" rms="3.7175208330154419e-01" purity="8.2188326120376587e-01" nType="-99"/>
          <Node pos="r" depth="2" NCoef="0" IVar="-1" Cut="0.0000000000000000e+00" cType="1" res="2.3379891354124993e-04" rms="4.4398960471153259e-01" purity="6.3614583015441895e-01" nType="-99"/>
        </Node>
      </Node>
    </BinaryTree>
    <BinaryTree type="DecisionTree" boostWeight="1.0000000000000000e+00" itree="564">
      <Node pos="s" depth="0" NCoef="0" IVar="2" Cut="5.3398167968750000e+04" cType="1" res="6.4045436680316925e-02" rms="4.2531862854957581e-01" purity="5.0552666187286377e-01" nType="0">
        <Node pos="l" depth="1" NCoef="0" IVar="2" Cut="1.0171057617187500e+04" cType="1" res="-5.8516501449048519e-03" rms="4.2808854579925537e-01" purity="3.4115159511566162e-01" nType="0">
          <Node pos="l" depth="2" NCoef="0" IVar="-1" Cut="0.0000000000000000e+00" cType="1" res="-1.2710280716419220e-03" rms="3.7019306421279907e-01" purity="1.8673361837863922e-01" nType="-99"/>
          <Node pos="r" depth="2" NCoef="0" IVar="-1" Cut="0.0000000000000000e+00" cType="1" res="9.1889392933808267e-05" rms="4.4010174274444580e-01" purity="3.9146819710731506e-01" nType="-99"/>
        </Node>
        <Node pos="r" depth="1" NCoef="0" IVar="0" Cut="3.9766632020473480e-02" cType="1" res="1.8793028593063354e-01" rms="3.9076790213584900e-01" purity="7.9686319828033447e-01" nType="0">
          <Node pos="l" depth="2" NCoef="0" IVar="-1" Cut="0.0000000000000000e+00" cType="1" res="4.9441104056313634e-04" rms="2.7574956417083740e-01" purity="9.1584175825119019e-01" nType="-99"/>
          <Node pos="r" depth="2" NCoef="0" IVar="-1" Cut="0.0000000000000000e+00" cType="1" res="3.0240547494031489e-04" rms="4.2921000719070435e-01" purity="7.3492813110351562e-01" nType="-99"/>
        </Node>
      </Node>
    </BinaryTree>
    <BinaryTree type="DecisionTree" boostWeight="1.0000000000000000e+00" itree="565">
      <Node pos="s" depth="0" NCoef="0" IVar="2" Cut="4.4136394531250000e+04" cType="1" res="6.0495246201753616e-02" rms="4.2677763104438782e-01" purity="5.0037610530853271e-01" nType="0">
        <Node pos="l" depth="1" NCoef="0" IVar="1" Cut="3.4435253143310547e+01" cType="1" res="-1.6877783462405205e-02" rms="4.2321956157684326e-01" purity="3.1404757499694824e-01" nType="0">
          <Node pos="l" depth="2" NCoef="0" IVar="-1" Cut="0.0000000000000000e+00" cType="1" res="-1.2784339487552643e-03" rms="3.2956281304359436e-01" purity="1.2600015103816986e-01" nType="-99"/>
          <Node pos="r" depth="2" NCoef="0" IVar="-1" Cut="0.0000000000000000e+00" cType="1" res="4.8991067160386592e-05" rms="4.4388011097908020e-01" purity="3.7180325388908386e-01" nType="-99"/>
        </Node>
        <Node pos="r" depth="1" NCoef="0" IVar="1" Cut="2.5747207641601562e+02" cType="1" res="1.6831004619598389e-01" rms="4.0790611505508423e-01" purity="7.6001405715942383e-01" nType="0">
          <Node pos="l" depth="2" NCoef="0" IVar="-1" Cut="0.0000000000000000e+00" cType="1" res="3.1485388171859086e-04" rms="4.3715372681617737e-01" purity="7.0736551284790039e-01" nType="-99"/>
          <Node pos="r" depth="2" NCoef="0" IVar="-1" Cut="0.0000000000000000e+00" cType="1" res="4.8116900143213570e-04" rms="2.3311051726341248e-01" purity="9.4141072034835815e-01" nType="-99"/>
        </Node>
      </Node>
    </BinaryTree>
    <BinaryTree type="DecisionTree" boostWeight="1.0000000000000000e+00" itree="566">
      <Node pos="s" depth="0" NCoef="0" IVar="1" Cut="1.3844578552246094e+02" cType="1" res="6.4871460199356079e-02" rms="4.2312335968017578e-01" purity="5.0877612829208374e-01" nType="0">
        <Node pos="l" depth="1" NCoef="0" IVar="1" Cut="3.8825336456298828e+01" cType="1" res="-2.1121509373188019e-02" rms="4.1086015105247498e-01" purity="3.0071732401847839e-01" nType="0">
          <Node pos="l" depth="2" NCoef="0" IVar="-1" Cut="0.0000000000000000e+00" cType="1" res="-2.9221936129033566e-03" rms="2.9575654864311218e-01" purity="9.9470645189285278e-02" nType="-99"/>
          <Node pos="r" depth="2" NCoef="0" IVar="-1" Cut="0.0000000000000000e+00" cType="1" res="1.0822316835401580e-04" rms="4.3859425187110901e-01" purity="3.7629479169845581e-01" nType="-99"/>
        </Node>
        <Node pos="r" depth="1" NCoef="0" IVar="2" Cut="7.2562375000000000e+04" cType="1" res="1.6344796121120453e-01" rms="4.1540706157684326e-01" purity="7.4728053808212280e-01" nType="0">
          <Node pos="l" depth="2" NCoef="0" IVar="-1" Cut="0.0000000000000000e+00" cType="1" res="2.7044321177527308e-04" rms="4.5907190442085266e-01" purity="6.5127456188201904e-01" nType="-99"/>
          <Node pos="r" depth="2" NCoef="0" IVar="-1" Cut="0.0000000000000000e+00" cType="1" res="4.2638694867491722e-04" rms="3.4197118878364563e-01" purity="8.6208218336105347e-01" nType="-99"/>
        </Node>
      </Node>
    </BinaryTree>
    <BinaryTree type="DecisionTree" boostWeight="1.0000000000000000e+00" itree="567">
      <Node pos="s" depth="0" NCoef="0" IVar="1" Cut="1.5843783569335938e+02" cType="1" res="6.4562901854515076e-02" rms="4.2882275581359863e-01" purity="5.0197201967239380e-01" nType="0">
        <Node pos="l" depth="1" NCoef="0" IVar="0" Cut="5.0266090780496597e-02" cType="1" res="4.2083156295120716e-03" rms="4.2780935764312744e-01" purity="3.5528373718261719e-01" nType="0">
          <Node pos="l" depth="2" NCoef="0" IVar="-1" Cut="0.0000000000000000e+00" cType="1" res="2.0980439148843288e-04" rms="4.4438824057579041e-01" purity="4.2942956089973450e-01" nType="-99"/>
          <Node pos="r" depth="2" NCoef="0" IVar="-1" Cut="0.0000000000000000e+00" cType="1" res="-1.9389319932088256e-03" rms="3.3222484588623047e-01" purity="1.4099358022212982e-01" nType="-99"/>
        </Node>
        <Node pos="r" depth="1" NCoef="0" IVar="1" Cut="2.4961213684082031e+02" cType="1" res="1.7399795353412628e-01" rms="4.0851202607154846e-01" purity="7.6794749498367310e-01" nType="0">
          <Node pos="l" depth="2" NCoef="0" IVar="-1" Cut="0.0000000000000000e+00" cType="1" res="3.1886578653939068e-04" rms="4.4275176525115967e-01" purity="7.1062058210372925e-01" nType="-99"/>
          <Node pos="r" depth="2" NCoef="0" IVar="-1" Cut="0.0000000000000000e+00" cType="1" res="4.8527881153859198e-04" rms="2.6545211672782898e-01" purity="9.1906040906906128e-01" nType="-99"/>
        </Node>
      </Node>
    </BinaryTree>
    <BinaryTree type="DecisionTree" boostWeight="1.0000000000000000e+00" itree="568">
      <Node pos="s" depth="0" NCoef="0" IVar="3" Cut="1.4930736541748047e+01" cType="1" res="6.3444577157497406e-02" rms="4.2573267221450806e-01" purity="5.0280272960662842e-01" nType="0">
        <Node pos="l" depth="1" NCoef="0" IVar="0" Cut="2.1601404994726181e-02" cType="1" res="-2.7837112545967102e-02" rms="4.1088503599166870e-01" purity="2.9557263851165771e-01" nType="0">
          <Node pos="l" depth="2" NCoef="0" IVar="-1" Cut="0.0000000000000000e+00" cType="1" res="1.6192272596526891e-04" rms="4.3970295786857605e-01" purity="4.1495892405509949e-01" nType="-99"/>
          <Node pos="r" depth="2" NCoef="0" IVar="-1" Cut="0.0000000000000000e+00" cType="1" res="-6.7468237830325961e-04" rms="3.7826892733573914e-01" purity="2.0458206534385681e-01" nType="-99"/>
        </Node>
        <Node pos="r" depth="1" NCoef="0" IVar="0" Cut="4.1265200823545456e-02" cType="1" res="1.4971026778221130e-01" rms="4.2151069641113281e-01" purity="6.9864535331726074e-01" nType="0">
          <Node pos="l" depth="2" NCoef="0" IVar="-1" Cut="0.0000000000000000e+00" cType="1" res="5.4474710486829281e-04" rms="3.4017774462699890e-01" purity="8.5701769590377808e-01" nType="-99"/>
          <Node pos="r" depth="2" NCoef="0" IVar="-1" Cut="0.0000000000000000e+00" cType="1" res="2.7616444276645780e-04" rms="4.4542092084884644e-01" purity="6.1600714921951294e-01" nType="-99"/>
        </Node>
      </Node>
    </BinaryTree>
    <BinaryTree type="DecisionTree" boostWeight="1.0000000000000000e+00" itree="569">
      <Node pos="s" depth="0" NCoef="0" IVar="3" Cut="1.1995571136474609e+01" cType="1" res="5.5128298699855804e-02" rms="4.2527106404304504e-01" purity="4.9379885196685791e-01" nType="0">
        <Node pos="l" depth="1" NCoef="0" IVar="0" Cut="1.0490266606211662e-02" cType="1" res="-4.8460543155670166e-02" rms="4.0173935890197754e-01" purity="2.7075231075286865e-01" nType="0">
          <Node pos="l" depth="2" NCoef="0" IVar="-1" Cut="0.0000000000000000e+00" cType="1" res="1.6037271416280419e-04" rms="4.4355297088623047e-01" purity="4.3468526005744934e-01" nType="-99"/>
          <Node pos="r" depth="2" NCoef="0" IVar="-1" Cut="0.0000000000000000e+00" cType="1" res="-7.7263807179406285e-04" rms="3.7423902750015259e-01" purity="2.1385812759399414e-01" nType="-99"/>
        </Node>
        <Node pos="r" depth="1" NCoef="0" IVar="0" Cut="3.9660222828388214e-02" cType="1" res="1.3474506139755249e-01" rms="4.2570725083351135e-01" purity="6.6522902250289917e-01" nType="0">
          <Node pos="l" depth="2" NCoef="0" IVar="-1" Cut="0.0000000000000000e+00" cType="1" res="4.8021078691817820e-04" rms="3.5860764980316162e-01" purity="8.3373403549194336e-01" nType="-99"/>
          <Node pos="r" depth="2" NCoef="0" IVar="-1" Cut="0.0000000000000000e+00" cType="1" res="1.9606651039794087e-04" rms="4.4085487723350525e-01" purity="5.8329880237579346e-01" nType="-99"/>
        </Node>
      </Node>
    </BinaryTree>
    <BinaryTree type="DecisionTree" boostWeight="1.0000000000000000e+00" itree="570">
      <Node pos="s" depth="0" NCoef="0" IVar="1" Cut="1.5843783569335938e+02" cType="1" res="6.3831001520156860e-02" rms="4.2567256093025208e-01" purity="5.0402164459228516e-01" nType="0">
        <Node pos="l" depth="1" NCoef="0" IVar="0" Cut="6.4363040030002594e-02" cType="1" res="-6.4480397850275040e-03" rms="4.2339235544204712e-01" purity="3.4270319342613220e-01" nType="0">
          <Node pos="l" depth="2" NCoef="0" IVar="-1" Cut="0.0000000000000000e+00" cType="1" res="1.0149457375518978e-04" rms="4.3369159102439880e-01" purity="3.8299840688705444e-01" nType="-99"/>
          <Node pos="r" depth="2" NCoef="0" IVar="-1" Cut="0.0000000000000000e+00" cType="1" res="-2.1586362272500992e-03" rms="3.2694947719573975e-01" purity="1.4271965622901917e-01" nType="-99"/>
        </Node>
        <Node pos="r" depth="1" NCoef="0" IVar="1" Cut="2.4961164855957031e+02" cType="1" res="1.8327230215072632e-01" rms="4.0227735042572021e-01" purity="7.7818703651428223e-01" nType="0">
          <Node pos="l" depth="2" NCoef="0" IVar="-1" Cut="0.0000000000000000e+00" cType="1" res="3.0352029716596007e-04" rms="4.3196550011634827e-01" purity="7.3072141408920288e-01" nType="-99"/>
          <Node pos="r" depth="2" NCoef="0" IVar="-1" Cut="0.0000000000000000e+00" cType="1" res="4.1932257590815425e-04" rms="2.6863661408424377e-01" purity="9.1806560754776001e-01" nType="-99"/>
        </Node>
      </Node>
    </BinaryTree>
    <BinaryTree type="DecisionTree" boostWeight="1.0000000000000000e+00" itree="571">
      <Node pos="s" depth="0" NCoef="0" IVar="3" Cut="2.3991142272949219e+01" cType="1" res="5.6822571903467178e-02" rms="4.2310008406639099e-01" purity="4.9841567873954773e-01" nType="0">
        <Node pos="l" depth="1" NCoef="0" IVar="0" Cut="1.2089039199054241e-02" cType="1" res="-2.2285846993327141e-02" rms="4.1632512211799622e-01" purity="3.1810554862022400e-01" nType="0">
          <Node pos="l" depth="2" NCoef="0" IVar="-1" Cut="0.0000000000000000e+00" cType="1" res="3.6589353112503886e-04" rms="4.4267183542251587e-01" purity="4.5097988843917847e-01" nType="-99"/>
          <Node pos="r" depth="2" NCoef="0" IVar="-1" Cut="0.0000000000000000e+00" cType="1" res="-3.7271808832883835e-04" rms="4.0216410160064697e-01" purity="2.7990984916687012e-01" nType="-99"/>
        </Node>
        <Node pos="r" depth="1" NCoef="0" IVar="1" Cut="2.3061920166015625e+02" cType="1" res="1.7060239613056183e-01" rms="4.0650522708892822e-01" purity="7.5775164365768433e-01" nType="0">
          <Node pos="l" depth="2" NCoef="0" IVar="-1" Cut="0.0000000000000000e+00" cType="1" res="3.1985528767108917e-04" rms="4.4268971681594849e-01" purity="6.8977665901184082e-01" nType="-99"/>
          <Node pos="r" depth="2" NCoef="0" IVar="-1" Cut="0.0000000000000000e+00" cType="1" res="4.2693634168244898e-04" rms="2.6204526424407959e-01" purity="9.2366409301757812e-01" nType="-99"/>
        </Node>
      </Node>
    </BinaryTree>
    <BinaryTree type="DecisionTree" boostWeight="1.0000000000000000e+00" itree="572">
      <Node pos="s" depth="0" NCoef="0" IVar="2" Cut="6.6204593750000000e+04" cType="1" res="6.6146507859230042e-02" rms="4.2897176742553711e-01" purity="5.0311583280563354e-01" nType="0">
        <Node pos="l" depth="1" NCoef="0" IVar="0" Cut="6.3502378761768341e-02" cType="1" res="1.5485459007322788e-02" rms="4.3705198168754578e-01" purity="3.8593474030494690e-01" nType="0">
          <Node pos="l" depth="2" NCoef="0" IVar="-1" Cut="0.0000000000000000e+00" cType="1" res="1.4785998791921884e-04" rms="4.4367402791976929e-01" purity="4.2903128266334534e-01" nType="-99"/>
          <Node pos="r" depth="2" NCoef="0" IVar="-1" Cut="0.0000000000000000e+00" cType="1" res="-1.5869740163907409e-03" rms="3.6295759677886963e-01" purity="1.8407469987869263e-01" nType="-99"/>
        </Node>
        <Node pos="r" depth="1" NCoef="0" IVar="1" Cut="2.3110444641113281e+02" cType="1" res="2.0785605907440186e-01" rms="3.7038096785545349e-01" purity="8.3089578151702881e-01" nType="0">
          <Node pos="l" depth="2" NCoef="0" IVar="-1" Cut="0.0000000000000000e+00" cType="1" res="3.2084577833302319e-04" rms="4.1465389728546143e-01" purity="7.7330279350280762e-01" nType="-99"/>
          <Node pos="r" depth="2" NCoef="0" IVar="-1" Cut="0.0000000000000000e+00" cType="1" res="5.5866123875603080e-04" rms="2.5652483105659485e-01" purity="9.2879092693328857e-01" nType="-99"/>
        </Node>
      </Node>
    </BinaryTree>
    <BinaryTree type="DecisionTree" boostWeight="1.0000000000000000e+00" itree="573">
      <Node pos="s" depth="0" NCoef="0" IVar="2" Cut="6.1173269531250000e+04" cType="1" res="6.1206761747598648e-02" rms="4.2728340625762939e-01" purity="4.9847555160522461e-01" nType="0">
        <Node pos="l" depth="1" NCoef="0" IVar="0" Cut="3.7628732621669769e-02" cType="1" res="5.7736062444746494e-03" rms="4.3272751569747925e-01" purity="3.6554497480392456e-01" nType="0">
          <Node pos="l" depth="2" NCoef="0" IVar="-1" Cut="0.0000000000000000e+00" cType="1" res="2.0085282449144870e-04" rms="4.5072138309478760e-01" purity="4.6195065975189209e-01" nType="-99"/>
          <Node pos="r" depth="2" NCoef="0" IVar="-1" Cut="0.0000000000000000e+00" cType="1" res="-7.3268462438136339e-04" rms="3.8894462585449219e-01" purity="2.2702346742153168e-01" nType="-99"/>
        </Node>
        <Node pos="r" depth="1" NCoef="0" IVar="1" Cut="2.0620263671875000e+02" cType="1" res="1.9185645878314972e-01" rms="3.8369852304458618e-01" purity="8.1177783012390137e-01" nType="0">
          <Node pos="l" depth="2" NCoef="0" IVar="-1" Cut="0.0000000000000000e+00" cType="1" res="3.0317678465507925e-04" rms="4.4034260511398315e-01" purity="7.2348809242248535e-01" nType="-99"/>
          <Node pos="r" depth="2" NCoef="0" IVar="-1" Cut="0.0000000000000000e+00" cType="1" res="4.8068456817418337e-04" rms="2.8091236948966980e-01" purity="9.1211855411529541e-01" nType="-99"/>
        </Node>
      </Node>
    </BinaryTree>
    <BinaryTree type="DecisionTree" boostWeight="1.0000000000000000e+00" itree="574">
      <Node pos="s" depth="0" NCoef="0" IVar="2" Cut="7.1768554687500000e+04" cType="1" res="6.2944419682025909e-02" rms="4.2942053079605103e-01" purity="4.9860519170761108e-01" nType="0">
        <Node pos="l" depth="1" NCoef="0" IVar="0" Cut="2.4977400898933411e-02" cType="1" res="2.0815126597881317e-02" rms="4.3740311264991760e-01" purity="4.0523907542228699e-01" nType="0">
          <Node pos="l" depth="2" NCoef="0" IVar="-1" Cut="0.0000000000000000e+00" cType="1" res="2.3805478122085333e-04" rms="4.4468247890472412e-01" purity="4.9433144927024841e-01" nType="-99"/>
          <Node pos="r" depth="2" NCoef="0" IVar="-1" Cut="0.0000000000000000e+00" cType="1" res="-1.1595999967539683e-04" rms="4.2673507332801819e-01" purity="3.5342654585838318e-01" nType="-99"/>
        </Node>
        <Node pos="r" depth="1" NCoef="0" IVar="1" Cut="2.0142605590820312e+02" cType="1" res="2.1988706290721893e-01" rms="3.5690653324127197e-01" purity="8.4641849994659424e-01" nType="0">
          <Node pos="l" depth="2" NCoef="0" IVar="-1" Cut="0.0000000000000000e+00" cType="1" res="3.5819536424241960e-04" rms="4.1151389479637146e-01" purity="7.7750891447067261e-01" nType="-99"/>
          <Node pos="r" depth="2" NCoef="0" IVar="-1" Cut="0.0000000000000000e+00" cType="1" res="5.0006713718175888e-04" rms="2.9513490200042725e-01" purity="9.0252321958541870e-01" nType="-99"/>
        </Node>
      </Node>
    </BinaryTree>
    <BinaryTree type="DecisionTree" boostWeight="1.0000000000000000e+00" itree="575">
      <Node pos="s" depth="0" NCoef="0" IVar="3" Cut="1.4930736541748047e+01" cType="1" res="5.6775461882352829e-02" rms="4.2713567614555359e-01" purity="4.9246829748153687e-01" nType="0">
        <Node pos="l" depth="1" NCoef="0" IVar="0" Cut="2.2131901234388351e-02" cType="1" res="-2.7630735188722610e-02" rms="4.1203513741493225e-01" purity="2.9421141743659973e-01" nType="0">
          <Node pos="l" depth="2" NCoef="0" IVar="-1" Cut="0.0000000000000000e+00" cType="1" res="2.1773444314021617e-04" rms="4.5290046930313110e-01" purity="4.3491196632385254e-01" nType="-99"/>
          <Node pos="r" depth="2" NCoef="0" IVar="-1" Cut="0.0000000000000000e+00" cType="1" res="-1.2431673239916563e-03" rms="3.5193035006523132e-01" purity="1.7231377959251404e-01" nType="-99"/>
        </Node>
        <Node pos="r" depth="1" NCoef="0" IVar="0" Cut="3.9660222828388214e-02" cType="1" res="1.3953344523906708e-01" rms="4.2548233270645142e-01" purity="6.8685388565063477e-01" nType="0">
          <Node pos="l" depth="2" NCoef="0" IVar="-1" Cut="0.0000000000000000e+00" cType="1" res="5.1638652803376317e-04" rms="3.4550437331199646e-01" purity="8.5705339908599854e-01" nType="-99"/>
          <Node pos="r" depth="2" NCoef="0" IVar="-1" Cut="0.0000000000000000e+00" cType="1" res="2.0696419232990593e-04" rms="4.4418579339981079e-01" purity="6.0435760021209717e-01" nType="-99"/>
        </Node>
      </Node>
    </BinaryTree>
    <BinaryTree type="DecisionTree" boostWeight="1.0000000000000000e+00" itree="576">
      <Node pos="s" depth="0" NCoef="0" IVar="2" Cut="6.6120359375000000e+04" cType="1" res="6.1623018234968185e-02" rms="4.2556622624397278e-01" purity="5.0100153684616089e-01" nType="0">
        <Node pos="l" depth="1" NCoef="0" IVar="1" Cut="7.1970230102539062e+01" cType="1" res="9.1535337269306183e-03" rms="4.3168389797210693e-01" purity="3.8189703226089478e-01" nType="0">
          <Node pos="l" depth="2" NCoef="0" IVar="-1" Cut="0.0000000000000000e+00" cType="1" res="-9.2334294458851218e-04" rms="3.5498371720314026e-01" purity="1.6605234146118164e-01" nType="-99"/>
          <Node pos="r" depth="2" NCoef="0" IVar="-1" Cut="0.0000000000000000e+00" cType="1" res="1.8179349717684090e-04" rms="4.6198949217796326e-01" purity="5.0150108337402344e-01" nType="-99"/>
        </Node>
        <Node pos="r" depth="1" NCoef="0" IVar="1" Cut="2.1853901672363281e+02" cType="1" res="2.0644113421440125e-01" rms="3.7156572937965393e-01" purity="8.2973533868789673e-01" nType="0">
          <Node pos="l" depth="2" NCoef="0" IVar="-1" Cut="0.0000000000000000e+00" cType="1" res="3.2790846307761967e-04" rms="4.1590854525566101e-01" purity="7.7176851034164429e-01" nType="-99"/>
          <Node pos="r" depth="2" NCoef="0" IVar="-1" Cut="0.0000000000000000e+00" cType="1" res="5.6216545635834336e-04" rms="2.7853688597679138e-01" purity="9.1432648897171021e-01" nType="-99"/>
        </Node>
      </Node>
    </BinaryTree>
    <BinaryTree type="DecisionTree" boostWeight="1.0000000000000000e+00" itree="577">
      <Node pos="s" depth="0" NCoef="0" IVar="1" Cut="1.3922813415527344e+02" cType="1" res="5.8641955256462097e-02" rms="4.2757755517959595e-01" purity="4.9544295668601990e-01" nType="0">
        <Node pos="l" depth="1" NCoef="0" IVar="1" Cut="3.2229846954345703e+01" cType="1" res="-1.6281511634588242e-02" rms="4.1596138477325439e-01" purity="3.0228212475776672e-01" nType="0">
          <Node pos="l" depth="2" NCoef="0" IVar="-1" Cut="0.0000000000000000e+00" cType="1" res="-1.1529107578098774e-03" rms="3.1482398509979248e-01" purity="1.1259502917528152e-01" nType="-99"/>
          <Node pos="r" depth="2" NCoef="0" IVar="-1" Cut="0.0000000000000000e+00" cType="1" res="7.6832555350847542e-05" rms="4.3672183156013489e-01" purity="3.5971581935882568e-01" nType="-99"/>
        </Node>
        <Node pos="r" depth="1" NCoef="0" IVar="1" Cut="2.5960073852539062e+02" cType="1" res="1.5093956887722015e-01" rms="4.2362645268440247e-01" purity="7.3339623212814331e-01" nType="0">
          <Node pos="l" depth="2" NCoef="0" IVar="-1" Cut="0.0000000000000000e+00" cType="1" res="3.0197139130905271e-04" rms="4.4568470120429993e-01" purity="6.9137907028198242e-01" nType="-99"/>
          <Node pos="r" depth="2" NCoef="0" IVar="-1" Cut="0.0000000000000000e+00" cType="1" res="5.1759282359853387e-04" rms="2.6591503620147705e-01" purity="9.1936314105987549e-01" nType="-99"/>
        </Node>
      </Node>
    </BinaryTree>
    <BinaryTree type="DecisionTree" boostWeight="1.0000000000000000e+00" itree="578">
      <Node pos="s" depth="0" NCoef="0" IVar="2" Cut="6.6204593750000000e+04" cType="1" res="6.6446423530578613e-02" rms="4.2900946736335754e-01" purity="5.0275766849517822e-01" nType="0">
        <Node pos="l" depth="1" NCoef="0" IVar="0" Cut="5.0801903009414673e-02" cType="1" res="1.9152592867612839e-02" rms="4.3702140450477600e-01" purity="3.9066255092620850e-01" nType="0">
          <Node pos="l" depth="2" NCoef="0" IVar="-1" Cut="0.0000000000000000e+00" cType="1" res="1.8084300972986966e-04" rms="4.4467231631278992e-01" purity="4.4892203807830811e-01" nType="-99"/>
          <Node pos="r" depth="2" NCoef="0" IVar="-1" Cut="0.0000000000000000e+00" cType="1" res="-6.4795213984325528e-04" rms="3.9743542671203613e-01" purity="2.3947548866271973e-01" nType="-99"/>
        </Node>
        <Node pos="r" depth="1" NCoef="0" IVar="1" Cut="2.2618206787109375e+02" cType="1" res="2.0380590856075287e-01" rms="3.7220010161399841e-01" purity="8.2832485437393188e-01" nType="0">
          <Node pos="l" depth="2" NCoef="0" IVar="-1" Cut="0.0000000000000000e+00" cType="1" res="3.4357610275037587e-04" rms="4.2248937487602234e-01" purity="7.5967699289321899e-01" nType="-99"/>
          <Node pos="r" depth="2" NCoef="0" IVar="-1" Cut="0.0000000000000000e+00" cType="1" res="4.7796120634302497e-04" rms="2.5799474120140076e-01" purity="9.2795127630233765e-01" nType="-99"/>
        </Node>
      </Node>
    </BinaryTree>
    <BinaryTree type="DecisionTree" boostWeight="1.0000000000000000e+00" itree="579">
      <Node pos="s" depth="0" NCoef="0" IVar="2" Cut="5.4184500000000000e+04" cType="1" res="5.9349142014980316e-02" rms="4.1890826821327209e-01" purity="5.0537174940109253e-01" nType="0">
        <Node pos="l" depth="1" NCoef="0" IVar="0" Cut="3.6551970988512039e-02" cType="1" res="-1.7559204250574112e-02" rms="4.1753408312797546e-01" purity="3.3285677433013916e-01" nType="0">
          <Node pos="l" depth="2" NCoef="0" IVar="-1" Cut="0.0000000000000000e+00" cType="1" res="1.6393684200011194e-04" rms="4.4461923837661743e-01" purity="4.3431907892227173e-01" nType="-99"/>
          <Node pos="r" depth="2" NCoef="0" IVar="-1" Cut="0.0000000000000000e+00" cType="1" res="-1.2873321538791060e-03" rms="3.5508829355239868e-01" purity="1.8318760395050049e-01" nType="-99"/>
        </Node>
        <Node pos="r" depth="1" NCoef="0" IVar="1" Cut="2.3743457031250000e+02" cType="1" res="1.9230104982852936e-01" rms="3.8674262166023254e-01" purity="8.0359929800033569e-01" nType="0">
          <Node pos="l" depth="2" NCoef="0" IVar="-1" Cut="0.0000000000000000e+00" cType="1" res="3.4252079785801470e-04" rms="4.2057949304580688e-01" purity="7.5427877902984619e-01" nType="-99"/>
          <Node pos="r" depth="2" NCoef="0" IVar="-1" Cut="0.0000000000000000e+00" cType="1" res="4.2910719639621675e-04" rms="2.5486943125724792e-01" purity="9.2932689189910889e-01" nType="-99"/>
        </Node>
      </Node>
    </BinaryTree>
    <BinaryTree type="DecisionTree" boostWeight="1.0000000000000000e+00" itree="580">
      <Node pos="s" depth="0" NCoef="0" IVar="2" Cut="6.6204593750000000e+04" cType="1" res="6.4417548477649689e-02" rms="4.2710301280021667e-01" purity="5.0151413679122925e-01" nType="0">
        <Node pos="l" depth="1" NCoef="0" IVar="0" Cut="2.5133045390248299e-02" cType="1" res="1.5812734141945839e-02" rms="4.3426606059074402e-01" purity="3.8782122731208801e-01" nType="0">
          <Node pos="l" depth="2" NCoef="0" IVar="-1" Cut="0.0000000000000000e+00" cType="1" res="2.0195648539811373e-04" rms="4.4757184386253357e-01" purity="4.9377653002738953e-01" nType="-99"/>
          <Node pos="r" depth="2" NCoef="0" IVar="-1" Cut="0.0000000000000000e+00" cType="1" res="-2.2069527767598629e-04" rms="4.1572263836860657e-01" purity="3.1899589300155640e-01" nType="-99"/>
        </Node>
        <Node pos="r" depth="1" NCoef="0" IVar="1" Cut="2.2952496337890625e+02" cType="1" res="2.0450584590435028e-01" rms="3.7175267934799194e-01" purity="8.2919853925704956e-01" nType="0">
          <Node pos="l" depth="2" NCoef="0" IVar="-1" Cut="0.0000000000000000e+00" cType="1" res="2.8144213138148189e-04" rms="4.1768866777420044e-01" purity="7.6835680007934570e-01" nType="-99"/>
          <Node pos="r" depth="2" NCoef="0" IVar="-1" Cut="0.0000000000000000e+00" cType="1" res="6.5938220359385014e-04" rms="2.6085394620895386e-01" purity="9.2617642879486084e-01" nType="-99"/>
        </Node>
      </Node>
    </BinaryTree>
    <BinaryTree type="DecisionTree" boostWeight="1.0000000000000000e+00" itree="581">
      <Node pos="s" depth="0" NCoef="0" IVar="2" Cut="6.6204593750000000e+04" cType="1" res="6.4305968582630157e-02" rms="4.2330992221832275e-01" purity="5.0597989559173584e-01" nType="0">
        <Node pos="l" depth="1" NCoef="0" IVar="0" Cut="5.0171643495559692e-02" cType="1" res="1.0661630891263485e-02" rms="4.3006077408790588e-01" purity="3.8536465167999268e-01" nType="0">
          <Node pos="l" depth="2" NCoef="0" IVar="-1" Cut="0.0000000000000000e+00" cType="1" res="1.6310802311636508e-04" rms="4.3905830383300781e-01" purity="4.5279410481452942e-01" nType="-99"/>
          <Node pos="r" depth="2" NCoef="0" IVar="-1" Cut="0.0000000000000000e+00" cType="1" res="-9.7165553597733378e-04" rms="3.7949413061141968e-01" purity="2.0990253984928131e-01" nType="-99"/>
        </Node>
        <Node pos="r" depth="1" NCoef="0" IVar="1" Cut="2.2952496337890625e+02" cType="1" res="2.1088571846485138e-01" rms="3.6619800329208374e-01" purity="8.3555346727371216e-01" nType="0">
          <Node pos="l" depth="2" NCoef="0" IVar="-1" Cut="0.0000000000000000e+00" cType="1" res="3.7183237145654857e-04" rms="4.1075828671455383e-01" purity="7.7850413322448730e-01" nType="-99"/>
          <Node pos="r" depth="2" NCoef="0" IVar="-1" Cut="0.0000000000000000e+00" cType="1" res="5.1315163727849722e-04" rms="2.5903132557868958e-01" purity="9.2743444442749023e-01" nType="-99"/>
        </Node>
      </Node>
    </BinaryTree>
    <BinaryTree type="DecisionTree" boostWeight="1.0000000000000000e+00" itree="582">
      <Node pos="s" depth="0" NCoef="0" IVar="2" Cut="6.1173269531250000e+04" cType="1" res="5.9509646147489548e-02" rms="4.2829790711402893e-01" purity="4.9616840481758118e-01" nType="0">
        <Node pos="l" depth="1" NCoef="0" IVar="0" Cut="1.2700475752353668e-02" cType="1" res="4.2604980990290642e-03" rms="4.3322476744651794e-01" purity="3.6327964067459106e-01" nType="0">
          <Node pos="l" depth="2" NCoef="0" IVar="-1" Cut="0.0000000000000000e+00" cType="1" res="2.9880623333156109e-04" rms="4.4571703672409058e-01" purity="4.7018870711326599e-01" nType="-99"/>
          <Node pos="r" depth="2" NCoef="0" IVar="-1" Cut="0.0000000000000000e+00" cType="1" res="-1.1589713540161029e-04" rms="4.2556336522102356e-01" purity="3.3554396033287048e-01" nType="-99"/>
        </Node>
        <Node pos="r" depth="1" NCoef="0" IVar="1" Cut="2.3100480651855469e+02" cType="1" res="1.8964548408985138e-01" rms="3.8641422986984253e-01" purity="8.0917942523956299e-01" nType="0">
          <Node pos="l" depth="2" NCoef="0" IVar="-1" Cut="0.0000000000000000e+00" cType="1" res="3.2295411801896989e-04" rms="4.3033239245414734e-01" purity="7.4502962827682495e-01" nType="-99"/>
          <Node pos="r" depth="2" NCoef="0" IVar="-1" Cut="0.0000000000000000e+00" cType="1" res="4.7044892562553287e-04" rms="2.6199260354042053e-01" purity="9.2520529031753540e-01" nType="-99"/>
        </Node>
      </Node>
    </BinaryTree>
    <BinaryTree type="DecisionTree" boostWeight="1.0000000000000000e+00" itree="583">
      <Node pos="s" depth="0" NCoef="0" IVar="2" Cut="5.2699613281250000e+04" cType="1" res="6.7437402904033661e-02" rms="4.2397803068161011e-01" purity="5.0898265838623047e-01" nType="0">
        <Node pos="l" depth="1" NCoef="0" IVar="0" Cut="1.2542910873889923e-02" cType="1" res="-4.2479247786104679e-03" rms="4.2664083838462830e-01" purity="3.4029886126518250e-01" nType="0">
          <Node pos="l" depth="2" NCoef="0" IVar="-1" Cut="0.0000000000000000e+00" cType="1" res="1.6060992493294179e-04" rms="4.5238107442855835e-01" purity="4.8496219515800476e-01" nType="-99"/>
          <Node pos="r" depth="2" NCoef="0" IVar="-1" Cut="0.0000000000000000e+00" cType="1" res="-2.5854929117485881e-04" rms="4.1139036417007446e-01" purity="2.9995080828666687e-01" nType="-99"/>
        </Node>
        <Node pos="r" depth="1" NCoef="0" IVar="0" Cut="4.2733144015073776e-02" cType="1" res="1.9077591598033905e-01" rms="3.8962331414222717e-01" purity="7.9921233654022217e-01" nType="0">
          <Node pos="l" depth="2" NCoef="0" IVar="-1" Cut="0.0000000000000000e+00" cType="1" res="4.7231710050255060e-04" rms="2.8914591670036316e-01" purity="9.0665823221206665e-01" nType="-99"/>
          <Node pos="r" depth="2" NCoef="0" IVar="-1" Cut="0.0000000000000000e+00" cType="1" res="3.5331828985363245e-04" rms="4.3034270405769348e-01" purity="7.3326945304870605e-01" nType="-99"/>
        </Node>
      </Node>
    </BinaryTree>
    <BinaryTree type="DecisionTree" boostWeight="1.0000000000000000e+00" itree="584">
      <Node pos="s" depth="0" NCoef="0" IVar="3" Cut="1.2480910301208496e+01" cType="1" res="6.6416941583156586e-02" rms="4.2847180366516113e-01" purity="5.0425946712493896e-01" nType="0">
        <Node pos="l" depth="1" NCoef="0" IVar="0" Cut="1.2183989398181438e-02" cType="1" res="-2.9119379818439484e-02" rms="4.1170498728752136e-01" purity="2.9018172621726990e-01" nType="0">
          <Node pos="l" depth="2" NCoef="0" IVar="-1" Cut="0.0000000000000000e+00" cType="1" res="1.9582681125029922e-04" rms="4.4875219464302063e-01" purity="4.4828483462333679e-01" nType="-99"/>
          <Node pos="r" depth="2" NCoef="0" IVar="-1" Cut="0.0000000000000000e+00" cType="1" res="-5.7981570716947317e-04" rms="3.8385045528411865e-01" purity="2.2665704786777496e-01" nType="-99"/>
        </Node>
        <Node pos="r" depth="1" NCoef="0" IVar="0" Cut="4.1265200823545456e-02" cType="1" res="1.4252665638923645e-01" rms="4.2631763219833374e-01" purity="6.7480599880218506e-01" nType="0">
          <Node pos="l" depth="2" NCoef="0" IVar="-1" Cut="0.0000000000000000e+00" cType="1" res="5.0406641094014049e-04" rms="3.5239228606224060e-01" purity="8.4051287174224854e-01" nType="-99"/>
          <Node pos="r" depth="2" NCoef="0" IVar="-1" Cut="0.0000000000000000e+00" cType="1" res="2.1627329988405108e-04" rms="4.4820043444633484e-01" purity="5.7810437679290771e-01" nType="-99"/>
        </Node>
      </Node>
    </BinaryTree>
    <BinaryTree type="DecisionTree" boostWeight="1.0000000000000000e+00" itree="585">
      <Node pos="s" depth="0" NCoef="0" IVar="1" Cut="1.0517140960693359e+02" cType="1" res="6.1961561441421509e-02" rms="4.2360720038414001e-01" purity="5.0338023900985718e-01" nType="0">
        <Node pos="l" depth="1" NCoef="0" IVar="1" Cut="3.4252521514892578e+01" cType="1" res="-4.6417057514190674e-02" rms="3.8704308867454529e-01" purity="2.3969006538391113e-01" nType="0">
          <Node pos="l" depth="2" NCoef="0" IVar="-1" Cut="0.0000000000000000e+00" cType="1" res="-3.4951369743794203e-03" rms="2.8248235583305359e-01" purity="8.8977925479412079e-02" nType="-99"/>
          <Node pos="r" depth="2" NCoef="0" IVar="-1" Cut="0.0000000000000000e+00" cType="1" res="7.5749476309283637e-06" rms="4.1994193196296692e-01" purity="3.1244057416915894e-01" nType="-99"/>
        </Node>
        <Node pos="r" depth="1" NCoef="0" IVar="1" Cut="2.4954177856445312e+02" cType="1" res="1.3635398447513580e-01" rms="4.3149971961975098e-01" purity="6.8438041210174561e-01" nType="0">
          <Node pos="l" depth="2" NCoef="0" IVar="-1" Cut="0.0000000000000000e+00" cType="1" res="2.7822365518659353e-04" rms="4.5245113968849182e-01" purity="6.3526833057403564e-01" nType="-99"/>
          <Node pos="r" depth="2" NCoef="0" IVar="-1" Cut="0.0000000000000000e+00" cType="1" res="5.4515036754310131e-04" rms="2.6172205805778503e-01" purity="9.2090761661529541e-01" nType="-99"/>
        </Node>
      </Node>
    </BinaryTree>
    <BinaryTree type="DecisionTree" boostWeight="1.0000000000000000e+00" itree="586">
      <Node pos="s" depth="0" NCoef="0" IVar="2" Cut="7.0266148437500000e+04" cType="1" res="6.6154778003692627e-02" rms="4.2083147168159485e-01" purity="5.1090741157531738e-01" nType="0">
        <Node pos="l" depth="1" NCoef="0" IVar="0" Cut="4.9954801797866821e-02" cType="1" res="9.1045880690217018e-03" rms="4.3024078011512756e-01" purity="3.9206144213676453e-01" nType="0">
          <Node pos="l" depth="2" NCoef="0" IVar="-1" Cut="0.0000000000000000e+00" cType="1" res="1.9012820848729461e-04" rms="4.3726247549057007e-01" purity="4.5253983139991760e-01" nType="-99"/>
          <Node pos="r" depth="2" NCoef="0" IVar="-1" Cut="0.0000000000000000e+00" cType="1" res="-7.9393584746867418e-04" rms="3.9463564753532410e-01" purity="2.4809296429157257e-01" nType="-99"/>
        </Node>
        <Node pos="r" depth="1" NCoef="0" IVar="1" Cut="2.1178018188476562e+02" cType="1" res="2.3574568331241608e-01" rms="3.3890670537948608e-01" purity="8.6419624090194702e-01" nType="0">
          <Node pos="l" depth="2" NCoef="0" IVar="-1" Cut="0.0000000000000000e+00" cType="1" res="3.5021468647755682e-04" rms="3.9355814456939697e-01" purity="8.0367511510848999e-01" nType="-99"/>
          <Node pos="r" depth="2" NCoef="0" IVar="-1" Cut="0.0000000000000000e+00" cType="1" res="4.4997097575105727e-04" rms="2.6256531476974487e-01" purity="9.2468792200088501e-01" nType="-99"/>
        </Node>
      </Node>
    </BinaryTree>
    <BinaryTree type="DecisionTree" boostWeight="1.0000000000000000e+00" itree="587">
      <Node pos="s" depth="0" NCoef="0" IVar="2" Cut="3.5133074218750000e+04" cType="1" res="5.3455699235200882e-02" rms="4.2121809720993042e-01" purity="4.9518510699272156e-01" nType="0">
        <Node pos="l" depth="1" NCoef="0" IVar="1" Cut="3.8498767852783203e+01" cType="1" res="-3.7550944834947586e-02" rms="4.0526309609413147e-01" purity="2.8558135032653809e-01" nType="0">
          <Node pos="l" depth="2" NCoef="0" IVar="-1" Cut="0.0000000000000000e+00" cType="1" res="-3.4409966319799423e-03" rms="2.8522759675979614e-01" purity="9.0700551867485046e-02" nType="-99"/>
          <Node pos="r" depth="2" NCoef="0" IVar="-1" Cut="0.0000000000000000e+00" cType="1" res="1.8813239876180887e-05" rms="4.3672171235084534e-01" purity="3.6220055818557739e-01" nType="-99"/>
        </Node>
        <Node pos="r" depth="1" NCoef="0" IVar="0" Cut="4.2799498885869980e-02" cType="1" res="1.5293058753013611e-01" rms="4.1580051183700562e-01" purity="7.2429263591766357e-01" nType="0">
          <Node pos="l" depth="2" NCoef="0" IVar="-1" Cut="0.0000000000000000e+00" cType="1" res="4.9815676175057888e-04" rms="3.4054872393608093e-01" purity="8.5813474655151367e-01" nType="-99"/>
          <Node pos="r" depth="2" NCoef="0" IVar="-1" Cut="0.0000000000000000e+00" cType="1" res="2.4803855922073126e-04" rms="4.4149377942085266e-01" purity="6.4848899841308594e-01" nType="-99"/>
        </Node>
      </Node>
    </BinaryTree>
    <BinaryTree type="DecisionTree" boostWeight="1.0000000000000000e+00" itree="588">
      <Node pos="s" depth="0" NCoef="0" IVar="2" Cut="6.1173269531250000e+04" cType="1" res="6.4778521656990051e-02" rms="4.2807599902153015e-01" purity="5.0141799449920654e-01" nType="0">
        <Node pos="l" depth="1" NCoef="0" IVar="0" Cut="3.7522803992033005e-02" cType="1" res="1.0235563851892948e-02" rms="4.3434068560600281e-01" purity="3.6862239241600037e-01" nType="0">
          <Node pos="l" depth="2" NCoef="0" IVar="-1" Cut="0.0000000000000000e+00" cType="1" res="1.8136949802283198e-04" rms="4.5086407661437988e-01" purity="4.6308296918869019e-01" nType="-99"/>
          <Node pos="r" depth="2" NCoef="0" IVar="-1" Cut="0.0000000000000000e+00" cType="1" res="-5.9394567506387830e-04" rms="3.9397016167640686e-01" purity="2.3137801885604858e-01" nType="-99"/>
        </Node>
        <Node pos="r" depth="1" NCoef="0" IVar="1" Cut="2.2116703796386719e+02" cType="1" res="1.9268496334552765e-01" rms="3.8372230529785156e-01" purity="8.1283140182495117e-01" nType="0">
          <Node pos="l" depth="2" NCoef="0" IVar="-1" Cut="0.0000000000000000e+00" cType="1" res="3.3801401150412858e-04" rms="4.1968360543251038e-01" purity="7.6224136352539062e-01" nType="-99"/>
          <Node pos="r" depth="2" NCoef="0" IVar="-1" Cut="0.0000000000000000e+00" cType="1" res="6.4016901887953281e-04" rms="2.8427955508232117e-01" purity="9.1032236814498901e-01" nType="-99"/>
        </Node>
      </Node>
    </BinaryTree>
    <BinaryTree type="DecisionTree" boostWeight="1.0000000000000000e+00" itree="589">
      <Node pos="s" depth="0" NCoef="0" IVar="1" Cut="1.3922813415527344e+02" cType="1" res="6.7011438310146332e-02" rms="4.2673277854919434e-01" purity="5.0473105907440186e-01" nType="0">
        <Node pos="l" depth="1" NCoef="0" IVar="0" Cut="2.5400951504707336e-02" cType="1" res="-4.9405796453356743e-03" rms="4.1839471459388733e-01" purity="3.1356924772262573e-01" nType="0">
          <Node pos="l" depth="2" NCoef="0" IVar="-1" Cut="0.0000000000000000e+00" cType="1" res="1.5018397243693471e-04" rms="4.5357689261436462e-01" purity="4.3553125858306885e-01" nType="-99"/>
          <Node pos="r" depth="2" NCoef="0" IVar="-1" Cut="0.0000000000000000e+00" cType="1" res="-6.2633148627355695e-04" rms="3.7469539046287537e-01" purity="2.1491509675979614e-01" nType="-99"/>
        </Node>
        <Node pos="r" depth="1" NCoef="0" IVar="0" Cut="3.8859125226736069e-02" cType="1" res="1.5534172952175140e-01" rms="4.2023071646690369e-01" purity="7.3940658569335938e-01" nType="0">
          <Node pos="l" depth="2" NCoef="0" IVar="-1" Cut="0.0000000000000000e+00" cType="1" res="4.1091942694038153e-04" rms="3.6113470792770386e-01" purity="8.3362096548080444e-01" nType="-99"/>
          <Node pos="r" depth="2" NCoef="0" IVar="-1" Cut="0.0000000000000000e+00" cType="1" res="2.6169497868977487e-04" rms="4.4319629669189453e-01" purity="6.8482476472854614e-01" nType="-99"/>
        </Node>
      </Node>
    </BinaryTree>
    <BinaryTree type="DecisionTree" boostWeight="1.0000000000000000e+00" itree="590">
      <Node pos="s" depth="0" NCoef="0" IVar="3" Cut="2.2916530609130859e+01" cType="1" res="5.9998728334903717e-02" rms="4.2487606406211853e-01" purity="4.9833682179450989e-01" nType="0">
        <Node pos="l" depth="1" NCoef="0" IVar="0" Cut="1.2183989398181438e-02" cType="1" res="-1.5236606821417809e-02" rms="4.1931143403053284e-01" purity="3.1989222764968872e-01" nType="0">
          <Node pos="l" depth="2" NCoef="0" IVar="-1" Cut="0.0000000000000000e+00" cType="1" res="2.1104025654494762e-04" rms="4.5378744602203369e-01" purity="4.6915325522422791e-01" nType="-99"/>
          <Node pos="r" depth="2" NCoef="0" IVar="-1" Cut="0.0000000000000000e+00" cType="1" res="-3.3818412339314818e-04" rms="3.9917832612991333e-01" purity="2.7470856904983521e-01" nType="-99"/>
        </Node>
        <Node pos="r" depth="1" NCoef="0" IVar="0" Cut="3.8617823272943497e-02" cType="1" res="1.6610293090343475e-01" rms="4.0976062417030334e-01" purity="7.4999684095382690e-01" nType="0">
          <Node pos="l" depth="2" NCoef="0" IVar="-1" Cut="0.0000000000000000e+00" cType="1" res="5.0907937111333013e-04" rms="2.9535403847694397e-01" purity="9.0150910615921021e-01" nType="-99"/>
          <Node pos="r" depth="2" NCoef="0" IVar="-1" Cut="0.0000000000000000e+00" cType="1" res="3.0363019322976470e-04" rms="4.4115447998046875e-01" purity="6.8178224563598633e-01" nType="-99"/>
        </Node>
      </Node>
    </BinaryTree>
    <BinaryTree type="DecisionTree" boostWeight="1.0000000000000000e+00" itree="591">
      <Node pos="s" depth="0" NCoef="0" IVar="2" Cut="5.4184500000000000e+04" cType="1" res="5.9654895216226578e-02" rms="4.2700150609016418e-01" purity="4.9752572178840637e-01" nType="0">
        <Node pos="l" depth="1" NCoef="0" IVar="0" Cut="1.2542910873889923e-02" cType="1" res="-2.2501545026898384e-03" rms="4.2930337786674500e-01" purity="3.4183296561241150e-01" nType="0">
          <Node pos="l" depth="2" NCoef="0" IVar="-1" Cut="0.0000000000000000e+00" cType="1" res="1.5245265967678279e-04" rms="4.5857688784599304e-01" purity="4.8648455739021301e-01" nType="-99"/>
          <Node pos="r" depth="2" NCoef="0" IVar="-1" Cut="0.0000000000000000e+00" cType="1" res="-2.6267944485880435e-04" rms="4.1175323724746704e-01" purity="3.0065301060676575e-01" nType="-99"/>
        </Node>
        <Node pos="r" depth="1" NCoef="0" IVar="1" Cut="2.1049212646484375e+02" cType="1" res="1.7523938417434692e-01" rms="3.9766183495521545e-01" purity="7.8822350502014160e-01" nType="0">
          <Node pos="l" depth="2" NCoef="0" IVar="-1" Cut="0.0000000000000000e+00" cType="1" res="2.5588399148546159e-04" rms="4.4371291995048523e-01" purity="7.1042144298553467e-01" nType="-99"/>
          <Node pos="r" depth="2" NCoef="0" IVar="-1" Cut="0.0000000000000000e+00" cType="1" res="4.8425883869640529e-04" rms="2.8871610760688782e-01" purity="9.0602642297744751e-01" nType="-99"/>
        </Node>
      </Node>
    </BinaryTree>
    <BinaryTree type="DecisionTree" boostWeight="1.0000000000000000e+00" itree="592">
      <Node pos="s" depth="0" NCoef="0" IVar="1" Cut="1.3828833007812500e+02" cType="1" res="6.3584014773368835e-02" rms="4.2759144306182861e-01" purity="5.0153589248657227e-01" nType="0">
        <Node pos="l" depth="1" NCoef="0" IVar="0" Cut="2.5400951504707336e-02" cType="1" res="-1.6928505152463913e-02" rms="4.1893061995506287e-01" purity="2.9466539621353149e-01" nType="0">
          <Node pos="l" depth="2" NCoef="0" IVar="-1" Cut="0.0000000000000000e+00" cType="1" res="1.0697994730435312e-04" rms="4.4425818324089050e-01" purity="3.9559543132781982e-01" nType="-99"/>
          <Node pos="r" depth="2" NCoef="0" IVar="-1" Cut="0.0000000000000000e+00" cType="1" res="-4.4791674008592963e-04" rms="3.9329180121421814e-01" purity="2.1744650602340698e-01" nType="-99"/>
        </Node>
        <Node pos="r" depth="1" NCoef="0" IVar="1" Cut="2.5785623168945312e+02" cType="1" res="1.5703845024108887e-01" rms="4.1843342781066895e-01" purity="7.4165958166122437e-01" nType="0">
          <Node pos="l" depth="2" NCoef="0" IVar="-1" Cut="0.0000000000000000e+00" cType="1" res="3.2002510852180421e-04" rms="4.3975934386253357e-01" purity="7.0288252830505371e-01" nType="-99"/>
          <Node pos="r" depth="2" NCoef="0" IVar="-1" Cut="0.0000000000000000e+00" cType="1" res="4.4226361205801368e-04" rms="2.6390567421913147e-01" purity="9.2000097036361694e-01" nType="-99"/>
        </Node>
      </Node>
    </BinaryTree>
    <BinaryTree type="DecisionTree" boostWeight="1.0000000000000000e+00" itree="593">
      <Node pos="s" depth="0" NCoef="0" IVar="2" Cut="5.2699613281250000e+04" cType="1" res="5.1779352128505707e-02" rms="4.2355671525001526e-01" purity="4.9031350016593933e-01" nType="0">
        <Node pos="l" depth="1" NCoef="0" IVar="0" Cut="6.0445196926593781e-02" cType="1" res="-1.5403657220304012e-02" rms="4.2083421349525452e-01" purity="3.2901459932327271e-01" nType="0">
          <Node pos="l" depth="2" NCoef="0" IVar="-1" Cut="0.0000000000000000e+00" cType="1" res="5.6554799812147394e-05" rms="4.3509209156036377e-01" purity="3.7222665548324585e-01" nType="-99"/>
          <Node pos="r" depth="2" NCoef="0" IVar="-1" Cut="0.0000000000000000e+00" cType="1" res="-2.2586227860301733e-03" rms="3.1772196292877197e-01" purity="1.3243438303470612e-01" nType="-99"/>
        </Node>
        <Node pos="r" depth="1" NCoef="0" IVar="1" Cut="2.3384078979492188e+02" cType="1" res="1.7349685728549957e-01" rms="4.0071523189544678e-01" purity="7.8254359960556030e-01" nType="0">
          <Node pos="l" depth="2" NCoef="0" IVar="-1" Cut="0.0000000000000000e+00" cType="1" res="2.6518973754718900e-04" rms="4.3483075499534607e-01" purity="7.2693479061126709e-01" nType="-99"/>
          <Node pos="r" depth="2" NCoef="0" IVar="-1" Cut="0.0000000000000000e+00" cType="1" res="4.8985122703015804e-04" rms="2.6930058002471924e-01" purity="9.2005521059036255e-01" nType="-99"/>
        </Node>
      </Node>
    </BinaryTree>
    <BinaryTree type="DecisionTree" boostWeight="1.0000000000000000e+00" itree="594">
      <Node pos="s" depth="0" NCoef="0" IVar="1" Cut="1.3941770935058594e+02" cType="1" res="6.9590300321578979e-02" rms="4.2571818828582764e-01" purity="5.1046627759933472e-01" nType="0">
        <Node pos="l" depth="1" NCoef="0" IVar="0" Cut="3.8617823272943497e-02" cType="1" res="-8.7495511397719383e-03" rms="4.1727840900421143e-01" purity="3.1040441989898682e-01" nType="0">
          <Node pos="l" depth="2" NCoef="0" IVar="-1" Cut="0.0000000000000000e+00" cType="1" res="1.2042401067446917e-04" rms="4.5030570030212402e-01" purity="4.0352144837379456e-01" nType="-99"/>
          <Node pos="r" depth="2" NCoef="0" IVar="-1" Cut="0.0000000000000000e+00" cType="1" res="-1.2169085675850511e-03" rms="3.3548605442047119e-01" purity="1.5193203091621399e-01" nType="-99"/>
        </Node>
        <Node pos="r" depth="1" NCoef="0" IVar="1" Cut="2.5976449584960938e+02" cType="1" res="1.6229623556137085e-01" rms="4.1689139604568481e-01" purity="7.4721580743789673e-01" nType="0">
          <Node pos="l" depth="2" NCoef="0" IVar="-1" Cut="0.0000000000000000e+00" cType="1" res="3.1094963196665049e-04" rms="4.3837493658065796e-01" purity="7.0822644233703613e-01" nType="-99"/>
          <Node pos="r" depth="2" NCoef="0" IVar="-1" Cut="0.0000000000000000e+00" cType="1" res="5.7274935534223914e-04" rms="2.6277649402618408e-01" purity="9.2307305335998535e-01" nType="-99"/>
        </Node>
      </Node>
    </BinaryTree>
    <BinaryTree type="DecisionTree" boostWeight="1.0000000000000000e+00" itree="595">
      <Node pos="s" depth="0" NCoef="0" IVar="1" Cut="1.5843783569335938e+02" cType="1" res="6.2161367386579514e-02" rms="4.2652666568756104e-01" purity="5.0080198049545288e-01" nType="0">
        <Node pos="l" depth="1" NCoef="0" IVar="1" Cut="3.6872852325439453e+01" cType="1" res="-1.0629682801663876e-03" rms="4.2745289206504822e-01" purity="3.4476983547210693e-01" nType="0">
          <Node pos="l" depth="2" NCoef="0" IVar="-1" Cut="0.0000000000000000e+00" cType="1" res="-1.8202093197032809e-03" rms="3.2215225696563721e-01" purity="1.2016014009714127e-01" nType="-99"/>
          <Node pos="r" depth="2" NCoef="0" IVar="-1" Cut="0.0000000000000000e+00" cType="1" res="1.1465513671282679e-04" rms="4.4842207431793213e-01" purity="4.1067996621131897e-01" nType="-99"/>
        </Node>
        <Node pos="r" depth="1" NCoef="0" IVar="2" Cut="7.3793890625000000e+04" cType="1" res="1.7316526174545288e-01" rms="4.0149253606796265e-01" purity="7.7474987506866455e-01" nType="0">
          <Node pos="l" depth="2" NCoef="0" IVar="-1" Cut="0.0000000000000000e+00" cType="1" res="2.7462202706374228e-04" rms="4.5042464137077332e-01" purity="6.7675304412841797e-01" nType="-99"/>
          <Node pos="r" depth="2" NCoef="0" IVar="-1" Cut="0.0000000000000000e+00" cType="1" res="4.0256488136947155e-04" rms="3.3947047591209412e-01" purity="8.6471414566040039e-01" nType="-99"/>
        </Node>
      </Node>
    </BinaryTree>
    <BinaryTree type="DecisionTree" boostWeight="1.0000000000000000e+00" itree="596">
      <Node pos="s" depth="0" NCoef="0" IVar="2" Cut="6.1173269531250000e+04" cType="1" res="6.5461672842502594e-02" rms="4.2691510915756226e-01" purity="5.0347399711608887e-01" nType="0">
        <Node pos="l" depth="1" NCoef="0" IVar="0" Cut="3.7522803992033005e-02" cType="1" res="1.2613810598850250e-02" rms="4.3286943435668945e-01" purity="3.7282246351242065e-01" nType="0">
          <Node pos="l" depth="2" NCoef="0" IVar="-1" Cut="0.0000000000000000e+00" cType="1" res="2.0692835096269846e-04" rms="4.4917082786560059e-01" purity="4.6979308128356934e-01" nType="-99"/>
          <Node pos="r" depth="2" NCoef="0" IVar="-1" Cut="0.0000000000000000e+00" cType="1" res="-6.6068675369024277e-04" rms="3.9113458991050720e-01" purity="2.3012898862361908e-01" nType="-99"/>
        </Node>
        <Node pos="r" depth="1" NCoef="0" IVar="1" Cut="2.4734503173828125e+02" cType="1" res="1.9007252156734467e-01" rms="3.8480129837989807e-01" purity="8.1153941154479980e-01" nType="0">
          <Node pos="l" depth="2" NCoef="0" IVar="-1" Cut="0.0000000000000000e+00" cType="1" res="3.5003214725293219e-04" rms="4.2426234483718872e-01" purity="7.5606691837310791e-01" nType="-99"/>
          <Node pos="r" depth="2" NCoef="0" IVar="-1" Cut="0.0000000000000000e+00" cType="1" res="5.4500077385455370e-04" rms="2.4028302729129791e-01" purity="9.3821948766708374e-01" nType="-99"/>
        </Node>
      </Node>
    </BinaryTree>
    <BinaryTree type="DecisionTree" boostWeight="1.0000000000000000e+00" itree="597">
      <Node pos="s" depth="0" NCoef="0" IVar="2" Cut="7.2246000000000000e+04" cType="1" res="5.0173074007034302e-02" rms="4.2439672350883484e-01" purity="4.8742517828941345e-01" nType="0">
        <Node pos="l" depth="1" NCoef="0" IVar="0" Cut="5.0810825079679489e-02" cType="1" res="3.9304322563111782e-03" rms="4.3046060204505920e-01" purity="3.8909927010536194e-01" nType="0">
          <Node pos="l" depth="2" NCoef="0" IVar="-1" Cut="0.0000000000000000e+00" cType="1" res="1.5560399333480746e-04" rms="4.3891486525535583e-01" purity="4.5352792739868164e-01" nType="-99"/>
          <Node pos="r" depth="2" NCoef="0" IVar="-1" Cut="0.0000000000000000e+00" cType="1" res="-1.0337070561945438e-03" rms="3.8101026415824890e-01" purity="2.2691330313682556e-01" nType="-99"/>
        </Node>
        <Node pos="r" depth="1" NCoef="0" IVar="1" Cut="2.0142605590820312e+02" cType="1" res="2.2170747816562653e-01" rms="3.5146483778953552e-01" purity="8.5215955972671509e-01" nType="0">
          <Node pos="l" depth="2" NCoef="0" IVar="-1" Cut="0.0000000000000000e+00" cType="1" res="3.8319276063703001e-04" rms="4.1753691434860229e-01" purity="7.6857703924179077e-01" nType="-99"/>
          <Node pos="r" depth="2" NCoef="0" IVar="-1" Cut="0.0000000000000000e+00" cType="1" res="4.5457523083314300e-04" rms="2.8617072105407715e-01" purity="9.0914481878280640e-01" nType="-99"/>
        </Node>
      </Node>
    </BinaryTree>
    <BinaryTree type="DecisionTree" boostWeight="1.0000000000000000e+00" itree="598">
      <Node pos="s" depth="0" NCoef="0" IVar="2" Cut="5.4184500000000000e+04" cType="1" res="6.7329876124858856e-02" rms="4.2309308052062988e-01" purity="5.0888192653656006e-01" nType="0">
        <Node pos="l" depth="1" NCoef="0" IVar="0" Cut="2.5133045390248299e-02" cType="1" res="2.8474992141127586e-03" rms="4.2574158310890198e-01" purity="3.5176137089729309e-01" nType="0">
          <Node pos="l" depth="2" NCoef="0" IVar="-1" Cut="0.0000000000000000e+00" cType="1" res="2.6672842795960605e-04" rms="4.4463858008384705e-01" purity="4.7049289941787720e-01" nType="-99"/>
          <Node pos="r" depth="2" NCoef="0" IVar="-1" Cut="0.0000000000000000e+00" cType="1" res="-3.9231133996509016e-04" rms="4.0148267149925232e-01" purity="2.6562747359275818e-01" nType="-99"/>
        </Node>
        <Node pos="r" depth="1" NCoef="0" IVar="1" Cut="2.5297908020019531e+02" cType="1" res="1.8611657619476318e-01" rms="3.9127531647682190e-01" purity="7.9832291603088379e-01" nType="0">
          <Node pos="l" depth="2" NCoef="0" IVar="-1" Cut="0.0000000000000000e+00" cType="1" res="2.9636578983627260e-04" rms="4.2100685834884644e-01" purity="7.5514709949493408e-01" nType="-99"/>
          <Node pos="r" depth="2" NCoef="0" IVar="-1" Cut="0.0000000000000000e+00" cType="1" res="6.1428424669429660e-04" rms="2.4348586797714233e-01" purity="9.3622028827667236e-01" nType="-99"/>
        </Node>
      </Node>
    </BinaryTree>
    <BinaryTree type="DecisionTree" boostWeight="1.0000000000000000e+00" itree="599">
      <Node pos="s" depth="0" NCoef="0" IVar="2" Cut="4.4136394531250000e+04" cType="1" res="6.0917112976312637e-02" rms="4.2417547106742859e-01" purity="5.0048238039016724e-01" nType="0">
        <Node pos="l" depth="1" NCoef="0" IVar="1" Cut="3.5509387969970703e+01" cType="1" res="-9.6607208251953125e-03" rms="4.2063939571380615e-01" purity="3.2091793417930603e-01" nType="0">
          <Node pos="l" depth="2" NCoef="0" IVar="-1" Cut="0.0000000000000000e+00" cType="1" res="-2.5245549622923136e-03" rms="3.0547770857810974e-01" purity="1.0619955509901047e-01" nType="-99"/>
          <Node pos="r" depth="2" NCoef="0" IVar="-1" Cut="0.0000000000000000e+00" cType="1" res="8.7596185039728880e-05" rms="4.4393959641456604e-01" purity="3.8688543438911438e-01" nType="-99"/>
        </Node>
        <Node pos="r" depth="1" NCoef="0" IVar="0" Cut="4.3748017400503159e-02" cType="1" res="1.6176931560039520e-01" rms="4.0853947401046753e-01" purity="7.5707113742828369e-01" nType="0">
          <Node pos="l" depth="2" NCoef="0" IVar="-1" Cut="0.0000000000000000e+00" cType="1" res="5.3712882800027728e-04" rms="3.2952567934989929e-01" purity="8.7180244922637939e-01" nType="-99"/>
          <Node pos="r" depth="2" NCoef="0" IVar="-1" Cut="0.0000000000000000e+00" cType="1" res="2.3894518380984664e-04" rms="4.3885290622711182e-01" purity="6.8854308128356934e-01" nType="-99"/>
        </Node>
      </Node>
    </BinaryTree>
    <BinaryTree type="DecisionTree" boostWeight="1.0000000000000000e+00" itree="600">
      <Node pos="s" depth="0" NCoef="0" IVar="1" Cut="1.5836036682128906e+02" cType="1" res="6.0957614332437515e-02" rms="4.2104509472846985e-01" purity="5.0477290153503418e-01" nType="0">
        <Node pos="l" depth="1" NCoef="0" IVar="0" Cut="2.5400951504707336e-02" cType="1" res="-1.1240589432418346e-02" rms="4.1845849156379700e-01" purity="3.3841323852539062e-01" nType="0">
          <Node pos="l" depth="2" NCoef="0" IVar="-1" Cut="0.0000000000000000e+00" cType="1" res="2.6197990518994629e-04" rms="4.4245466589927673e-01" purity="4.5388403534889221e-01" nType="-99"/>
          <Node pos="r" depth="2" NCoef="0" IVar="-1" Cut="0.0000000000000000e+00" cType="1" res="-5.3555954946205020e-04" rms="3.8929247856140137e-01" purity="2.5577348470687866e-01" nType="-99"/>
        </Node>
        <Node pos="r" depth="1" NCoef="0" IVar="1" Cut="2.4954237365722656e+02" cType="1" res="1.8177597224712372e-01" rms="3.9697957038879395e-01" purity="7.8316348791122437e-01" nType="0">
          <Node pos="l" depth="2" NCoef="0" IVar="-1" Cut="0.0000000000000000e+00" cType="1" res="3.5426439717411995e-04" rms="4.2968249320983887e-01" purity="7.3165929317474365e-01" nType="-99"/>
          <Node pos="r" depth="2" NCoef="0" IVar="-1" Cut="0.0000000000000000e+00" cType="1" res="4.1707843774929643e-04" rms="2.6275902986526489e-01" purity="9.2128014564514160e-01" nType="-99"/>
        </Node>
      </Node>
    </BinaryTree>
    <BinaryTree type="DecisionTree" boostWeight="1.0000000000000000e+00" itree="601">
      <Node pos="s" depth="0" NCoef="0" IVar="2" Cut="6.1173269531250000e+04" cType="1" res="6.2520883977413177e-02" rms="4.2406693100929260e-01" purity="5.0333964824676514e-01" nType="0">
        <Node pos="l" depth="1" NCoef="0" IVar="0" Cut="6.2351759523153305e-02" cType="1" res="3.5792808048427105e-03" rms="4.2937374114990234e-01" purity="3.6411091685295105e-01" nType="0">
          <Node pos="l" depth="2" NCoef="0" IVar="-1" Cut="0.0000000000000000e+00" cType="1" res="1.3632528134621680e-04" rms="4.3872326612472534e-01" purity="4.0554398298263550e-01" nType="-99"/>
          <Node pos="r" depth="2" NCoef="0" IVar="-1" Cut="0.0000000000000000e+00" cType="1" res="-1.5707403654232621e-03" rms="3.5059553384780884e-01" purity="1.7347729206085205e-01" nType="-99"/>
        </Node>
        <Node pos="r" depth="1" NCoef="0" IVar="1" Cut="2.4734503173828125e+02" cType="1" res="1.9569627940654755e-01" rms="3.7949228286743164e-01" purity="8.1791931390762329e-01" nType="0">
          <Node pos="l" depth="2" NCoef="0" IVar="-1" Cut="0.0000000000000000e+00" cType="1" res="3.4985822276212275e-04" rms="4.1564241051673889e-01" purity="7.6950228214263916e-01" nType="-99"/>
          <Node pos="r" depth="2" NCoef="0" IVar="-1" Cut="0.0000000000000000e+00" cType="1" res="5.3771864622831345e-04" rms="2.4130365252494812e-01" purity="9.3761467933654785e-01" nType="-99"/>
        </Node>
      </Node>
    </BinaryTree>
    <BinaryTree type="DecisionTree" boostWeight="1.0000000000000000e+00" itree="602">
      <Node pos="s" depth="0" NCoef="0" IVar="2" Cut="4.4136394531250000e+04" cType="1" res="6.7704454064369202e-02" rms="4.2238166928291321e-01" purity="5.1133751869201660e-01" nType="0">
        <Node pos="l" depth="1" NCoef="0" IVar="0" Cut="3.6551970988512039e-02" cType="1" res="-5.8529609814286232e-03" rms="4.2020797729492188e-01" purity="3.2824876904487610e-01" nType="0">
          <Node pos="l" depth="2" NCoef="0" IVar="-1" Cut="0.0000000000000000e+00" cType="1" res="1.4460197417065501e-04" rms="4.4933509826660156e-01" purity="4.2540597915649414e-01" nType="-99"/>
          <Node pos="r" depth="2" NCoef="0" IVar="-1" Cut="0.0000000000000000e+00" cType="1" res="-1.1166916228830814e-03" rms="3.5199117660522461e-01" purity="1.6940423846244812e-01" nType="-99"/>
        </Node>
        <Node pos="r" depth="1" NCoef="0" IVar="0" Cut="4.2733144015073776e-02" cType="1" res="1.7047654092311859e-01" rms="4.0353873372077942e-01" purity="7.6714330911636353e-01" nType="0">
          <Node pos="l" depth="2" NCoef="0" IVar="-1" Cut="0.0000000000000000e+00" cType="1" res="4.4031700235791504e-04" rms="3.1476554274559021e-01" purity="8.8467323780059814e-01" nType="-99"/>
          <Node pos="r" depth="2" NCoef="0" IVar="-1" Cut="0.0000000000000000e+00" cType="1" res="2.8082463541068137e-04" rms="4.3651071190834045e-01" purity="7.0082241296768188e-01" nType="-99"/>
        </Node>
      </Node>
    </BinaryTree>
    <BinaryTree type="DecisionTree" boostWeight="1.0000000000000000e+00" itree="603">
      <Node pos="s" depth="0" NCoef="0" IVar="2" Cut="6.6204593750000000e+04" cType="1" res="6.3029393553733826e-02" rms="4.2723786830902100e-01" purity="4.9966356158256531e-01" nType="0">
        <Node pos="l" depth="1" NCoef="0" IVar="0" Cut="6.2832608819007874e-02" cType="1" res="1.5168924815952778e-02" rms="4.3509450554847717e-01" purity="3.8475143909454346e-01" nType="0">
          <Node pos="l" depth="2" NCoef="0" IVar="-1" Cut="0.0000000000000000e+00" cType="1" res="1.5004287706688046e-04" rms="4.4259360432624817e-01" purity="4.2558172345161438e-01" nType="-99"/>
          <Node pos="r" depth="2" NCoef="0" IVar="-1" Cut="0.0000000000000000e+00" cType="1" res="-1.1164532043039799e-03" rms="3.6840736865997314e-01" purity="2.0344614982604980e-01" nType="-99"/>
        </Node>
        <Node pos="r" depth="1" NCoef="0" IVar="1" Cut="2.0048472595214844e+02" cType="1" res="2.0038685202598572e-01" rms="3.7100812792778015e-01" purity="8.2945621013641357e-01" nType="0">
          <Node pos="l" depth="2" NCoef="0" IVar="-1" Cut="0.0000000000000000e+00" cType="1" res="3.0095013789832592e-04" rms="4.2497816681861877e-01" purity="7.5415980815887451e-01" nType="-99"/>
          <Node pos="r" depth="2" NCoef="0" IVar="-1" Cut="0.0000000000000000e+00" cType="1" res="3.1718029640614986e-04" rms="2.9408130049705505e-01" purity="9.0306544303894043e-01" nType="-99"/>
        </Node>
      </Node>
    </BinaryTree>
    <BinaryTree type="DecisionTree" boostWeight="1.0000000000000000e+00" itree="604">
      <Node pos="s" depth="0" NCoef="0" IVar="2" Cut="6.1173269531250000e+04" cType="1" res="6.7077644169330597e-02" rms="4.2452770471572876e-01" purity="5.0774031877517700e-01" nType="0">
        <Node pos="l" depth="1" NCoef="0" IVar="0" Cut="3.8101427257061005e-02" cType="1" res="1.0334394872188568e-02" rms="4.3148276209831238e-01" purity="3.7039273977279663e-01" nType="0">
          <Node pos="l" depth="2" NCoef="0" IVar="-1" Cut="0.0000000000000000e+00" cType="1" res="1.9207017612643540e-04" rms="4.4841751456260681e-01" purity="4.6589249372482300e-01" nType="-99"/>
          <Node pos="r" depth="2" NCoef="0" IVar="-1" Cut="0.0000000000000000e+00" cType="1" res="-6.6706829238682985e-04" rms="3.8897174596786499e-01" purity="2.2799840569496155e-01" nType="-99"/>
        </Node>
        <Node pos="r" depth="1" NCoef="0" IVar="1" Cut="2.4353530883789062e+02" cType="1" res="1.9581443071365356e-01" rms="3.7793967127799988e-01" purity="8.1934887170791626e-01" nType="0">
          <Node pos="l" depth="2" NCoef="0" IVar="-1" Cut="0.0000000000000000e+00" cType="1" res="3.2992789056152105e-04" rms="4.1317206621170044e-01" purity="7.7207028865814209e-01" nType="-99"/>
          <Node pos="r" depth="2" NCoef="0" IVar="-1" Cut="0.0000000000000000e+00" cType="1" res="5.5490096565335989e-04" rms="2.5001490116119385e-01" purity="9.3267965316772461e-01" nType="-99"/>
        </Node>
      </Node>
    </BinaryTree>
    <BinaryTree type="DecisionTree" boostWeight="1.0000000000000000e+00" itree="605">
      <Node pos="s" depth="0" NCoef="0" IVar="2" Cut="3.6123000000000000e+04" cType="1" res="6.5247297286987305e-02" rms="4.2587780952453613e-01" purity="5.0405448675155640e-01" nType="0">
        <Node pos="l" depth="1" NCoef="0" IVar="0" Cut="1.2542910873889923e-02" cType="1" res="-1.1839752085506916e-02" rms="4.1842818260192871e-01" purity="3.1122174859046936e-01" nType="0">
          <Node pos="l" depth="2" NCoef="0" IVar="-1" Cut="0.0000000000000000e+00" cType="1" res="3.1205415143631399e-04" rms="4.5374903082847595e-01" purity="4.7504207491874695e-01" nType="-99"/>
          <Node pos="r" depth="2" NCoef="0" IVar="-1" Cut="0.0000000000000000e+00" cType="1" res="-3.7163106026127934e-04" rms="3.9428070187568665e-01" purity="2.5384849309921265e-01" nType="-99"/>
        </Node>
        <Node pos="r" depth="1" NCoef="0" IVar="0" Cut="4.0290948003530502e-02" cType="1" res="1.5477702021598816e-01" rms="4.1684499382972717e-01" purity="7.2801244258880615e-01" nType="0">
          <Node pos="l" depth="2" NCoef="0" IVar="-1" Cut="0.0000000000000000e+00" cType="1" res="5.2824581507593393e-04" rms="3.2847133278846741e-01" purity="8.7149500846862793e-01" nType="-99"/>
          <Node pos="r" depth="2" NCoef="0" IVar="-1" Cut="0.0000000000000000e+00" cType="1" res="2.4825177388265729e-04" rms="4.4305887818336487e-01" purity="6.5914583206176758e-01" nType="-99"/>
        </Node>
      </Node>
    </BinaryTree>
    <BinaryTree type="DecisionTree" boostWeight="1.0000000000000000e+00" itree="606">
      <Node pos="s" depth="0" NCoef="0" IVar="1" Cut="1.0517140960693359e+02" cType="1" res="6.8411327898502350e-02" rms="4.2611396312713623e-01" purity="5.0703895092010498e-01" nType="0">
        <Node pos="l" depth="1" NCoef="0" IVar="1" Cut="5.9580520629882812e+01" cType="1" res="-2.6439188048243523e-02" rms="3.9728721976280212e-01" purity="2.5939565896987915e-01" nType="0">
          <Node pos="l" depth="2" NCoef="0" IVar="-1" Cut="0.0000000000000000e+00" cType="1" res="-1.0530378203839064e-03" rms="3.4089720249176025e-01" purity="1.4043448865413666e-01" nType="-99"/>
          <Node pos="r" depth="2" NCoef="0" IVar="-1" Cut="0.0000000000000000e+00" cType="1" res="1.6944347589742392e-04" rms="4.3884658813476562e-01" purity="3.8450595736503601e-01" nType="-99"/>
        </Node>
        <Node pos="r" depth="1" NCoef="0" IVar="1" Cut="2.4954226684570312e+02" cType="1" res="1.3544829189777374e-01" rms="4.3300855159759521e-01" purity="6.8206435441970825e-01" nType="0">
          <Node pos="l" depth="2" NCoef="0" IVar="-1" Cut="0.0000000000000000e+00" cType="1" res="2.9653703677468002e-04" rms="4.5233687758445740e-01" purity="6.3695430755615234e-01" nType="-99"/>
          <Node pos="r" depth="2" NCoef="0" IVar="-1" Cut="0.0000000000000000e+00" cType="1" res="4.8682600026950240e-04" rms="2.6976835727691650e-01" purity="9.1585755348205566e-01" nType="-99"/>
        </Node>
      </Node>
    </BinaryTree>
    <BinaryTree type="DecisionTree" boostWeight="1.0000000000000000e+00" itree="607">
      <Node pos="s" depth="0" NCoef="0" IVar="2" Cut="4.0782179687500000e+04" cType="1" res="6.2721192836761475e-02" rms="4.2320698499679565e-01" purity="5.0390166044235229e-01" nType="0">
        <Node pos="l" depth="1" NCoef="0" IVar="0" Cut="1.2566522695124149e-02" cType="1" res="-1.1986136436462402e-02" rms="4.1722172498703003e-01" purity="3.1705161929130554e-01" nType="0">
          <Node pos="l" depth="2" NCoef="0" IVar="-1" Cut="0.0000000000000000e+00" cType="1" res="4.7888170229271054e-04" rms="4.4876548647880554e-01" purity="4.6753832697868347e-01" nType="-99"/>
          <Node pos="r" depth="2" NCoef="0" IVar="-1" Cut="0.0000000000000000e+00" cType="1" res="-3.4216238418594003e-04" rms="3.9816743135452271e-01" purity="2.6894870400428772e-01" nType="-99"/>
        </Node>
        <Node pos="r" depth="1" NCoef="0" IVar="0" Cut="3.9251808077096939e-02" cType="1" res="1.6022726893424988e-01" rms="4.1094717383384705e-01" purity="7.4777358770370483e-01" nType="0">
          <Node pos="l" depth="2" NCoef="0" IVar="-1" Cut="0.0000000000000000e+00" cType="1" res="5.2021560259163380e-04" rms="3.1175982952117920e-01" purity="8.9053696393966675e-01" nType="-99"/>
          <Node pos="r" depth="2" NCoef="0" IVar="-1" Cut="0.0000000000000000e+00" cType="1" res="2.3527632583864033e-04" rms="4.3772482872009277e-01" purity="6.8229228258132935e-01" nType="-99"/>
        </Node>
      </Node>
    </BinaryTree>
    <BinaryTree type="DecisionTree" boostWeight="1.0000000000000000e+00" itree="608">
      <Node pos="s" depth="0" NCoef="0" IVar="2" Cut="6.6204593750000000e+04" cType="1" res="5.5776420980691910e-02" rms="4.2731770873069763e-01" purity="4.9041679501533508e-01" nType="0">
        <Node pos="l" depth="1" NCoef="0" IVar="0" Cut="3.7699569016695023e-02" cType="1" res="9.3799773603677750e-03" rms="4.3266919255256653e-01" purity="3.7800386548042297e-01" nType="0">
          <Node pos="l" depth="2" NCoef="0" IVar="-1" Cut="0.0000000000000000e+00" cType="1" res="1.6166651039384305e-04" rms="4.4950884580612183e-01" purity="4.7357985377311707e-01" nType="-99"/>
          <Node pos="r" depth="2" NCoef="0" IVar="-1" Cut="0.0000000000000000e+00" cType="1" res="-5.3005962399765849e-04" rms="3.9043590426445007e-01" purity="2.4485513567924500e-01" nType="-99"/>
        </Node>
        <Node pos="r" depth="1" NCoef="0" IVar="1" Cut="2.0048472595214844e+02" cType="1" res="1.9175554811954498e-01" rms="3.7988546490669250e-01" purity="8.1987756490707397e-01" nType="0">
          <Node pos="l" depth="2" NCoef="0" IVar="-1" Cut="0.0000000000000000e+00" cType="1" res="3.1829660292714834e-04" rms="4.2985248565673828e-01" purity="7.4974679946899414e-01" nType="-99"/>
          <Node pos="r" depth="2" NCoef="0" IVar="-1" Cut="0.0000000000000000e+00" cType="1" res="4.9280631355941296e-04" rms="3.0389022827148438e-01" purity="8.9526468515396118e-01" nType="-99"/>
        </Node>
      </Node>
    </BinaryTree>
    <BinaryTree type="DecisionTree" boostWeight="1.0000000000000000e+00" itree="609">
      <Node pos="s" depth="0" NCoef="0" IVar="2" Cut="7.1768554687500000e+04" cType="1" res="5.3010370582342148e-02" rms="4.2215621471405029e-01" purity="4.9171847105026245e-01" nType="0">
        <Node pos="l" depth="1" NCoef="0" IVar="0" Cut="5.1490433514118195e-02" cType="1" res="5.1379795186221600e-03" rms="4.2885905504226685e-01" purity="3.8865646719932556e-01" nType="0">
          <Node pos="l" depth="2" NCoef="0" IVar="-1" Cut="0.0000000000000000e+00" cType="1" res="1.7088488675653934e-04" rms="4.3695288896560669e-01" purity="4.4630053639411926e-01" nType="-99"/>
          <Node pos="r" depth="2" NCoef="0" IVar="-1" Cut="0.0000000000000000e+00" cType="1" res="-9.2958804452791810e-04" rms="3.8622954487800598e-01" purity="2.4217969179153442e-01" nType="-99"/>
        </Node>
        <Node pos="r" depth="1" NCoef="0" IVar="1" Cut="2.0627568054199219e+02" cType="1" res="2.2151637077331543e-01" rms="3.4882166981697083e-01" purity="8.5448646545410156e-01" nType="0">
          <Node pos="l" depth="2" NCoef="0" IVar="-1" Cut="0.0000000000000000e+00" cType="1" res="3.6740259383805096e-04" rms="4.1702517867088318e-01" purity="7.6973533630371094e-01" nType="-99"/>
          <Node pos="r" depth="2" NCoef="0" IVar="-1" Cut="0.0000000000000000e+00" cType="1" res="4.1773513657972217e-04" rms="2.7317470312118530e-01" purity="9.1790539026260376e-01" nType="-99"/>
        </Node>
      </Node>
    </BinaryTree>
    <BinaryTree type="DecisionTree" boostWeight="1.0000000000000000e+00" itree="610">
      <Node pos="s" depth="0" NCoef="0" IVar="2" Cut="6.6204593750000000e+04" cType="1" res="5.9114914387464523e-02" rms="4.2657738924026489e-01" purity="4.9593916535377502e-01" nType="0">
        <Node pos="l" depth="1" NCoef="0" IVar="0" Cut="5.0171643495559692e-02" cType="1" res="1.1822156608104706e-02" rms="4.3334168195724487e-01" purity="3.8145768642425537e-01" nType="0">
          <Node pos="l" depth="2" NCoef="0" IVar="-1" Cut="0.0000000000000000e+00" cType="1" res="1.9710211199708283e-04" rms="4.4532030820846558e-01" purity="4.4516360759735107e-01" nType="-99"/>
          <Node pos="r" depth="2" NCoef="0" IVar="-1" Cut="0.0000000000000000e+00" cType="1" res="-9.0843730140477419e-04" rms="3.7648925185203552e-01" purity="2.1773636341094971e-01" nType="-99"/>
        </Node>
        <Node pos="r" depth="1" NCoef="0" IVar="1" Cut="1.9695610046386719e+02" cType="1" res="1.9516095519065857e-01" rms="3.7455677986145020e-01" purity="8.2526540756225586e-01" nType="0">
          <Node pos="l" depth="2" NCoef="0" IVar="-1" Cut="0.0000000000000000e+00" cType="1" res="3.0399177921935916e-04" rms="4.2908626794815063e-01" purity="7.4823421239852905e-01" nType="-99"/>
          <Node pos="r" depth="2" NCoef="0" IVar="-1" Cut="0.0000000000000000e+00" cType="1" res="5.0568784354254603e-04" rms="3.0208250880241394e-01" purity="8.9656621217727661e-01" nType="-99"/>
        </Node>
      </Node>
    </BinaryTree>
    <BinaryTree type="DecisionTree" boostWeight="1.0000000000000000e+00" itree="611">
      <Node pos="s" depth="0" NCoef="0" IVar="3" Cut="1.2596701622009277e+01" cType="1" res="5.2770644426345825e-02" rms="4.2259266972541809e-01" purity="4.9252977967262268e-01" nType="0">
        <Node pos="l" depth="1" NCoef="0" IVar="0" Cut="2.4367978796362877e-02" cType="1" res="-4.9901608377695084e-02" rms="3.9581570029258728e-01" purity="2.7022668719291687e-01" nType="0">
          <Node pos="l" depth="2" NCoef="0" IVar="-1" Cut="0.0000000000000000e+00" cType="1" res="7.7337695984169841e-05" rms="4.3378779292106628e-01" purity="3.8590297102928162e-01" nType="-99"/>
          <Node pos="r" depth="2" NCoef="0" IVar="-1" Cut="0.0000000000000000e+00" cType="1" res="-1.7108049942180514e-03" rms="3.3563318848609924e-01" purity="1.4530354738235474e-01" nType="-99"/>
        </Node>
        <Node pos="r" depth="1" NCoef="0" IVar="0" Cut="4.2733144015073776e-02" cType="1" res="1.3483771681785583e-01" rms="4.2537045478820801e-01" purity="6.7021912336349487e-01" nType="0">
          <Node pos="l" depth="2" NCoef="0" IVar="-1" Cut="0.0000000000000000e+00" cType="1" res="4.7176744556054473e-04" rms="3.6280032992362976e-01" purity="8.2559078931808472e-01" nType="-99"/>
          <Node pos="r" depth="2" NCoef="0" IVar="-1" Cut="0.0000000000000000e+00" cType="1" res="2.1206239762250334e-04" rms="4.4436454772949219e-01" purity="5.7740283012390137e-01" nType="-99"/>
        </Node>
      </Node>
    </BinaryTree>
    <BinaryTree type="DecisionTree" boostWeight="1.0000000000000000e+00" itree="612">
      <Node pos="s" depth="0" NCoef="0" IVar="2" Cut="6.6204593750000000e+04" cType="1" res="5.0621587783098221e-02" rms="4.2064487934112549e-01" purity="4.8955246806144714e-01" nType="0">
        <Node pos="l" depth="1" NCoef="0" IVar="0" Cut="5.0171643495559692e-02" cType="1" res="-1.7883284017443657e-03" rms="4.2453268170356750e-01" purity="3.6924046277999878e-01" nType="0">
          <Node pos="l" depth="2" NCoef="0" IVar="-1" Cut="0.0000000000000000e+00" cType="1" res="1.6168129513971508e-04" rms="4.3828293681144714e-01" purity="4.3148037791252136e-01" nType="-99"/>
          <Node pos="r" depth="2" NCoef="0" IVar="-1" Cut="0.0000000000000000e+00" cType="1" res="-1.0098621714860201e-03" rms="3.6656299233436584e-01" purity="2.1372820436954498e-01" nType="-99"/>
        </Node>
        <Node pos="r" depth="1" NCoef="0" IVar="1" Cut="1.9695610046386719e+02" cType="1" res="1.9835834205150604e-01" rms="3.7163245677947998e-01" purity="8.2869642972946167e-01" nType="0">
          <Node pos="l" depth="2" NCoef="0" IVar="-1" Cut="0.0000000000000000e+00" cType="1" res="3.8435609894804657e-04" rms="4.2397454380989075e-01" purity="7.5654524564743042e-01" nType="-99"/>
          <Node pos="r" depth="2" NCoef="0" IVar="-1" Cut="0.0000000000000000e+00" cType="1" res="4.5238409074954689e-04" rms="3.0165177583694458e-01" purity="8.9697206020355225e-01" nType="-99"/>
        </Node>
      </Node>
    </BinaryTree>
    <BinaryTree type="DecisionTree" boostWeight="1.0000000000000000e+00" itree="613">
      <Node pos="s" depth="0" NCoef="0" IVar="1" Cut="1.5843783569335938e+02" cType="1" res="7.0352405309677124e-02" rms="4.2378142476081848e-01" purity="5.1277905702590942e-01" nType="0">
        <Node pos="l" depth="1" NCoef="0" IVar="0" Cut="3.6410193890333176e-02" cType="1" res="4.4705383479595184e-03" rms="4.2613351345062256e-01" purity="3.5175588726997375e-01" nType="0">
          <Node pos="l" depth="2" NCoef="0" IVar="-1" Cut="0.0000000000000000e+00" cType="1" res="2.0857078197877854e-04" rms="4.4335207343101501e-01" purity="4.4913130998611450e-01" nType="-99"/>
          <Node pos="r" depth="2" NCoef="0" IVar="-1" Cut="0.0000000000000000e+00" cType="1" res="-7.2885130066424608e-04" rms="3.8725394010543823e-01" purity="2.1618849039077759e-01" nType="-99"/>
        </Node>
        <Node pos="r" depth="1" NCoef="0" IVar="1" Cut="2.4961189270019531e+02" cType="1" res="1.8163363635540009e-01" rms="3.9559975266456604e-01" purity="7.8476369380950928e-01" nType="0">
          <Node pos="l" depth="2" NCoef="0" IVar="-1" Cut="0.0000000000000000e+00" cType="1" res="2.9595493106171489e-04" rms="4.2725649476051331e-01" purity="7.3599725961685181e-01" nType="-99"/>
          <Node pos="r" depth="2" NCoef="0" IVar="-1" Cut="0.0000000000000000e+00" cType="1" res="5.2669597789645195e-04" rms="2.6179358363151550e-01" purity="9.2129653692245483e-01" nType="-99"/>
        </Node>
      </Node>
    </BinaryTree>
    <BinaryTree type="DecisionTree" boostWeight="1.0000000000000000e+00" itree="614">
      <Node pos="s" depth="0" NCoef="0" IVar="2" Cut="7.2246000000000000e+04" cType="1" res="5.4544780403375626e-02" rms="4.2415457963943481e-01" purity="4.9253425002098083e-01" nType="0">
        <Node pos="l" depth="1" NCoef="0" IVar="0" Cut="3.8108117878437042e-02" cType="1" res="1.3678328134119511e-02" rms="4.3063154816627502e-01" purity="4.0174436569213867e-01" nType="0">
          <Node pos="l" depth="2" NCoef="0" IVar="-1" Cut="0.0000000000000000e+00" cType="1" res="1.9795245316345245e-04" rms="4.4205546379089355e-01" purity="4.9042451381683350e-01" nType="-99"/>
          <Node pos="r" depth="2" NCoef="0" IVar="-1" Cut="0.0000000000000000e+00" cType="1" res="-4.8081041313707829e-04" rms="4.0010225772857666e-01" purity="2.8471663594245911e-01" nType="-99"/>
        </Node>
        <Node pos="r" depth="1" NCoef="0" IVar="1" Cut="2.1535813903808594e+02" cType="1" res="2.1473364531993866e-01" rms="3.5496270656585693e-01" purity="8.4841358661651611e-01" nType="0">
          <Node pos="l" depth="2" NCoef="0" IVar="-1" Cut="0.0000000000000000e+00" cType="1" res="3.6146718775853515e-04" rms="4.1369417309761047e-01" purity="7.7526378631591797e-01" nType="-99"/>
          <Node pos="r" depth="2" NCoef="0" IVar="-1" Cut="0.0000000000000000e+00" cType="1" res="3.7417205749079585e-04" rms="2.7461728453636169e-01" purity="9.1720926761627197e-01" nType="-99"/>
        </Node>
      </Node>
    </BinaryTree>
    <BinaryTree type="DecisionTree" boostWeight="1.0000000000000000e+00" itree="615">
      <Node pos="s" depth="0" NCoef="0" IVar="1" Cut="1.5864443969726562e+02" cType="1" res="6.3340030610561371e-02" rms="4.2243516445159912e-01" purity="5.0509756803512573e-01" nType="0">
        <Node pos="l" depth="1" NCoef="0" IVar="0" Cut="2.5745216757059097e-02" cType="1" res="-5.5444268509745598e-03" rms="4.2239475250244141e-01" purity="3.4052664041519165e-01" nType="0">
          <Node pos="l" depth="2" NCoef="0" IVar="-1" Cut="0.0000000000000000e+00" cType="1" res="1.9483643700368702e-04" rms="4.4743415713310242e-01" purity="4.5982727408409119e-01" nType="-99"/>
          <Node pos="r" depth="2" NCoef="0" IVar="-1" Cut="0.0000000000000000e+00" cType="1" res="-4.9261550884693861e-04" rms="3.9040470123291016e-01" purity="2.5197619199752808e-01" nType="-99"/>
        </Node>
        <Node pos="r" depth="1" NCoef="0" IVar="1" Cut="2.4980009460449219e+02" cType="1" res="1.7968076467514038e-01" rms="3.9618161320686340e-01" purity="7.8304564952850342e-01" nType="0">
          <Node pos="l" depth="2" NCoef="0" IVar="-1" Cut="0.0000000000000000e+00" cType="1" res="3.3877894748002291e-04" rms="4.2801740765571594e-01" purity="7.3308706283569336e-01" nType="-99"/>
          <Node pos="r" depth="2" NCoef="0" IVar="-1" Cut="0.0000000000000000e+00" cType="1" res="4.2256948654539883e-04" rms="2.6402834057807922e-01" purity="9.1980063915252686e-01" nType="-99"/>
        </Node>
      </Node>
    </BinaryTree>
    <BinaryTree type="DecisionTree" boostWeight="1.0000000000000000e+00" itree="616">
      <Node pos="s" depth="0" NCoef="0" IVar="3" Cut="1.4930736541748047e+01" cType="1" res="5.2798245102167130e-02" rms="4.2547747492790222e-01" purity="4.8757469654083252e-01" nType="0">
        <Node pos="l" depth="1" NCoef="0" IVar="0" Cut="2.2131901234388351e-02" cType="1" res="-2.5073258206248283e-02" rms="4.1065439581871033e-01" purity="2.9392871260643005e-01" nType="0">
          <Node pos="l" depth="2" NCoef="0" IVar="-1" Cut="0.0000000000000000e+00" cType="1" res="2.4415229563601315e-04" rms="4.5428791642189026e-01" purity="4.3581196665763855e-01" nType="-99"/>
          <Node pos="r" depth="2" NCoef="0" IVar="-1" Cut="0.0000000000000000e+00" cType="1" res="-1.3231774792075157e-03" rms="3.4711554646492004e-01" purity="1.7130288481712341e-01" nType="-99"/>
        </Node>
        <Node pos="r" depth="1" NCoef="0" IVar="0" Cut="4.3053939938545227e-02" cType="1" res="1.3045877218246460e-01" rms="4.2580848932266235e-01" purity="6.8069601058959961e-01" nType="0">
          <Node pos="l" depth="2" NCoef="0" IVar="-1" Cut="0.0000000000000000e+00" cType="1" res="5.5334495846182108e-04" rms="3.5586023330688477e-01" purity="8.3882933855056763e-01" nType="-99"/>
          <Node pos="r" depth="2" NCoef="0" IVar="-1" Cut="0.0000000000000000e+00" cType="1" res="2.0018314535263926e-04" rms="4.4721332192420959e-01" purity="5.8830022811889648e-01" nType="-99"/>
        </Node>
      </Node>
    </BinaryTree>
    <BinaryTree type="DecisionTree" boostWeight="1.0000000000000000e+00" itree="617">
      <Node pos="s" depth="0" NCoef="0" IVar="2" Cut="7.1768554687500000e+04" cType="1" res="5.6942701339721680e-02" rms="4.2617788910865784e-01" purity="4.9265569448471069e-01" nType="0">
        <Node pos="l" depth="1" NCoef="0" IVar="0" Cut="4.9709383398294449e-02" cType="1" res="1.5438158065080643e-02" rms="4.3374148011207581e-01" purity="3.9851385354995728e-01" nType="0">
          <Node pos="l" depth="2" NCoef="0" IVar="-1" Cut="0.0000000000000000e+00" cType="1" res="1.6759749269112945e-04" rms="4.3895187973976135e-01" purity="4.6027952432632446e-01" nType="-99"/>
          <Node pos="r" depth="2" NCoef="0" IVar="-1" Cut="0.0000000000000000e+00" cType="1" res="-6.2939157942309976e-04" rms="4.0397256612777710e-01" purity="2.5487059354782104e-01" nType="-99"/>
        </Node>
        <Node pos="r" depth="1" NCoef="0" IVar="1" Cut="2.0142605590820312e+02" cType="1" res="2.1365278959274292e-01" rms="3.5497567057609558e-01" purity="8.4811002016067505e-01" nType="0">
          <Node pos="l" depth="2" NCoef="0" IVar="-1" Cut="0.0000000000000000e+00" cType="1" res="3.8467330159619451e-04" rms="4.1938129067420959e-01" purity="7.6612967252731323e-01" nType="-99"/>
          <Node pos="r" depth="2" NCoef="0" IVar="-1" Cut="0.0000000000000000e+00" cType="1" res="4.6275107888504863e-04" rms="2.8639584779739380e-01" purity="9.0860331058502197e-01" nType="-99"/>
        </Node>
      </Node>
    </BinaryTree>
    <BinaryTree type="DecisionTree" boostWeight="1.0000000000000000e+00" itree="618">
      <Node pos="s" depth="0" NCoef="0" IVar="2" Cut="7.1768554687500000e+04" cType="1" res="5.1503669470548630e-02" rms="4.2319548130035400e-01" purity="4.8922985792160034e-01" nType="0">
        <Node pos="l" depth="1" NCoef="0" IVar="0" Cut="3.8617823272943497e-02" cType="1" res="5.8204256929457188e-03" rms="4.2961308360099792e-01" purity="3.8956484198570251e-01" nType="0">
          <Node pos="l" depth="2" NCoef="0" IVar="-1" Cut="0.0000000000000000e+00" cType="1" res="2.0857923664152622e-04" rms="4.3627837300300598e-01" purity="4.7447434067726135e-01" nType="-99"/>
          <Node pos="r" depth="2" NCoef="0" IVar="-1" Cut="0.0000000000000000e+00" cType="1" res="-4.9593852600082755e-04" rms="4.0924233198165894e-01" purity="2.7346742153167725e-01" nType="-99"/>
        </Node>
        <Node pos="r" depth="1" NCoef="0" IVar="1" Cut="2.2277371215820312e+02" cType="1" res="2.1746928989887238e-01" rms="3.5225671529769897e-01" purity="8.5130923986434937e-01" nType="0">
          <Node pos="l" depth="2" NCoef="0" IVar="-1" Cut="0.0000000000000000e+00" cType="1" res="3.9949480560608208e-04" rms="3.9657545089721680e-01" purity="7.9994553327560425e-01" nType="-99"/>
          <Node pos="r" depth="2" NCoef="0" IVar="-1" Cut="0.0000000000000000e+00" cType="1" res="4.3969944817945361e-04" rms="2.7493658661842346e-01" purity="9.1706967353820801e-01" nType="-99"/>
        </Node>
      </Node>
    </BinaryTree>
    <BinaryTree type="DecisionTree" boostWeight="1.0000000000000000e+00" itree="619">
      <Node pos="s" depth="0" NCoef="0" IVar="1" Cut="1.3710118103027344e+02" cType="1" res="5.7552520185709000e-02" rms="4.2576819658279419e-01" purity="4.9406263232231140e-01" nType="0">
        <Node pos="l" depth="1" NCoef="0" IVar="0" Cut="5.0266090780496597e-02" cType="1" res="-1.3496934436261654e-02" rms="4.1431245207786560e-01" purity="2.9930657148361206e-01" nType="0">
          <Node pos="l" depth="2" NCoef="0" IVar="-1" Cut="0.0000000000000000e+00" cType="1" res="9.6245516033377498e-05" rms="4.3978488445281982e-01" purity="3.6462390422821045e-01" nType="-99"/>
          <Node pos="r" depth="2" NCoef="0" IVar="-1" Cut="0.0000000000000000e+00" cType="1" res="-2.7280012145638466e-03" rms="2.9767230153083801e-01" purity="1.0283493250608444e-01" nType="-99"/>
        </Node>
        <Node pos="r" depth="1" NCoef="0" IVar="0" Cut="3.9251808077096939e-02" cType="1" res="1.4258614182472229e-01" rms="4.2370292544364929e-01" purity="7.2715109586715698e-01" nType="0">
          <Node pos="l" depth="2" NCoef="0" IVar="-1" Cut="0.0000000000000000e+00" cType="1" res="4.6253760228864849e-04" rms="3.6358383297920227e-01" purity="8.2937240600585938e-01" nType="-99"/>
          <Node pos="r" depth="2" NCoef="0" IVar="-1" Cut="0.0000000000000000e+00" cType="1" res="2.3485132260248065e-04" rms="4.4754856824874878e-01" purity="6.6365760564804077e-01" nType="-99"/>
        </Node>
      </Node>
    </BinaryTree>
    <BinaryTree type="DecisionTree" boostWeight="1.0000000000000000e+00" itree="620">
      <Node pos="s" depth="0" NCoef="0" IVar="1" Cut="1.2379756164550781e+02" cType="1" res="6.5232962369918823e-02" rms="4.2181748151779175e-01" purity="5.0696349143981934e-01" nType="0">
        <Node pos="l" depth="1" NCoef="0" IVar="1" Cut="5.2417289733886719e+01" cType="1" res="-3.4622900187969208e-02" rms="4.0060469508171082e-01" purity="2.6293984055519104e-01" nType="0">
          <Node pos="l" depth="2" NCoef="0" IVar="-1" Cut="0.0000000000000000e+00" cType="1" res="-1.3316971017047763e-03" rms="3.2986283302307129e-01" purity="1.2748865783214569e-01" nType="-99"/>
          <Node pos="r" depth="2" NCoef="0" IVar="-1" Cut="0.0000000000000000e+00" cType="1" res="6.6852895542979240e-05" rms="4.3601086735725403e-01" purity="3.5467466711997986e-01" nType="-99"/>
        </Node>
        <Node pos="r" depth="1" NCoef="0" IVar="0" Cut="4.1265200823545456e-02" cType="1" res="1.5443842113018036e-01" rms="4.2029729485511780e-01" purity="7.2496002912521362e-01" nType="0">
          <Node pos="l" depth="2" NCoef="0" IVar="-1" Cut="0.0000000000000000e+00" cType="1" res="4.5641331234946847e-04" rms="3.7133511900901794e-01" purity="8.1519860029220581e-01" nType="-99"/>
          <Node pos="r" depth="2" NCoef="0" IVar="-1" Cut="0.0000000000000000e+00" cType="1" res="2.3692558170296252e-04" rms="4.4445163011550903e-01" purity="6.5848982334136963e-01" nType="-99"/>
        </Node>
      </Node>
    </BinaryTree>
    <BinaryTree type="DecisionTree" boostWeight="1.0000000000000000e+00" itree="621">
      <Node pos="s" depth="0" NCoef="0" IVar="1" Cut="9.2498359680175781e+01" cType="1" res="5.1106747239828110e-02" rms="4.2030423879623413e-01" purity="4.9195721745491028e-01" nType="0">
        <Node pos="l" depth="1" NCoef="0" IVar="1" Cut="7.0208053588867188e+01" cType="1" res="-6.7813120782375336e-02" rms="3.6707440018653870e-01" purity="2.0112793147563934e-01" nType="0">
          <Node pos="l" depth="2" NCoef="0" IVar="-1" Cut="0.0000000000000000e+00" cType="1" res="-1.7721197800710797e-03" rms="3.1789392232894897e-01" purity="1.2705656886100769e-01" nType="-99"/>
          <Node pos="r" depth="2" NCoef="0" IVar="-1" Cut="0.0000000000000000e+00" cType="1" res="1.3665948063135147e-04" rms="4.4666895270347595e-01" purity="3.7079596519470215e-01" nType="-99"/>
        </Node>
        <Node pos="r" depth="1" NCoef="0" IVar="0" Cut="3.8859125226736069e-02" cType="1" res="1.1677029728889465e-01" rms="4.3321782350540161e-01" purity="6.5254336595535278e-01" nType="0">
          <Node pos="l" depth="2" NCoef="0" IVar="-1" Cut="0.0000000000000000e+00" cType="1" res="4.6160977217368782e-04" rms="4.0200772881507874e-01" purity="7.6853686571121216e-01" nType="-99"/>
          <Node pos="r" depth="2" NCoef="0" IVar="-1" Cut="0.0000000000000000e+00" cType="1" res="1.5957361028995365e-04" rms="4.4175148010253906e-01" purity="5.7011997699737549e-01" nType="-99"/>
        </Node>
      </Node>
    </BinaryTree>
    <BinaryTree type="DecisionTree" boostWeight="1.0000000000000000e+00" itree="622">
      <Node pos="s" depth="0" NCoef="0" IVar="2" Cut="3.6123000000000000e+04" cType="1" res="5.7701524347066879e-02" rms="4.2163553833961487e-01" purity="4.9829205870628357e-01" nType="0">
        <Node pos="l" depth="1" NCoef="0" IVar="0" Cut="2.5085821747779846e-02" cType="1" res="-2.4498738348484039e-02" rms="4.1005417704582214e-01" purity="2.9815989732742310e-01" nType="0">
          <Node pos="l" depth="2" NCoef="0" IVar="-1" Cut="0.0000000000000000e+00" cType="1" res="1.7201353330165148e-04" rms="4.4525524973869324e-01" purity="4.1408285498619080e-01" nType="-99"/>
          <Node pos="r" depth="2" NCoef="0" IVar="-1" Cut="0.0000000000000000e+00" cType="1" res="-7.0458522532135248e-04" rms="3.6691826581954956e-01" purity="1.9729101657867432e-01" nType="-99"/>
        </Node>
        <Node pos="r" depth="1" NCoef="0" IVar="0" Cut="4.2839553207159042e-02" cType="1" res="1.5181361138820648e-01" rms="4.1498348116874695e-01" purity="7.2742581367492676e-01" nType="0">
          <Node pos="l" depth="2" NCoef="0" IVar="-1" Cut="0.0000000000000000e+00" cType="1" res="4.0661022649146616e-04" rms="3.4674805402755737e-01" purity="8.5522311925888062e-01" nType="-99"/>
          <Node pos="r" depth="2" NCoef="0" IVar="-1" Cut="0.0000000000000000e+00" cType="1" res="2.4619459873065352e-04" rms="4.3770083785057068e-01" purity="6.5735268592834473e-01" nType="-99"/>
        </Node>
      </Node>
    </BinaryTree>
    <BinaryTree type="DecisionTree" boostWeight="1.0000000000000000e+00" itree="623">
      <Node pos="s" depth="0" NCoef="0" IVar="1" Cut="1.0525318145751953e+02" cType="1" res="5.8301165699958801e-02" rms="4.2237427830696106e-01" purity="4.9907705187797546e-01" nType="0">
        <Node pos="l" depth="1" NCoef="0" IVar="1" Cut="6.9796485900878906e+01" cType="1" res="-3.7722446024417877e-02" rms="3.8787055015563965e-01" purity="2.4820622801780701e-01" nType="0">
          <Node pos="l" depth="2" NCoef="0" IVar="-1" Cut="0.0000000000000000e+00" cType="1" res="-1.3494506711140275e-03" rms="3.3977493643760681e-01" purity="1.4222413301467896e-01" nType="-99"/>
          <Node pos="r" depth="2" NCoef="0" IVar="-1" Cut="0.0000000000000000e+00" cType="1" res="1.6469544789288193e-04" rms="4.3815150856971741e-01" purity="4.0554293990135193e-01" nType="-99"/>
        </Node>
        <Node pos="r" depth="1" NCoef="0" IVar="0" Cut="2.8488764539361000e-02" cType="1" res="1.2592974305152893e-01" rms="4.3246036767959595e-01" purity="6.7576313018798828e-01" nType="0">
          <Node pos="l" depth="2" NCoef="0" IVar="-1" Cut="0.0000000000000000e+00" cType="1" res="5.1246868679299951e-04" rms="3.6739668250083923e-01" purity="8.2157707214355469e-01" nType="-99"/>
          <Node pos="r" depth="2" NCoef="0" IVar="-1" Cut="0.0000000000000000e+00" cType="1" res="2.3280638561118394e-04" rms="4.4434851408004761e-01" purity="6.2836897373199463e-01" nType="-99"/>
        </Node>
      </Node>
    </BinaryTree>
    <BinaryTree type="DecisionTree" boostWeight="1.0000000000000000e+00" itree="624">
      <Node pos="s" depth="0" NCoef="0" IVar="1" Cut="1.3487355041503906e+02" cType="1" res="6.4729839563369751e-02" rms="4.2392715811729431e-01" purity="5.0478732585906982e-01" nType="0">
        <Node pos="l" depth="1" NCoef="0" IVar="0" Cut="3.8101427257061005e-02" cType="1" res="-1.6381764784455299e-02" rms="4.1419228911399841e-01" purity="2.9141330718994141e-01" nType="0">
          <Node pos="l" depth="2" NCoef="0" IVar="-1" Cut="0.0000000000000000e+00" cType="1" res="1.1415749759180471e-04" rms="4.5135658979415894e-01" purity="3.8542693853378296e-01" nType="-99"/>
          <Node pos="r" depth="2" NCoef="0" IVar="-1" Cut="0.0000000000000000e+00" cType="1" res="-1.5688806306570768e-03" rms="3.2606762647628784e-01" purity="1.3341142237186432e-01" nType="-99"/>
        </Node>
        <Node pos="r" depth="1" NCoef="0" IVar="1" Cut="2.5123103332519531e+02" cType="1" res="1.5385796129703522e-01" rms="4.1654106974601746e-01" purity="7.3924988508224487e-01" nType="0">
          <Node pos="l" depth="2" NCoef="0" IVar="-1" Cut="0.0000000000000000e+00" cType="1" res="2.7932022931054235e-04" rms="4.4228923320770264e-01" purity="6.9127380847930908e-01" nType="-99"/>
          <Node pos="r" depth="2" NCoef="0" IVar="-1" Cut="0.0000000000000000e+00" cType="1" res="4.2709746048785746e-04" rms="2.6187837123870850e-01" purity="9.2082798480987549e-01" nType="-99"/>
        </Node>
      </Node>
    </BinaryTree>
    <BinaryTree type="DecisionTree" boostWeight="1.0000000000000000e+00" itree="625">
      <Node pos="s" depth="0" NCoef="0" IVar="1" Cut="1.2379756164550781e+02" cType="1" res="6.7028276622295380e-02" rms="4.2205661535263062e-01" purity="5.0916457176208496e-01" nType="0">
        <Node pos="l" depth="1" NCoef="0" IVar="0" Cut="1.2183989398181438e-02" cType="1" res="-3.1452950090169907e-02" rms="4.0092468261718750e-01" purity="2.6733273267745972e-01" nType="0">
          <Node pos="l" depth="2" NCoef="0" IVar="-1" Cut="0.0000000000000000e+00" cType="1" res="3.8125083665363491e-04" rms="4.4396194815635681e-01" purity="4.1602796316146851e-01" nType="-99"/>
          <Node pos="r" depth="2" NCoef="0" IVar="-1" Cut="0.0000000000000000e+00" cType="1" res="-4.7181488480418921e-04" rms="3.7806087732315063e-01" purity="2.1840770542621613e-01" nType="-99"/>
        </Node>
        <Node pos="r" depth="1" NCoef="0" IVar="1" Cut="2.3086677551269531e+02" cType="1" res="1.5500392019748688e-01" rms="4.2102739214897156e-01" purity="7.2519880533218384e-01" nType="0">
          <Node pos="l" depth="2" NCoef="0" IVar="-1" Cut="0.0000000000000000e+00" cType="1" res="2.9195449315011501e-04" rms="4.4710081815719604e-01" purity="6.7418402433395386e-01" nType="-99"/>
          <Node pos="r" depth="2" NCoef="0" IVar="-1" Cut="0.0000000000000000e+00" cType="1" res="4.3961076880805194e-04" rms="2.8638252615928650e-01" purity="9.0227049589157104e-01" nType="-99"/>
        </Node>
      </Node>
    </BinaryTree>
    <BinaryTree type="DecisionTree" boostWeight="1.0000000000000000e+00" itree="626">
      <Node pos="s" depth="0" NCoef="0" IVar="2" Cut="6.1173269531250000e+04" cType="1" res="4.9985684454441071e-02" rms="4.2438519001007080e-01" purity="4.8607414960861206e-01" nType="0">
        <Node pos="l" depth="1" NCoef="0" IVar="0" Cut="3.7463087588548660e-02" cType="1" res="-4.2295041494071484e-03" rms="4.2629176378250122e-01" purity="3.5250413417816162e-01" nType="0">
          <Node pos="l" depth="2" NCoef="0" IVar="-1" Cut="0.0000000000000000e+00" cType="1" res="1.6938154294621199e-04" rms="4.4475466012954712e-01" purity="4.4588020443916321e-01" nType="-99"/>
          <Node pos="r" depth="2" NCoef="0" IVar="-1" Cut="0.0000000000000000e+00" cType="1" res="-7.7417341526597738e-04" rms="3.8630613684654236e-01" purity="2.2151088714599609e-01" nType="-99"/>
        </Node>
        <Node pos="r" depth="1" NCoef="0" IVar="1" Cut="2.4734503173828125e+02" cType="1" res="1.7894029617309570e-01" rms="3.9067175984382629e-01" purity="8.0377966165542603e-01" nType="0">
          <Node pos="l" depth="2" NCoef="0" IVar="-1" Cut="0.0000000000000000e+00" cType="1" res="3.2875797478482127e-04" rms="4.2248162627220154e-01" purity="7.5810873508453369e-01" nType="-99"/>
          <Node pos="r" depth="2" NCoef="0" IVar="-1" Cut="0.0000000000000000e+00" cType="1" res="5.1806366536766291e-04" rms="2.6095661520957947e-01" purity="9.2632281780242920e-01" nType="-99"/>
        </Node>
      </Node>
    </BinaryTree>
    <BinaryTree type="DecisionTree" boostWeight="1.0000000000000000e+00" itree="627">
      <Node pos="s" depth="0" NCoef="0" IVar="2" Cut="7.2246000000000000e+04" cType="1" res="6.2803886830806732e-02" rms="4.2481368780136108e-01" purity="5.0222474336624146e-01" nType="0">
        <Node pos="l" depth="1" NCoef="0" IVar="0" Cut="5.0266090780496597e-02" cType="1" res="2.0240304991602898e-02" rms="4.3362617492675781e-01" purity="4.0663504600524902e-01" nType="0">
          <Node pos="l" depth="2" NCoef="0" IVar="-1" Cut="0.0000000000000000e+00" cType="1" res="2.0178160048089921e-04" rms="4.3915307521820068e-01" purity="4.7440865635871887e-01" nType="-99"/>
          <Node pos="r" depth="2" NCoef="0" IVar="-1" Cut="0.0000000000000000e+00" cType="1" res="-8.0915878061205149e-04" rms="3.9317700266838074e-01" purity="2.3709641396999359e-01" nType="-99"/>
        </Node>
        <Node pos="r" depth="1" NCoef="0" IVar="1" Cut="2.1630291748046875e+02" cType="1" res="2.2014692425727844e-01" rms="3.4791889786720276e-01" purity="8.5558724403381348e-01" nType="0">
          <Node pos="l" depth="2" NCoef="0" IVar="-1" Cut="0.0000000000000000e+00" cType="1" res="3.6493627703748643e-04" rms="3.9913782477378845e-01" purity="7.9601073265075684e-01" nType="-99"/>
          <Node pos="r" depth="2" NCoef="0" IVar="-1" Cut="0.0000000000000000e+00" cType="1" res="4.2766280239447951e-04" rms="2.7253979444503784e-01" purity="9.1856586933135986e-01" nType="-99"/>
        </Node>
      </Node>
    </BinaryTree>
    <BinaryTree type="DecisionTree" boostWeight="1.0000000000000000e+00" itree="628">
      <Node pos="s" depth="0" NCoef="0" IVar="1" Cut="1.0547126770019531e+02" cType="1" res="6.0256175696849823e-02" rms="4.2250457406044006e-01" purity="5.0033944845199585e-01" nType="0">
        <Node pos="l" depth="1" NCoef="0" IVar="0" Cut="1.2566522695124149e-02" cType="1" res="-4.0669444948434830e-02" rms="3.9170247316360474e-01" purity="2.3835229873657227e-01" nType="0">
          <Node pos="l" depth="2" NCoef="0" IVar="-1" Cut="0.0000000000000000e+00" cType="1" res="1.9785160839091986e-04" rms="4.5075789093971252e-01" purity="3.7867680191993713e-01" nType="-99"/>
          <Node pos="r" depth="2" NCoef="0" IVar="-1" Cut="0.0000000000000000e+00" cType="1" res="-8.9098885655403137e-04" rms="3.5911777615547180e-01" purity="1.8519398570060730e-01" nType="-99"/>
        </Node>
        <Node pos="r" depth="1" NCoef="0" IVar="0" Cut="2.6167873293161392e-02" cType="1" res="1.3077311217784882e-01" rms="4.2888629436492920e-01" purity="6.8339037895202637e-01" nType="0">
          <Node pos="l" depth="2" NCoef="0" IVar="-1" Cut="0.0000000000000000e+00" cType="1" res="4.9339310498908162e-04" rms="3.5917988419532776e-01" purity="8.3376634120941162e-01" nType="-99"/>
          <Node pos="r" depth="2" NCoef="0" IVar="-1" Cut="0.0000000000000000e+00" cType="1" res="2.3499541566707194e-04" rms="4.3955385684967041e-01" purity="6.4097416400909424e-01" nType="-99"/>
        </Node>
      </Node>
    </BinaryTree>
    <BinaryTree type="DecisionTree" boostWeight="1.0000000000000000e+00" itree="629">
      <Node pos="s" depth="0" NCoef="0" IVar="3" Cut="1.4930736541748047e+01" cType="1" res="5.4610986262559891e-02" rms="4.2166972160339355e-01" purity="4.9431285262107849e-01" nType="0">
        <Node pos="l" depth="1" NCoef="0" IVar="0" Cut="1.2183989398181438e-02" cType="1" res="-4.0368258953094482e-02" rms="4.0064799785614014e-01" purity="2.7844265103340149e-01" nType="0">
          <Node pos="l" depth="2" NCoef="0" IVar="-1" Cut="0.0000000000000000e+00" cType="1" res="3.5415115416981280e-04" rms="4.3581131100654602e-01" purity="4.3560147285461426e-01" nType="-99"/>
          <Node pos="r" depth="2" NCoef="0" IVar="-1" Cut="0.0000000000000000e+00" cType="1" res="-6.8109040148556232e-04" rms="3.7729302048683167e-01" purity="2.2102777659893036e-01" nType="-99"/>
        </Node>
        <Node pos="r" depth="1" NCoef="0" IVar="0" Cut="4.2733144015073776e-02" cType="1" res="1.4314967393875122e-01" rms="4.2151069641113281e-01" purity="6.9554477930068970e-01" nType="0">
          <Node pos="l" depth="2" NCoef="0" IVar="-1" Cut="0.0000000000000000e+00" cType="1" res="5.0706038018688560e-04" rms="3.4608992934226990e-01" purity="8.5052400827407837e-01" nType="-99"/>
          <Node pos="r" depth="2" NCoef="0" IVar="-1" Cut="0.0000000000000000e+00" cType="1" res="1.8895673565566540e-04" rms="4.4625657796859741e-01" purity="6.0262638330459595e-01" nType="-99"/>
        </Node>
      </Node>
    </BinaryTree>
    <BinaryTree type="DecisionTree" boostWeight="1.0000000000000000e+00" itree="630">
      <Node pos="s" depth="0" NCoef="0" IVar="3" Cut="1.2480910301208496e+01" cType="1" res="5.3715344518423080e-02" rms="4.2039814591407776e-01" purity="4.9380087852478027e-01" nType="0">
        <Node pos="l" depth="1" NCoef="0" IVar="0" Cut="1.2183989398181438e-02" cType="1" res="-4.1076488792896271e-02" rms="3.9921075105667114e-01" purity="2.7740770578384399e-01" nType="0">
          <Node pos="l" depth="2" NCoef="0" IVar="-1" Cut="0.0000000000000000e+00" cType="1" res="2.9325913055799901e-04" rms="4.3323391675949097e-01" purity="4.1071888804435730e-01" nType="-99"/>
          <Node pos="r" depth="2" NCoef="0" IVar="-1" Cut="0.0000000000000000e+00" cType="1" res="-4.6046084025874734e-04" rms="3.7831631302833557e-01" purity="2.2624920308589935e-01" nType="-99"/>
        </Node>
        <Node pos="r" depth="1" NCoef="0" IVar="0" Cut="2.8488764539361000e-02" cType="1" res="1.2967808544635773e-01" rms="4.2152059078216553e-01" purity="6.6721045970916748e-01" nType="0">
          <Node pos="l" depth="2" NCoef="0" IVar="-1" Cut="0.0000000000000000e+00" cType="1" res="6.0543685685843229e-04" rms="2.8587189316749573e-01" purity="9.0346711874008179e-01" nType="-99"/>
          <Node pos="r" depth="2" NCoef="0" IVar="-1" Cut="0.0000000000000000e+00" cType="1" res="2.3695014533586800e-04" rms="4.3667796254158020e-01" purity="6.1056697368621826e-01" nType="-99"/>
        </Node>
      </Node>
    </BinaryTree>
    <BinaryTree type="DecisionTree" boostWeight="1.0000000000000000e+00" itree="631">
      <Node pos="s" depth="0" NCoef="0" IVar="3" Cut="1.3542619705200195e+01" cType="1" res="5.4079607129096985e-02" rms="4.2034238576889038e-01" purity="4.9461373686790466e-01" nType="0">
        <Node pos="l" depth="1" NCoef="0" IVar="0" Cut="1.0490266606211662e-02" cType="1" res="-3.9255976676940918e-02" rms="4.0131109952926636e-01" purity="2.7953618764877319e-01" nType="0">
          <Node pos="l" depth="2" NCoef="0" IVar="-1" Cut="0.0000000000000000e+00" cType="1" res="3.4510300611145794e-04" rms="4.3769642710685730e-01" purity="4.3568807840347290e-01" nType="-99"/>
          <Node pos="r" depth="2" NCoef="0" IVar="-1" Cut="0.0000000000000000e+00" cType="1" res="-6.1437848489731550e-04" rms="3.8066294789314270e-01" purity="2.3073019087314606e-01" nType="-99"/>
        </Node>
        <Node pos="r" depth="1" NCoef="0" IVar="0" Cut="3.9387349039316177e-02" cType="1" res="1.3479080796241760e-01" rms="4.1971686482429504e-01" purity="6.8060034513473511e-01" nType="0">
          <Node pos="l" depth="2" NCoef="0" IVar="-1" Cut="0.0000000000000000e+00" cType="1" res="5.1286700181663036e-04" rms="3.4300732612609863e-01" purity="8.5347175598144531e-01" nType="-99"/>
          <Node pos="r" depth="2" NCoef="0" IVar="-1" Cut="0.0000000000000000e+00" cType="1" res="2.2103701485320926e-04" rms="4.3840488791465759e-01" purity="5.9760135412216187e-01" nType="-99"/>
        </Node>
      </Node>
    </BinaryTree>
    <BinaryTree type="DecisionTree" boostWeight="1.0000000000000000e+00" itree="632">
      <Node pos="s" depth="0" NCoef="0" IVar="1" Cut="1.3930560302734375e+02" cType="1" res="5.2420999854803085e-02" rms="4.1968187689781189e-01" purity="4.9295532703399658e-01" nType="0">
        <Node pos="l" depth="1" NCoef="0" IVar="0" Cut="3.6267120391130447e-02" cType="1" res="-3.0805347487330437e-02" rms="4.0295815467834473e-01" purity="2.8377959132194519e-01" nType="0">
          <Node pos="l" depth="2" NCoef="0" IVar="-1" Cut="0.0000000000000000e+00" cType="1" res="9.2706461146008223e-05" rms="4.4041699171066284e-01" purity="3.8623559474945068e-01" nType="-99"/>
          <Node pos="r" depth="2" NCoef="0" IVar="-1" Cut="0.0000000000000000e+00" cType="1" res="-1.9117170013487339e-03" rms="3.2236975431442261e-01" purity="1.2971600890159607e-01" nType="-99"/>
        </Node>
        <Node pos="r" depth="1" NCoef="0" IVar="1" Cut="2.5966769409179688e+02" cType="1" res="1.5088778734207153e-01" rms="4.1775476932525635e-01" purity="7.4043530225753784e-01" nType="0">
          <Node pos="l" depth="2" NCoef="0" IVar="-1" Cut="0.0000000000000000e+00" cType="1" res="2.7622532797977328e-04" rms="4.4312205910682678e-01" purity="6.9314867258071899e-01" nType="-99"/>
          <Node pos="r" depth="2" NCoef="0" IVar="-1" Cut="0.0000000000000000e+00" cType="1" res="4.1198648978024721e-04" rms="2.5444778800010681e-01" purity="9.2650729417800903e-01" nType="-99"/>
        </Node>
      </Node>
    </BinaryTree>
    <BinaryTree type="DecisionTree" boostWeight="1.0000000000000000e+00" itree="633">
      <Node pos="s" depth="0" NCoef="0" IVar="1" Cut="1.3174255371093750e+02" cType="1" res="6.0551188886165619e-02" rms="4.2014089226722717e-01" purity="5.0333034992218018e-01" nType="0">
        <Node pos="l" depth="1" NCoef="0" IVar="0" Cut="2.5133045390248299e-02" cType="1" res="-2.5604406371712685e-02" rms="4.0229752659797668e-01" purity="2.8320583701133728e-01" nType="0">
          <Node pos="l" depth="2" NCoef="0" IVar="-1" Cut="0.0000000000000000e+00" cType="1" res="1.0640905384207144e-04" rms="4.3842804431915283e-01" purity="3.9886361360549927e-01" nType="-99"/>
          <Node pos="r" depth="2" NCoef="0" IVar="-1" Cut="0.0000000000000000e+00" cType="1" res="-7.7989796409383416e-04" rms="3.6283382773399353e-01" purity="1.9115707278251648e-01" nType="-99"/>
        </Node>
        <Node pos="r" depth="1" NCoef="0" IVar="0" Cut="3.9660222828388214e-02" cType="1" res="1.4993879199028015e-01" rms="4.1958618164062500e-01" purity="7.3171240091323853e-01" nType="0">
          <Node pos="l" depth="2" NCoef="0" IVar="-1" Cut="0.0000000000000000e+00" cType="1" res="5.2604341180995107e-04" rms="3.6423563957214355e-01" purity="8.2573580741882324e-01" nType="-99"/>
          <Node pos="r" depth="2" NCoef="0" IVar="-1" Cut="0.0000000000000000e+00" cType="1" res="2.5786214973777533e-04" rms="4.4389462471008301e-01" purity="6.7158293724060059e-01" nType="-99"/>
        </Node>
      </Node>
    </BinaryTree>
    <BinaryTree type="DecisionTree" boostWeight="1.0000000000000000e+00" itree="634">
      <Node pos="s" depth="0" NCoef="0" IVar="1" Cut="1.3710118103027344e+02" cType="1" res="5.1506478339433670e-02" rms="4.2315563559532166e-01" purity="4.8817995190620422e-01" nType="0">
        <Node pos="l" depth="1" NCoef="0" IVar="0" Cut="6.0445196926593781e-02" cType="1" res="-2.5654373690485954e-02" rms="4.0788319706916809e-01" purity="2.8390258550643921e-01" nType="0">
          <Node pos="l" depth="2" NCoef="0" IVar="-1" Cut="0.0000000000000000e+00" cType="1" res="1.6421676264144480e-05" rms="4.2770895361900330e-01" purity="3.2956758141517639e-01" nType="-99"/>
          <Node pos="r" depth="2" NCoef="0" IVar="-1" Cut="0.0000000000000000e+00" cType="1" res="-4.3866089545190334e-03" rms="2.5970950722694397e-01" purity="7.1405410766601562e-02" nType="-99"/>
        </Node>
        <Node pos="r" depth="1" NCoef="0" IVar="0" Cut="4.2733144015073776e-02" cType="1" res="1.4225441217422485e-01" rms="4.2278856039047241e-01" purity="7.2842806577682495e-01" nType="0">
          <Node pos="l" depth="2" NCoef="0" IVar="-1" Cut="0.0000000000000000e+00" cType="1" res="4.5602483442053199e-04" rms="3.6853629350662231e-01" purity="8.2034975290298462e-01" nType="-99"/>
          <Node pos="r" depth="2" NCoef="0" IVar="-1" Cut="0.0000000000000000e+00" cType="1" res="2.0590891654137522e-04" rms="4.5067656040191650e-01" purity="6.5603101253509521e-01" nType="-99"/>
        </Node>
      </Node>
    </BinaryTree>
    <BinaryTree type="DecisionTree" boostWeight="1.0000000000000000e+00" itree="635">
      <Node pos="s" depth="0" NCoef="0" IVar="1" Cut="1.0555654144287109e+02" cType="1" res="6.5206512808799744e-02" rms="4.1967949271202087e-01" purity="5.0958001613616943e-01" nType="0">
        <Node pos="l" depth="1" NCoef="0" IVar="0" Cut="1.2566522695124149e-02" cType="1" res="-5.2724566310644150e-02" rms="3.8122460246086121e-01" purity="2.2649745643138885e-01" nType="0">
          <Node pos="l" depth="2" NCoef="0" IVar="-1" Cut="0.0000000000000000e+00" cType="1" res="2.4389558529946953e-04" rms="4.3980833888053894e-01" purity="3.7101614475250244e-01" nType="-99"/>
          <Node pos="r" depth="2" NCoef="0" IVar="-1" Cut="0.0000000000000000e+00" cType="1" res="-1.1370374122634530e-03" rms="3.4836819767951965e-01" purity="1.7093731462955475e-01" nType="-99"/>
        </Node>
        <Node pos="r" depth="1" NCoef="0" IVar="0" Cut="2.7510134503245354e-02" cType="1" res="1.4230212569236755e-01" rms="4.2571035027503967e-01" purity="6.9464087486267090e-01" nType="0">
          <Node pos="l" depth="2" NCoef="0" IVar="-1" Cut="0.0000000000000000e+00" cType="1" res="5.0368928350508213e-04" rms="3.5628226399421692e-01" purity="8.3779251575469971e-01" nType="-99"/>
          <Node pos="r" depth="2" NCoef="0" IVar="-1" Cut="0.0000000000000000e+00" cType="1" res="2.4767621653154492e-04" rms="4.3811446428298950e-01" purity="6.4937812089920044e-01" nType="-99"/>
        </Node>
      </Node>
    </BinaryTree>
    <BinaryTree type="DecisionTree" boostWeight="1.0000000000000000e+00" itree="636">
      <Node pos="s" depth="0" NCoef="0" IVar="2" Cut="5.2699613281250000e+04" cType="1" res="5.5267240852117538e-02" rms="4.2062106728553772e-01" purity="4.9658298492431641e-01" nType="0">
        <Node pos="l" depth="1" NCoef="0" IVar="0" Cut="5.0266090780496597e-02" cType="1" res="-1.0151449590921402e-02" rms="4.2059710621833801e-01" purity="3.3118274807929993e-01" nType="0">
          <Node pos="l" depth="2" NCoef="0" IVar="-1" Cut="0.0000000000000000e+00" cType="1" res="9.1176138084847480e-05" rms="4.3920922279357910e-01" purity="3.9227855205535889e-01" nType="-99"/>
          <Node pos="r" depth="2" NCoef="0" IVar="-1" Cut="0.0000000000000000e+00" cType="1" res="-1.4405632391571999e-03" rms="3.4441271424293518e-01" purity="1.5618331730365753e-01" nType="-99"/>
        </Node>
        <Node pos="r" depth="1" NCoef="0" IVar="0" Cut="4.4180817902088165e-02" cType="1" res="1.7026977241039276e-01" rms="3.9523234963417053e-01" purity="7.8734767436981201e-01" nType="0">
          <Node pos="l" depth="2" NCoef="0" IVar="-1" Cut="0.0000000000000000e+00" cType="1" res="4.7878679470159113e-04" rms="3.0358171463012695e-01" purity="8.9522600173950195e-01" nType="-99"/>
          <Node pos="r" depth="2" NCoef="0" IVar="-1" Cut="0.0000000000000000e+00" cType="1" res="2.4054701498243958e-04" rms="4.3360498547554016e-01" purity="7.1784681081771851e-01" nType="-99"/>
        </Node>
      </Node>
    </BinaryTree>
    <BinaryTree type="DecisionTree" boostWeight="1.0000000000000000e+00" itree="637">
      <Node pos="s" depth="0" NCoef="0" IVar="1" Cut="1.3158508300781250e+02" cType="1" res="4.9336209893226624e-02" rms="4.2124629020690918e-01" purity="4.8664507269859314e-01" nType="0">
        <Node pos="l" depth="1" NCoef="0" IVar="1" Cut="7.4673912048339844e+01" cType="1" res="-3.1396280974149704e-02" rms="3.9933213591575623e-01" purity="2.7446982264518738e-01" nType="0">
          <Node pos="l" depth="2" NCoef="0" IVar="-1" Cut="0.0000000000000000e+00" cType="1" res="-8.1357941962778568e-04" rms="3.4262663125991821e-01" purity="1.5436436235904694e-01" nType="-99"/>
          <Node pos="r" depth="2" NCoef="0" IVar="-1" Cut="0.0000000000000000e+00" cType="1" res="1.1619344877544791e-04" rms="4.4667711853981018e-01" purity="4.0787461400032043e-01" nType="-99"/>
        </Node>
        <Node pos="r" depth="1" NCoef="0" IVar="0" Cut="2.8488764539361000e-02" cType="1" res="1.3677816092967987e-01" rms="4.2687198519706726e-01" purity="7.1645367145538330e-01" nType="0">
          <Node pos="l" depth="2" NCoef="0" IVar="-1" Cut="0.0000000000000000e+00" cType="1" res="4.9593904986977577e-04" rms="3.3263745903968811e-01" purity="8.6030149459838867e-01" nType="-99"/>
          <Node pos="r" depth="2" NCoef="0" IVar="-1" Cut="0.0000000000000000e+00" cType="1" res="2.2046167578082532e-04" rms="4.4566169381141663e-01" purity="6.6987675428390503e-01" nType="-99"/>
        </Node>
      </Node>
    </BinaryTree>
    <BinaryTree type="DecisionTree" boostWeight="1.0000000000000000e+00" itree="638">
      <Node pos="s" depth="0" NCoef="0" IVar="2" Cut="6.1173269531250000e+04" cType="1" res="5.2767727524042130e-02" rms="4.2220842838287354e-01" purity="4.9022680521011353e-01" nType="0">
        <Node pos="l" depth="1" NCoef="0" IVar="0" Cut="5.0266090780496597e-02" cType="1" res="-1.7289781244471669e-03" rms="4.2457315325737000e-01" purity="3.5583484172821045e-01" nType="0">
          <Node pos="l" depth="2" NCoef="0" IVar="-1" Cut="0.0000000000000000e+00" cType="1" res="1.5016902761999518e-04" rms="4.3883985280990601e-01" purity="4.1909477114677429e-01" nType="-99"/>
          <Node pos="r" depth="2" NCoef="0" IVar="-1" Cut="0.0000000000000000e+00" cType="1" res="-1.1368424165993929e-03" rms="3.6471533775329590e-01" purity="1.8781402707099915e-01" nType="-99"/>
        </Node>
        <Node pos="r" depth="1" NCoef="0" IVar="1" Cut="2.2627468872070312e+02" cType="1" res="1.8149082362651825e-01" rms="3.8722810149192810e-01" purity="8.0766528844833374e-01" nType="0">
          <Node pos="l" depth="2" NCoef="0" IVar="-1" Cut="0.0000000000000000e+00" cType="1" res="3.3883392461575568e-04" rms="4.2317283153533936e-01" purity="7.5627660751342773e-01" nType="-99"/>
          <Node pos="r" depth="2" NCoef="0" IVar="-1" Cut="0.0000000000000000e+00" cType="1" res="5.9254321968182921e-04" rms="2.8125676512718201e-01" purity="9.1236937046051025e-01" nType="-99"/>
        </Node>
      </Node>
    </BinaryTree>
    <BinaryTree type="DecisionTree" boostWeight="1.0000000000000000e+00" itree="639">
      <Node pos="s" depth="0" NCoef="0" IVar="2" Cut="4.4136394531250000e+04" cType="1" res="6.6659733653068542e-02" rms="4.2350748181343079e-01" purity="5.0670045614242554e-01" nType="0">
        <Node pos="l" depth="1" NCoef="0" IVar="1" Cut="6.6760757446289062e+01" cType="1" res="3.4206177224405110e-04" rms="4.2235305905342102e-01" purity="3.3038824796676636e-01" nType="0">
          <Node pos="l" depth="2" NCoef="0" IVar="-1" Cut="0.0000000000000000e+00" cType="1" res="-8.3190290024504066e-04" rms="3.5991051793098450e-01" purity="1.6596496105194092e-01" nType="-99"/>
          <Node pos="r" depth="2" NCoef="0" IVar="-1" Cut="0.0000000000000000e+00" cType="1" res="1.7853030294645578e-04" rms="4.5465725660324097e-01" purity="4.4317901134490967e-01" nType="-99"/>
        </Node>
        <Node pos="r" depth="1" NCoef="0" IVar="0" Cut="4.0065497159957886e-02" cType="1" res="1.6234177350997925e-01" rms="4.0653041005134583e-01" purity="7.6108080148696899e-01" nType="0">
          <Node pos="l" depth="2" NCoef="0" IVar="-1" Cut="0.0000000000000000e+00" cType="1" res="5.1534658996388316e-04" rms="2.9514276981353760e-01" purity="9.0088647603988647e-01" nType="-99"/>
          <Node pos="r" depth="2" NCoef="0" IVar="-1" Cut="0.0000000000000000e+00" cType="1" res="2.5717864627949893e-04" rms="4.4446000456809998e-01" purity="6.8393814563751221e-01" nType="-99"/>
        </Node>
      </Node>
    </BinaryTree>
    <BinaryTree type="DecisionTree" boostWeight="1.0000000000000000e+00" itree="640">
      <Node pos="s" depth="0" NCoef="0" IVar="2" Cut="6.1173269531250000e+04" cType="1" res="6.1927855014801025e-02" rms="4.2548182606697083e-01" purity="4.9818637967109680e-01" nType="0">
        <Node pos="l" depth="1" NCoef="0" IVar="0" Cut="7.4822112917900085e-02" cType="1" res="1.3626415282487869e-02" rms="4.3120178580284119e-01" purity="3.6960884928703308e-01" nType="0">
          <Node pos="l" depth="2" NCoef="0" IVar="-1" Cut="0.0000000000000000e+00" cType="1" res="1.1516444646986201e-04" rms="4.3637102842330933e-01" purity="3.9716261625289917e-01" nType="-99"/>
          <Node pos="r" depth="2" NCoef="0" IVar="-1" Cut="0.0000000000000000e+00" cType="1" res="-2.3442604579031467e-03" rms="3.4327766299247742e-01" purity="1.4776057004928589e-01" nType="-99"/>
        </Node>
        <Node pos="r" depth="1" NCoef="0" IVar="1" Cut="2.4399609375000000e+02" cType="1" res="1.7768375575542450e-01" rms="3.8768634200096130e-01" purity="8.0632644891738892e-01" nType="0">
          <Node pos="l" depth="2" NCoef="0" IVar="-1" Cut="0.0000000000000000e+00" cType="1" res="2.9609704506583512e-04" rms="4.3017199635505676e-01" purity="7.4402660131454468e-01" nType="-99"/>
          <Node pos="r" depth="2" NCoef="0" IVar="-1" Cut="0.0000000000000000e+00" cType="1" res="4.2440707329660654e-04" rms="2.3989343643188477e-01" purity="9.3824976682662964e-01" nType="-99"/>
        </Node>
      </Node>
    </BinaryTree>
    <BinaryTree type="DecisionTree" boostWeight="1.0000000000000000e+00" itree="641">
      <Node pos="s" depth="0" NCoef="0" IVar="1" Cut="1.0517140960693359e+02" cType="1" res="6.4059264957904816e-02" rms="4.1989573836326599e-01" purity="5.0695461034774780e-01" nType="0">
        <Node pos="l" depth="1" NCoef="0" IVar="1" Cut="3.4252593994140625e+01" cType="1" res="-4.6715065836906433e-02" rms="3.8320088386535645e-01" purity="2.3162330687046051e-01" nType="0">
          <Node pos="l" depth="2" NCoef="0" IVar="-1" Cut="0.0000000000000000e+00" cType="1" res="-3.2123597338795662e-03" rms="2.8762364387512207e-01" purity="9.2946417629718781e-02" nType="-99"/>
          <Node pos="r" depth="2" NCoef="0" IVar="-1" Cut="0.0000000000000000e+00" cType="1" res="-1.0099440260091797e-05" rms="4.1456022858619690e-01" purity="2.9888063669204712e-01" nType="-99"/>
        </Node>
        <Node pos="r" depth="1" NCoef="0" IVar="0" Cut="2.8488764539361000e-02" cType="1" res="1.3770009577274323e-01" rms="4.2699268460273743e-01" purity="6.8998998403549194e-01" nType="0">
          <Node pos="l" depth="2" NCoef="0" IVar="-1" Cut="0.0000000000000000e+00" cType="1" res="5.0831219414249063e-04" rms="3.5452151298522949e-01" purity="8.3723044395446777e-01" nType="-99"/>
          <Node pos="r" depth="2" NCoef="0" IVar="-1" Cut="0.0000000000000000e+00" cType="1" res="2.5734657538123429e-04" rms="4.4159352779388428e-01" purity="6.3759666681289673e-01" nType="-99"/>
        </Node>
      </Node>
    </BinaryTree>
    <BinaryTree type="DecisionTree" boostWeight="1.0000000000000000e+00" itree="642">
      <Node pos="s" depth="0" NCoef="0" IVar="2" Cut="7.2246000000000000e+04" cType="1" res="5.9412378817796707e-02" rms="4.2281165719032288e-01" purity="4.9789950251579285e-01" nType="0">
        <Node pos="l" depth="1" NCoef="0" IVar="0" Cut="3.8617823272943497e-02" cType="1" res="1.7887556925415993e-02" rms="4.3075272440910339e-01" purity="4.0345659852027893e-01" nType="0">
          <Node pos="l" depth="2" NCoef="0" IVar="-1" Cut="0.0000000000000000e+00" cType="1" res="2.0429081632755697e-04" rms="4.4045516848564148e-01" purity="4.8463267087936401e-01" nType="-99"/>
          <Node pos="r" depth="2" NCoef="0" IVar="-1" Cut="0.0000000000000000e+00" cType="1" res="-3.8554472848773003e-04" rms="4.0589740872383118e-01" purity="2.9497715830802917e-01" nType="-99"/>
        </Node>
        <Node pos="r" depth="1" NCoef="0" IVar="1" Cut="2.0197679138183594e+02" cType="1" res="2.1586090326309204e-01" rms="3.4965631365776062e-01" purity="8.5372191667556763e-01" nType="0">
          <Node pos="l" depth="2" NCoef="0" IVar="-1" Cut="0.0000000000000000e+00" cType="1" res="3.5252168891020119e-04" rms="4.1350263357162476e-01" purity="7.7445757389068604e-01" nType="-99"/>
          <Node pos="r" depth="2" NCoef="0" IVar="-1" Cut="0.0000000000000000e+00" cType="1" res="4.3073249980807304e-04" rms="2.8253692388534546e-01" purity="9.1163861751556396e-01" nType="-99"/>
        </Node>
      </Node>
    </BinaryTree>
    <BinaryTree type="DecisionTree" boostWeight="1.0000000000000000e+00" itree="643">
      <Node pos="s" depth="0" NCoef="0" IVar="2" Cut="6.1173269531250000e+04" cType="1" res="5.0050489604473114e-02" rms="4.2205217480659485e-01" purity="4.8717743158340454e-01" nType="0">
        <Node pos="l" depth="1" NCoef="0" IVar="0" Cut="2.5133045390248299e-02" cType="1" res="-5.6055197492241859e-03" rms="4.2500537633895874e-01" purity="3.4924003481864929e-01" nType="0">
          <Node pos="l" depth="2" NCoef="0" IVar="-1" Cut="0.0000000000000000e+00" cType="1" res="1.8116508726961911e-04" rms="4.4153869152069092e-01" purity="4.5916163921356201e-01" nType="-99"/>
          <Node pos="r" depth="2" NCoef="0" IVar="-1" Cut="0.0000000000000000e+00" cType="1" res="-3.7393966340459883e-04" rms="4.0594366192817688e-01" purity="2.7610170841217041e-01" nType="-99"/>
        </Node>
        <Node pos="r" depth="1" NCoef="0" IVar="1" Cut="2.3114056396484375e+02" cType="1" res="1.7998790740966797e-01" rms="3.8493153452873230e-01" purity="8.0921328067779541e-01" nType="0">
          <Node pos="l" depth="2" NCoef="0" IVar="-1" Cut="0.0000000000000000e+00" cType="1" res="2.9539407114498317e-04" rms="4.2528137564659119e-01" purity="7.5038737058639526e-01" nType="-99"/>
          <Node pos="r" depth="2" NCoef="0" IVar="-1" Cut="0.0000000000000000e+00" cType="1" res="4.7635039663873613e-04" rms="2.6577275991439819e-01" purity="9.2265731096267700e-01" nType="-99"/>
        </Node>
      </Node>
    </BinaryTree>
    <BinaryTree type="DecisionTree" boostWeight="1.0000000000000000e+00" itree="644">
      <Node pos="s" depth="0" NCoef="0" IVar="2" Cut="6.1173269531250000e+04" cType="1" res="5.8229651302099228e-02" rms="4.2236381769180298e-01" purity="4.9792435765266418e-01" nType="0">
        <Node pos="l" depth="1" NCoef="0" IVar="0" Cut="3.7628732621669769e-02" cType="1" res="5.4986444301903248e-03" rms="4.2685824632644653e-01" purity="3.6429229378700256e-01" nType="0">
          <Node pos="l" depth="2" NCoef="0" IVar="-1" Cut="0.0000000000000000e+00" cType="1" res="2.0929746096953750e-04" rms="4.4456532597541809e-01" purity="4.5951393246650696e-01" nType="-99"/>
          <Node pos="r" depth="2" NCoef="0" IVar="-1" Cut="0.0000000000000000e+00" cType="1" res="-6.5470248227939010e-04" rms="3.8718104362487793e-01" purity="2.2868059575557709e-01" nType="-99"/>
        </Node>
        <Node pos="r" depth="1" NCoef="0" IVar="1" Cut="2.2405509948730469e+02" cType="1" res="1.8156784772872925e-01" rms="3.8437956571578979e-01" purity="8.1049072742462158e-01" nType="0">
          <Node pos="l" depth="2" NCoef="0" IVar="-1" Cut="0.0000000000000000e+00" cType="1" res="3.0624232022091746e-04" rms="4.2445951700210571e-01" purity="7.5231772661209106e-01" nType="-99"/>
          <Node pos="r" depth="2" NCoef="0" IVar="-1" Cut="0.0000000000000000e+00" cType="1" res="4.6857120469212532e-04" rms="2.7641007304191589e-01" purity="9.1569817066192627e-01" nType="-99"/>
        </Node>
      </Node>
    </BinaryTree>
    <BinaryTree type="DecisionTree" boostWeight="1.0000000000000000e+00" itree="645">
      <Node pos="s" depth="0" NCoef="0" IVar="1" Cut="1.3725863647460938e+02" cType="1" res="5.4643262177705765e-02" rms="4.2145630717277527e-01" purity="4.9350550770759583e-01" nType="0">
        <Node pos="l" depth="1" NCoef="0" IVar="0" Cut="6.0919947922229767e-02" cType="1" res="-2.2134222090244293e-02" rms="4.0614980459213257e-01" purity="2.8750205039978027e-01" nType="0">
          <Node pos="l" depth="2" NCoef="0" IVar="-1" Cut="0.0000000000000000e+00" cType="1" res="1.8337566871196032e-05" rms="4.2561271786689758e-01" purity="3.3073362708091736e-01" nType="-99"/>
          <Node pos="r" depth="2" NCoef="0" IVar="-1" Cut="0.0000000000000000e+00" cType="1" res="-2.2518828045576811e-03" rms="2.6945856213569641e-01" purity="8.7824590504169464e-02" nType="-99"/>
        </Node>
        <Node pos="r" depth="1" NCoef="0" IVar="1" Cut="2.5578929138183594e+02" cType="1" res="1.4318867027759552e-01" rms="4.2142167687416077e-01" purity="7.3108386993408203e-01" nType="0">
          <Node pos="l" depth="2" NCoef="0" IVar="-1" Cut="0.0000000000000000e+00" cType="1" res="2.6192379300482571e-04" rms="4.4497308135032654e-01" purity="6.8547677993774414e-01" nType="-99"/>
          <Node pos="r" depth="2" NCoef="0" IVar="-1" Cut="0.0000000000000000e+00" cType="1" res="3.6071622162126005e-04" rms="2.6332262158393860e-01" purity="9.2031902074813843e-01" nType="-99"/>
        </Node>
      </Node>
    </BinaryTree>
    <BinaryTree type="DecisionTree" boostWeight="1.0000000000000000e+00" itree="646">
      <Node pos="s" depth="0" NCoef="0" IVar="2" Cut="3.5598781250000000e+04" cType="1" res="5.7264182716608047e-02" rms="4.2283791303634644e-01" purity="4.9501609802246094e-01" nType="0">
        <Node pos="l" depth="1" NCoef="0" IVar="0" Cut="1.2183989398181438e-02" cType="1" res="-2.1014738827943802e-02" rms="4.1113361716270447e-01" purity="2.9638183116912842e-01" nType="0">
          <Node pos="l" depth="2" NCoef="0" IVar="-1" Cut="0.0000000000000000e+00" cType="1" res="1.7541370471008122e-04" rms="4.4449785351753235e-01" purity="4.2525973916053772e-01" nType="-99"/>
          <Node pos="r" depth="2" NCoef="0" IVar="-1" Cut="0.0000000000000000e+00" cType="1" res="-3.4033381962217391e-04" rms="3.9503863453865051e-01" purity="2.5649628043174744e-01" nType="-99"/>
        </Node>
        <Node pos="r" depth="1" NCoef="0" IVar="0" Cut="3.8821943104267120e-02" cType="1" res="1.4562131464481354e-01" rms="4.1843304038047791e-01" purity="7.1922403573989868e-01" nType="0">
          <Node pos="l" depth="2" NCoef="0" IVar="-1" Cut="0.0000000000000000e+00" cType="1" res="4.9352314090356231e-04" rms="3.2159626483917236e-01" purity="8.7851095199584961e-01" nType="-99"/>
          <Node pos="r" depth="2" NCoef="0" IVar="-1" Cut="0.0000000000000000e+00" cType="1" res="2.2453934070654213e-04" rms="4.4413146376609802e-01" purity="6.4881199598312378e-01" nType="-99"/>
        </Node>
      </Node>
    </BinaryTree>
    <BinaryTree type="DecisionTree" boostWeight="1.0000000000000000e+00" itree="647">
      <Node pos="s" depth="0" NCoef="0" IVar="2" Cut="6.1173269531250000e+04" cType="1" res="6.1369180679321289e-02" rms="4.2086997628211975e-01" purity="5.0283807516098022e-01" nType="0">
        <Node pos="l" depth="1" NCoef="0" IVar="1" Cut="3.5253700256347656e+01" cType="1" res="1.6683583380654454e-03" rms="4.2674309015274048e-01" purity="3.5793179273605347e-01" nType="0">
          <Node pos="l" depth="2" NCoef="0" IVar="-1" Cut="0.0000000000000000e+00" cType="1" res="-3.3517780248075724e-03" rms="2.8568720817565918e-01" purity="9.1408990323543549e-02" nType="-99"/>
          <Node pos="r" depth="2" NCoef="0" IVar="-1" Cut="0.0000000000000000e+00" cType="1" res="1.1844297841889784e-04" rms="4.4765609502792358e-01" purity="4.2202904820442200e-01" nType="-99"/>
        </Node>
        <Node pos="r" depth="1" NCoef="0" IVar="1" Cut="2.4734503173828125e+02" cType="1" res="1.9273689389228821e-01" rms="3.7560251355171204e-01" purity="8.2169485092163086e-01" nType="0">
          <Node pos="l" depth="2" NCoef="0" IVar="-1" Cut="0.0000000000000000e+00" cType="1" res="3.2572864438407123e-04" rms="4.1088926792144775e-01" purity="7.7532786130905151e-01" nType="-99"/>
          <Node pos="r" depth="2" NCoef="0" IVar="-1" Cut="0.0000000000000000e+00" cType="1" res="5.1388330757617950e-04" rms="2.4256105720996857e-01" purity="9.3689161539077759e-01" nType="-99"/>
        </Node>
      </Node>
    </BinaryTree>
    <BinaryTree type="DecisionTree" boostWeight="1.0000000000000000e+00" itree="648">
      <Node pos="s" depth="0" NCoef="0" IVar="2" Cut="4.0782179687500000e+04" cType="1" res="4.9591511487960815e-02" rms="4.2221850156784058e-01" purity="4.8575156927108765e-01" nType="0">
        <Node pos="l" depth="1" NCoef="0" IVar="0" Cut="1.2542910873889923e-02" cType="1" res="-2.4065537378191948e-02" rms="4.1313609480857849e-01" purity="2.9533588886260986e-01" nType="0">
          <Node pos="l" depth="2" NCoef="0" IVar="-1" Cut="0.0000000000000000e+00" cType="1" res="2.2856617579236627e-04" rms="4.4525930285453796e-01" purity="4.1341978311538696e-01" nType="-99"/>
          <Node pos="r" depth="2" NCoef="0" IVar="-1" Cut="0.0000000000000000e+00" cType="1" res="-3.6002029082737863e-04" rms="3.9919599890708923e-01" purity="2.6117321848869324e-01" nType="-99"/>
        </Node>
        <Node pos="r" depth="1" NCoef="0" IVar="0" Cut="3.9766632020473480e-02" cType="1" res="1.4749163389205933e-01" rms="4.1419461369514465e-01" purity="7.3883962631225586e-01" nType="0">
          <Node pos="l" depth="2" NCoef="0" IVar="-1" Cut="0.0000000000000000e+00" cType="1" res="5.2271923050284386e-04" rms="3.1783208250999451e-01" purity="8.8144177198410034e-01" nType="-99"/>
          <Node pos="r" depth="2" NCoef="0" IVar="-1" Cut="0.0000000000000000e+00" cType="1" res="2.4521953309886158e-04" rms="4.4217053055763245e-01" purity="6.7333567142486572e-01" nType="-99"/>
        </Node>
      </Node>
    </BinaryTree>
    <BinaryTree type="DecisionTree" boostWeight="1.0000000000000000e+00" itree="649">
      <Node pos="s" depth="0" NCoef="0" IVar="2" Cut="6.1173269531250000e+04" cType="1" res="6.6634319722652435e-02" rms="4.2057120800018311e-01" purity="5.0740832090377808e-01" nType="0">
        <Node pos="l" depth="1" NCoef="0" IVar="0" Cut="2.5133045390248299e-02" cType="1" res="1.0534783825278282e-02" rms="4.2790144681930542e-01" purity="3.6753338575363159e-01" nType="0">
          <Node pos="l" depth="2" NCoef="0" IVar="-1" Cut="0.0000000000000000e+00" cType="1" res="2.2786521003581583e-04" rms="4.4182643294334412e-01" purity="4.7857588529586792e-01" nType="-99"/>
          <Node pos="r" depth="2" NCoef="0" IVar="-1" Cut="0.0000000000000000e+00" cType="1" res="-2.3068666632752866e-04" rms="4.0995019674301147e-01" purity="2.9175254702568054e-01" nType="-99"/>
        </Node>
        <Node pos="r" depth="1" NCoef="0" IVar="1" Cut="2.4123907470703125e+02" cType="1" res="1.9342707097530365e-01" rms="3.7367603182792664e-01" purity="8.2354521751403809e-01" nType="0">
          <Node pos="l" depth="2" NCoef="0" IVar="-1" Cut="0.0000000000000000e+00" cType="1" res="3.3931338111869991e-04" rms="4.1091972589492798e-01" purity="7.7439683675765991e-01" nType="-99"/>
          <Node pos="r" depth="2" NCoef="0" IVar="-1" Cut="0.0000000000000000e+00" cType="1" res="5.7334359735250473e-04" rms="2.4595078825950623e-01" purity="9.3494802713394165e-01" nType="-99"/>
        </Node>
      </Node>
    </BinaryTree>
    <BinaryTree type="DecisionTree" boostWeight="1.0000000000000000e+00" itree="650">
      <Node pos="s" depth="0" NCoef="0" IVar="1" Cut="9.2772712707519531e+01" cType="1" res="5.1400367170572281e-02" rms="4.2187780141830444e-01" purity="4.8821613192558289e-01" nType="0">
        <Node pos="l" depth="1" NCoef="0" IVar="1" Cut="3.9295017242431641e+01" cType="1" res="-5.8168444782495499e-02" rms="3.7259888648986816e-01" purity="2.0826831459999084e-01" nType="0">
          <Node pos="l" depth="2" NCoef="0" IVar="-1" Cut="0.0000000000000000e+00" cType="1" res="-1.9745759200304747e-03" rms="3.0899742245674133e-01" purity="1.0418942570686340e-01" nType="-99"/>
          <Node pos="r" depth="2" NCoef="0" IVar="-1" Cut="0.0000000000000000e+00" cType="1" res="-6.8354689574334770e-05" rms="4.0720400214195251e-01" purity="2.8546705842018127e-01" nType="-99"/>
        </Node>
        <Node pos="r" depth="1" NCoef="0" IVar="1" Cut="2.1978245544433594e+02" cType="1" res="1.1409275233745575e-01" rms="4.3541082739830017e-01" purity="6.4839494228363037e-01" nType="0">
          <Node pos="l" depth="2" NCoef="0" IVar="-1" Cut="0.0000000000000000e+00" cType="1" res="2.4209011462517083e-04" rms="4.5365989208221436e-01" purity="5.9440404176712036e-01" nType="-99"/>
          <Node pos="r" depth="2" NCoef="0" IVar="-1" Cut="0.0000000000000000e+00" cType="1" res="4.3200069922022521e-04" rms="3.1769716739654541e-01" purity="8.7541371583938599e-01" nType="-99"/>
        </Node>
      </Node>
    </BinaryTree>
    <BinaryTree type="DecisionTree" boostWeight="1.0000000000000000e+00" itree="651">
      <Node pos="s" depth="0" NCoef="0" IVar="3" Cut="1.4930736541748047e+01" cType="1" res="6.1526283621788025e-02" rms="4.2503377795219421e-01" purity="4.9817177653312683e-01" nType="0">
        <Node pos="l" depth="1" NCoef="0" IVar="0" Cut="1.0017779655754566e-02" cType="1" res="-1.6784975305199623e-02" rms="4.1566416621208191e-01" purity="2.9689964652061462e-01" nType="0">
          <Node pos="l" depth="2" NCoef="0" IVar="-1" Cut="0.0000000000000000e+00" cType="1" res="2.0752887940034270e-04" rms="4.4193968176841736e-01" purity="4.5378357172012329e-01" nType="-99"/>
          <Node pos="r" depth="2" NCoef="0" IVar="-1" Cut="0.0000000000000000e+00" cType="1" res="-4.3945680954493582e-04" rms="3.9994788169860840e-01" purity="2.5041911005973816e-01" nType="-99"/>
        </Node>
        <Node pos="r" depth="1" NCoef="0" IVar="0" Cut="3.9299380034208298e-02" cType="1" res="1.3654713332653046e-01" rms="4.2035302519798279e-01" purity="6.9098705053329468e-01" nType="0">
          <Node pos="l" depth="2" NCoef="0" IVar="-1" Cut="0.0000000000000000e+00" cType="1" res="4.1125380084849894e-04" rms="3.2670521736145020e-01" purity="8.7406659126281738e-01" nType="-99"/>
          <Node pos="r" depth="2" NCoef="0" IVar="-1" Cut="0.0000000000000000e+00" cType="1" res="1.8885282042901963e-04" rms="4.4422259926795959e-01" purity="5.9357649087905884e-01" nType="-99"/>
        </Node>
      </Node>
    </BinaryTree>
    <BinaryTree type="DecisionTree" boostWeight="1.0000000000000000e+00" itree="652">
      <Node pos="s" depth="0" NCoef="0" IVar="1" Cut="1.3158508300781250e+02" cType="1" res="6.5149597823619843e-02" rms="4.2095386981964111e-01" purity="5.0665718317031860e-01" nType="0">
        <Node pos="l" depth="1" NCoef="0" IVar="1" Cut="3.6733535766601562e+01" cType="1" res="-2.1412981674075127e-02" rms="4.0785109996795654e-01" purity="2.7797046303749084e-01" nType="0">
          <Node pos="l" depth="2" NCoef="0" IVar="-1" Cut="0.0000000000000000e+00" cType="1" res="-1.8560849130153656e-03" rms="3.1177565455436707e-01" purity="1.0984294116497040e-01" nType="-99"/>
          <Node pos="r" depth="2" NCoef="0" IVar="-1" Cut="0.0000000000000000e+00" cType="1" res="5.8024110330734402e-05" rms="4.3435069918632507e-01" purity="3.4452143311500549e-01" nType="-99"/>
        </Node>
        <Node pos="r" depth="1" NCoef="0" IVar="1" Cut="2.4540667724609375e+02" cType="1" res="1.5213061869144440e-01" rms="4.1595587134361267e-01" purity="7.3644924163818359e-01" nType="0">
          <Node pos="l" depth="2" NCoef="0" IVar="-1" Cut="0.0000000000000000e+00" cType="1" res="2.6839555357582867e-04" rms="4.4126191735267639e-01" purity="6.8854725360870361e-01" nType="-99"/>
          <Node pos="r" depth="2" NCoef="0" IVar="-1" Cut="0.0000000000000000e+00" cType="1" res="3.8262375164777040e-04" rms="2.6758044958114624e-01" purity="9.1656148433685303e-01" nType="-99"/>
        </Node>
      </Node>
    </BinaryTree>
    <BinaryTree type="DecisionTree" boostWeight="1.0000000000000000e+00" itree="653">
      <Node pos="s" depth="0" NCoef="0" IVar="2" Cut="5.4184500000000000e+04" cType="1" res="6.4852006733417511e-02" rms="4.2221218347549438e-01" purity="5.0512772798538208e-01" nType="0">
        <Node pos="l" depth="1" NCoef="0" IVar="0" Cut="2.5400951504707336e-02" cType="1" res="4.5556509867310524e-03" rms="4.2656171321868896e-01" purity="3.4584799408912659e-01" nType="0">
          <Node pos="l" depth="2" NCoef="0" IVar="-1" Cut="0.0000000000000000e+00" cType="1" res="2.4250200658570975e-04" rms="4.4325008988380432e-01" purity="4.5378130674362183e-01" nType="-99"/>
          <Node pos="r" depth="2" NCoef="0" IVar="-1" Cut="0.0000000000000000e+00" cType="1" res="-2.4468914489261806e-04" rms="4.0766739845275879e-01" purity="2.6832973957061768e-01" nType="-99"/>
        </Node>
        <Node pos="r" depth="1" NCoef="0" IVar="1" Cut="2.3073229980468750e+02" cType="1" res="1.7494861781597137e-01" rms="3.9084851741790771e-01" purity="7.9596042633056641e-01" nType="0">
          <Node pos="l" depth="2" NCoef="0" IVar="-1" Cut="0.0000000000000000e+00" cType="1" res="2.8467946685850620e-04" rms="4.2623913288116455e-01" purity="7.4175167083740234e-01" nType="-99"/>
          <Node pos="r" depth="2" NCoef="0" IVar="-1" Cut="0.0000000000000000e+00" cType="1" res="5.5257766507565975e-04" rms="2.6757228374481201e-01" purity="9.2084217071533203e-01" nType="-99"/>
        </Node>
      </Node>
    </BinaryTree>
    <BinaryTree type="DecisionTree" boostWeight="1.0000000000000000e+00" itree="654">
      <Node pos="s" depth="0" NCoef="0" IVar="2" Cut="6.6204593750000000e+04" cType="1" res="5.8784525841474533e-02" rms="4.2411932349205017e-01" purity="4.9511063098907471e-01" nType="0">
        <Node pos="l" depth="1" NCoef="0" IVar="0" Cut="2.4977400898933411e-02" cType="1" res="1.1324992403388023e-02" rms="4.3140381574630737e-01" purity="3.7686842679977417e-01" nType="0">
          <Node pos="l" depth="2" NCoef="0" IVar="-1" Cut="0.0000000000000000e+00" cType="1" res="2.7719463105313480e-04" rms="4.4291231036186218e-01" purity="4.7900557518005371e-01" nType="-99"/>
          <Node pos="r" depth="2" NCoef="0" IVar="-1" Cut="0.0000000000000000e+00" cType="1" res="-2.3584559676237404e-04" rms="4.1633024811744690e-01" purity="3.1145709753036499e-01" nType="-99"/>
        </Node>
        <Node pos="r" depth="1" NCoef="0" IVar="1" Cut="2.3041674804687500e+02" cType="1" res="1.9268518686294556e-01" rms="3.7149703502655029e-01" purity="8.2871484756469727e-01" nType="0">
          <Node pos="l" depth="2" NCoef="0" IVar="-1" Cut="0.0000000000000000e+00" cType="1" res="2.9978278325870633e-04" rms="4.1893678903579712e-01" purity="7.6535898447036743e-01" nType="-99"/>
          <Node pos="r" depth="2" NCoef="0" IVar="-1" Cut="0.0000000000000000e+00" cType="1" res="4.8542386502958834e-04" rms="2.5768205523490906e-01" purity="9.2809998989105225e-01" nType="-99"/>
        </Node>
      </Node>
    </BinaryTree>
    <BinaryTree type="DecisionTree" boostWeight="1.0000000000000000e+00" itree="655">
      <Node pos="s" depth="0" NCoef="0" IVar="3" Cut="1.3542619705200195e+01" cType="1" res="6.2062136828899384e-02" rms="4.2167958617210388e-01" purity="5.0234252214431763e-01" nType="0">
        <Node pos="l" depth="1" NCoef="0" IVar="0" Cut="1.2183989398181438e-02" cType="1" res="-2.9376391321420670e-02" rms="4.0645894408226013e-01" purity="2.8569331765174866e-01" nType="0">
          <Node pos="l" depth="2" NCoef="0" IVar="-1" Cut="0.0000000000000000e+00" cType="1" res="3.2873536110855639e-04" rms="4.4333153963088989e-01" purity="4.4890153408050537e-01" nType="-99"/>
          <Node pos="r" depth="2" NCoef="0" IVar="-1" Cut="0.0000000000000000e+00" cType="1" res="-6.3193298410624266e-04" rms="3.8035020232200623e-01" purity="2.2347223758697510e-01" nType="-99"/>
        </Node>
        <Node pos="r" depth="1" NCoef="0" IVar="0" Cut="3.9660222828388214e-02" cType="1" res="1.4033740758895874e-01" rms="4.1871172189712524e-01" purity="6.8780344724655151e-01" nType="0">
          <Node pos="l" depth="2" NCoef="0" IVar="-1" Cut="0.0000000000000000e+00" cType="1" res="5.0480663776397705e-04" rms="3.4100651741027832e-01" purity="8.5813045501708984e-01" nType="-99"/>
          <Node pos="r" depth="2" NCoef="0" IVar="-1" Cut="0.0000000000000000e+00" cType="1" res="2.2066068777348846e-04" rms="4.3819749355316162e-01" purity="6.0176175832748413e-01" nType="-99"/>
        </Node>
      </Node>
    </BinaryTree>
    <BinaryTree type="DecisionTree" boostWeight="1.0000000000000000e+00" itree="656">
      <Node pos="s" depth="0" NCoef="0" IVar="3" Cut="1.2480910301208496e+01" cType="1" res="5.7521671056747437e-02" rms="4.1996273398399353e-01" purity="4.9833363294601440e-01" nType="0">
        <Node pos="l" depth="1" NCoef="0" IVar="0" Cut="1.2183989398181438e-02" cType="1" res="-3.9223756641149521e-02" rms="4.0184515714645386e-01" purity="2.7215948700904846e-01" nType="0">
          <Node pos="l" depth="2" NCoef="0" IVar="-1" Cut="0.0000000000000000e+00" cType="1" res="3.6077803815715015e-04" rms="4.3791443109512329e-01" purity="4.1756606101989746e-01" nType="-99"/>
          <Node pos="r" depth="2" NCoef="0" IVar="-1" Cut="0.0000000000000000e+00" cType="1" res="-7.2174367960542440e-04" rms="3.7856566905975342e-01" purity="2.1620045602321625e-01" nType="-99"/>
        </Node>
        <Node pos="r" depth="1" NCoef="0" IVar="0" Cut="4.2733144015073776e-02" cType="1" res="1.3301511108875275e-01" rms="4.1831123828887939e-01" purity="6.7482429742813110e-01" nType="0">
          <Node pos="l" depth="2" NCoef="0" IVar="-1" Cut="0.0000000000000000e+00" cType="1" res="4.5037502422928810e-04" rms="3.5946974158287048e-01" purity="8.2872593402862549e-01" nType="-99"/>
          <Node pos="r" depth="2" NCoef="0" IVar="-1" Cut="0.0000000000000000e+00" cType="1" res="2.0114028302486986e-04" rms="4.3518844246864319e-01" purity="5.8579373359680176e-01" nType="-99"/>
        </Node>
      </Node>
    </BinaryTree>
    <BinaryTree type="DecisionTree" boostWeight="1.0000000000000000e+00" itree="657">
      <Node pos="s" depth="0" NCoef="0" IVar="3" Cut="1.4930736541748047e+01" cType="1" res="5.5854655802249908e-02" rms="4.2022198438644409e-01" purity="4.9589130282402039e-01" nType="0">
        <Node pos="l" depth="1" NCoef="0" IVar="0" Cut="2.4367978796362877e-02" cType="1" res="-3.5149298608303070e-02" rms="4.0422806143760681e-01" purity="2.7809005975723267e-01" nType="0">
          <Node pos="l" depth="2" NCoef="0" IVar="-1" Cut="0.0000000000000000e+00" cType="1" res="1.5234580496326089e-04" rms="4.4238156080245972e-01" purity="3.9217558503150940e-01" nType="-99"/>
          <Node pos="r" depth="2" NCoef="0" IVar="-1" Cut="0.0000000000000000e+00" cType="1" res="-1.0333680547773838e-03" rms="3.5311734676361084e-01" purity="1.6905213892459869e-01" nType="-99"/>
        </Node>
        <Node pos="r" depth="1" NCoef="0" IVar="0" Cut="3.8665395230054855e-02" cType="1" res="1.3997781276702881e-01" rms="4.1718515753746033e-01" purity="6.9722461700439453e-01" nType="0">
          <Node pos="l" depth="2" NCoef="0" IVar="-1" Cut="0.0000000000000000e+00" cType="1" res="5.4192548850551248e-04" rms="3.3901581168174744e-01" purity="8.6050581932067871e-01" nType="-99"/>
          <Node pos="r" depth="2" NCoef="0" IVar="-1" Cut="0.0000000000000000e+00" cType="1" res="2.5426258798688650e-04" rms="4.3601173162460327e-01" purity="6.2964558601379395e-01" nType="-99"/>
        </Node>
      </Node>
    </BinaryTree>
    <BinaryTree type="DecisionTree" boostWeight="1.0000000000000000e+00" itree="658">
      <Node pos="s" depth="0" NCoef="0" IVar="3" Cut="1.4930736541748047e+01" cType="1" res="5.7710267603397369e-02" rms="4.2020046710968018e-01" purity="4.9812534451484680e-01" nType="0">
        <Node pos="l" depth="1" NCoef="0" IVar="0" Cut="2.0740222185850143e-02" cType="1" res="-3.4237235784530640e-02" rms="4.0182635188102722e-01" purity="2.8171953558921814e-01" nType="0">
          <Node pos="l" depth="2" NCoef="0" IVar="-1" Cut="0.0000000000000000e+00" cType="1" res="1.7197422857861966e-04" rms="4.3783998489379883e-01" purity="4.0975248813629150e-01" nType="-99"/>
          <Node pos="r" depth="2" NCoef="0" IVar="-1" Cut="0.0000000000000000e+00" cType="1" res="-7.8239035792648792e-04" rms="3.6256456375122070e-01" purity="1.8768894672393799e-01" nType="-99"/>
        </Node>
        <Node pos="r" depth="1" NCoef="0" IVar="0" Cut="4.2733144015073776e-02" cType="1" res="1.4299668371677399e-01" rms="4.1888254880905151e-01" purity="6.9885379076004028e-01" nType="0">
          <Node pos="l" depth="2" NCoef="0" IVar="-1" Cut="0.0000000000000000e+00" cType="1" res="5.2271125605329871e-04" rms="3.4857624769210815e-01" purity="8.4829789400100708e-01" nType="-99"/>
          <Node pos="r" depth="2" NCoef="0" IVar="-1" Cut="0.0000000000000000e+00" cType="1" res="1.9673921633511782e-04" rms="4.4192036986351013e-01" purity="6.1311894655227661e-01" nType="-99"/>
        </Node>
      </Node>
    </BinaryTree>
    <BinaryTree type="DecisionTree" boostWeight="1.0000000000000000e+00" itree="659">
      <Node pos="s" depth="0" NCoef="0" IVar="2" Cut="3.5598781250000000e+04" cType="1" res="6.9906964898109436e-02" rms="4.2284175753593445e-01" purity="5.1070576906204224e-01" nType="0">
        <Node pos="l" depth="1" NCoef="0" IVar="0" Cut="1.2183989398181438e-02" cType="1" res="-9.1213406994938850e-03" rms="4.1755691170692444e-01" purity="3.0775928497314453e-01" nType="0">
          <Node pos="l" depth="2" NCoef="0" IVar="-1" Cut="0.0000000000000000e+00" cType="1" res="2.2579595679417253e-04" rms="4.5802637934684753e-01" purity="4.5463073253631592e-01" nType="-99"/>
          <Node pos="r" depth="2" NCoef="0" IVar="-1" Cut="0.0000000000000000e+00" cType="1" res="-3.3957292907871306e-04" rms="3.9523980021476746e-01" purity="2.6051744818687439e-01" nType="-99"/>
        </Node>
        <Node pos="r" depth="1" NCoef="0" IVar="0" Cut="5.2980795502662659e-02" cType="1" res="1.5680506825447083e-01" rms="4.1141232848167419e-01" purity="7.3386204242706299e-01" nType="0">
          <Node pos="l" depth="2" NCoef="0" IVar="-1" Cut="0.0000000000000000e+00" cType="1" res="4.6673926408402622e-04" rms="3.5877344012260437e-01" purity="8.3346980810165405e-01" nType="-99"/>
          <Node pos="r" depth="2" NCoef="0" IVar="-1" Cut="0.0000000000000000e+00" cType="1" res="1.9874412100762129e-04" rms="4.4501817226409912e-01" purity="6.3138872385025024e-01" nType="-99"/>
        </Node>
      </Node>
    </BinaryTree>
    <BinaryTree type="DecisionTree" boostWeight="1.0000000000000000e+00" itree="660">
      <Node pos="s" depth="0" NCoef="0" IVar="2" Cut="6.6204593750000000e+04" cType="1" res="5.8612745255231857e-02" rms="4.2239657044410706e-01" purity="4.9768218398094177e-01" nType="0">
        <Node pos="l" depth="1" NCoef="0" IVar="0" Cut="4.9954801797866821e-02" cType="1" res="9.8335379734635353e-03" rms="4.2925095558166504e-01" purity="3.7680724263191223e-01" nType="0">
          <Node pos="l" depth="2" NCoef="0" IVar="-1" Cut="0.0000000000000000e+00" cType="1" res="1.9185659766662866e-04" rms="4.3916928768157959e-01" purity="4.4265177845954895e-01" nType="-99"/>
          <Node pos="r" depth="2" NCoef="0" IVar="-1" Cut="0.0000000000000000e+00" cType="1" res="-9.7272580023854971e-04" rms="3.8118943572044373e-01" purity="2.0807875692844391e-01" nType="-99"/>
        </Node>
        <Node pos="r" depth="1" NCoef="0" IVar="1" Cut="2.2618206787109375e+02" cType="1" res="1.9213624298572540e-01" rms="3.7161549925804138e-01" purity="8.2855361700057983e-01" nType="0">
          <Node pos="l" depth="2" NCoef="0" IVar="-1" Cut="0.0000000000000000e+00" cType="1" res="2.7891577337868512e-04" rms="4.1499048471450806e-01" purity="7.7134674787521362e-01" nType="-99"/>
          <Node pos="r" depth="2" NCoef="0" IVar="-1" Cut="0.0000000000000000e+00" cType="1" res="3.4244704875163734e-04" rms="2.6587167382240295e-01" purity="9.2294991016387939e-01" nType="-99"/>
        </Node>
      </Node>
    </BinaryTree>
    <BinaryTree type="DecisionTree" boostWeight="1.0000000000000000e+00" itree="661">
      <Node pos="s" depth="0" NCoef="0" IVar="2" Cut="6.6204593750000000e+04" cType="1" res="6.7738935351371765e-02" rms="4.2042580246925354e-01" purity="5.0965201854705811e-01" nType="0">
        <Node pos="l" depth="1" NCoef="0" IVar="0" Cut="5.0030406564474106e-02" cType="1" res="1.8120978027582169e-02" rms="4.2924007773399353e-01" purity="3.8756749033927917e-01" nType="0">
          <Node pos="l" depth="2" NCoef="0" IVar="-1" Cut="0.0000000000000000e+00" cType="1" res="1.6395404236391187e-04" rms="4.3858188390731812e-01" purity="4.5588004589080811e-01" nType="-99"/>
          <Node pos="r" depth="2" NCoef="0" IVar="-1" Cut="0.0000000000000000e+00" cType="1" res="-1.0183871490880847e-03" rms="3.7805685400962830e-01" purity="2.0744988322257996e-01" nType="-99"/>
        </Node>
        <Node pos="r" depth="1" NCoef="0" IVar="1" Cut="2.3208036804199219e+02" cType="1" res="2.0116576552391052e-01" rms="3.6358731985092163e-01" purity="8.3794748783111572e-01" nType="0">
          <Node pos="l" depth="2" NCoef="0" IVar="-1" Cut="0.0000000000000000e+00" cType="1" res="3.5918556386604905e-04" rms="4.0813302993774414e-01" purity="7.8247523307800293e-01" nType="-99"/>
          <Node pos="r" depth="2" NCoef="0" IVar="-1" Cut="0.0000000000000000e+00" cType="1" res="5.2699475781992078e-04" rms="2.4994446337223053e-01" purity="9.3275761604309082e-01" nType="-99"/>
        </Node>
      </Node>
    </BinaryTree>
    <BinaryTree type="DecisionTree" boostWeight="1.0000000000000000e+00" itree="662">
      <Node pos="s" depth="0" NCoef="0" IVar="2" Cut="6.6204593750000000e+04" cType="1" res="5.5339235812425613e-02" rms="4.2269101738929749e-01" purity="4.9213397502899170e-01" nType="0">
        <Node pos="l" depth="1" NCoef="0" IVar="0" Cut="4.9950782209634781e-02" cType="1" res="1.0070955380797386e-02" rms="4.2840093374252319e-01" purity="3.7802404165267944e-01" nType="0">
          <Node pos="l" depth="2" NCoef="0" IVar="-1" Cut="0.0000000000000000e+00" cType="1" res="1.3387852231971920e-04" rms="4.4088533520698547e-01" purity="4.4651708006858826e-01" nType="-99"/>
          <Node pos="r" depth="2" NCoef="0" IVar="-1" Cut="0.0000000000000000e+00" cType="1" res="-1.1888962471857667e-03" rms="3.6684700846672058e-01" purity="1.9933049380779266e-01" nType="-99"/>
        </Node>
        <Node pos="r" depth="1" NCoef="0" IVar="1" Cut="2.2952496337890625e+02" cType="1" res="1.8692024052143097e-01" rms="3.7586185336112976e-01" purity="8.2381653785705566e-01" nType="0">
          <Node pos="l" depth="2" NCoef="0" IVar="-1" Cut="0.0000000000000000e+00" cType="1" res="3.2249858486466110e-04" rms="4.2547973990440369e-01" purity="7.5595563650131226e-01" nType="-99"/>
          <Node pos="r" depth="2" NCoef="0" IVar="-1" Cut="0.0000000000000000e+00" cType="1" res="5.2643852541223168e-04" rms="2.6011601090431213e-01" purity="9.2634302377700806e-01" nType="-99"/>
        </Node>
      </Node>
    </BinaryTree>
    <BinaryTree type="DecisionTree" boostWeight="1.0000000000000000e+00" itree="663">
      <Node pos="s" depth="0" NCoef="0" IVar="1" Cut="1.0549419403076172e+02" cType="1" res="5.3991403430700302e-02" rms="4.1710317134857178e-01" purity="4.9579393863677979e-01" nType="0">
        <Node pos="l" depth="1" NCoef="0" IVar="1" Cut="5.4853847503662109e+01" cType="1" res="-5.0011426210403442e-02" rms="3.7848728895187378e-01" purity="2.2713693976402283e-01" nType="0">
          <Node pos="l" depth="2" NCoef="0" IVar="-1" Cut="0.0000000000000000e+00" cType="1" res="-2.5357669219374657e-03" rms="2.9496616125106812e-01" purity="1.0062988102436066e-01" nType="-99"/>
          <Node pos="r" depth="2" NCoef="0" IVar="-1" Cut="0.0000000000000000e+00" cType="1" res="8.3710649050772190e-05" rms="4.3049430847167969e-01" purity="3.4375825524330139e-01" nType="-99"/>
        </Node>
        <Node pos="r" depth="1" NCoef="0" IVar="0" Cut="2.8488764539361000e-02" cType="1" res="1.2603020668029785e-01" rms="4.2728617787361145e-01" purity="6.8188244104385376e-01" nType="0">
          <Node pos="l" depth="2" NCoef="0" IVar="-1" Cut="0.0000000000000000e+00" cType="1" res="4.7662790166214108e-04" rms="3.7253996729850769e-01" purity="8.1457388401031494e-01" nType="-99"/>
          <Node pos="r" depth="2" NCoef="0" IVar="-1" Cut="0.0000000000000000e+00" cType="1" res="2.5248428573831916e-04" rms="4.3739017844200134e-01" purity="6.3841432332992554e-01" nType="-99"/>
        </Node>
      </Node>
    </BinaryTree>
    <BinaryTree type="DecisionTree" boostWeight="1.0000000000000000e+00" itree="664">
      <Node pos="s" depth="0" NCoef="0" IVar="3" Cut="1.4930736541748047e+01" cType="1" res="6.0878667980432510e-02" rms="4.2493024468421936e-01" purity="4.9659368395805359e-01" nType="0">
        <Node pos="l" depth="1" NCoef="0" IVar="0" Cut="1.1065950617194176e-02" cType="1" res="-2.2492622956633568e-02" rms="4.1315266489982605e-01" purity="2.8937178850173950e-01" nType="0">
          <Node pos="l" depth="2" NCoef="0" IVar="-1" Cut="0.0000000000000000e+00" cType="1" res="1.2890860671177506e-04" rms="4.5553582906723022e-01" purity="4.7340947389602661e-01" nType="-99"/>
          <Node pos="r" depth="2" NCoef="0" IVar="-1" Cut="0.0000000000000000e+00" cType="1" res="-6.2902702484279871e-04" rms="3.8255822658538818e-01" purity="2.2551019489765167e-01" nType="-99"/>
        </Node>
        <Node pos="r" depth="1" NCoef="0" IVar="0" Cut="3.9726577699184418e-02" cType="1" res="1.4085972309112549e-01" rms="4.2067784070968628e-01" purity="6.9538897275924683e-01" nType="0">
          <Node pos="l" depth="2" NCoef="0" IVar="-1" Cut="0.0000000000000000e+00" cType="1" res="4.8808124847710133e-04" rms="3.3130773901939392e-01" purity="8.6667114496231079e-01" nType="-99"/>
          <Node pos="r" depth="2" NCoef="0" IVar="-1" Cut="0.0000000000000000e+00" cType="1" res="2.2426144278142601e-04" rms="4.4650936126708984e-01" purity="6.0907959938049316e-01" nType="-99"/>
        </Node>
      </Node>
    </BinaryTree>
    <BinaryTree type="DecisionTree" boostWeight="1.0000000000000000e+00" itree="665">
      <Node pos="s" depth="0" NCoef="0" IVar="1" Cut="1.5866616821289062e+02" cType="1" res="6.0158643871545792e-02" rms="4.2123690247535706e-01" purity="4.9900645017623901e-01" nType="0">
        <Node pos="l" depth="1" NCoef="0" IVar="1" Cut="3.7130207061767578e+01" cType="1" res="4.0716985240578651e-03" rms="4.1887009143829346e-01" purity="3.5099127888679504e-01" nType="0">
          <Node pos="l" depth="2" NCoef="0" IVar="-1" Cut="0.0000000000000000e+00" cType="1" res="-2.5259566027671099e-03" rms="2.9248708486557007e-01" purity="9.6000984311103821e-02" nType="-99"/>
          <Node pos="r" depth="2" NCoef="0" IVar="-1" Cut="0.0000000000000000e+00" cType="1" res="1.2768740998581052e-04" rms="4.4103118777275085e-01" purity="4.2340600490570068e-01" nType="-99"/>
        </Node>
        <Node pos="r" depth="1" NCoef="0" IVar="1" Cut="2.4981878662109375e+02" cType="1" res="1.6245302557945251e-01" rms="4.0603634715080261e-01" purity="7.6896435022354126e-01" nType="0">
          <Node pos="l" depth="2" NCoef="0" IVar="-1" Cut="0.0000000000000000e+00" cType="1" res="2.6578927645459771e-04" rms="4.3579328060150146e-01" purity="7.2068047523498535e-01" nType="-99"/>
          <Node pos="r" depth="2" NCoef="0" IVar="-1" Cut="0.0000000000000000e+00" cType="1" res="5.6699675042182207e-04" rms="2.7594709396362305e-01" purity="9.1078972816467285e-01" nType="-99"/>
        </Node>
      </Node>
    </BinaryTree>
    <BinaryTree type="DecisionTree" boostWeight="1.0000000000000000e+00" itree="666">
      <Node pos="s" depth="0" NCoef="0" IVar="2" Cut="3.5598781250000000e+04" cType="1" res="6.7804038524627686e-02" rms="4.2156475782394409e-01" purity="5.0842452049255371e-01" nType="0">
        <Node pos="l" depth="1" NCoef="0" IVar="0" Cut="2.5085821747779846e-02" cType="1" res="-7.6634455472230911e-03" rms="4.1665077209472656e-01" purity="3.1009086966514587e-01" nType="0">
          <Node pos="l" depth="2" NCoef="0" IVar="-1" Cut="0.0000000000000000e+00" cType="1" res="1.9681562844198197e-04" rms="4.4957470893859863e-01" purity="4.2429503798484802e-01" nType="-99"/>
          <Node pos="r" depth="2" NCoef="0" IVar="-1" Cut="0.0000000000000000e+00" cType="1" res="-6.0346460668370128e-04" rms="3.7656238675117493e-01" purity="2.1016843616962433e-01" nType="-99"/>
        </Node>
        <Node pos="r" depth="1" NCoef="0" IVar="0" Cut="4.1895925998687744e-02" cType="1" res="1.5241806209087372e-01" rms="4.1084051132202148e-01" purity="7.3079586029052734e-01" nType="0">
          <Node pos="l" depth="2" NCoef="0" IVar="-1" Cut="0.0000000000000000e+00" cType="1" res="4.1804971988312900e-04" rms="3.2468417286872864e-01" purity="8.7452334165573120e-01" nType="-99"/>
          <Node pos="r" depth="2" NCoef="0" IVar="-1" Cut="0.0000000000000000e+00" cType="1" res="2.2566558618564159e-04" rms="4.4013404846191406e-01" purity="6.4852839708328247e-01" nType="-99"/>
        </Node>
      </Node>
    </BinaryTree>
    <BinaryTree type="DecisionTree" boostWeight="1.0000000000000000e+00" itree="667">
      <Node pos="s" depth="0" NCoef="0" IVar="3" Cut="1.4930736541748047e+01" cType="1" res="6.1841670423746109e-02" rms="4.2061150074005127e-01" purity="5.0097119808197021e-01" nType="0">
        <Node pos="l" depth="1" NCoef="0" IVar="0" Cut="2.0740222185850143e-02" cType="1" res="-1.9680378958582878e-02" rms="4.0900388360023499e-01" purity="2.9589551687240601e-01" nType="0">
          <Node pos="l" depth="2" NCoef="0" IVar="-1" Cut="0.0000000000000000e+00" cType="1" res="2.5943573564291000e-04" rms="4.3871101737022400e-01" purity="4.1998985409736633e-01" nType="-99"/>
          <Node pos="r" depth="2" NCoef="0" IVar="-1" Cut="0.0000000000000000e+00" cType="1" res="-4.4886674731969833e-04" rms="3.7732470035552979e-01" purity="2.0682947337627411e-01" nType="-99"/>
        </Node>
        <Node pos="r" depth="1" NCoef="0" IVar="0" Cut="4.1265200823545456e-02" cType="1" res="1.3970132172107697e-01" rms="4.1677555441856384e-01" purity="6.9683384895324707e-01" nType="0">
          <Node pos="l" depth="2" NCoef="0" IVar="-1" Cut="0.0000000000000000e+00" cType="1" res="5.3816870786249638e-04" rms="3.3662196993827820e-01" purity="8.6232286691665649e-01" nType="-99"/>
          <Node pos="r" depth="2" NCoef="0" IVar="-1" Cut="0.0000000000000000e+00" cType="1" res="2.1211235434748232e-04" rms="4.4061666727066040e-01" purity="6.0224455595016479e-01" nType="-99"/>
        </Node>
      </Node>
    </BinaryTree>
    <BinaryTree type="DecisionTree" boostWeight="1.0000000000000000e+00" itree="668">
      <Node pos="s" depth="0" NCoef="0" IVar="2" Cut="6.1173269531250000e+04" cType="1" res="4.8251342028379440e-02" rms="4.1747048497200012e-01" purity="4.8713988065719604e-01" nType="0">
        <Node pos="l" depth="1" NCoef="0" IVar="1" Cut="3.8498767852783203e+01" cType="1" res="-9.2696696519851685e-03" rms="4.1904965043067932e-01" purity="3.4615796804428101e-01" nType="0">
          <Node pos="l" depth="2" NCoef="0" IVar="-1" Cut="0.0000000000000000e+00" cType="1" res="-2.5546383112668991e-03" rms="2.9638510942459106e-01" purity="1.0002785921096802e-01" nType="-99"/>
          <Node pos="r" depth="2" NCoef="0" IVar="-1" Cut="0.0000000000000000e+00" cType="1" res="9.5455281552858651e-05" rms="4.4176048040390015e-01" purity="4.1446736454963684e-01" nType="-99"/>
        </Node>
        <Node pos="r" depth="1" NCoef="0" IVar="1" Cut="2.4531428527832031e+02" cType="1" res="1.8134745955467224e-01" rms="3.8190910220146179e-01" purity="8.1335359811782837e-01" nType="0">
          <Node pos="l" depth="2" NCoef="0" IVar="-1" Cut="0.0000000000000000e+00" cType="1" res="3.2224337337538600e-04" rms="4.2050436139106750e-01" purity="7.5929826498031616e-01" nType="-99"/>
          <Node pos="r" depth="2" NCoef="0" IVar="-1" Cut="0.0000000000000000e+00" cType="1" res="5.1960663404315710e-04" rms="2.4294829368591309e-01" purity="9.3670624494552612e-01" nType="-99"/>
        </Node>
      </Node>
    </BinaryTree>
    <BinaryTree type="DecisionTree" boostWeight="1.0000000000000000e+00" itree="669">
      <Node pos="s" depth="0" NCoef="0" IVar="2" Cut="7.2246000000000000e+04" cType="1" res="6.8808220326900482e-02" rms="4.2544266581535339e-01" purity="5.0507122278213501e-01" nType="0">
        <Node pos="l" depth="1" NCoef="0" IVar="0" Cut="5.1490433514118195e-02" cType="1" res="3.1352106481790543e-02" rms="4.3557423353195190e-01" purity="4.1371530294418335e-01" nType="0">
          <Node pos="l" depth="2" NCoef="0" IVar="-1" Cut="0.0000000000000000e+00" cType="1" res="1.9711471395567060e-04" rms="4.4277536869049072e-01" purity="4.7722285985946655e-01" nType="-99"/>
          <Node pos="r" depth="2" NCoef="0" IVar="-1" Cut="0.0000000000000000e+00" cType="1" res="-7.7848666114732623e-04" rms="3.8887578248977661e-01" purity="2.4551187455654144e-01" nType="-99"/>
        </Node>
        <Node pos="r" depth="1" NCoef="0" IVar="1" Cut="2.2577809143066406e+02" cType="1" res="2.1189920604228973e-01" rms="3.4905749559402466e-01" purity="8.5407227277755737e-01" nType="0">
          <Node pos="l" depth="2" NCoef="0" IVar="-1" Cut="0.0000000000000000e+00" cType="1" res="3.3465219894424081e-04" rms="4.1050696372985840e-01" purity="7.7961319684982300e-01" nType="-99"/>
          <Node pos="r" depth="2" NCoef="0" IVar="-1" Cut="0.0000000000000000e+00" cType="1" res="4.1033580782823265e-04" rms="2.4974864721298218e-01" purity="9.3289196491241455e-01" nType="-99"/>
        </Node>
      </Node>
    </BinaryTree>
    <BinaryTree type="DecisionTree" boostWeight="1.0000000000000000e+00" itree="670">
      <Node pos="s" depth="0" NCoef="0" IVar="2" Cut="6.1173269531250000e+04" cType="1" res="7.2583258152008057e-02" rms="4.1964825987815857e-01" purity="5.1680886745452881e-01" nType="0">
        <Node pos="l" depth="1" NCoef="0" IVar="0" Cut="2.5400951504707336e-02" cType="1" res="1.8921975046396255e-02" rms="4.2887759208679199e-01" purity="3.7656271457672119e-01" nType="0">
          <Node pos="l" depth="2" NCoef="0" IVar="-1" Cut="0.0000000000000000e+00" cType="1" res="2.2497939062304795e-04" rms="4.4669345021247864e-01" purity="4.7857216000556946e-01" nType="-99"/>
          <Node pos="r" depth="2" NCoef="0" IVar="-1" Cut="0.0000000000000000e+00" cType="1" res="-1.5937094576656818e-04" rms="4.0894901752471924e-01" purity="3.0801245570182800e-01" nType="-99"/>
        </Node>
        <Node pos="r" depth="1" NCoef="0" IVar="1" Cut="2.4402992248535156e+02" cType="1" res="1.9016616046428680e-01" rms="3.7257102131843567e-01" purity="8.2411718368530273e-01" nType="0">
          <Node pos="l" depth="2" NCoef="0" IVar="-1" Cut="0.0000000000000000e+00" cType="1" res="3.2341241603717208e-04" rms="4.1187697649002075e-01" purity="7.7181512117385864e-01" nType="-99"/>
          <Node pos="r" depth="2" NCoef="0" IVar="-1" Cut="0.0000000000000000e+00" cType="1" res="4.5100145507603884e-04" rms="2.3561814427375793e-01" purity="9.4078975915908813e-01" nType="-99"/>
        </Node>
      </Node>
    </BinaryTree>
    <BinaryTree type="DecisionTree" boostWeight="1.0000000000000000e+00" itree="671">
      <Node pos="s" depth="0" NCoef="0" IVar="2" Cut="6.6204593750000000e+04" cType="1" res="5.7905916124582291e-02" rms="4.1752174496650696e-01" purity="5.0030237436294556e-01" nType="0">
        <Node pos="l" depth="1" NCoef="0" IVar="0" Cut="3.8101427257061005e-02" cType="1" res="7.7911745756864548e-03" rms="4.2367750406265259e-01" purity="3.7754049897193909e-01" nType="0">
          <Node pos="l" depth="2" NCoef="0" IVar="-1" Cut="0.0000000000000000e+00" cType="1" res="2.0975444931536913e-04" rms="4.3823668360710144e-01" purity="4.7555589675903320e-01" nType="-99"/>
          <Node pos="r" depth="2" NCoef="0" IVar="-1" Cut="0.0000000000000000e+00" cType="1" res="-5.4182595340535045e-04" rms="3.8514247536659241e-01" purity="2.3665599524974823e-01" nType="-99"/>
        </Node>
        <Node pos="r" depth="1" NCoef="0" IVar="1" Cut="2.2952496337890625e+02" cType="1" res="1.9358891248703003e-01" rms="3.6755278706550598e-01" purity="8.3267349004745483e-01" nType="0">
          <Node pos="l" depth="2" NCoef="0" IVar="-1" Cut="0.0000000000000000e+00" cType="1" res="3.6892193020321429e-04" rms="4.0792685747146606e-01" purity="7.8109788894653320e-01" nType="-99"/>
          <Node pos="r" depth="2" NCoef="0" IVar="-1" Cut="0.0000000000000000e+00" cType="1" res="5.3949089488014579e-04" rms="2.6220586895942688e-01" purity="9.2512851953506470e-01" nType="-99"/>
        </Node>
      </Node>
    </BinaryTree>
    <BinaryTree type="DecisionTree" boostWeight="1.0000000000000000e+00" itree="672">
      <Node pos="s" depth="0" NCoef="0" IVar="2" Cut="6.6204593750000000e+04" cType="1" res="6.1239663511514664e-02" rms="4.2481026053428650e-01" purity="4.9607893824577332e-01" nType="0">
        <Node pos="l" depth="1" NCoef="0" IVar="0" Cut="6.2832608819007874e-02" cType="1" res="2.0540384575724602e-02" rms="4.3198806047439575e-01" purity="3.8662680983543396e-01" nType="0">
          <Node pos="l" depth="2" NCoef="0" IVar="-1" Cut="0.0000000000000000e+00" cType="1" res="1.6596166824456304e-04" rms="4.3864873051643372e-01" purity="4.2537412047386169e-01" nType="-99"/>
          <Node pos="r" depth="2" NCoef="0" IVar="-1" Cut="0.0000000000000000e+00" cType="1" res="-9.7059737890958786e-04" rms="3.7403506040573120e-01" purity="2.1289117634296417e-01" nType="-99"/>
        </Node>
        <Node pos="r" depth="1" NCoef="0" IVar="1" Cut="2.2618206787109375e+02" cType="1" res="1.8206945061683655e-01" rms="3.7774071097373962e-01" purity="8.2102531194686890e-01" nType="0">
          <Node pos="l" depth="2" NCoef="0" IVar="-1" Cut="0.0000000000000000e+00" cType="1" res="3.0827854061499238e-04" rms="4.1872289776802063e-01" purity="7.6468420028686523e-01" nType="-99"/>
          <Node pos="r" depth="2" NCoef="0" IVar="-1" Cut="0.0000000000000000e+00" cType="1" res="6.2280904967337847e-04" rms="2.7459201216697693e-01" purity="9.1723716259002686e-01" nType="-99"/>
        </Node>
      </Node>
    </BinaryTree>
    <BinaryTree type="DecisionTree" boostWeight="1.0000000000000000e+00" itree="673">
      <Node pos="s" depth="0" NCoef="0" IVar="2" Cut="4.0782179687500000e+04" cType="1" res="6.6415674984455109e-02" rms="4.1670820116996765e-01" purity="5.1097714900970459e-01" nType="0">
        <Node pos="l" depth="1" NCoef="0" IVar="0" Cut="2.5133045390248299e-02" cType="1" res="-1.3319334015250206e-02" rms="4.1009137034416199e-01" purity="3.1040087342262268e-01" nType="0">
          <Node pos="l" depth="2" NCoef="0" IVar="-1" Cut="0.0000000000000000e+00" cType="1" res="2.1494929387699813e-04" rms="4.4197824597358704e-01" purity="4.3766599893569946e-01" nType="-99"/>
          <Node pos="r" depth="2" NCoef="0" IVar="-1" Cut="0.0000000000000000e+00" cType="1" res="-7.4976281030103564e-04" rms="3.6912235617637634e-01" purity="2.0288650691509247e-01" nType="-99"/>
        </Node>
        <Node pos="r" depth="1" NCoef="0" IVar="0" Cut="4.1265200823545456e-02" cType="1" res="1.6503988206386566e-01" rms="4.0351209044456482e-01" purity="7.5906985998153687e-01" nType="0">
          <Node pos="l" depth="2" NCoef="0" IVar="-1" Cut="0.0000000000000000e+00" cType="1" res="4.9319269601255655e-04" rms="3.0984511971473694e-01" purity="8.8896423578262329e-01" nType="-99"/>
          <Node pos="r" depth="2" NCoef="0" IVar="-1" Cut="0.0000000000000000e+00" cType="1" res="2.4826856679283082e-04" rms="4.3650040030479431e-01" purity="6.8805295228958130e-01" nType="-99"/>
        </Node>
      </Node>
    </BinaryTree>
    <BinaryTree type="DecisionTree" boostWeight="1.0000000000000000e+00" itree="674">
      <Node pos="s" depth="0" NCoef="0" IVar="1" Cut="1.3938558959960938e+02" cType="1" res="4.9254391342401505e-02" rms="4.2149838805198669e-01" purity="4.8594379425048828e-01" nType="0">
        <Node pos="l" depth="1" NCoef="0" IVar="1" Cut="2.5721611022949219e+01" cType="1" res="-2.2251252084970474e-02" rms="4.0584051609039307e-01" purity="2.8819045424461365e-01" nType="0">
          <Node pos="l" depth="2" NCoef="0" IVar="-1" Cut="0.0000000000000000e+00" cType="1" res="-5.3241886198520660e-03" rms="2.5721174478530884e-01" purity="7.1233175694942474e-02" nType="-99"/>
          <Node pos="r" depth="2" NCoef="0" IVar="-1" Cut="0.0000000000000000e+00" cType="1" res="3.1898911402095109e-05" rms="4.2538034915924072e-01" purity="3.3530923724174500e-01" nType="-99"/>
        </Node>
        <Node pos="r" depth="1" NCoef="0" IVar="0" Cut="2.8488764539361000e-02" cType="1" res="1.3681375980377197e-01" rms="4.2378771305084229e-01" purity="7.2809475660324097e-01" nType="0">
          <Node pos="l" depth="2" NCoef="0" IVar="-1" Cut="0.0000000000000000e+00" cType="1" res="4.8710920964367688e-04" rms="3.2318484783172607e-01" purity="8.7285459041595459e-01" nType="-99"/>
          <Node pos="r" depth="2" NCoef="0" IVar="-1" Cut="0.0000000000000000e+00" cType="1" res="2.6014033937826753e-04" rms="4.4275411963462830e-01" purity="6.8164581060409546e-01" nType="-99"/>
        </Node>
      </Node>
    </BinaryTree>
    <BinaryTree type="DecisionTree" boostWeight="1.0000000000000000e+00" itree="675">
      <Node pos="s" depth="0" NCoef="0" IVar="1" Cut="1.0537150573730469e+02" cType="1" res="5.9041805565357208e-02" rms="4.2107257246971130e-01" purity="4.9677130579948425e-01" nType="0">
        <Node pos="l" depth="1" NCoef="0" IVar="0" Cut="1.2088770978152752e-02" cType="1" res="-3.2169654965400696e-02" rms="3.9156398177146912e-01" purity="2.4149666726589203e-01" nType="0">
          <Node pos="l" depth="2" NCoef="0" IVar="-1" Cut="0.0000000000000000e+00" cType="1" res="1.4724566426593810e-04" rms="4.4647458195686340e-01" purity="3.8017728924751282e-01" nType="-99"/>
          <Node pos="r" depth="2" NCoef="0" IVar="-1" Cut="0.0000000000000000e+00" cType="1" res="-5.7358585763722658e-04" rms="3.6341691017150879e-01" purity="1.9204115867614746e-01" nType="-99"/>
        </Node>
        <Node pos="r" depth="1" NCoef="0" IVar="0" Cut="3.8101427257061005e-02" cType="1" res="1.2392882257699966e-01" rms="4.2922294139862061e-01" purity="6.7837136983871460e-01" nType="0">
          <Node pos="l" depth="2" NCoef="0" IVar="-1" Cut="0.0000000000000000e+00" cType="1" res="4.6241295058280230e-04" rms="3.9043614268302917e-01" purity="7.8668010234832764e-01" nType="-99"/>
          <Node pos="r" depth="2" NCoef="0" IVar="-1" Cut="0.0000000000000000e+00" cType="1" res="2.2980821086093783e-04" rms="4.4339793920516968e-01" purity="6.0908502340316772e-01" nType="-99"/>
        </Node>
      </Node>
    </BinaryTree>
    <BinaryTree type="DecisionTree" boostWeight="1.0000000000000000e+00" itree="676">
      <Node pos="s" depth="0" NCoef="0" IVar="2" Cut="6.1173269531250000e+04" cType="1" res="5.9035196900367737e-02" rms="4.1893088817596436e-01" purity="5.0063431262969971e-01" nType="0">
        <Node pos="l" depth="1" NCoef="0" IVar="0" Cut="3.7628732621669769e-02" cType="1" res="-8.1825332017615438e-04" rms="4.2452025413513184e-01" purity="3.5266247391700745e-01" nType="0">
          <Node pos="l" depth="2" NCoef="0" IVar="-1" Cut="0.0000000000000000e+00" cType="1" res="1.8059829017147422e-04" rms="4.4439491629600525e-01" purity="4.4541969895362854e-01" nType="-99"/>
          <Node pos="r" depth="2" NCoef="0" IVar="-1" Cut="0.0000000000000000e+00" cType="1" res="-6.9878762587904930e-04" rms="3.8169512152671814e-01" purity="2.2044740617275238e-01" nType="-99"/>
        </Node>
        <Node pos="r" depth="1" NCoef="0" IVar="1" Cut="2.3999024963378906e+02" cType="1" res="1.8921995162963867e-01" rms="3.7484526634216309e-01" purity="8.2248157262802124e-01" nType="0">
          <Node pos="l" depth="2" NCoef="0" IVar="-1" Cut="0.0000000000000000e+00" cType="1" res="3.3950581564567983e-04" rms="4.1034173965454102e-01" purity="7.7598047256469727e-01" nType="-99"/>
          <Node pos="r" depth="2" NCoef="0" IVar="-1" Cut="0.0000000000000000e+00" cType="1" res="5.0585810095071793e-04" rms="2.5182265043258667e-01" purity="9.3146079778671265e-01" nType="-99"/>
        </Node>
      </Node>
    </BinaryTree>
    <BinaryTree type="DecisionTree" boostWeight="1.0000000000000000e+00" itree="677">
      <Node pos="s" depth="0" NCoef="0" IVar="1" Cut="1.0533761596679688e+02" cType="1" res="5.7888381183147430e-02" rms="4.1740721464157104e-01" purity="4.9932742118835449e-01" nType="0">
        <Node pos="l" depth="1" NCoef="0" IVar="1" Cut="5.4689521789550781e+01" cType="1" res="-4.3770369142293930e-02" rms="3.7947094440460205e-01" purity="2.3277205228805542e-01" nType="0">
          <Node pos="l" depth="2" NCoef="0" IVar="-1" Cut="0.0000000000000000e+00" cType="1" res="-1.8643606454133987e-03" rms="3.1047686934471130e-01" purity="1.1109533160924911e-01" nType="-99"/>
          <Node pos="r" depth="2" NCoef="0" IVar="-1" Cut="0.0000000000000000e+00" cType="1" res="9.2360125563573092e-05" rms="4.2416238784790039e-01" purity="3.4455490112304688e-01" nType="-99"/>
        </Node>
        <Node pos="r" depth="1" NCoef="0" IVar="0" Cut="4.2733144015073776e-02" cType="1" res="1.2778724730014801e-01" rms="4.2781206965446472e-01" purity="6.8260651826858521e-01" nType="0">
          <Node pos="l" depth="2" NCoef="0" IVar="-1" Cut="0.0000000000000000e+00" cType="1" res="4.2633205885067582e-04" rms="3.9587956666946411e-01" purity="7.7548044919967651e-01" nType="-99"/>
          <Node pos="r" depth="2" NCoef="0" IVar="-1" Cut="0.0000000000000000e+00" cType="1" res="1.7992564244195819e-04" rms="4.4230651855468750e-01" purity="6.0514914989471436e-01" nType="-99"/>
        </Node>
      </Node>
    </BinaryTree>
    <BinaryTree type="DecisionTree" boostWeight="1.0000000000000000e+00" itree="678">
      <Node pos="s" depth="0" NCoef="0" IVar="3" Cut="1.4930736541748047e+01" cType="1" res="6.5305605530738831e-02" rms="4.2086631059646606e-01" purity="5.0580233335494995e-01" nType="0">
        <Node pos="l" depth="1" NCoef="0" IVar="0" Cut="1.2183989398181438e-02" cType="1" res="-1.4009173028171062e-02" rms="4.1144904494285583e-01" purity="3.0059042572975159e-01" nType="0">
          <Node pos="l" depth="2" NCoef="0" IVar="-1" Cut="0.0000000000000000e+00" cType="1" res="1.6836059512570500e-04" rms="4.4489163160324097e-01" purity="4.7466099262237549e-01" nType="-99"/>
          <Node pos="r" depth="2" NCoef="0" IVar="-1" Cut="0.0000000000000000e+00" cType="1" res="-4.2930236668325961e-04" rms="3.8527703285217285e-01" purity="2.3453399538993835e-01" nType="-99"/>
        </Node>
        <Node pos="r" depth="1" NCoef="0" IVar="0" Cut="3.8859125226736069e-02" cType="1" res="1.3946214318275452e-01" rms="4.1602399945259094e-01" purity="6.9766825437545776e-01" nType="0">
          <Node pos="l" depth="2" NCoef="0" IVar="-1" Cut="0.0000000000000000e+00" cType="1" res="4.6207295963540673e-04" rms="3.2079598307609558e-01" purity="8.7805503606796265e-01" nType="-99"/>
          <Node pos="r" depth="2" NCoef="0" IVar="-1" Cut="0.0000000000000000e+00" cType="1" res="2.0040979143232107e-04" rms="4.4116649031639099e-01" purity="6.0593736171722412e-01" nType="-99"/>
        </Node>
      </Node>
    </BinaryTree>
    <BinaryTree type="DecisionTree" boostWeight="1.0000000000000000e+00" itree="679">
      <Node pos="s" depth="0" NCoef="0" IVar="3" Cut="1.4930736541748047e+01" cType="1" res="5.9226248413324356e-02" rms="4.1845792531967163e-01" purity="4.9912670254707336e-01" nType="0">
        <Node pos="l" depth="1" NCoef="0" IVar="0" Cut="1.0800702497363091e-02" cType="1" res="-3.4389633685350418e-02" rms="4.0247425436973572e-01" purity="2.7560988068580627e-01" nType="0">
          <Node pos="l" depth="2" NCoef="0" IVar="-1" Cut="0.0000000000000000e+00" cType="1" res="3.3896070090122521e-04" rms="4.3444505333900452e-01" purity="4.1416949033737183e-01" nType="-99"/>
          <Node pos="r" depth="2" NCoef="0" IVar="-1" Cut="0.0000000000000000e+00" cType="1" res="-4.6177866170182824e-04" rms="3.8710212707519531e-01" purity="2.3469860851764679e-01" nType="-99"/>
        </Node>
        <Node pos="r" depth="1" NCoef="0" IVar="0" Cut="4.1312772780656815e-02" cType="1" res="1.4502196013927460e-01" rms="4.1441488265991211e-01" purity="7.0397216081619263e-01" nType="0">
          <Node pos="l" depth="2" NCoef="0" IVar="-1" Cut="0.0000000000000000e+00" cType="1" res="4.6827259939163923e-04" rms="3.4311136603355408e-01" purity="8.5706913471221924e-01" nType="-99"/>
          <Node pos="r" depth="2" NCoef="0" IVar="-1" Cut="0.0000000000000000e+00" cType="1" res="2.0081971888430417e-04" rms="4.3449568748474121e-01" purity="6.2537467479705811e-01" nType="-99"/>
        </Node>
      </Node>
    </BinaryTree>
    <BinaryTree type="DecisionTree" boostWeight="1.0000000000000000e+00" itree="680">
      <Node pos="s" depth="0" NCoef="0" IVar="3" Cut="1.4930736541748047e+01" cType="1" res="5.6917961686849594e-02" rms="4.2162203788757324e-01" purity="4.9416637420654297e-01" nType="0">
        <Node pos="l" depth="1" NCoef="0" IVar="0" Cut="3.0101886019110680e-02" cType="1" res="-2.4002155289053917e-02" rms="4.0772667527198792e-01" purity="2.8767031431198120e-01" nType="0">
          <Node pos="l" depth="2" NCoef="0" IVar="-1" Cut="0.0000000000000000e+00" cType="1" res="9.8970696853939444e-05" rms="4.4730767607688904e-01" purity="3.9843514561653137e-01" nType="-99"/>
          <Node pos="r" depth="2" NCoef="0" IVar="-1" Cut="0.0000000000000000e+00" cType="1" res="-2.0553490612655878e-03" rms="3.2276365160942078e-01" purity="1.2831446528434753e-01" nType="-99"/>
        </Node>
        <Node pos="r" depth="1" NCoef="0" IVar="0" Cut="2.8538977727293968e-02" cType="1" res="1.3366624712944031e-01" rms="4.2023131251335144e-01" purity="6.9001656770706177e-01" nType="0">
          <Node pos="l" depth="2" NCoef="0" IVar="-1" Cut="0.0000000000000000e+00" cType="1" res="5.3151539759710431e-04" rms="2.5919651985168457e-01" purity="9.2634415626525879e-01" nType="-99"/>
          <Node pos="r" depth="2" NCoef="0" IVar="-1" Cut="0.0000000000000000e+00" cType="1" res="2.2971426369622350e-04" rms="4.4051435589790344e-01" purity="6.2930017709732056e-01" nType="-99"/>
        </Node>
      </Node>
    </BinaryTree>
    <BinaryTree type="DecisionTree" boostWeight="1.0000000000000000e+00" itree="681">
      <Node pos="s" depth="0" NCoef="0" IVar="2" Cut="6.6204593750000000e+04" cType="1" res="6.4945988357067108e-02" rms="4.2111742496490479e-01" purity="5.0522744655609131e-01" nType="0">
        <Node pos="l" depth="1" NCoef="0" IVar="0" Cut="5.0030406564474106e-02" cType="1" res="1.2954840436577797e-02" rms="4.3112698197364807e-01" purity="3.7607440352439880e-01" nType="0">
          <Node pos="l" depth="2" NCoef="0" IVar="-1" Cut="0.0000000000000000e+00" cType="1" res="1.6106807743199170e-04" rms="4.4095507264137268e-01" purity="4.3982237577438354e-01" nType="-99"/>
          <Node pos="r" depth="2" NCoef="0" IVar="-1" Cut="0.0000000000000000e+00" cType="1" res="-7.8953016782179475e-04" rms="3.8636398315429688e-01" purity="2.1428336203098297e-01" nType="-99"/>
        </Node>
        <Node pos="r" depth="1" NCoef="0" IVar="1" Cut="2.2618206787109375e+02" cType="1" res="1.9994263350963593e-01" rms="3.6048191785812378e-01" purity="8.4057736396789551e-01" nType="0">
          <Node pos="l" depth="2" NCoef="0" IVar="-1" Cut="0.0000000000000000e+00" cType="1" res="3.2854129676707089e-04" rms="4.0722590684890747e-01" purity="7.8255528211593628e-01" nType="-99"/>
          <Node pos="r" depth="2" NCoef="0" IVar="-1" Cut="0.0000000000000000e+00" cType="1" res="4.0748360333964229e-04" rms="2.5810033082962036e-01" purity="9.2758452892303467e-01" nType="-99"/>
        </Node>
      </Node>
    </BinaryTree>
    <BinaryTree type="DecisionTree" boostWeight="1.0000000000000000e+00" itree="682">
      <Node pos="s" depth="0" NCoef="0" IVar="2" Cut="7.1768554687500000e+04" cType="1" res="6.0300089418888092e-02" rms="4.1598284244537354e-01" purity="5.0513374805450439e-01" nType="0">
        <Node pos="l" depth="1" NCoef="0" IVar="0" Cut="3.8617823272943497e-02" cType="1" res="1.4561621472239494e-02" rms="4.2465722560882568e-01" purity="4.0079587697982788e-01" nType="0">
          <Node pos="l" depth="2" NCoef="0" IVar="-1" Cut="0.0000000000000000e+00" cType="1" res="2.2393625113181770e-04" rms="4.3143579363822937e-01" purity="4.9058222770690918e-01" nType="-99"/>
          <Node pos="r" depth="2" NCoef="0" IVar="-1" Cut="0.0000000000000000e+00" cType="1" res="-4.9083429621532559e-04" rms="4.0086871385574341e-01" purity="2.7577438950538635e-01" nType="-99"/>
        </Node>
        <Node pos="r" depth="1" NCoef="0" IVar="1" Cut="2.0627568054199219e+02" cType="1" res="2.1626541018486023e-01" rms="3.4163948893547058e-01" purity="8.6091941595077515e-01" nType="0">
          <Node pos="l" depth="2" NCoef="0" IVar="-1" Cut="0.0000000000000000e+00" cType="1" res="3.1435803975909948e-04" rms="4.0927463769912720e-01" purity="7.7956366539001465e-01" nType="-99"/>
          <Node pos="r" depth="2" NCoef="0" IVar="-1" Cut="0.0000000000000000e+00" cType="1" res="4.9960840260609984e-04" rms="2.6586231589317322e-01" purity="9.2259430885314941e-01" nType="-99"/>
        </Node>
      </Node>
    </BinaryTree>
    <BinaryTree type="DecisionTree" boostWeight="1.0000000000000000e+00" itree="683">
      <Node pos="s" depth="0" NCoef="0" IVar="2" Cut="3.6123000000000000e+04" cType="1" res="5.3162954747676849e-02" rms="4.2074212431907654e-01" purity="4.9096176028251648e-01" nType="0">
        <Node pos="l" depth="1" NCoef="0" IVar="0" Cut="2.5085821747779846e-02" cType="1" res="-1.9666193053126335e-02" rms="4.0970838069915771e-01" purity="2.9647222161293030e-01" nType="0">
          <Node pos="l" depth="2" NCoef="0" IVar="-1" Cut="0.0000000000000000e+00" cType="1" res="1.6535713803023100e-04" rms="4.4145175814628601e-01" purity="4.1359373927116394e-01" nType="-99"/>
          <Node pos="r" depth="2" NCoef="0" IVar="-1" Cut="0.0000000000000000e+00" cType="1" res="-8.3763478323817253e-04" rms="3.7072992324829102e-01" purity="1.9292068481445312e-01" nType="-99"/>
        </Node>
        <Node pos="r" depth="1" NCoef="0" IVar="0" Cut="4.2733144015073776e-02" cType="1" res="1.3867159187793732e-01" rms="4.1742414236068726e-01" purity="7.1931177377700806e-01" nType="0">
          <Node pos="l" depth="2" NCoef="0" IVar="-1" Cut="0.0000000000000000e+00" cType="1" res="4.4474800233729184e-04" rms="3.4079790115356445e-01" purity="8.5812306404113770e-01" nType="-99"/>
          <Node pos="r" depth="2" NCoef="0" IVar="-1" Cut="0.0000000000000000e+00" cType="1" res="2.4726829724386334e-04" rms="4.4410073757171631e-01" purity="6.4067327976226807e-01" nType="-99"/>
        </Node>
      </Node>
    </BinaryTree>
    <BinaryTree type="DecisionTree" boostWeight="1.0000000000000000e+00" itree="684">
      <Node pos="s" depth="0" NCoef="0" IVar="3" Cut="1.3542619705200195e+01" cType="1" res="6.2716633081436157e-02" rms="4.2067810893058777e-01" purity="5.0343954563140869e-01" nType="0">
        <Node pos="l" depth="1" NCoef="0" IVar="0" Cut="1.2183989398181438e-02" cType="1" res="-2.1849676966667175e-02" rms="4.0707474946975708e-01" purity="2.9282721877098083e-01" nType="0">
          <Node pos="l" depth="2" NCoef="0" IVar="-1" Cut="0.0000000000000000e+00" cType="1" res="4.2507404577918351e-04" rms="4.3993234634399414e-01" purity="4.5284017920494080e-01" nType="-99"/>
          <Node pos="r" depth="2" NCoef="0" IVar="-1" Cut="0.0000000000000000e+00" cType="1" res="-4.8410639283247292e-04" rms="3.8430944085121155e-01" purity="2.3303881287574768e-01" nType="-99"/>
        </Node>
        <Node pos="r" depth="1" NCoef="0" IVar="0" Cut="3.9251808077096939e-02" cType="1" res="1.3509337604045868e-01" rms="4.1862657666206360e-01" purity="6.8369382619857788e-01" nType="0">
          <Node pos="l" depth="2" NCoef="0" IVar="-1" Cut="0.0000000000000000e+00" cType="1" res="4.8540657735429704e-04" rms="3.3643481135368347e-01" purity="8.6098188161849976e-01" nType="-99"/>
          <Node pos="r" depth="2" NCoef="0" IVar="-1" Cut="0.0000000000000000e+00" cType="1" res="1.8154535791836679e-04" rms="4.3945994973182678e-01" purity="5.9665739536285400e-01" nType="-99"/>
        </Node>
      </Node>
    </BinaryTree>
    <BinaryTree type="DecisionTree" boostWeight="1.0000000000000000e+00" itree="685">
      <Node pos="s" depth="0" NCoef="0" IVar="2" Cut="5.3826414062500000e+04" cType="1" res="5.9927999973297119e-02" rms="4.1919079422950745e-01" purity="5.0005155801773071e-01" nType="0">
        <Node pos="l" depth="1" NCoef="0" IVar="0" Cut="2.5133045390248299e-02" cType="1" res="1.0174424387514591e-03" rms="4.2065531015396118e-01" purity="3.4247794747352600e-01" nType="0">
          <Node pos="l" depth="2" NCoef="0" IVar="-1" Cut="0.0000000000000000e+00" cType="1" res="2.3588113253936172e-04" rms="4.4267109036445618e-01" purity="4.6157374978065491e-01" nType="-99"/>
          <Node pos="r" depth="2" NCoef="0" IVar="-1" Cut="0.0000000000000000e+00" cType="1" res="-3.9201424806378782e-04" rms="3.9473906159400940e-01" purity="2.5617006421089172e-01" nType="-99"/>
        </Node>
        <Node pos="r" depth="1" NCoef="0" IVar="1" Cut="2.2627468872070312e+02" cType="1" res="1.6889202594757080e-01" rms="3.9389538764953613e-01" purity="7.9150778055191040e-01" nType="0">
          <Node pos="l" depth="2" NCoef="0" IVar="-1" Cut="0.0000000000000000e+00" cType="1" res="2.8533043223433197e-04" rms="4.3004679679870605e-01" purity="7.3518121242523193e-01" nType="-99"/>
          <Node pos="r" depth="2" NCoef="0" IVar="-1" Cut="0.0000000000000000e+00" cType="1" res="4.6983608626760542e-04" rms="2.7153697609901428e-01" purity="9.1817140579223633e-01" nType="-99"/>
        </Node>
      </Node>
    </BinaryTree>
    <BinaryTree type="DecisionTree" boostWeight="1.0000000000000000e+00" itree="686">
      <Node pos="s" depth="0" NCoef="0" IVar="2" Cut="4.0782179687500000e+04" cType="1" res="6.1890996992588043e-02" rms="4.2449307441711426e-01" purity="4.9702432751655579e-01" nType="0">
        <Node pos="l" depth="1" NCoef="0" IVar="0" Cut="1.2566522695124149e-02" cType="1" res="-1.6119752544909716e-03" rms="4.2161369323730469e-01" purity="3.1590753793716431e-01" nType="0">
          <Node pos="l" depth="2" NCoef="0" IVar="-1" Cut="0.0000000000000000e+00" cType="1" res="3.4700552350841463e-04" rms="4.5488867163658142e-01" purity="4.6329662203788757e-01" nType="-99"/>
          <Node pos="r" depth="2" NCoef="0" IVar="-1" Cut="0.0000000000000000e+00" cType="1" res="-2.5911867851391435e-04" rms="4.0301951766014099e-01" purity="2.6940849423408508e-01" nType="-99"/>
        </Node>
        <Node pos="r" depth="1" NCoef="0" IVar="0" Cut="3.8859125226736069e-02" cType="1" res="1.4738985896110535e-01" rms="4.1320097446441650e-01" purity="7.4087554216384888e-01" nType="0">
          <Node pos="l" depth="2" NCoef="0" IVar="-1" Cut="0.0000000000000000e+00" cType="1" res="5.2129296818748116e-04" rms="3.0953508615493774e-01" purity="8.9051389694213867e-01" nType="-99"/>
          <Node pos="r" depth="2" NCoef="0" IVar="-1" Cut="0.0000000000000000e+00" cType="1" res="2.5876198196783662e-04" rms="4.4315192103385925e-01" purity="6.7025953531265259e-01" nType="-99"/>
        </Node>
      </Node>
    </BinaryTree>
    <BinaryTree type="DecisionTree" boostWeight="1.0000000000000000e+00" itree="687">
      <Node pos="s" depth="0" NCoef="0" IVar="2" Cut="4.4136394531250000e+04" cType="1" res="5.6555241346359253e-02" rms="4.1463714838027954e-01" purity="4.9982419610023499e-01" nType="0">
        <Node pos="l" depth="1" NCoef="0" IVar="0" Cut="2.5400951504707336e-02" cType="1" res="-1.6468517482280731e-02" rms="4.0778756141662598e-01" purity="3.0989342927932739e-01" nType="0">
          <Node pos="l" depth="2" NCoef="0" IVar="-1" Cut="0.0000000000000000e+00" cType="1" res="1.9105762476101518e-04" rms="4.3455854058265686e-01" purity="4.3232902884483337e-01" nType="-99"/>
          <Node pos="r" depth="2" NCoef="0" IVar="-1" Cut="0.0000000000000000e+00" cType="1" res="-6.8183417897671461e-04" rms="3.7560957670211792e-01" purity="2.1074838936328888e-01" nType="-99"/>
        </Node>
        <Node pos="r" depth="1" NCoef="0" IVar="0" Cut="4.0599051862955093e-02" cType="1" res="1.5818592905998230e-01" rms="4.0250939130783081e-01" purity="7.6416003704071045e-01" nType="0">
          <Node pos="l" depth="2" NCoef="0" IVar="-1" Cut="0.0000000000000000e+00" cType="1" res="4.6974539873190224e-04" rms="3.0682390928268433e-01" purity="8.9128446578979492e-01" nType="-99"/>
          <Node pos="r" depth="2" NCoef="0" IVar="-1" Cut="0.0000000000000000e+00" cType="1" res="2.3891002638265491e-04" rms="4.3539741635322571e-01" purity="6.9729477167129517e-01" nType="-99"/>
        </Node>
      </Node>
    </BinaryTree>
    <BinaryTree type="DecisionTree" boostWeight="1.0000000000000000e+00" itree="688">
      <Node pos="s" depth="0" NCoef="0" IVar="2" Cut="7.2246000000000000e+04" cType="1" res="6.7629069089889526e-02" rms="4.1982418298721313e-01" purity="5.0945949554443359e-01" nType="0">
        <Node pos="l" depth="1" NCoef="0" IVar="1" Cut="7.8285812377929688e+01" cType="1" res="2.4948634207248688e-02" rms="4.3058252334594727e-01" purity="4.0938457846641541e-01" nType="0">
          <Node pos="l" depth="2" NCoef="0" IVar="-1" Cut="0.0000000000000000e+00" cType="1" res="-4.3272148468531668e-04" rms="3.7240317463874817e-01" purity="1.8770767748355865e-01" nType="-99"/>
          <Node pos="r" depth="2" NCoef="0" IVar="-1" Cut="0.0000000000000000e+00" cType="1" res="2.2541513317264616e-04" rms="4.5532575249671936e-01" purity="5.3687965869903564e-01" nType="-99"/>
        </Node>
        <Node pos="r" depth="1" NCoef="0" IVar="1" Cut="2.2947694396972656e+02" cType="1" res="2.1903285384178162e-01" rms="3.3824890851974487e-01" purity="8.6446332931518555e-01" nType="0">
          <Node pos="l" depth="2" NCoef="0" IVar="-1" Cut="0.0000000000000000e+00" cType="1" res="3.1586480326950550e-04" rms="3.9269608259201050e-01" purity="8.0450612306594849e-01" nType="-99"/>
          <Node pos="r" depth="2" NCoef="0" IVar="-1" Cut="0.0000000000000000e+00" cType="1" res="4.1456351755186915e-04" rms="2.4571551382541656e-01" purity="9.3503808975219727e-01" nType="-99"/>
        </Node>
      </Node>
    </BinaryTree>
    <BinaryTree type="DecisionTree" boostWeight="1.0000000000000000e+00" itree="689">
      <Node pos="s" depth="0" NCoef="0" IVar="2" Cut="6.1173269531250000e+04" cType="1" res="6.0461245477199554e-02" rms="4.1788473725318909e-01" purity="5.0257873535156250e-01" nType="0">
        <Node pos="l" depth="1" NCoef="0" IVar="0" Cut="2.5085821747779846e-02" cType="1" res="1.6755138058215380e-03" rms="4.2395341396331787e-01" purity="3.5463052988052368e-01" nType="0">
          <Node pos="l" depth="2" NCoef="0" IVar="-1" Cut="0.0000000000000000e+00" cType="1" res="1.8782686674967408e-04" rms="4.4217157363891602e-01" purity="4.5805773138999939e-01" nType="-99"/>
          <Node pos="r" depth="2" NCoef="0" IVar="-1" Cut="0.0000000000000000e+00" cType="1" res="-2.9472142341546714e-04" rms="4.0482461452484131e-01" purity="2.8660032153129578e-01" nType="-99"/>
        </Node>
        <Node pos="r" depth="1" NCoef="0" IVar="1" Cut="2.4123907470703125e+02" cType="1" res="1.8775814771652222e-01" rms="3.7400141358375549e-01" purity="8.2295143604278564e-01" nType="0">
          <Node pos="l" depth="2" NCoef="0" IVar="-1" Cut="0.0000000000000000e+00" cType="1" res="2.8321461286395788e-04" rms="4.1280850768089294e-01" purity="7.7159875631332397e-01" nType="-99"/>
          <Node pos="r" depth="2" NCoef="0" IVar="-1" Cut="0.0000000000000000e+00" cType="1" res="6.5353314857929945e-04" rms="2.4372789263725281e-01" purity="9.3622964620590210e-01" nType="-99"/>
        </Node>
      </Node>
    </BinaryTree>
    <BinaryTree type="DecisionTree" boostWeight="1.0000000000000000e+00" itree="690">
      <Node pos="s" depth="0" NCoef="0" IVar="2" Cut="6.6204593750000000e+04" cType="1" res="5.9831459075212479e-02" rms="4.1912841796875000e-01" purity="5.0051510334014893e-01" nType="0">
        <Node pos="l" depth="1" NCoef="0" IVar="0" Cut="3.7699569016695023e-02" cType="1" res="1.2411519885063171e-02" rms="4.2627370357513428e-01" purity="3.8049715757369995e-01" nType="0">
          <Node pos="l" depth="2" NCoef="0" IVar="-1" Cut="0.0000000000000000e+00" cType="1" res="2.3568968754261732e-04" rms="4.4095402956008911e-01" purity="4.7142854332923889e-01" nType="-99"/>
          <Node pos="r" depth="2" NCoef="0" IVar="-1" Cut="0.0000000000000000e+00" cType="1" res="-4.9285480054095387e-04" rms="3.9107415080070496e-01" purity="2.5267168879508972e-01" nType="-99"/>
        </Node>
        <Node pos="r" depth="1" NCoef="0" IVar="1" Cut="2.3041674804687500e+02" cType="1" res="1.9086468219757080e-01" rms="3.6823022365570068e-01" purity="8.3215481042861938e-01" nType="0">
          <Node pos="l" depth="2" NCoef="0" IVar="-1" Cut="0.0000000000000000e+00" cType="1" res="3.3983041066676378e-04" rms="4.0911939740180969e-01" purity="7.7971416711807251e-01" nType="-99"/>
          <Node pos="r" depth="2" NCoef="0" IVar="-1" Cut="0.0000000000000000e+00" cType="1" res="5.9933000011369586e-04" rms="2.6277115941047668e-01" purity="9.2496865987777710e-01" nType="-99"/>
        </Node>
      </Node>
    </BinaryTree>
    <BinaryTree type="DecisionTree" boostWeight="1.0000000000000000e+00" itree="691">
      <Node pos="s" depth="0" NCoef="0" IVar="2" Cut="3.5884277343750000e+04" cType="1" res="6.3948877155780792e-02" rms="4.1847181320190430e-01" purity="5.0651067495346069e-01" nType="0">
        <Node pos="l" depth="1" NCoef="0" IVar="0" Cut="2.4367978796362877e-02" cType="1" res="-1.3857622630894184e-02" rms="4.0948572754859924e-01" purity="3.0398944020271301e-01" nType="0">
          <Node pos="l" depth="2" NCoef="0" IVar="-1" Cut="0.0000000000000000e+00" cType="1" res="2.3551573394797742e-04" rms="4.4102713465690613e-01" purity="4.2811083793640137e-01" nType="-99"/>
          <Node pos="r" depth="2" NCoef="0" IVar="-1" Cut="0.0000000000000000e+00" cType="1" res="-6.0021679382771254e-04" rms="3.7079882621765137e-01" purity="1.9911436736583710e-01" nType="-99"/>
        </Node>
        <Node pos="r" depth="1" NCoef="0" IVar="0" Cut="4.3363869190216064e-02" cType="1" res="1.5054531395435333e-01" rms="4.1129377484321594e-01" purity="7.3191100358963013e-01" nType="0">
          <Node pos="l" depth="2" NCoef="0" IVar="-1" Cut="0.0000000000000000e+00" cType="1" res="4.3686205754056573e-04" rms="3.3436873555183411e-01" purity="8.6528760194778442e-01" nType="-99"/>
          <Node pos="r" depth="2" NCoef="0" IVar="-1" Cut="0.0000000000000000e+00" cType="1" res="2.2381299640983343e-04" rms="4.3983587622642517e-01" purity="6.5086525678634644e-01" nType="-99"/>
        </Node>
      </Node>
    </BinaryTree>
    <BinaryTree type="DecisionTree" boostWeight="1.0000000000000000e+00" itree="692">
      <Node pos="s" depth="0" NCoef="0" IVar="3" Cut="1.2480910301208496e+01" cType="1" res="5.1008988171815872e-02" rms="4.2124843597412109e-01" purity="4.8602354526519775e-01" nType="0">
        <Node pos="l" depth="1" NCoef="0" IVar="0" Cut="2.0076300948858261e-02" cType="1" res="-3.7012118846178055e-02" rms="3.9689606428146362e-01" purity="2.7542716264724731e-01" nType="0">
          <Node pos="l" depth="2" NCoef="0" IVar="-1" Cut="0.0000000000000000e+00" cType="1" res="1.5770830214023590e-04" rms="4.3391811847686768e-01" purity="4.0363672375679016e-01" nType="-99"/>
          <Node pos="r" depth="2" NCoef="0" IVar="-1" Cut="0.0000000000000000e+00" cType="1" res="-9.2851754743605852e-04" rms="3.5413557291030884e-01" purity="1.7675076425075531e-01" nType="-99"/>
        </Node>
        <Node pos="r" depth="1" NCoef="0" IVar="0" Cut="3.8859125226736069e-02" cType="1" res="1.2356884777545929e-01" rms="4.2687538266181946e-01" purity="6.5962785482406616e-01" nType="0">
          <Node pos="l" depth="2" NCoef="0" IVar="-1" Cut="0.0000000000000000e+00" cType="1" res="5.2369205513969064e-04" rms="3.5007444024085999e-01" purity="8.4475338459014893e-01" nType="-99"/>
          <Node pos="r" depth="2" NCoef="0" IVar="-1" Cut="0.0000000000000000e+00" cType="1" res="2.2458717285189778e-04" rms="4.4509193301200867e-01" purity="5.7426553964614868e-01" nType="-99"/>
        </Node>
      </Node>
    </BinaryTree>
    <BinaryTree type="DecisionTree" boostWeight="1.0000000000000000e+00" itree="693">
      <Node pos="s" depth="0" NCoef="0" IVar="3" Cut="1.4930736541748047e+01" cType="1" res="5.6011069566011429e-02" rms="4.1986662149429321e-01" purity="4.9601203203201294e-01" nType="0">
        <Node pos="l" depth="1" NCoef="0" IVar="0" Cut="2.4367978796362877e-02" cType="1" res="-2.9401689767837524e-02" rms="4.0549817681312561e-01" purity="2.8111156821250916e-01" nType="0">
          <Node pos="l" depth="2" NCoef="0" IVar="-1" Cut="0.0000000000000000e+00" cType="1" res="1.4343335351441056e-04" rms="4.4196999073028564e-01" purity="3.9327272772789001e-01" nType="-99"/>
          <Node pos="r" depth="2" NCoef="0" IVar="-1" Cut="0.0000000000000000e+00" cType="1" res="-8.6591078434139490e-04" rms="3.5888990759849548e-01" purity="1.7577010393142700e-01" nType="-99"/>
        </Node>
        <Node pos="r" depth="1" NCoef="0" IVar="0" Cut="2.8488764539361000e-02" cType="1" res="1.3481430709362030e-01" rms="4.1747900843620300e-01" purity="6.9428277015686035e-01" nType="0">
          <Node pos="l" depth="2" NCoef="0" IVar="-1" Cut="0.0000000000000000e+00" cType="1" res="5.0576875219121575e-04" rms="2.6708462834358215e-01" purity="9.2112958431243896e-01" nType="-99"/>
          <Node pos="r" depth="2" NCoef="0" IVar="-1" Cut="0.0000000000000000e+00" cType="1" res="2.0332090207375586e-04" rms="4.3534198403358459e-01" purity="6.4062041044235229e-01" nType="-99"/>
        </Node>
      </Node>
    </BinaryTree>
    <BinaryTree type="DecisionTree" boostWeight="1.0000000000000000e+00" itree="694">
      <Node pos="s" depth="0" NCoef="0" IVar="2" Cut="3.5884277343750000e+04" cType="1" res="6.4946636557579041e-02" rms="4.2136588692665100e-01" purity="5.0446885824203491e-01" nType="0">
        <Node pos="l" depth="1" NCoef="0" IVar="0" Cut="2.5085821747779846e-02" cType="1" res="-5.2168229594826698e-03" rms="4.1201043128967285e-01" purity="3.1437069177627563e-01" nType="0">
          <Node pos="l" depth="2" NCoef="0" IVar="-1" Cut="0.0000000000000000e+00" cType="1" res="2.1679936617147177e-04" rms="4.4395601749420166e-01" purity="4.3466797471046448e-01" nType="-99"/>
          <Node pos="r" depth="2" NCoef="0" IVar="-1" Cut="0.0000000000000000e+00" cType="1" res="-5.9095869073644280e-04" rms="3.7021291255950928e-01" purity="2.0470991730690002e-01" nType="-99"/>
        </Node>
        <Node pos="r" depth="1" NCoef="0" IVar="0" Cut="4.1365139186382294e-02" cType="1" res="1.4613641798496246e-01" rms="4.1747182607650757e-01" purity="7.2444123029708862e-01" nType="0">
          <Node pos="l" depth="2" NCoef="0" IVar="-1" Cut="0.0000000000000000e+00" cType="1" res="4.7141069080680609e-04" rms="3.3279427886009216e-01" purity="8.6939918994903564e-01" nType="-99"/>
          <Node pos="r" depth="2" NCoef="0" IVar="-1" Cut="0.0000000000000000e+00" cType="1" res="2.0357931498438120e-04" rms="4.4438830018043518e-01" purity="6.4928919076919556e-01" nType="-99"/>
        </Node>
      </Node>
    </BinaryTree>
    <BinaryTree type="DecisionTree" boostWeight="1.0000000000000000e+00" itree="695">
      <Node pos="s" depth="0" NCoef="0" IVar="2" Cut="6.1173269531250000e+04" cType="1" res="5.9401512145996094e-02" rms="4.1834789514541626e-01" purity="5.0015258789062500e-01" nType="0">
        <Node pos="l" depth="1" NCoef="0" IVar="0" Cut="4.8735957592725754e-02" cType="1" res="5.6541529484093189e-03" rms="4.2313313484191895e-01" purity="3.6069890856742859e-01" nType="0">
          <Node pos="l" depth="2" NCoef="0" IVar="-1" Cut="0.0000000000000000e+00" cType="1" res="1.6273876826744527e-04" rms="4.3805414438247681e-01" purity="4.2816171050071716e-01" nType="-99"/>
          <Node pos="r" depth="2" NCoef="0" IVar="-1" Cut="0.0000000000000000e+00" cType="1" res="-1.0350125376135111e-03" rms="3.6376100778579712e-01" purity="1.9296251237392426e-01" nType="-99"/>
        </Node>
        <Node pos="r" depth="1" NCoef="0" IVar="1" Cut="2.2627468872070312e+02" cType="1" res="1.8127970397472382e-01" rms="3.8010403513908386e-01" purity="8.1637948751449585e-01" nType="0">
          <Node pos="l" depth="2" NCoef="0" IVar="-1" Cut="0.0000000000000000e+00" cType="1" res="2.9340133187361062e-04" rms="4.2116212844848633e-01" purity="7.5944346189498901e-01" nType="-99"/>
          <Node pos="r" depth="2" NCoef="0" IVar="-1" Cut="0.0000000000000000e+00" cType="1" res="4.1818895260803401e-04" rms="2.6885223388671875e-01" purity="9.2085129022598267e-01" nType="-99"/>
        </Node>
      </Node>
    </BinaryTree>
    <BinaryTree type="DecisionTree" boostWeight="1.0000000000000000e+00" itree="696">
      <Node pos="s" depth="0" NCoef="0" IVar="2" Cut="6.6204593750000000e+04" cType="1" res="6.9168463349342346e-02" rms="4.2245686054229736e-01" purity="5.0774842500686646e-01" nType="0">
        <Node pos="l" depth="1" NCoef="0" IVar="0" Cut="3.7699569016695023e-02" cType="1" res="2.7456615120172501e-02" rms="4.3207257986068726e-01" purity="3.9427050948143005e-01" nType="0">
          <Node pos="l" depth="2" NCoef="0" IVar="-1" Cut="0.0000000000000000e+00" cType="1" res="1.7320325423497707e-04" rms="4.4456398487091064e-01" purity="4.8145857453346252e-01" nType="-99"/>
          <Node pos="r" depth="2" NCoef="0" IVar="-1" Cut="0.0000000000000000e+00" cType="1" res="-3.3215843723155558e-04" rms="4.0285739302635193e-01" purity="2.7324518561363220e-01" nType="-99"/>
        </Node>
        <Node pos="r" depth="1" NCoef="0" IVar="1" Cut="2.2952496337890625e+02" cType="1" res="1.8797765672206879e-01" rms="3.6877357959747314e-01" purity="8.3097130060195923e-01" nType="0">
          <Node pos="l" depth="2" NCoef="0" IVar="-1" Cut="0.0000000000000000e+00" cType="1" res="3.2685862970538437e-04" rms="4.1622832417488098e-01" purity="7.6828694343566895e-01" nType="-99"/>
          <Node pos="r" depth="2" NCoef="0" IVar="-1" Cut="0.0000000000000000e+00" cType="1" res="5.6258606491610408e-04" rms="2.5399979948997498e-01" purity="9.3017637729644775e-01" nType="-99"/>
        </Node>
      </Node>
    </BinaryTree>
    <BinaryTree type="DecisionTree" boostWeight="1.0000000000000000e+00" itree="697">
      <Node pos="s" depth="0" NCoef="0" IVar="3" Cut="2.4516361236572266e+01" cType="1" res="5.2299875766038895e-02" rms="4.2096352577209473e-01" purity="4.8886877298355103e-01" nType="0">
        <Node pos="l" depth="1" NCoef="0" IVar="0" Cut="3.5119626671075821e-02" cType="1" res="-7.0250439457595348e-03" rms="4.1643074154853821e-01" purity="3.2594662904739380e-01" nType="0">
          <Node pos="l" depth="2" NCoef="0" IVar="-1" Cut="0.0000000000000000e+00" cType="1" res="1.2110997340641916e-04" rms="4.4230210781097412e-01" purity="4.2281413078308105e-01" nType="-99"/>
          <Node pos="r" depth="2" NCoef="0" IVar="-1" Cut="0.0000000000000000e+00" cType="1" res="-8.5745885735377669e-04" rms="3.6409297585487366e-01" purity="1.8440932035446167e-01" nType="-99"/>
        </Node>
        <Node pos="r" depth="1" NCoef="0" IVar="0" Cut="3.9358217269182205e-02" cType="1" res="1.4594776928424835e-01" rms="4.1094586253166199e-01" purity="7.4605095386505127e-01" nType="0">
          <Node pos="l" depth="2" NCoef="0" IVar="-1" Cut="0.0000000000000000e+00" cType="1" res="4.5138353016227484e-04" rms="2.9832497239112854e-01" purity="8.9844471216201782e-01" nType="-99"/>
          <Node pos="r" depth="2" NCoef="0" IVar="-1" Cut="0.0000000000000000e+00" cType="1" res="2.5895654107443988e-04" rms="4.4313600659370422e-01" purity="6.7599970102310181e-01" nType="-99"/>
        </Node>
      </Node>
    </BinaryTree>
    <BinaryTree type="DecisionTree" boostWeight="1.0000000000000000e+00" itree="698">
      <Node pos="s" depth="0" NCoef="0" IVar="1" Cut="1.5843783569335938e+02" cType="1" res="5.7247444987297058e-02" rms="4.1746413707733154e-01" purity="4.9825912714004517e-01" nType="0">
        <Node pos="l" depth="1" NCoef="0" IVar="0" Cut="2.5400951504707336e-02" cType="1" res="-1.8108234507963061e-03" rms="4.1554176807403564e-01" purity="3.4198120236396790e-01" nType="0">
          <Node pos="l" depth="2" NCoef="0" IVar="-1" Cut="0.0000000000000000e+00" cType="1" res="2.6411173166707158e-04" rms="4.3964353203773499e-01" purity="4.6608033776283264e-01" nType="-99"/>
          <Node pos="r" depth="2" NCoef="0" IVar="-1" Cut="0.0000000000000000e+00" cType="1" res="-5.8191170683130622e-04" rms="3.8313350081443787e-01" purity="2.4689176678657532e-01" nType="-99"/>
        </Node>
        <Node pos="r" depth="1" NCoef="0" IVar="1" Cut="2.4961189270019531e+02" cType="1" res="1.6164404153823853e-01" rms="4.0005353093147278e-01" purity="7.7450978755950928e-01" nType="0">
          <Node pos="l" depth="2" NCoef="0" IVar="-1" Cut="0.0000000000000000e+00" cType="1" res="2.7868829783983529e-04" rms="4.3305981159210205e-01" purity="7.2122502326965332e-01" nType="-99"/>
          <Node pos="r" depth="2" NCoef="0" IVar="-1" Cut="0.0000000000000000e+00" cType="1" res="4.1056965710595250e-04" rms="2.6484936475753784e-01" purity="9.1811907291412354e-01" nType="-99"/>
        </Node>
      </Node>
    </BinaryTree>
    <BinaryTree type="DecisionTree" boostWeight="1.0000000000000000e+00" itree="699">
      <Node pos="s" depth="0" NCoef="0" IVar="1" Cut="5.2068527221679688e+01" cType="1" res="6.1656855046749115e-02" rms="4.2206969857215881e-01" purity="4.9849453568458557e-01" nType="0">
        <Node pos="l" depth="1" NCoef="0" IVar="3" Cut="1.0604547262191772e+00" cType="1" res="-7.9488515853881836e-02" rms="3.4296968579292297e-01" purity="1.4298127591609955e-01" nType="0">
          <Node pos="l" depth="2" NCoef="0" IVar="-1" Cut="0.0000000000000000e+00" cType="1" res="1.4790587010793388e-04" rms="4.7984781861305237e-01" purity="3.6299723386764526e-01" nType="-99"/>
          <Node pos="r" depth="2" NCoef="0" IVar="-1" Cut="0.0000000000000000e+00" cType="1" res="-1.3624371495097876e-03" rms="3.0781188607215881e-01" purity="1.0996276885271072e-01" nType="-99"/>
        </Node>
        <Node pos="r" depth="1" NCoef="0" IVar="0" Cut="2.6440149173140526e-02" cType="1" res="9.5691442489624023e-02" rms="4.3217197060585022e-01" purity="5.8421999216079712e-01" nType="0">
          <Node pos="l" depth="2" NCoef="0" IVar="-1" Cut="0.0000000000000000e+00" cType="1" res="4.9388158367946744e-04" rms="4.1089403629302979e-01" purity="7.5328558683395386e-01" nType="-99"/>
          <Node pos="r" depth="2" NCoef="0" IVar="-1" Cut="0.0000000000000000e+00" cType="1" res="1.7254578415304422e-04" rms="4.3001285195350647e-01" purity="5.2587038278579712e-01" nType="-99"/>
        </Node>
      </Node>
    </BinaryTree>
    <BinaryTree type="DecisionTree" boostWeight="1.0000000000000000e+00" itree="700">
      <Node pos="s" depth="0" NCoef="0" IVar="2" Cut="6.1173269531250000e+04" cType="1" res="6.1105713248252869e-02" rms="4.1888579726219177e-01" purity="5.0266027450561523e-01" nType="0">
        <Node pos="l" depth="1" NCoef="0" IVar="0" Cut="3.7628732621669769e-02" cType="1" res="1.1322891339659691e-02" rms="4.2511731386184692e-01" purity="3.6641216278076172e-01" nType="0">
          <Node pos="l" depth="2" NCoef="0" IVar="-1" Cut="0.0000000000000000e+00" cType="1" res="1.3188997399993241e-04" rms="4.4263353943824768e-01" purity="4.5865160226821899e-01" nType="-99"/>
          <Node pos="r" depth="2" NCoef="0" IVar="-1" Cut="0.0000000000000000e+00" cType="1" res="-5.5399927077814937e-04" rms="3.8703000545501709e-01" purity="2.3404826223850250e-01" nType="-99"/>
        </Node>
        <Node pos="r" depth="1" NCoef="0" IVar="1" Cut="2.2627468872070312e+02" cType="1" res="1.7456819117069244e-01" rms="3.8073098659515381e-01" purity="8.1318992376327515e-01" nType="0">
          <Node pos="l" depth="2" NCoef="0" IVar="-1" Cut="0.0000000000000000e+00" cType="1" res="2.8793918318115175e-04" rms="4.2114308476448059e-01" purity="7.5506836175918579e-01" nType="-99"/>
          <Node pos="r" depth="2" NCoef="0" IVar="-1" Cut="0.0000000000000000e+00" cType="1" res="5.7271070545539260e-04" rms="2.6971891522407532e-01" purity="9.1982781887054443e-01" nType="-99"/>
        </Node>
      </Node>
    </BinaryTree>
    <BinaryTree type="DecisionTree" boostWeight="1.0000000000000000e+00" itree="701">
      <Node pos="s" depth="0" NCoef="0" IVar="2" Cut="6.8273312500000000e+04" cType="1" res="5.9429567307233810e-02" rms="4.2020675539970398e-01" purity="4.9956843256950378e-01" nType="0">
        <Node pos="l" depth="1" NCoef="0" IVar="0" Cut="5.1490433514118195e-02" cType="1" res="1.3106179423630238e-02" rms="4.2855775356292725e-01" purity="3.8393622636795044e-01" nType="0">
          <Node pos="l" depth="2" NCoef="0" IVar="-1" Cut="0.0000000000000000e+00" cType="1" res="2.0202773157507181e-04" rms="4.3742626905441284e-01" purity="4.4887068867683411e-01" nType="-99"/>
          <Node pos="r" depth="2" NCoef="0" IVar="-1" Cut="0.0000000000000000e+00" cType="1" res="-1.1560880811884999e-03" rms="3.7825781106948853e-01" purity="2.0637544989585876e-01" nType="-99"/>
        </Node>
        <Node pos="r" depth="1" NCoef="0" IVar="1" Cut="2.3152694702148438e+02" cType="1" res="1.9590538740158081e-01" rms="3.6158484220504761e-01" purity="8.4023863077163696e-01" nType="0">
          <Node pos="l" depth="2" NCoef="0" IVar="-1" Cut="0.0000000000000000e+00" cType="1" res="3.3996056299656630e-04" rms="4.1331768035888672e-01" purity="7.7544045448303223e-01" nType="-99"/>
          <Node pos="r" depth="2" NCoef="0" IVar="-1" Cut="0.0000000000000000e+00" cType="1" res="5.0307105993852019e-04" rms="2.4769769608974457e-01" purity="9.3396675586700439e-01" nType="-99"/>
        </Node>
      </Node>
    </BinaryTree>
    <BinaryTree type="DecisionTree" boostWeight="1.0000000000000000e+00" itree="702">
      <Node pos="s" depth="0" NCoef="0" IVar="2" Cut="6.1173269531250000e+04" cType="1" res="5.4312638938426971e-02" rms="4.1851314902305603e-01" purity="4.9410739541053772e-01" nType="0">
        <Node pos="l" depth="1" NCoef="0" IVar="0" Cut="5.0266090780496597e-02" cType="1" res="3.1525243539363146e-03" rms="4.2179733514785767e-01" purity="3.5855349898338318e-01" nType="0">
          <Node pos="l" depth="2" NCoef="0" IVar="-1" Cut="0.0000000000000000e+00" cType="1" res="1.3990208390168846e-04" rms="4.3692779541015625e-01" purity="4.2464137077331543e-01" nType="-99"/>
          <Node pos="r" depth="2" NCoef="0" IVar="-1" Cut="0.0000000000000000e+00" cType="1" res="-1.2100014137104154e-03" rms="3.5608050227165222e-01" purity="1.8086375296115875e-01" nType="-99"/>
        </Node>
        <Node pos="r" depth="1" NCoef="0" IVar="1" Cut="2.4531428527832031e+02" cType="1" res="1.7322321236133575e-01" rms="3.8537728786468506e-01" purity="8.0917298793792725e-01" nType="0">
          <Node pos="l" depth="2" NCoef="0" IVar="-1" Cut="0.0000000000000000e+00" cType="1" res="2.8571119764819741e-04" rms="4.2254722118377686e-01" purity="7.5643259286880493e-01" nType="-99"/>
          <Node pos="r" depth="2" NCoef="0" IVar="-1" Cut="0.0000000000000000e+00" cType="1" res="4.9813027726486325e-04" rms="2.4775359034538269e-01" purity="9.3406486511230469e-01" nType="-99"/>
        </Node>
      </Node>
    </BinaryTree>
    <BinaryTree type="DecisionTree" boostWeight="1.0000000000000000e+00" itree="703">
      <Node pos="s" depth="0" NCoef="0" IVar="3" Cut="1.4930736541748047e+01" cType="1" res="6.4109891653060913e-02" rms="4.1728839278221130e-01" purity="5.0718706846237183e-01" nType="0">
        <Node pos="l" depth="1" NCoef="0" IVar="0" Cut="2.0980533212423325e-02" cType="1" res="-2.0753202959895134e-02" rms="4.0563908219337463e-01" purity="2.9322472214698792e-01" nType="0">
          <Node pos="l" depth="2" NCoef="0" IVar="-1" Cut="0.0000000000000000e+00" cType="1" res="2.6666879421100020e-04" rms="4.4342866539955139e-01" purity="4.3634000420570374e-01" nType="-99"/>
          <Node pos="r" depth="2" NCoef="0" IVar="-1" Cut="0.0000000000000000e+00" cType="1" res="-8.8708766270428896e-04" rms="3.5861745476722717e-01" purity="1.8255715072154999e-01" nType="-99"/>
        </Node>
        <Node pos="r" depth="1" NCoef="0" IVar="0" Cut="4.2733144015073776e-02" cType="1" res="1.4273938536643982e-01" rms="4.1250047087669373e-01" purity="7.0543295145034790e-01" nType="0">
          <Node pos="l" depth="2" NCoef="0" IVar="-1" Cut="0.0000000000000000e+00" cType="1" res="5.1455781795084476e-04" rms="3.4310880303382874e-01" purity="8.5315823554992676e-01" nType="-99"/>
          <Node pos="r" depth="2" NCoef="0" IVar="-1" Cut="0.0000000000000000e+00" cType="1" res="2.1098401339258999e-04" rms="4.3641749024391174e-01" purity="6.1451208591461182e-01" nType="-99"/>
        </Node>
      </Node>
    </BinaryTree>
    <BinaryTree type="DecisionTree" boostWeight="1.0000000000000000e+00" itree="704">
      <Node pos="s" depth="0" NCoef="0" IVar="2" Cut="6.1173269531250000e+04" cType="1" res="5.5061865597963333e-02" rms="4.1939392685890198e-01" purity="4.9407547712326050e-01" nType="0">
        <Node pos="l" depth="1" NCoef="0" IVar="1" Cut="7.2004119873046875e+01" cType="1" res="1.9747985061258078e-03" rms="4.2461284995079041e-01" purity="3.5241633653640747e-01" nType="0">
          <Node pos="l" depth="2" NCoef="0" IVar="-1" Cut="0.0000000000000000e+00" cType="1" res="-5.9173215413466096e-04" rms="3.4529387950897217e-01" purity="1.5094695985317230e-01" nType="-99"/>
          <Node pos="r" depth="2" NCoef="0" IVar="-1" Cut="0.0000000000000000e+00" cType="1" res="1.7549360927660018e-04" rms="4.5956358313560486e-01" purity="4.7364041209220886e-01" nType="-99"/>
        </Node>
        <Node pos="r" depth="1" NCoef="0" IVar="0" Cut="4.2971774935722351e-02" cType="1" res="1.7450386285781860e-01" rms="3.8127887248992920e-01" purity="8.1279820203781128e-01" nType="0">
          <Node pos="l" depth="2" NCoef="0" IVar="-1" Cut="0.0000000000000000e+00" cType="1" res="4.2838402441702783e-04" rms="2.8652289509773254e-01" purity="9.0875577926635742e-01" nType="-99"/>
          <Node pos="r" depth="2" NCoef="0" IVar="-1" Cut="0.0000000000000000e+00" cType="1" res="2.7458168915472925e-04" rms="4.1821637749671936e-01" purity="7.5886964797973633e-01" nType="-99"/>
        </Node>
      </Node>
    </BinaryTree>
    <BinaryTree type="DecisionTree" boostWeight="1.0000000000000000e+00" itree="705">
      <Node pos="s" depth="0" NCoef="0" IVar="1" Cut="1.5836036682128906e+02" cType="1" res="4.9708049744367599e-02" rms="4.2021232843399048e-01" purity="4.8658138513565063e-01" nType="0">
        <Node pos="l" depth="1" NCoef="0" IVar="0" Cut="5.0266090780496597e-02" cType="1" res="-1.2936261482536793e-02" rms="4.1737353801727295e-01" purity="3.2115820050239563e-01" nType="0">
          <Node pos="l" depth="2" NCoef="0" IVar="-1" Cut="0.0000000000000000e+00" cType="1" res="8.3051578258164227e-05" rms="4.3480986356735229e-01" purity="3.8090318441390991e-01" nType="-99"/>
          <Node pos="r" depth="2" NCoef="0" IVar="-1" Cut="0.0000000000000000e+00" cType="1" res="-1.0563136311247945e-03" rms="3.5408559441566467e-01" purity="1.6799251735210419e-01" nType="-99"/>
        </Node>
        <Node pos="r" depth="1" NCoef="0" IVar="1" Cut="2.4954165649414062e+02" cType="1" res="1.5698765218257904e-01" rms="4.0301480889320374e-01" purity="7.6987177133560181e-01" nType="0">
          <Node pos="l" depth="2" NCoef="0" IVar="-1" Cut="0.0000000000000000e+00" cType="1" res="3.0527572380378842e-04" rms="4.3272686004638672e-01" purity="7.2146725654602051e-01" nType="-99"/>
          <Node pos="r" depth="2" NCoef="0" IVar="-1" Cut="0.0000000000000000e+00" cType="1" res="4.6651769662275910e-04" rms="2.7546569705009460e-01" purity="9.1068941354751587e-01" nType="-99"/>
        </Node>
      </Node>
    </BinaryTree>
    <BinaryTree type="DecisionTree" boostWeight="1.0000000000000000e+00" itree="706">
      <Node pos="s" depth="0" NCoef="0" IVar="2" Cut="3.5133074218750000e+04" cType="1" res="6.6741637885570526e-02" rms="4.1906702518463135e-01" purity="5.0868767499923706e-01" nType="0">
        <Node pos="l" depth="1" NCoef="0" IVar="1" Cut="3.4524127960205078e+01" cType="1" res="-1.7520736902952194e-02" rms="4.0980455279350281e-01" purity="2.9596328735351562e-01" nType="0">
          <Node pos="l" depth="2" NCoef="0" IVar="-1" Cut="0.0000000000000000e+00" cType="1" res="-1.0867705568671227e-03" rms="3.0981391668319702e-01" purity="1.0778684169054031e-01" nType="-99"/>
          <Node pos="r" depth="2" NCoef="0" IVar="-1" Cut="0.0000000000000000e+00" cType="1" res="8.4192033682484180e-05" rms="4.3396171927452087e-01" purity="3.6079093813896179e-01" nType="-99"/>
        </Node>
        <Node pos="r" depth="1" NCoef="0" IVar="0" Cut="4.2712874710559845e-02" cType="1" res="1.5693823993206024e-01" rms="4.0999957919120789e-01" purity="7.3639339208602905e-01" nType="0">
          <Node pos="l" depth="2" NCoef="0" IVar="-1" Cut="0.0000000000000000e+00" cType="1" res="4.3130214908160269e-04" rms="3.3020973205566406e-01" purity="8.6802685260772705e-01" nType="-99"/>
          <Node pos="r" depth="2" NCoef="0" IVar="-1" Cut="0.0000000000000000e+00" cType="1" res="2.2340273426380008e-04" rms="4.4004583358764648e-01" purity="6.6133052110671997e-01" nType="-99"/>
        </Node>
      </Node>
    </BinaryTree>
    <BinaryTree type="DecisionTree" boostWeight="1.0000000000000000e+00" itree="707">
      <Node pos="s" depth="0" NCoef="0" IVar="3" Cut="2.3618303298950195e+01" cType="1" res="6.2328189611434937e-02" rms="4.1795545816421509e-01" purity="5.0364464521408081e-01" nType="0">
        <Node pos="l" depth="1" NCoef="0" IVar="0" Cut="1.2470351532101631e-02" cType="1" res="-5.0162137486040592e-03" rms="4.1527622938156128e-01" purity="3.2575428485870361e-01" nType="0">
          <Node pos="l" depth="2" NCoef="0" IVar="-1" Cut="0.0000000000000000e+00" cType="1" res="1.9082243670709431e-04" rms="4.4590735435485840e-01" purity="4.9599578976631165e-01" nType="-99"/>
          <Node pos="r" depth="2" NCoef="0" IVar="-1" Cut="0.0000000000000000e+00" cType="1" res="-3.2666808692738414e-04" rms="3.9414089918136597e-01" purity="2.7172234654426575e-01" nType="-99"/>
        </Node>
        <Node pos="r" depth="1" NCoef="0" IVar="0" Cut="3.9660222828388214e-02" cType="1" res="1.5902684628963470e-01" rms="4.0252891182899475e-01" purity="7.5907438993453979e-01" nType="0">
          <Node pos="l" depth="2" NCoef="0" IVar="-1" Cut="0.0000000000000000e+00" cType="1" res="4.5506702736020088e-04" rms="2.8426569700241089e-01" purity="9.0860921144485474e-01" nType="-99"/>
          <Node pos="r" depth="2" NCoef="0" IVar="-1" Cut="0.0000000000000000e+00" cType="1" res="2.2354940301738679e-04" rms="4.3898573517799377e-01" purity="6.8517541885375977e-01" nType="-99"/>
        </Node>
      </Node>
    </BinaryTree>
    <BinaryTree type="DecisionTree" boostWeight="1.0000000000000000e+00" itree="708">
      <Node pos="s" depth="0" NCoef="0" IVar="3" Cut="1.4930736541748047e+01" cType="1" res="6.4817436039447784e-02" rms="4.1712376475334167e-01" purity="5.0795489549636841e-01" nType="0">
        <Node pos="l" depth="1" NCoef="0" IVar="0" Cut="2.1601404994726181e-02" cType="1" res="-2.4404633790254593e-02" rms="4.0116986632347107e-01" purity="2.9188105463981628e-01" nType="0">
          <Node pos="l" depth="2" NCoef="0" IVar="-1" Cut="0.0000000000000000e+00" cType="1" res="1.8395282677374780e-04" rms="4.3566972017288208e-01" purity="4.2186170816421509e-01" nType="-99"/>
          <Node pos="r" depth="2" NCoef="0" IVar="-1" Cut="0.0000000000000000e+00" cType="1" res="-7.2004966204985976e-04" rms="3.6041930317878723e-01" purity="1.8835948407649994e-01" nType="-99"/>
        </Node>
        <Node pos="r" depth="1" NCoef="0" IVar="0" Cut="3.9251808077096939e-02" cType="1" res="1.4596123993396759e-01" rms="4.1477835178375244e-01" purity="7.0446521043777466e-01" nType="0">
          <Node pos="l" depth="2" NCoef="0" IVar="-1" Cut="0.0000000000000000e+00" cType="1" res="5.0859863404184580e-04" rms="3.1690245866775513e-01" purity="8.8237708806991577e-01" nType="-99"/>
          <Node pos="r" depth="2" NCoef="0" IVar="-1" Cut="0.0000000000000000e+00" cType="1" res="2.3240286100190133e-04" rms="4.4163054227828979e-01" purity="6.1298203468322754e-01" nType="-99"/>
        </Node>
      </Node>
    </BinaryTree>
    <BinaryTree type="DecisionTree" boostWeight="1.0000000000000000e+00" itree="709">
      <Node pos="s" depth="0" NCoef="0" IVar="1" Cut="1.5872521972656250e+02" cType="1" res="5.3114656358957291e-02" rms="4.1802671551704407e-01" purity="4.9193084239959717e-01" nType="0">
        <Node pos="l" depth="1" NCoef="0" IVar="0" Cut="3.8101427257061005e-02" cType="1" res="-3.9201318286359310e-03" rms="4.1541630029678345e-01" purity="3.3795088529586792e-01" nType="0">
          <Node pos="l" depth="2" NCoef="0" IVar="-1" Cut="0.0000000000000000e+00" cType="1" res="1.4016422210261226e-04" rms="4.4113188982009888e-01" purity="4.3383198976516724e-01" nType="-99"/>
          <Node pos="r" depth="2" NCoef="0" IVar="-1" Cut="0.0000000000000000e+00" cType="1" res="-8.9711666805669665e-04" rms="3.5638943314552307e-01" purity="1.9298993051052094e-01" nType="-99"/>
        </Node>
        <Node pos="r" depth="1" NCoef="0" IVar="1" Cut="2.4987168884277344e+02" cType="1" res="1.5586590766906738e-01" rms="4.0279975533485413e-01" purity="7.6933389902114868e-01" nType="0">
          <Node pos="l" depth="2" NCoef="0" IVar="-1" Cut="0.0000000000000000e+00" cType="1" res="2.5294863735325634e-04" rms="4.3239474296569824e-01" purity="7.1925276517868042e-01" nType="-99"/>
          <Node pos="r" depth="2" NCoef="0" IVar="-1" Cut="0.0000000000000000e+00" cType="1" res="4.9273169133812189e-04" rms="2.7445870637893677e-01" purity="9.1257655620574951e-01" nType="-99"/>
        </Node>
      </Node>
    </BinaryTree>
    <BinaryTree type="DecisionTree" boostWeight="1.0000000000000000e+00" itree="710">
      <Node pos="s" depth="0" NCoef="0" IVar="3" Cut="1.4930736541748047e+01" cType="1" res="6.2972791492938995e-02" rms="4.1668605804443359e-01" purity="5.0657308101654053e-01" nType="0">
        <Node pos="l" depth="1" NCoef="0" IVar="1" Cut="3.3538272857666016e+01" cType="1" res="-2.3174067959189415e-02" rms="4.0514019131660461e-01" purity="2.8886732459068298e-01" nType="0">
          <Node pos="l" depth="2" NCoef="0" IVar="-1" Cut="0.0000000000000000e+00" cType="1" res="-2.0706453360617161e-03" rms="3.1099441647529602e-01" purity="1.1198601871728897e-01" nType="-99"/>
          <Node pos="r" depth="2" NCoef="0" IVar="-1" Cut="0.0000000000000000e+00" cType="1" res="4.2970306822098792e-05" rms="4.3069201707839966e-01" purity="3.5562795400619507e-01" nType="-99"/>
        </Node>
        <Node pos="r" depth="1" NCoef="0" IVar="0" Cut="4.2733144015073776e-02" cType="1" res="1.4182850718498230e-01" rms="4.1146260499954224e-01" purity="7.0585304498672485e-01" nType="0">
          <Node pos="l" depth="2" NCoef="0" IVar="-1" Cut="0.0000000000000000e+00" cType="1" res="4.5096274698153138e-04" rms="3.4235659241676331e-01" purity="8.5354286432266235e-01" nType="-99"/>
          <Node pos="r" depth="2" NCoef="0" IVar="-1" Cut="0.0000000000000000e+00" cType="1" res="2.2685149451717734e-04" rms="4.3464595079421997e-01" purity="6.2110781669616699e-01" nType="-99"/>
        </Node>
      </Node>
    </BinaryTree>
    <BinaryTree type="DecisionTree" boostWeight="1.0000000000000000e+00" itree="711">
      <Node pos="s" depth="0" NCoef="0" IVar="2" Cut="3.6123000000000000e+04" cType="1" res="5.5534895509481430e-02" rms="4.1540813446044922e-01" purity="4.9866399168968201e-01" nType="0">
        <Node pos="l" depth="1" NCoef="0" IVar="0" Cut="1.2542910873889923e-02" cType="1" res="-2.5533961132168770e-02" rms="4.0140333771705627e-01" purity="2.9150032997131348e-01" nType="0">
          <Node pos="l" depth="2" NCoef="0" IVar="-1" Cut="0.0000000000000000e+00" cType="1" res="4.1295017581433058e-04" rms="4.3357568979263306e-01" purity="4.4915810227394104e-01" nType="-99"/>
          <Node pos="r" depth="2" NCoef="0" IVar="-1" Cut="0.0000000000000000e+00" cType="1" res="-4.4563159462995827e-04" rms="3.8198578357696533e-01" purity="2.3823103308677673e-01" nType="-99"/>
        </Node>
        <Node pos="r" depth="1" NCoef="0" IVar="1" Cut="2.4491294860839844e+02" cType="1" res="1.4588366448879242e-01" rms="4.1209861636161804e-01" purity="7.2954154014587402e-01" nType="0">
          <Node pos="l" depth="2" NCoef="0" IVar="-1" Cut="0.0000000000000000e+00" cType="1" res="2.8171107987873256e-04" rms="4.4402965903282166e-01" purity="6.6523808240890503e-01" nType="-99"/>
          <Node pos="r" depth="2" NCoef="0" IVar="-1" Cut="0.0000000000000000e+00" cType="1" res="4.0530235855840147e-04" rms="2.4329622089862823e-01" purity="9.3403357267379761e-01" nType="-99"/>
        </Node>
      </Node>
    </BinaryTree>
    <BinaryTree type="DecisionTree" boostWeight="1.0000000000000000e+00" itree="712">
      <Node pos="s" depth="0" NCoef="0" IVar="2" Cut="6.6204593750000000e+04" cType="1" res="5.6905254721641541e-02" rms="4.2203080654144287e-01" purity="4.9360656738281250e-01" nType="0">
        <Node pos="l" depth="1" NCoef="0" IVar="0" Cut="2.5400951504707336e-02" cType="1" res="1.6744896769523621e-02" rms="4.2814943194389343e-01" purity="3.8304501771926880e-01" nType="0">
          <Node pos="l" depth="2" NCoef="0" IVar="-1" Cut="0.0000000000000000e+00" cType="1" res="2.8048409149050713e-04" rms="4.3884104490280151e-01" purity="4.8691958189010620e-01" nType="-99"/>
          <Node pos="r" depth="2" NCoef="0" IVar="-1" Cut="0.0000000000000000e+00" cType="1" res="-1.8686290422920138e-04" rms="4.1392311453819275e-01" purity="3.1533575057983398e-01" nType="-99"/>
        </Node>
        <Node pos="r" depth="1" NCoef="0" IVar="1" Cut="2.0048472595214844e+02" cType="1" res="1.7495736479759216e-01" rms="3.7965974211692810e-01" purity="8.1860423088073730e-01" nType="0">
          <Node pos="l" depth="2" NCoef="0" IVar="-1" Cut="0.0000000000000000e+00" cType="1" res="3.0951938242651522e-04" rms="4.2643722891807556e-01" purity="7.5074088573455811e-01" nType="-99"/>
          <Node pos="r" depth="2" NCoef="0" IVar="-1" Cut="0.0000000000000000e+00" cType="1" res="4.3932377593591809e-04" rms="3.0942490696907043e-01" purity="8.9120817184448242e-01" nType="-99"/>
        </Node>
      </Node>
    </BinaryTree>
    <BinaryTree type="DecisionTree" boostWeight="1.0000000000000000e+00" itree="713">
      <Node pos="s" depth="0" NCoef="0" IVar="1" Cut="9.2582794189453125e+01" cType="1" res="6.0160465538501740e-02" rms="4.2036527395248413e-01" purity="4.9883696436882019e-01" nType="0">
        <Node pos="l" depth="1" NCoef="0" IVar="0" Cut="1.1172619648277760e-02" cType="1" res="-4.4529002159833908e-02" rms="3.7751546502113342e-01" purity="2.1469143033027649e-01" nType="0">
          <Node pos="l" depth="2" NCoef="0" IVar="-1" Cut="0.0000000000000000e+00" cType="1" res="2.7203862555325031e-04" rms="4.3809449672698975e-01" purity="3.5392501950263977e-01" nType="-99"/>
          <Node pos="r" depth="2" NCoef="0" IVar="-1" Cut="0.0000000000000000e+00" cType="1" res="-6.4303074032068253e-04" rms="3.4530171751976013e-01" purity="1.6187919676303864e-01" nType="-99"/>
        </Node>
        <Node pos="r" depth="1" NCoef="0" IVar="0" Cut="2.7510134503245354e-02" cType="1" res="1.1858800798654556e-01" rms="4.3157556653022766e-01" purity="6.5741950273513794e-01" nType="0">
          <Node pos="l" depth="2" NCoef="0" IVar="-1" Cut="0.0000000000000000e+00" cType="1" res="4.7552096657454967e-04" rms="3.7206068634986877e-01" purity="8.1530356407165527e-01" nType="-99"/>
          <Node pos="r" depth="2" NCoef="0" IVar="-1" Cut="0.0000000000000000e+00" cType="1" res="2.0632815721910447e-04" rms="4.4165956974029541e-01" purity="6.0491430759429932e-01" nType="-99"/>
        </Node>
      </Node>
    </BinaryTree>
    <BinaryTree type="DecisionTree" boostWeight="1.0000000000000000e+00" itree="714">
      <Node pos="s" depth="0" NCoef="0" IVar="1" Cut="2.2930630493164062e+02" cType="1" res="5.7573728263378143e-02" rms="4.2423942685127258e-01" purity="4.9233689904212952e-01" nType="0">
        <Node pos="l" depth="1" NCoef="0" IVar="0" Cut="3.9660222828388214e-02" cType="1" res="3.3245887607336044e-02" rms="4.3145862221717834e-01" purity="4.4117447733879089e-01" nType="0">
          <Node pos="l" depth="2" NCoef="0" IVar="-1" Cut="0.0000000000000000e+00" cType="1" res="2.9614730738103390e-04" rms="4.3387338519096375e-01" purity="5.1707088947296143e-01" nType="-99"/>
          <Node pos="r" depth="2" NCoef="0" IVar="-1" Cut="0.0000000000000000e+00" cType="1" res="-2.5602302048355341e-04" rms="4.1548752784729004e-01" purity="3.4131598472595215e-01" nType="-99"/>
        </Node>
        <Node pos="r" depth="1" NCoef="0" IVar="-1" Cut="0.0000000000000000e+00" cType="1" res="5.3863081848248839e-04" rms="3.0307066440582275e-01" purity="8.8922297954559326e-01" nType="-99"/>
      </Node>
    </BinaryTree>
    <BinaryTree type="DecisionTree" boostWeight="1.0000000000000000e+00" itree="715">
      <Node pos="s" depth="0" NCoef="0" IVar="2" Cut="4.0782179687500000e+04" cType="1" res="6.0622747987508774e-02" rms="4.1595277190208435e-01" purity="5.0444090366363525e-01" nType="0">
        <Node pos="l" depth="1" NCoef="0" IVar="1" Cut="3.1436887741088867e+01" cType="1" res="-1.5280475839972496e-02" rms="4.0844717621803284e-01" purity="3.0600848793983459e-01" nType="0">
          <Node pos="l" depth="2" NCoef="0" IVar="-1" Cut="0.0000000000000000e+00" cType="1" res="-2.8250340837985277e-03" rms="2.8710985183715820e-01" purity="9.1277554631233215e-02" nType="-99"/>
          <Node pos="r" depth="2" NCoef="0" IVar="-1" Cut="0.0000000000000000e+00" cType="1" res="6.9999085098970681e-05" rms="4.3055328726768494e-01" purity="3.6553034186363220e-01" nType="-99"/>
        </Node>
        <Node pos="r" depth="1" NCoef="0" IVar="0" Cut="4.1265200823545456e-02" cType="1" res="1.5619809925556183e-01" rms="4.0548595786094666e-01" purity="7.5430190563201904e-01" nType="0">
          <Node pos="l" depth="2" NCoef="0" IVar="-1" Cut="0.0000000000000000e+00" cType="1" res="4.4863900984637439e-04" rms="3.1377723813056946e-01" purity="8.8451427221298218e-01" nType="-99"/>
          <Node pos="r" depth="2" NCoef="0" IVar="-1" Cut="0.0000000000000000e+00" cType="1" res="2.2782459564041346e-04" rms="4.3772888183593750e-01" purity="6.8597006797790527e-01" nType="-99"/>
        </Node>
      </Node>
    </BinaryTree>
    <BinaryTree type="DecisionTree" boostWeight="1.0000000000000000e+00" itree="716">
      <Node pos="s" depth="0" NCoef="0" IVar="2" Cut="4.0782179687500000e+04" cType="1" res="6.8676427006721497e-02" rms="4.1852191090583801e-01" purity="5.1143288612365723e-01" nType="0">
        <Node pos="l" depth="1" NCoef="0" IVar="0" Cut="1.2566522695124149e-02" cType="1" res="-3.3905711024999619e-03" rms="4.1635695099830627e-01" purity="3.1561654806137085e-01" nType="0">
          <Node pos="l" depth="2" NCoef="0" IVar="-1" Cut="0.0000000000000000e+00" cType="1" res="1.8728546274360269e-04" rms="4.4122979044914246e-01" purity="4.4909927248954773e-01" nType="-99"/>
          <Node pos="r" depth="2" NCoef="0" IVar="-1" Cut="0.0000000000000000e+00" cType="1" res="-2.3181134019978344e-04" rms="4.0367901325225830e-01" purity="2.7527093887329102e-01" nType="-99"/>
        </Node>
        <Node pos="r" depth="1" NCoef="0" IVar="0" Cut="4.2612448334693909e-02" cType="1" res="1.5929768979549408e-01" rms="4.0334898233413696e-01" purity="7.5766372680664062e-01" nType="0">
          <Node pos="l" depth="2" NCoef="0" IVar="-1" Cut="0.0000000000000000e+00" cType="1" res="4.4960816740058362e-04" rms="3.1931269168853760e-01" purity="8.8078242540359497e-01" nType="-99"/>
          <Node pos="r" depth="2" NCoef="0" IVar="-1" Cut="0.0000000000000000e+00" cType="1" res="2.7395520010031760e-04" rms="4.3512055277824402e-01" purity="6.8832993507385254e-01" nType="-99"/>
        </Node>
      </Node>
    </BinaryTree>
    <BinaryTree type="DecisionTree" boostWeight="1.0000000000000000e+00" itree="717">
      <Node pos="s" depth="0" NCoef="0" IVar="1" Cut="8.9405921936035156e+01" cType="1" res="6.1647709459066391e-02" rms="4.1913583874702454e-01" purity="5.0259000062942505e-01" nType="0">
        <Node pos="l" depth="1" NCoef="0" IVar="0" Cut="1.2183989398181438e-02" cType="1" res="-5.0827644765377045e-02" rms="3.6905279755592346e-01" purity="2.0673704147338867e-01" nType="0">
          <Node pos="l" depth="2" NCoef="0" IVar="-1" Cut="0.0000000000000000e+00" cType="1" res="2.1018521510995924e-04" rms="4.4342285394668579e-01" purity="3.5234865546226501e-01" nType="-99"/>
          <Node pos="r" depth="2" NCoef="0" IVar="-1" Cut="0.0000000000000000e+00" cType="1" res="-1.1893322225660086e-03" rms="3.2303562760353088e-01" purity="1.4486815035343170e-01" nType="-99"/>
        </Node>
        <Node pos="r" depth="1" NCoef="0" IVar="0" Cut="3.9660222828388214e-02" cType="1" res="1.1922895163297653e-01" rms="4.3138355016708374e-01" purity="6.5405064821243286e-01" nType="0">
          <Node pos="l" depth="2" NCoef="0" IVar="-1" Cut="0.0000000000000000e+00" cType="1" res="4.7997446381486952e-04" rms="4.0137279033660889e-01" purity="7.6175159215927124e-01" nType="-99"/>
          <Node pos="r" depth="2" NCoef="0" IVar="-1" Cut="0.0000000000000000e+00" cType="1" res="1.9139802316203713e-04" rms="4.4362223148345947e-01" purity="5.7443875074386597e-01" nType="-99"/>
        </Node>
      </Node>
    </BinaryTree>
    <BinaryTree type="DecisionTree" boostWeight="1.0000000000000000e+00" itree="718">
      <Node pos="s" depth="0" NCoef="0" IVar="3" Cut="1.4930736541748047e+01" cType="1" res="6.4232960343360901e-02" rms="4.1793590784072876e-01" purity="5.0585335493087769e-01" nType="0">
        <Node pos="l" depth="1" NCoef="0" IVar="0" Cut="1.1065950617194176e-02" cType="1" res="-2.6036199182271957e-02" rms="4.0501013398170471e-01" purity="2.8334474563598633e-01" nType="0">
          <Node pos="l" depth="2" NCoef="0" IVar="-1" Cut="0.0000000000000000e+00" cType="1" res="3.8526777643710375e-04" rms="4.3985328078269958e-01" purity="4.2609944939613342e-01" nType="-99"/>
          <Node pos="r" depth="2" NCoef="0" IVar="-1" Cut="0.0000000000000000e+00" cType="1" res="-4.3493913835845888e-04" rms="3.8668993115425110e-01" purity="2.3753494024276733e-01" nType="-99"/>
        </Node>
        <Node pos="r" depth="1" NCoef="0" IVar="0" Cut="4.1312772780656815e-02" cType="1" res="1.4628647267818451e-01" rms="4.1255283355712891e-01" purity="7.0811080932617188e-01" nType="0">
          <Node pos="l" depth="2" NCoef="0" IVar="-1" Cut="0.0000000000000000e+00" cType="1" res="5.2639434579759836e-04" rms="3.3997300267219543e-01" purity="8.5470122098922729e-01" nType="-99"/>
          <Node pos="r" depth="2" NCoef="0" IVar="-1" Cut="0.0000000000000000e+00" cType="1" res="2.4863184080459177e-04" rms="4.3622505664825439e-01" purity="6.3401031494140625e-01" nType="-99"/>
        </Node>
      </Node>
    </BinaryTree>
    <BinaryTree type="DecisionTree" boostWeight="1.0000000000000000e+00" itree="719">
      <Node pos="s" depth="0" NCoef="0" IVar="2" Cut="6.6204593750000000e+04" cType="1" res="6.3844352960586548e-02" rms="4.2560645937919617e-01" purity="4.9925449490547180e-01" nType="0">
        <Node pos="l" depth="1" NCoef="0" IVar="0" Cut="1.2700475752353668e-02" cType="1" res="2.2365909069776535e-02" rms="4.3514886498451233e-01" purity="3.8369286060333252e-01" nType="0">
          <Node pos="l" depth="2" NCoef="0" IVar="-1" Cut="0.0000000000000000e+00" cType="1" res="3.7793908268213272e-04" rms="4.4571951031684875e-01" purity="4.8593077063560486e-01" nType="-99"/>
          <Node pos="r" depth="2" NCoef="0" IVar="-1" Cut="0.0000000000000000e+00" cType="1" res="-1.6285808669636026e-05" rms="4.2859736084938049e-01" purity="3.5892429947853088e-01" nType="-99"/>
        </Node>
        <Node pos="r" depth="1" NCoef="0" IVar="1" Cut="2.3272488403320312e+02" cType="1" res="1.8119576573371887e-01" rms="3.7318056821823120e-01" purity="8.2620310783386230e-01" nType="0">
          <Node pos="l" depth="2" NCoef="0" IVar="-1" Cut="0.0000000000000000e+00" cType="1" res="2.9777333838865161e-04" rms="4.1982209682464600e-01" purity="7.6304751634597778e-01" nType="-99"/>
          <Node pos="r" depth="2" NCoef="0" IVar="-1" Cut="0.0000000000000000e+00" cType="1" res="5.5365770822390914e-04" rms="2.5543537735939026e-01" purity="9.2959481477737427e-01" nType="-99"/>
        </Node>
      </Node>
    </BinaryTree>
    <BinaryTree type="DecisionTree" boostWeight="1.0000000000000000e+00" itree="720">
      <Node pos="s" depth="0" NCoef="0" IVar="3" Cut="1.3542619705200195e+01" cType="1" res="5.0005551427602768e-02" rms="4.1955697536468506e-01" purity="4.8689797520637512e-01" nType="0">
        <Node pos="l" depth="1" NCoef="0" IVar="1" Cut="3.5298759460449219e+01" cType="1" res="-2.6195839047431946e-02" rms="4.0370684862136841e-01" purity="2.8301990032196045e-01" nType="0">
          <Node pos="l" depth="2" NCoef="0" IVar="-1" Cut="0.0000000000000000e+00" cType="1" res="-2.9116317164152861e-03" rms="2.8725597262382507e-01" purity="9.1510854661464691e-02" nType="-99"/>
          <Node pos="r" depth="2" NCoef="0" IVar="-1" Cut="0.0000000000000000e+00" cType="1" res="5.7147215557051823e-05" rms="4.3675410747528076e-01" purity="3.6385068297386169e-01" nType="-99"/>
        </Node>
        <Node pos="r" depth="1" NCoef="0" IVar="0" Cut="3.9251808077096939e-02" cType="1" res="1.1814264208078384e-01" rms="4.2173588275909424e-01" purity="6.6919988393783569e-01" nType="0">
          <Node pos="l" depth="2" NCoef="0" IVar="-1" Cut="0.0000000000000000e+00" cType="1" res="4.7603662824258208e-04" rms="3.4288021922111511e-01" purity="8.5272139310836792e-01" nType="-99"/>
          <Node pos="r" depth="2" NCoef="0" IVar="-1" Cut="0.0000000000000000e+00" cType="1" res="1.8840485427062958e-04" rms="4.4115465879440308e-01" purity="5.7829439640045166e-01" nType="-99"/>
        </Node>
      </Node>
    </BinaryTree>
    <BinaryTree type="DecisionTree" boostWeight="1.0000000000000000e+00" itree="721">
      <Node pos="s" depth="0" NCoef="0" IVar="2" Cut="6.1173269531250000e+04" cType="1" res="6.4500808715820312e-02" rms="4.1910648345947266e-01" purity="5.0607109069824219e-01" nType="0">
        <Node pos="l" depth="1" NCoef="0" IVar="0" Cut="6.3502378761768341e-02" cType="1" res="1.5349753201007843e-02" rms="4.2613062262535095e-01" purity="3.7079399824142456e-01" nType="0">
          <Node pos="l" depth="2" NCoef="0" IVar="-1" Cut="0.0000000000000000e+00" cType="1" res="1.3401334581431001e-04" rms="4.3473213911056519e-01" purity="4.0989211201667786e-01" nType="-99"/>
          <Node pos="r" depth="2" NCoef="0" IVar="-1" Cut="0.0000000000000000e+00" cType="1" res="-1.3651063200086355e-03" rms="3.5586377978324890e-01" purity="1.8293352425098419e-01" nType="-99"/>
        </Node>
        <Node pos="r" depth="1" NCoef="0" IVar="1" Cut="2.2908709716796875e+02" cType="1" res="1.7730461061000824e-01" rms="3.7915080785751343e-01" purity="8.1653785705566406e-01" nType="0">
          <Node pos="l" depth="2" NCoef="0" IVar="-1" Cut="0.0000000000000000e+00" cType="1" res="2.6891427114605904e-04" rms="4.2622357606887817e-01" purity="7.5042158365249634e-01" nType="-99"/>
          <Node pos="r" depth="2" NCoef="0" IVar="-1" Cut="0.0000000000000000e+00" cType="1" res="3.8692902307957411e-04" rms="2.5729876756668091e-01" purity="9.2786335945129395e-01" nType="-99"/>
        </Node>
      </Node>
    </BinaryTree>
    <BinaryTree type="DecisionTree" boostWeight="1.0000000000000000e+00" itree="722">
      <Node pos="s" depth="0" NCoef="0" IVar="1" Cut="1.3710118103027344e+02" cType="1" res="5.1590085029602051e-02" rms="4.1439726948738098e-01" purity="4.9476283788681030e-01" nType="0">
        <Node pos="l" depth="1" NCoef="0" IVar="0" Cut="1.2700475752353668e-02" cType="1" res="-3.4061994403600693e-02" rms="3.9681628346443176e-01" purity="2.6734718680381775e-01" nType="0">
          <Node pos="l" depth="2" NCoef="0" IVar="-1" Cut="0.0000000000000000e+00" cType="1" res="3.5788805689662695e-04" rms="4.2971894145011902e-01" purity="4.1797050833702087e-01" nType="-99"/>
          <Node pos="r" depth="2" NCoef="0" IVar="-1" Cut="0.0000000000000000e+00" cType="1" res="-5.8156473096460104e-04" rms="3.7971085309982300e-01" purity="2.1968580782413483e-01" nType="-99"/>
        </Node>
        <Node pos="r" depth="1" NCoef="0" IVar="1" Cut="2.5565196228027344e+02" cType="1" res="1.4501695334911346e-01" rms="4.1297796368598938e-01" purity="7.4282139539718628e-01" nType="0">
          <Node pos="l" depth="2" NCoef="0" IVar="-1" Cut="0.0000000000000000e+00" cType="1" res="2.6200644788332283e-04" rms="4.4033053517341614e-01" purity="6.9294917583465576e-01" nType="-99"/>
          <Node pos="r" depth="2" NCoef="0" IVar="-1" Cut="0.0000000000000000e+00" cType="1" res="3.9074372034519911e-04" rms="2.4859769642353058e-01" purity="9.2912590503692627e-01" nType="-99"/>
        </Node>
      </Node>
    </BinaryTree>
    <BinaryTree type="DecisionTree" boostWeight="1.0000000000000000e+00" itree="723">
      <Node pos="s" depth="0" NCoef="0" IVar="1" Cut="1.3938558959960938e+02" cType="1" res="5.6762728840112686e-02" rms="4.1501694917678833e-01" purity="4.9963757395744324e-01" nType="0">
        <Node pos="l" depth="1" NCoef="0" IVar="1" Cut="3.2407630920410156e+01" cType="1" res="-1.9066361710429192e-02" rms="4.0162965655326843e-01" purity="2.8975084424018860e-01" nType="0">
          <Node pos="l" depth="2" NCoef="0" IVar="-1" Cut="0.0000000000000000e+00" cType="1" res="-3.2279528677463531e-03" rms="2.8313568234443665e-01" purity="8.7085343897342682e-02" nType="-99"/>
          <Node pos="r" depth="2" NCoef="0" IVar="-1" Cut="0.0000000000000000e+00" cType="1" res="5.6545435654697940e-05" rms="4.2532885074615479e-01" purity="3.5146564245223999e-01" nType="-99"/>
        </Node>
        <Node pos="r" depth="1" NCoef="0" IVar="1" Cut="2.5973663330078125e+02" cType="1" res="1.4548659324645996e-01" rms="4.1283297538757324e-01" purity="7.4521565437316895e-01" nType="0">
          <Node pos="l" depth="2" NCoef="0" IVar="-1" Cut="0.0000000000000000e+00" cType="1" res="2.9047334101051092e-04" rms="4.3690413236618042e-01" purity="7.0158708095550537e-01" nType="-99"/>
          <Node pos="r" depth="2" NCoef="0" IVar="-1" Cut="0.0000000000000000e+00" cType="1" res="5.4477545199915767e-04" rms="2.5206458568572998e-01" purity="9.2781347036361694e-01" nType="-99"/>
        </Node>
      </Node>
    </BinaryTree>
    <BinaryTree type="DecisionTree" boostWeight="1.0000000000000000e+00" itree="724">
      <Node pos="s" depth="0" NCoef="0" IVar="2" Cut="6.1173269531250000e+04" cType="1" res="4.3862998485565186e-02" rms="4.1727355122566223e-01" purity="4.8151257634162903e-01" nType="0">
        <Node pos="l" depth="1" NCoef="0" IVar="0" Cut="3.8101427257061005e-02" cType="1" res="-8.8169611990451813e-03" rms="4.1875156760215759e-01" purity="3.4180057048797607e-01" nType="0">
          <Node pos="l" depth="2" NCoef="0" IVar="-1" Cut="0.0000000000000000e+00" cType="1" res="1.6751495422795415e-04" rms="4.3918609619140625e-01" purity="4.3052276968955994e-01" nType="-99"/>
          <Node pos="r" depth="2" NCoef="0" IVar="-1" Cut="0.0000000000000000e+00" cType="1" res="-7.8270270023494959e-04" rms="3.7696528434753418e-01" purity="2.1433721482753754e-01" nType="-99"/>
        </Node>
        <Node pos="r" depth="1" NCoef="0" IVar="1" Cut="2.4123907470703125e+02" cType="1" res="1.6619144380092621e-01" rms="3.8709086179733276e-01" purity="8.0593860149383545e-01" nType="0">
          <Node pos="l" depth="2" NCoef="0" IVar="-1" Cut="0.0000000000000000e+00" cType="1" res="2.8029701206833124e-04" rms="4.2783728241920471e-01" purity="7.4645042419433594e-01" nType="-99"/>
          <Node pos="r" depth="2" NCoef="0" IVar="-1" Cut="0.0000000000000000e+00" cType="1" res="4.1799506288953125e-04" rms="2.4894239008426666e-01" purity="9.3309944868087769e-01" nType="-99"/>
        </Node>
      </Node>
    </BinaryTree>
    <BinaryTree type="DecisionTree" boostWeight="1.0000000000000000e+00" itree="725">
      <Node pos="s" depth="0" NCoef="0" IVar="3" Cut="1.4930736541748047e+01" cType="1" res="4.9037914723157883e-02" rms="4.1525894403457642e-01" purity="4.9024406075477600e-01" nType="0">
        <Node pos="l" depth="1" NCoef="0" IVar="0" Cut="2.1601404994726181e-02" cType="1" res="-3.4652750939130783e-02" rms="3.9549034833908081e-01" purity="2.7808839082717896e-01" nType="0">
          <Node pos="l" depth="2" NCoef="0" IVar="-1" Cut="0.0000000000000000e+00" cType="1" res="1.9437209994066507e-04" rms="4.3794727325439453e-01" purity="4.1327312588691711e-01" nType="-99"/>
          <Node pos="r" depth="2" NCoef="0" IVar="-1" Cut="0.0000000000000000e+00" cType="1" res="-9.2899467563256621e-04" rms="3.4356206655502319e-01" purity="1.6911499202251434e-01" nType="-99"/>
        </Node>
        <Node pos="r" depth="1" NCoef="0" IVar="0" Cut="4.1793424636125565e-02" cType="1" res="1.2769830226898193e-01" rms="4.1801127791404724e-01" purity="6.8964803218841553e-01" nType="0">
          <Node pos="l" depth="2" NCoef="0" IVar="-1" Cut="0.0000000000000000e+00" cType="1" res="4.5512689393945038e-04" rms="3.3911389112472534e-01" purity="8.5708039999008179e-01" nType="-99"/>
          <Node pos="r" depth="2" NCoef="0" IVar="-1" Cut="0.0000000000000000e+00" cType="1" res="1.7763243522495031e-04" rms="4.4220870733261108e-01" purity="5.9342414140701294e-01" nType="-99"/>
        </Node>
      </Node>
    </BinaryTree>
    <BinaryTree type="DecisionTree" boostWeight="1.0000000000000000e+00" itree="726">
      <Node pos="s" depth="0" NCoef="0" IVar="3" Cut="1.4930736541748047e+01" cType="1" res="5.3946211934089661e-02" rms="4.1658386588096619e-01" purity="4.9479603767395020e-01" nType="0">
        <Node pos="l" depth="1" NCoef="0" IVar="0" Cut="1.2183989398181438e-02" cType="1" res="-2.3671649396419525e-02" rms="4.0171042084693909e-01" purity="2.8968560695648193e-01" nType="0">
          <Node pos="l" depth="2" NCoef="0" IVar="-1" Cut="0.0000000000000000e+00" cType="1" res="2.7972698444500566e-04" rms="4.3674656748771667e-01" purity="4.4130620360374451e-01" nType="-99"/>
          <Node pos="r" depth="2" NCoef="0" IVar="-1" Cut="0.0000000000000000e+00" cType="1" res="-4.6709686284884810e-04" rms="3.7981852889060974e-01" purity="2.3456418514251709e-01" nType="-99"/>
        </Node>
        <Node pos="r" depth="1" NCoef="0" IVar="0" Cut="3.9660222828388214e-02" cType="1" res="1.2732730805873871e-01" rms="4.1709491610527039e-01" purity="6.8871057033538818e-01" nType="0">
          <Node pos="l" depth="2" NCoef="0" IVar="-1" Cut="0.0000000000000000e+00" cType="1" res="4.6495965216308832e-04" rms="3.2521712779998779e-01" purity="8.7369406223297119e-01" nType="-99"/>
          <Node pos="r" depth="2" NCoef="0" IVar="-1" Cut="0.0000000000000000e+00" cType="1" res="1.6641691036056727e-04" rms="4.4138792157173157e-01" purity="5.8995550870895386e-01" nType="-99"/>
        </Node>
      </Node>
    </BinaryTree>
    <BinaryTree type="DecisionTree" boostWeight="1.0000000000000000e+00" itree="727">
      <Node pos="s" depth="0" NCoef="0" IVar="1" Cut="5.2157405853271484e+01" cType="1" res="6.7295633256435394e-02" rms="4.1781300306320190e-01" purity="5.0921785831451416e-01" nType="0">
        <Node pos="l" depth="1" NCoef="0" IVar="3" Cut="3.1813642978668213e+00" cType="1" res="-8.3231978118419647e-02" rms="3.3344015479087830e-01" purity="1.3528844714164734e-01" nType="0">
          <Node pos="l" depth="2" NCoef="0" IVar="-1" Cut="0.0000000000000000e+00" cType="1" res="-1.9915048032999039e-03" rms="3.2519474625587463e-01" purity="1.2347909063100815e-01" nType="-99"/>
          <Node pos="r" depth="2" NCoef="0" IVar="-1" Cut="0.0000000000000000e+00" cType="1" res="-7.3921360308304429e-04" rms="3.3642596006393433e-01" purity="1.4258162677288055e-01" nType="-99"/>
        </Node>
        <Node pos="r" depth="1" NCoef="0" IVar="0" Cut="2.8488764539361000e-02" cType="1" res="1.0275401175022125e-01" rms="4.2767283320426941e-01" purity="5.9730088710784912e-01" nType="0">
          <Node pos="l" depth="2" NCoef="0" IVar="-1" Cut="0.0000000000000000e+00" cType="1" res="4.3863721657544374e-04" rms="4.0306824445724487e-01" purity="7.6009631156921387e-01" nType="-99"/>
          <Node pos="r" depth="2" NCoef="0" IVar="-1" Cut="0.0000000000000000e+00" cType="1" res="1.5946707571856678e-04" rms="4.2632690072059631e-01" purity="5.2808946371078491e-01" nType="-99"/>
        </Node>
      </Node>
    </BinaryTree>
    <BinaryTree type="DecisionTree" boostWeight="1.0000000000000000e+00" itree="728">
      <Node pos="s" depth="0" NCoef="0" IVar="2" Cut="6.6204593750000000e+04" cType="1" res="5.4457750171422958e-02" rms="4.1665181517601013e-01" purity="4.9621972441673279e-01" nType="0">
        <Node pos="l" depth="1" NCoef="0" IVar="1" Cut="7.8404129028320312e+01" cType="1" res="7.8537361696362495e-03" rms="4.2278078198432922e-01" purity="3.7447726726531982e-01" nType="0">
          <Node pos="l" depth="2" NCoef="0" IVar="-1" Cut="0.0000000000000000e+00" cType="1" res="-8.4895180771127343e-04" rms="3.4806147217750549e-01" purity="1.6561503708362579e-01" nType="-99"/>
          <Node pos="r" depth="2" NCoef="0" IVar="-1" Cut="0.0000000000000000e+00" cType="1" res="2.0543385471682996e-04" rms="4.5740219950675964e-01" purity="5.0813758373260498e-01" nType="-99"/>
        </Node>
        <Node pos="r" depth="1" NCoef="0" IVar="1" Cut="2.2952496337890625e+02" cType="1" res="1.8176543712615967e-01" rms="3.7068080902099609e-01" purity="8.2878226041793823e-01" nType="0">
          <Node pos="l" depth="2" NCoef="0" IVar="-1" Cut="0.0000000000000000e+00" cType="1" res="2.8473985730670393e-04" rms="4.2040294408798218e-01" purity="7.6197028160095215e-01" nType="-99"/>
          <Node pos="r" depth="2" NCoef="0" IVar="-1" Cut="0.0000000000000000e+00" cType="1" res="5.7940382976084948e-04" rms="2.5648126006126404e-01" purity="9.2873001098632812e-01" nType="-99"/>
        </Node>
      </Node>
    </BinaryTree>
    <BinaryTree type="DecisionTree" boostWeight="1.0000000000000000e+00" itree="729">
      <Node pos="s" depth="0" NCoef="0" IVar="3" Cut="1.4930736541748047e+01" cType="1" res="5.3145296871662140e-02" rms="4.1940087080001831e-01" purity="4.9049657583236694e-01" nType="0">
        <Node pos="l" depth="1" NCoef="0" IVar="0" Cut="1.2183989398181438e-02" cType="1" res="-2.4867273867130280e-02" rms="4.0374773740768433e-01" purity="2.8396427631378174e-01" nType="0">
          <Node pos="l" depth="2" NCoef="0" IVar="-1" Cut="0.0000000000000000e+00" cType="1" res="4.0246121352538466e-04" rms="4.3310749530792236e-01" purity="4.3375068902969360e-01" nType="-99"/>
          <Node pos="r" depth="2" NCoef="0" IVar="-1" Cut="0.0000000000000000e+00" cType="1" res="-4.8421349492855370e-04" rms="3.8624837994575500e-01" purity="2.3223699629306793e-01" nType="-99"/>
        </Node>
        <Node pos="r" depth="1" NCoef="0" IVar="0" Cut="4.2733144015073776e-02" cType="1" res="1.2812903523445129e-01" rms="4.2048716545104980e-01" purity="6.8901020288467407e-01" nType="0">
          <Node pos="l" depth="2" NCoef="0" IVar="-1" Cut="0.0000000000000000e+00" cType="1" res="4.9187935655936599e-04" rms="3.4361389279365540e-01" purity="8.5144925117492676e-01" nType="-99"/>
          <Node pos="r" depth="2" NCoef="0" IVar="-1" Cut="0.0000000000000000e+00" cType="1" res="1.6555556794628501e-04" rms="4.4639870524406433e-01" purity="5.8857965469360352e-01" nType="-99"/>
        </Node>
      </Node>
    </BinaryTree>
    <BinaryTree type="DecisionTree" boostWeight="1.0000000000000000e+00" itree="730">
      <Node pos="s" depth="0" NCoef="0" IVar="2" Cut="5.3826414062500000e+04" cType="1" res="5.7915318757295609e-02" rms="4.1625976562500000e-01" purity="4.9839210510253906e-01" nType="0">
        <Node pos="l" depth="1" NCoef="0" IVar="0" Cut="2.5400951504707336e-02" cType="1" res="2.5969303678721189e-03" rms="4.1823041439056396e-01" purity="3.4188142418861389e-01" nType="0">
          <Node pos="l" depth="2" NCoef="0" IVar="-1" Cut="0.0000000000000000e+00" cType="1" res="1.9260910630691797e-04" rms="4.3991163372993469e-01" purity="4.5646652579307556e-01" nType="-99"/>
          <Node pos="r" depth="2" NCoef="0" IVar="-1" Cut="0.0000000000000000e+00" cType="1" res="-3.7703427369706333e-04" rms="3.9358416199684143e-01" purity="2.5775671005249023e-01" nType="-99"/>
        </Node>
        <Node pos="r" depth="1" NCoef="0" IVar="1" Cut="2.3073229980468750e+02" cType="1" res="1.6148611903190613e-01" rms="3.9209306240081787e-01" purity="7.9142200946807861e-01" nType="0">
          <Node pos="l" depth="2" NCoef="0" IVar="-1" Cut="0.0000000000000000e+00" cType="1" res="2.5690757320262492e-04" rms="4.3204176425933838e-01" purity="7.2697025537490845e-01" nType="-99"/>
          <Node pos="r" depth="2" NCoef="0" IVar="-1" Cut="0.0000000000000000e+00" cType="1" res="5.2533816779032350e-04" rms="2.5866270065307617e-01" purity="9.2660403251647949e-01" nType="-99"/>
        </Node>
      </Node>
    </BinaryTree>
    <BinaryTree type="DecisionTree" boostWeight="1.0000000000000000e+00" itree="731">
      <Node pos="s" depth="0" NCoef="0" IVar="2" Cut="3.5884277343750000e+04" cType="1" res="5.9312175959348679e-02" rms="4.1741627454757690e-01" purity="5.0061643123626709e-01" nType="0">
        <Node pos="l" depth="1" NCoef="0" IVar="1" Cut="3.5298759460449219e+01" cType="1" res="-1.8871935084462166e-02" rms="4.0520298480987549e-01" purity="2.9381531476974487e-01" nType="0">
          <Node pos="l" depth="2" NCoef="0" IVar="-1" Cut="0.0000000000000000e+00" cType="1" res="-2.2519140038639307e-03" rms="3.0664896965026855e-01" purity="1.0588028281927109e-01" nType="-99"/>
          <Node pos="r" depth="2" NCoef="0" IVar="-1" Cut="0.0000000000000000e+00" cType="1" res="6.7420158302411437e-05" rms="4.3003964424133301e-01" purity="3.6049073934555054e-01" nType="-99"/>
        </Node>
        <Node pos="r" depth="1" NCoef="0" IVar="0" Cut="4.1365139186382294e-02" cType="1" res="1.4559733867645264e-01" rms="4.1368222236633301e-01" purity="7.2884529829025269e-01" nType="0">
          <Node pos="l" depth="2" NCoef="0" IVar="-1" Cut="0.0000000000000000e+00" cType="1" res="4.0813506348058581e-04" rms="3.2865029573440552e-01" purity="8.7066900730133057e-01" nType="-99"/>
          <Node pos="r" depth="2" NCoef="0" IVar="-1" Cut="0.0000000000000000e+00" cType="1" res="2.0455087360460311e-04" rms="4.4300732016563416e-01" purity="6.5170419216156006e-01" nType="-99"/>
        </Node>
      </Node>
    </BinaryTree>
    <BinaryTree type="DecisionTree" boostWeight="1.0000000000000000e+00" itree="732">
      <Node pos="s" depth="0" NCoef="0" IVar="3" Cut="1.4930736541748047e+01" cType="1" res="5.1009476184844971e-02" rms="4.1736665368080139e-01" purity="4.9074107408523560e-01" nType="0">
        <Node pos="l" depth="1" NCoef="0" IVar="0" Cut="1.2183989398181438e-02" cType="1" res="-3.6766517907381058e-02" rms="4.0028676390647888e-01" purity="2.6778489351272583e-01" nType="0">
          <Node pos="l" depth="2" NCoef="0" IVar="-1" Cut="0.0000000000000000e+00" cType="1" res="2.8229685267433524e-04" rms="4.2999139428138733e-01" purity="3.9260685443878174e-01" nType="-99"/>
          <Node pos="r" depth="2" NCoef="0" IVar="-1" Cut="0.0000000000000000e+00" cType="1" res="-4.0476708090864122e-04" rms="3.8570943474769592e-01" purity="2.2632050514221191e-01" nType="-99"/>
        </Node>
        <Node pos="r" depth="1" NCoef="0" IVar="0" Cut="4.1265200823545456e-02" cType="1" res="1.3131298124790192e-01" rms="4.1650220751762390e-01" purity="6.9471681118011475e-01" nType="0">
          <Node pos="l" depth="2" NCoef="0" IVar="-1" Cut="0.0000000000000000e+00" cType="1" res="4.6607592958025634e-04" rms="3.4197357296943665e-01" purity="8.5499352216720581e-01" nType="-99"/>
          <Node pos="r" depth="2" NCoef="0" IVar="-1" Cut="0.0000000000000000e+00" cType="1" res="1.8909075879491866e-04" rms="4.3937614560127258e-01" purity="6.0755938291549683e-01" nType="-99"/>
        </Node>
      </Node>
    </BinaryTree>
    <BinaryTree type="DecisionTree" boostWeight="1.0000000000000000e+00" itree="733">
      <Node pos="s" depth="0" NCoef="0" IVar="3" Cut="1.4930736541748047e+01" cType="1" res="5.9905230998992920e-02" rms="4.1917946934700012e-01" purity="5.0051969289779663e-01" nType="0">
        <Node pos="l" depth="1" NCoef="0" IVar="0" Cut="3.1470797955989838e-02" cType="1" res="-1.9472012296319008e-02" rms="4.0580815076828003e-01" purity="2.9029211401939392e-01" nType="0">
          <Node pos="l" depth="2" NCoef="0" IVar="-1" Cut="0.0000000000000000e+00" cType="1" res="1.1100292613264173e-04" rms="4.4347673654556274e-01" purity="3.9087104797363281e-01" nType="-99"/>
          <Node pos="r" depth="2" NCoef="0" IVar="-1" Cut="0.0000000000000000e+00" cType="1" res="-1.5821136767044663e-03" rms="3.2498860359191895e-01" purity="1.3492119312286377e-01" nType="-99"/>
        </Node>
        <Node pos="r" depth="1" NCoef="0" IVar="0" Cut="3.8208056241273880e-02" cType="1" res="1.3410171866416931e-01" rms="4.1788512468338013e-01" purity="6.9702631235122681e-01" nType="0">
          <Node pos="l" depth="2" NCoef="0" IVar="-1" Cut="0.0000000000000000e+00" cType="1" res="5.5976066505536437e-04" rms="3.3796846866607666e-01" purity="8.6193352937698364e-01" nType="-99"/>
          <Node pos="r" depth="2" NCoef="0" IVar="-1" Cut="0.0000000000000000e+00" cType="1" res="2.0955505897291005e-04" rms="4.3733152747154236e-01" purity="6.3074111938476562e-01" nType="-99"/>
        </Node>
      </Node>
    </BinaryTree>
    <BinaryTree type="DecisionTree" boostWeight="1.0000000000000000e+00" itree="734">
      <Node pos="s" depth="0" NCoef="0" IVar="1" Cut="1.3466694641113281e+02" cType="1" res="6.2040232121944427e-02" rms="4.1823676228523254e-01" purity="5.0351881980895996e-01" nType="0">
        <Node pos="l" depth="1" NCoef="0" IVar="0" Cut="2.4178078398108482e-02" cType="1" res="-1.1149103753268719e-02" rms="4.0676164627075195e-01" purity="2.8990361094474792e-01" nType="0">
          <Node pos="l" depth="2" NCoef="0" IVar="-1" Cut="0.0000000000000000e+00" cType="1" res="2.0498616504482925e-04" rms="4.3524152040481567e-01" purity="4.1151320934295654e-01" nType="-99"/>
          <Node pos="r" depth="2" NCoef="0" IVar="-1" Cut="0.0000000000000000e+00" cType="1" res="-6.4715009648352861e-04" rms="3.7711629271507263e-01" purity="1.9891944527626038e-01" nType="-99"/>
        </Node>
        <Node pos="r" depth="1" NCoef="0" IVar="1" Cut="2.5105342102050781e+02" cType="1" res="1.4174400269985199e-01" rms="4.1598725318908691e-01" purity="7.3614746332168579e-01" nType="0">
          <Node pos="l" depth="2" NCoef="0" IVar="-1" Cut="0.0000000000000000e+00" cType="1" res="2.8338521951809525e-04" rms="4.3981346487998962e-01" purity="6.9147533178329468e-01" nType="-99"/>
          <Node pos="r" depth="2" NCoef="0" IVar="-1" Cut="0.0000000000000000e+00" cType="1" res="4.2418189696036279e-04" rms="2.6715090870857239e-01" purity="9.1708642244338989e-01" nType="-99"/>
        </Node>
      </Node>
    </BinaryTree>
    <BinaryTree type="DecisionTree" boostWeight="1.0000000000000000e+00" itree="735">
      <Node pos="s" depth="0" NCoef="0" IVar="2" Cut="4.4136394531250000e+04" cType="1" res="5.5789213627576828e-02" rms="4.1631633043289185e-01" purity="4.9760830402374268e-01" nType="0">
        <Node pos="l" depth="1" NCoef="0" IVar="0" Cut="1.2542910873889923e-02" cType="1" res="-1.0686263442039490e-02" rms="4.1306111216545105e-01" purity="3.0920335650444031e-01" nType="0">
          <Node pos="l" depth="2" NCoef="0" IVar="-1" Cut="0.0000000000000000e+00" cType="1" res="2.4217246391344815e-04" rms="4.4528076052665710e-01" purity="4.7280648350715637e-01" nType="-99"/>
          <Node pos="r" depth="2" NCoef="0" IVar="-1" Cut="0.0000000000000000e+00" cType="1" res="-3.5733461845666170e-04" rms="3.9379498362541199e-01" purity="2.5870609283447266e-01" nType="-99"/>
        </Node>
        <Node pos="r" depth="1" NCoef="0" IVar="1" Cut="2.4040792846679688e+02" cType="1" res="1.4877586066722870e-01" rms="4.0282496809959412e-01" purity="7.6115125417709351e-01" nType="0">
          <Node pos="l" depth="2" NCoef="0" IVar="-1" Cut="0.0000000000000000e+00" cType="1" res="2.5286342133767903e-04" rms="4.3721956014633179e-01" purity="6.9926017522811890e-01" nType="-99"/>
          <Node pos="r" depth="2" NCoef="0" IVar="-1" Cut="0.0000000000000000e+00" cType="1" res="4.0029454976320267e-04" rms="2.4579952657222748e-01" purity="9.3332988023757935e-01" nType="-99"/>
        </Node>
      </Node>
    </BinaryTree>
    <BinaryTree type="DecisionTree" boostWeight="1.0000000000000000e+00" itree="736">
      <Node pos="s" depth="0" NCoef="0" IVar="3" Cut="1.3542619705200195e+01" cType="1" res="6.7625992000102997e-02" rms="4.1870182752609253e-01" purity="5.1026612520217896e-01" nType="0">
        <Node pos="l" depth="1" NCoef="0" IVar="0" Cut="1.1065950617194176e-02" cType="1" res="-1.3625260442495346e-02" rms="4.1090965270996094e-01" purity="2.9434487223625183e-01" nType="0">
          <Node pos="l" depth="2" NCoef="0" IVar="-1" Cut="0.0000000000000000e+00" cType="1" res="1.7732479318510741e-04" rms="4.3837249279022217e-01" purity="4.3155926465988159e-01" nType="-99"/>
          <Node pos="r" depth="2" NCoef="0" IVar="-1" Cut="0.0000000000000000e+00" cType="1" res="-2.8390946681611240e-04" rms="3.9569172263145447e-01" purity="2.4941925704479218e-01" nType="-99"/>
        </Node>
        <Node pos="r" depth="1" NCoef="0" IVar="0" Cut="4.1265200823545456e-02" cType="1" res="1.3652761280536652e-01" rms="4.1285276412963867e-01" purity="6.9336891174316406e-01" nType="0">
          <Node pos="l" depth="2" NCoef="0" IVar="-1" Cut="0.0000000000000000e+00" cType="1" res="4.3240436934866011e-04" rms="3.3943879604339600e-01" purity="8.5465174913406372e-01" nType="-99"/>
          <Node pos="r" depth="2" NCoef="0" IVar="-1" Cut="0.0000000000000000e+00" cType="1" res="1.8555152928456664e-04" rms="4.3584039807319641e-01" purity="6.0296130180358887e-01" nType="-99"/>
        </Node>
      </Node>
    </BinaryTree>
    <BinaryTree type="DecisionTree" boostWeight="1.0000000000000000e+00" itree="737">
      <Node pos="s" depth="0" NCoef="0" IVar="2" Cut="7.2246000000000000e+04" cType="1" res="6.1757583171129227e-02" rms="4.2083510756492615e-01" purity="4.9993982911109924e-01" nType="0">
        <Node pos="l" depth="1" NCoef="0" IVar="0" Cut="1.2702706269919872e-02" cType="1" res="2.4788998067378998e-02" rms="4.3055728077888489e-01" purity="4.0580642223358154e-01" nType="0">
          <Node pos="l" depth="2" NCoef="0" IVar="-1" Cut="0.0000000000000000e+00" cType="1" res="2.3175665410235524e-04" rms="4.4569236040115356e-01" purity="5.3095489740371704e-01" nType="-99"/>
          <Node pos="r" depth="2" NCoef="0" IVar="-1" Cut="0.0000000000000000e+00" cType="1" res="-4.9732436309568584e-05" rms="4.1907849907875061e-01" purity="3.7479215860366821e-01" nType="-99"/>
        </Node>
        <Node pos="r" depth="1" NCoef="0" IVar="1" Cut="2.0292155456542969e+02" cType="1" res="2.0070259273052216e-01" rms="3.4863981604576111e-01" purity="8.5373663902282715e-01" nType="0">
          <Node pos="l" depth="2" NCoef="0" IVar="-1" Cut="0.0000000000000000e+00" cType="1" res="3.0109903309494257e-04" rms="4.1598367691040039e-01" purity="7.7000772953033447e-01" nType="-99"/>
          <Node pos="r" depth="2" NCoef="0" IVar="-1" Cut="0.0000000000000000e+00" cType="1" res="3.7207530112937093e-04" rms="2.8007045388221741e-01" purity="9.1275638341903687e-01" nType="-99"/>
        </Node>
      </Node>
    </BinaryTree>
    <BinaryTree type="DecisionTree" boostWeight="1.0000000000000000e+00" itree="738">
      <Node pos="s" depth="0" NCoef="0" IVar="2" Cut="6.1173269531250000e+04" cType="1" res="4.9922823905944824e-02" rms="4.1788461804389954e-01" purity="4.8774674534797668e-01" nType="0">
        <Node pos="l" depth="1" NCoef="0" IVar="0" Cut="5.0801903009414673e-02" cType="1" res="6.3241098541766405e-04" rms="4.2188277840614319e-01" purity="3.5096812248229980e-01" nType="0">
          <Node pos="l" depth="2" NCoef="0" IVar="-1" Cut="0.0000000000000000e+00" cType="1" res="1.3283432053867728e-04" rms="4.3518567085266113e-01" purity="4.0855869650840759e-01" nType="-99"/>
          <Node pos="r" depth="2" NCoef="0" IVar="-1" Cut="0.0000000000000000e+00" cType="1" res="-8.2794408081099391e-04" rms="3.7065622210502625e-01" purity="1.9851933419704437e-01" nType="-99"/>
        </Node>
        <Node pos="r" depth="1" NCoef="0" IVar="1" Cut="2.2627468872070312e+02" cType="1" res="1.6551141440868378e-01" rms="3.8431221246719360e-01" purity="8.0849987268447876e-01" nType="0">
          <Node pos="l" depth="2" NCoef="0" IVar="-1" Cut="0.0000000000000000e+00" cType="1" res="2.8046572697348893e-04" rms="4.3006053566932678e-01" purity="7.4008888006210327e-01" nType="-99"/>
          <Node pos="r" depth="2" NCoef="0" IVar="-1" Cut="0.0000000000000000e+00" cType="1" res="5.0554383778944612e-04" rms="2.6556211709976196e-01" purity="9.2247188091278076e-01" nType="-99"/>
        </Node>
      </Node>
    </BinaryTree>
    <BinaryTree type="DecisionTree" boostWeight="1.0000000000000000e+00" itree="739">
      <Node pos="s" depth="0" NCoef="0" IVar="2" Cut="6.6204593750000000e+04" cType="1" res="6.4894177019596100e-02" rms="4.2149972915649414e-01" purity="5.0321120023727417e-01" nType="0">
        <Node pos="l" depth="1" NCoef="0" IVar="0" Cut="2.5133045390248299e-02" cType="1" res="2.3850955069065094e-02" rms="4.3092706799507141e-01" purity="3.8797599077224731e-01" nType="0">
          <Node pos="l" depth="2" NCoef="0" IVar="-1" Cut="0.0000000000000000e+00" cType="1" res="2.3811701976228505e-04" rms="4.4053947925567627e-01" purity="4.9626594781875610e-01" nType="-99"/>
          <Node pos="r" depth="2" NCoef="0" IVar="-1" Cut="0.0000000000000000e+00" cType="1" res="-1.5953993715811521e-04" rms="4.1654098033905029e-01" purity="3.1730785965919495e-01" nType="-99"/>
        </Node>
        <Node pos="r" depth="1" NCoef="0" IVar="1" Cut="2.3041674804687500e+02" cType="1" res="1.8118664622306824e-01" rms="3.6958807706832886e-01" purity="8.2972019910812378e-01" nType="0">
          <Node pos="l" depth="2" NCoef="0" IVar="-1" Cut="0.0000000000000000e+00" cType="1" res="3.1309947371482849e-04" rms="4.1591066122055054e-01" purity="7.6805126667022705e-01" nType="-99"/>
          <Node pos="r" depth="2" NCoef="0" IVar="-1" Cut="0.0000000000000000e+00" cType="1" res="5.8768852613866329e-04" rms="2.5696533918380737e-01" purity="9.2856854200363159e-01" nType="-99"/>
        </Node>
      </Node>
    </BinaryTree>
    <BinaryTree type="DecisionTree" boostWeight="1.0000000000000000e+00" itree="740">
      <Node pos="s" depth="0" NCoef="0" IVar="2" Cut="1.7942138671875000e+04" cType="1" res="6.7344427108764648e-02" rms="4.1940969228744507e-01" purity="5.0951433181762695e-01" nType="0">
        <Node pos="l" depth="1" NCoef="0" IVar="1" Cut="8.2246269226074219e+01" cType="1" res="-3.3075921237468719e-02" rms="3.9438888430595398e-01" purity="2.7234089374542236e-01" nType="0">
          <Node pos="l" depth="2" NCoef="0" IVar="-1" Cut="0.0000000000000000e+00" cType="1" res="-1.1173874372616410e-03" rms="3.4834280610084534e-01" purity="1.6346246004104614e-01" nType="-99"/>
          <Node pos="r" depth="2" NCoef="0" IVar="-1" Cut="0.0000000000000000e+00" cType="1" res="1.9690407498273998e-04" rms="4.6466919779777527e-01" purity="5.1024186611175537e-01" nType="-99"/>
        </Node>
        <Node pos="r" depth="1" NCoef="0" IVar="0" Cut="2.6167873293161392e-02" cType="1" res="1.1734037846326828e-01" rms="4.2251837253570557e-01" purity="6.2759512662887573e-01" nType="0">
          <Node pos="l" depth="2" NCoef="0" IVar="-1" Cut="0.0000000000000000e+00" cType="1" res="2.5898814783431590e-04" rms="3.4964668750762939e-01" purity="8.5257369279861450e-01" nType="-99"/>
          <Node pos="r" depth="2" NCoef="0" IVar="-1" Cut="0.0000000000000000e+00" cType="1" res="2.0929591846652329e-04" rms="4.2519652843475342e-01" purity="5.7202100753784180e-01" nType="-99"/>
        </Node>
      </Node>
    </BinaryTree>
    <BinaryTree type="DecisionTree" boostWeight="1.0000000000000000e+00" itree="741">
      <Node pos="s" depth="0" NCoef="0" IVar="2" Cut="7.2246000000000000e+04" cType="1" res="5.9638563543558121e-02" rms="4.1656741499900818e-01" purity="5.0182175636291504e-01" nType="0">
        <Node pos="l" depth="1" NCoef="0" IVar="0" Cut="4.9881406128406525e-02" cType="1" res="1.8364923074841499e-02" rms="4.2589345574378967e-01" purity="4.0156108140945435e-01" nType="0">
          <Node pos="l" depth="2" NCoef="0" IVar="-1" Cut="0.0000000000000000e+00" cType="1" res="1.9405268540140241e-04" rms="4.3110415339469910e-01" purity="4.6515935659408569e-01" nType="-99"/>
          <Node pos="r" depth="2" NCoef="0" IVar="-1" Cut="0.0000000000000000e+00" cType="1" res="-6.8441365147009492e-04" rms="3.9415445923805237e-01" purity="2.4823497235774994e-01" nType="-99"/>
        </Node>
        <Node pos="r" depth="1" NCoef="0" IVar="1" Cut="2.0142605590820312e+02" cType="1" res="2.0691141486167908e-01" rms="3.4311205148696899e-01" purity="8.5957241058349609e-01" nType="0">
          <Node pos="l" depth="2" NCoef="0" IVar="-1" Cut="0.0000000000000000e+00" cType="1" res="3.3304851967841387e-04" rms="4.1567057371139526e-01" purity="7.7052730321884155e-01" nType="-99"/>
          <Node pos="r" depth="2" NCoef="0" IVar="-1" Cut="0.0000000000000000e+00" cType="1" res="4.2618176667019725e-04" rms="2.7215734124183655e-01" purity="9.1835832595825195e-01" nType="-99"/>
        </Node>
      </Node>
    </BinaryTree>
    <BinaryTree type="DecisionTree" boostWeight="1.0000000000000000e+00" itree="742">
      <Node pos="s" depth="0" NCoef="0" IVar="1" Cut="2.3301972961425781e+02" cType="1" res="6.6277980804443359e-02" rms="4.1743752360343933e-01" purity="5.0817692279815674e-01" nType="0">
        <Node pos="l" depth="1" NCoef="0" IVar="0" Cut="5.1490433514118195e-02" cType="1" res="3.8176711648702621e-02" rms="4.2707428336143494e-01" purity="4.5003360509872437e-01" nType="0">
          <Node pos="l" depth="2" NCoef="0" IVar="-1" Cut="0.0000000000000000e+00" cType="1" res="2.3352264543063939e-04" rms="4.2510536313056946e-01" purity="5.0595718622207642e-01" nType="-99"/>
          <Node pos="r" depth="2" NCoef="0" IVar="-1" Cut="0.0000000000000000e+00" cType="1" res="-4.6411112998612225e-04" rms="4.1252335906028748e-01" purity="3.1513476371765137e-01" nType="-99"/>
        </Node>
        <Node pos="r" depth="1" NCoef="0" IVar="-1" Cut="0.0000000000000000e+00" cType="1" res="4.4881057692691684e-04" rms="2.7172157168388367e-01" purity="9.1293847560882568e-01" nType="-99"/>
      </Node>
    </BinaryTree>
    <BinaryTree type="DecisionTree" boostWeight="1.0000000000000000e+00" itree="743">
      <Node pos="s" depth="0" NCoef="0" IVar="2" Cut="7.2246000000000000e+04" cType="1" res="6.4337469637393951e-02" rms="4.2190331220626831e-01" purity="5.0233638286590576e-01" nType="0">
        <Node pos="l" depth="1" NCoef="0" IVar="0" Cut="2.5745216757059097e-02" cType="1" res="3.1761515885591507e-02" rms="4.3083098530769348e-01" purity="4.1643783450126648e-01" nType="0">
          <Node pos="l" depth="2" NCoef="0" IVar="-1" Cut="0.0000000000000000e+00" cType="1" res="2.4268230481538922e-04" rms="4.3297636508941650e-01" purity="5.2845156192779541e-01" nType="-99"/>
          <Node pos="r" depth="2" NCoef="0" IVar="-1" Cut="0.0000000000000000e+00" cType="1" res="-1.4667032519355416e-04" rms="4.1903042793273926e-01" purity="3.3998650312423706e-01" nType="-99"/>
        </Node>
        <Node pos="r" depth="1" NCoef="0" IVar="1" Cut="2.2947694396972656e+02" cType="1" res="1.9535256922245026e-01" rms="3.5489648580551147e-01" purity="8.4780621528625488e-01" nType="0">
          <Node pos="l" depth="2" NCoef="0" IVar="-1" Cut="0.0000000000000000e+00" cType="1" res="3.3917473047040403e-04" rms="4.0147399902343750e-01" purity="7.9238271713256836e-01" nType="-99"/>
          <Node pos="r" depth="2" NCoef="0" IVar="-1" Cut="0.0000000000000000e+00" cType="1" res="4.5356643386185169e-04" rms="2.6862552762031555e-01" purity="9.2123156785964966e-01" nType="-99"/>
        </Node>
      </Node>
    </BinaryTree>
    <BinaryTree type="DecisionTree" boostWeight="1.0000000000000000e+00" itree="744">
      <Node pos="s" depth="0" NCoef="0" IVar="1" Cut="1.5836036682128906e+02" cType="1" res="5.6009132415056229e-02" rms="4.1958531737327576e-01" purity="4.9439674615859985e-01" nType="0">
        <Node pos="l" depth="1" NCoef="0" IVar="0" Cut="3.8617823272943497e-02" cType="1" res="3.0334896873682737e-03" rms="4.1923740506172180e-01" purity="3.4057837724685669e-01" nType="0">
          <Node pos="l" depth="2" NCoef="0" IVar="-1" Cut="0.0000000000000000e+00" cType="1" res="2.0577877876348794e-04" rms="4.4238305091857910e-01" purity="4.3447041511535645e-01" nType="-99"/>
          <Node pos="r" depth="2" NCoef="0" IVar="-1" Cut="0.0000000000000000e+00" cType="1" res="-8.3607167471200228e-04" rms="3.6568260192871094e-01" purity="1.9659547507762909e-01" nType="-99"/>
        </Node>
        <Node pos="r" depth="1" NCoef="0" IVar="1" Cut="2.4954165649414062e+02" cType="1" res="1.4988443255424500e-01" rms="4.0346419811248779e-01" purity="7.6697003841400146e-01" nType="0">
          <Node pos="l" depth="2" NCoef="0" IVar="-1" Cut="0.0000000000000000e+00" cType="1" res="2.7648612740449607e-04" rms="4.3524140119552612e-01" purity="7.1387028694152832e-01" nType="-99"/>
          <Node pos="r" depth="2" NCoef="0" IVar="-1" Cut="0.0000000000000000e+00" cType="1" res="5.9870583936572075e-04" rms="2.7043554186820984e-01" purity="9.1425919532775879e-01" nType="-99"/>
        </Node>
      </Node>
    </BinaryTree>
    <BinaryTree type="DecisionTree" boostWeight="1.0000000000000000e+00" itree="745">
      <Node pos="s" depth="0" NCoef="0" IVar="1" Cut="1.5872869873046875e+02" cType="1" res="6.4555548131465912e-02" rms="4.1792103648185730e-01" purity="5.0554239749908447e-01" nType="0">
        <Node pos="l" depth="1" NCoef="0" IVar="0" Cut="3.8101427257061005e-02" cType="1" res="1.0455759242177010e-02" rms="4.1973668336868286e-01" purity="3.5153111815452576e-01" nType="0">
          <Node pos="l" depth="2" NCoef="0" IVar="-1" Cut="0.0000000000000000e+00" cType="1" res="1.7207444761879742e-04" rms="4.3956735730171204e-01" purity="4.4434314966201782e-01" nType="-99"/>
          <Node pos="r" depth="2" NCoef="0" IVar="-1" Cut="0.0000000000000000e+00" cType="1" res="-6.6351401619613171e-04" rms="3.7607803940773010e-01" purity="2.1374163031578064e-01" nType="-99"/>
        </Node>
        <Node pos="r" depth="1" NCoef="0" IVar="1" Cut="2.4987800598144531e+02" cType="1" res="1.6046567261219025e-01" rms="3.9695623517036438e-01" purity="7.7857923507690430e-01" nType="0">
          <Node pos="l" depth="2" NCoef="0" IVar="-1" Cut="0.0000000000000000e+00" cType="1" res="2.4741142988204956e-04" rms="4.2677092552185059e-01" purity="7.3216485977172852e-01" nType="-99"/>
          <Node pos="r" depth="2" NCoef="0" IVar="-1" Cut="0.0000000000000000e+00" cType="1" res="4.8475101357325912e-04" rms="2.7035430073738098e-01" purity="9.1424870491027832e-01" nType="-99"/>
        </Node>
      </Node>
    </BinaryTree>
    <BinaryTree type="DecisionTree" boostWeight="1.0000000000000000e+00" itree="746">
      <Node pos="s" depth="0" NCoef="0" IVar="3" Cut="1.4930736541748047e+01" cType="1" res="5.2981790155172348e-02" rms="4.1541489958763123e-01" purity="4.9304753541946411e-01" nType="0">
        <Node pos="l" depth="1" NCoef="0" IVar="0" Cut="2.1601404994726181e-02" cType="1" res="-3.0380979180335999e-02" rms="3.9624366164207458e-01" purity="2.7909946441650391e-01" nType="0">
          <Node pos="l" depth="2" NCoef="0" IVar="-1" Cut="0.0000000000000000e+00" cType="1" res="2.2197900398168713e-04" rms="4.3514016270637512e-01" purity="4.2070668935775757e-01" nType="-99"/>
          <Node pos="r" depth="2" NCoef="0" IVar="-1" Cut="0.0000000000000000e+00" cType="1" res="-1.1639333097264171e-03" rms="3.4796270728111267e-01" purity="1.6539014875888824e-01" nType="-99"/>
        </Node>
        <Node pos="r" depth="1" NCoef="0" IVar="0" Cut="2.8538977727293968e-02" cType="1" res="1.3108435273170471e-01" rms="4.1777661442756653e-01" purity="6.9349545240402222e-01" nType="0">
          <Node pos="l" depth="2" NCoef="0" IVar="-1" Cut="0.0000000000000000e+00" cType="1" res="5.8408093173056841e-04" rms="2.7955725789070129e-01" purity="9.1077154874801636e-01" nType="-99"/>
          <Node pos="r" depth="2" NCoef="0" IVar="-1" Cut="0.0000000000000000e+00" cType="1" res="2.4803509586490691e-04" rms="4.3373271822929382e-01" purity="6.4871889352798462e-01" nType="-99"/>
        </Node>
      </Node>
    </BinaryTree>
    <BinaryTree type="DecisionTree" boostWeight="1.0000000000000000e+00" itree="747">
      <Node pos="s" depth="0" NCoef="0" IVar="2" Cut="6.1173269531250000e+04" cType="1" res="6.1550825834274292e-02" rms="4.1995602846145630e-01" purity="4.9976828694343567e-01" nType="0">
        <Node pos="l" depth="1" NCoef="0" IVar="0" Cut="5.0801903009414673e-02" cType="1" res="1.4357976615428925e-02" rms="4.2631217837333679e-01" purity="3.6632421612739563e-01" nType="0">
          <Node pos="l" depth="2" NCoef="0" IVar="-1" Cut="0.0000000000000000e+00" cType="1" res="2.1927354100625962e-04" rms="4.3984514474868774e-01" purity="4.3528205156326294e-01" nType="-99"/>
          <Node pos="r" depth="2" NCoef="0" IVar="-1" Cut="0.0000000000000000e+00" cType="1" res="-1.1211738456040621e-03" rms="3.5903272032737732e-01" purity="1.7123198509216309e-01" nType="-99"/>
        </Node>
        <Node pos="r" depth="1" NCoef="0" IVar="1" Cut="2.1564477539062500e+02" cType="1" res="1.7240470647811890e-01" rms="3.8237145543098450e-01" purity="8.1322222948074341e-01" nType="0">
          <Node pos="l" depth="2" NCoef="0" IVar="-1" Cut="0.0000000000000000e+00" cType="1" res="2.7980204322375357e-04" rms="4.2417261004447937e-01" purity="7.5502610206604004e-01" nType="-99"/>
          <Node pos="r" depth="2" NCoef="0" IVar="-1" Cut="0.0000000000000000e+00" cType="1" res="5.0515326438471675e-04" rms="2.8543740510940552e-01" purity="9.0871000289916992e-01" nType="-99"/>
        </Node>
      </Node>
    </BinaryTree>
    <BinaryTree type="DecisionTree" boostWeight="1.0000000000000000e+00" itree="748">
      <Node pos="s" depth="0" NCoef="0" IVar="1" Cut="1.3192247009277344e+02" cType="1" res="5.5035945028066635e-02" rms="4.1606029868125916e-01" purity="4.9510720372200012e-01" nType="0">
        <Node pos="l" depth="1" NCoef="0" IVar="0" Cut="1.2700475752353668e-02" cType="1" res="-2.4450775235891342e-02" rms="3.9712548255920410e-01" purity="2.7223056554794312e-01" nType="0">
          <Node pos="l" depth="2" NCoef="0" IVar="-1" Cut="0.0000000000000000e+00" cType="1" res="2.1980694145895541e-04" rms="4.4527277350425720e-01" purity="4.4382485747337341e-01" nType="-99"/>
          <Node pos="r" depth="2" NCoef="0" IVar="-1" Cut="0.0000000000000000e+00" cType="1" res="-5.9522961964830756e-04" rms="3.6858513951301575e-01" purity="2.1330212056636810e-01" nType="-99"/>
        </Node>
        <Node pos="r" depth="1" NCoef="0" IVar="0" Cut="2.8488764539361000e-02" cType="1" res="1.3860242068767548e-01" rms="4.1912794113159180e-01" purity="7.2942334413528442e-01" nType="0">
          <Node pos="l" depth="2" NCoef="0" IVar="-1" Cut="0.0000000000000000e+00" cType="1" res="4.4646981405094266e-04" rms="3.1540700793266296e-01" purity="8.7501305341720581e-01" nType="-99"/>
          <Node pos="r" depth="2" NCoef="0" IVar="-1" Cut="0.0000000000000000e+00" cType="1" res="2.6840949431061745e-04" rms="4.4113361835479736e-01" purity="6.8068557977676392e-01" nType="-99"/>
        </Node>
      </Node>
    </BinaryTree>
    <BinaryTree type="DecisionTree" boostWeight="1.0000000000000000e+00" itree="749">
      <Node pos="s" depth="0" NCoef="0" IVar="3" Cut="1.2596701622009277e+01" cType="1" res="6.8890884518623352e-02" rms="4.2192116379737854e-01" purity="5.0765836238861084e-01" nType="0">
        <Node pos="l" depth="1" NCoef="0" IVar="0" Cut="2.0980533212423325e-02" cType="1" res="-8.9145274832844734e-03" rms="4.1128319501876831e-01" purity="3.0083250999450684e-01" nType="0">
          <Node pos="l" depth="2" NCoef="0" IVar="-1" Cut="0.0000000000000000e+00" cType="1" res="2.1604108042083681e-04" rms="4.4785353541374207e-01" purity="4.3339982628822327e-01" nType="-99"/>
          <Node pos="r" depth="2" NCoef="0" IVar="-1" Cut="0.0000000000000000e+00" cType="1" res="-8.6429633665829897e-04" rms="3.6344665288925171e-01" purity="1.8912157416343689e-01" nType="-99"/>
        </Node>
        <Node pos="r" depth="1" NCoef="0" IVar="0" Cut="5.6977529078722000e-02" cType="1" res="1.3234876096248627e-01" rms="4.1985988616943359e-01" purity="6.7634505033493042e-01" nType="0">
          <Node pos="l" depth="2" NCoef="0" IVar="-1" Cut="0.0000000000000000e+00" cType="1" res="4.8572177183814347e-04" rms="3.9972382783889771e-01" purity="7.6816838979721069e-01" nType="-99"/>
          <Node pos="r" depth="2" NCoef="0" IVar="-1" Cut="0.0000000000000000e+00" cType="1" res="1.1876977077918127e-04" rms="4.2519757151603699e-01" purity="5.6565517187118530e-01" nType="-99"/>
        </Node>
      </Node>
    </BinaryTree>
    <BinaryTree type="DecisionTree" boostWeight="1.0000000000000000e+00" itree="750">
      <Node pos="s" depth="0" NCoef="0" IVar="3" Cut="1.1949813842773438e+01" cType="1" res="5.2415087819099426e-02" rms="4.1635403037071228e-01" purity="4.9110618233680725e-01" nType="0">
        <Node pos="l" depth="1" NCoef="0" IVar="1" Cut="3.3624347686767578e+01" cType="1" res="-3.1696561723947525e-02" rms="3.9731159806251526e-01" purity="2.7548852562904358e-01" nType="0">
          <Node pos="l" depth="2" NCoef="0" IVar="-1" Cut="0.0000000000000000e+00" cType="1" res="-2.7657777536660433e-03" rms="2.9594552516937256e-01" purity="9.5807164907455444e-02" nType="-99"/>
          <Node pos="r" depth="2" NCoef="0" IVar="-1" Cut="0.0000000000000000e+00" cType="1" res="3.1720974220661446e-05" rms="4.2814293503761292e-01" purity="3.5320103168487549e-01" nType="-99"/>
        </Node>
        <Node pos="r" depth="1" NCoef="0" IVar="0" Cut="3.8617823272943497e-02" cType="1" res="1.1793445050716400e-01" rms="4.1906589269638062e-01" purity="6.5906304121017456e-01" nType="0">
          <Node pos="l" depth="2" NCoef="0" IVar="-1" Cut="0.0000000000000000e+00" cType="1" res="4.2792144813574851e-04" rms="3.4549736976623535e-01" purity="8.4694808721542358e-01" nType="-99"/>
          <Node pos="r" depth="2" NCoef="0" IVar="-1" Cut="0.0000000000000000e+00" cType="1" res="1.6943701484706253e-04" rms="4.3583014607429504e-01" purity="5.6714254617691040e-01" nType="-99"/>
        </Node>
      </Node>
    </BinaryTree>
    <BinaryTree type="DecisionTree" boostWeight="1.0000000000000000e+00" itree="751">
      <Node pos="s" depth="0" NCoef="0" IVar="3" Cut="1.4930736541748047e+01" cType="1" res="4.5653082430362701e-02" rms="4.1577568650245667e-01" purity="4.8538616299629211e-01" nType="0">
        <Node pos="l" depth="1" NCoef="0" IVar="0" Cut="1.0800702497363091e-02" cType="1" res="-2.5310747325420380e-02" rms="4.0088751912117004e-01" purity="2.8452438116073608e-01" nType="0">
          <Node pos="l" depth="2" NCoef="0" IVar="-1" Cut="0.0000000000000000e+00" cType="1" res="1.4727565576322377e-04" rms="4.4482207298278809e-01" purity="4.5588010549545288e-01" nType="-99"/>
          <Node pos="r" depth="2" NCoef="0" IVar="-1" Cut="0.0000000000000000e+00" cType="1" res="-5.2958243759348989e-04" rms="3.7408667802810669e-01" purity="2.2814232110977173e-01" nType="-99"/>
        </Node>
        <Node pos="r" depth="1" NCoef="0" IVar="0" Cut="4.2733144015073776e-02" cType="1" res="1.1460566520690918e-01" rms="4.1837283968925476e-01" purity="6.8055522441864014e-01" nType="0">
          <Node pos="l" depth="2" NCoef="0" IVar="-1" Cut="0.0000000000000000e+00" cType="1" res="4.9794238293543458e-04" rms="3.4555920958518982e-01" purity="8.4835332632064819e-01" nType="-99"/>
          <Node pos="r" depth="2" NCoef="0" IVar="-1" Cut="0.0000000000000000e+00" cType="1" res="1.2406481255311519e-04" rms="4.4026869535446167e-01" purity="5.7920998334884644e-01" nType="-99"/>
        </Node>
      </Node>
    </BinaryTree>
    <BinaryTree type="DecisionTree" boostWeight="1.0000000000000000e+00" itree="752">
      <Node pos="s" depth="0" NCoef="0" IVar="2" Cut="6.1173269531250000e+04" cType="1" res="5.8235503733158112e-02" rms="4.1379508376121521e-01" purity="5.0196182727813721e-01" nType="0">
        <Node pos="l" depth="1" NCoef="0" IVar="0" Cut="2.5400951504707336e-02" cType="1" res="4.0227482095360756e-03" rms="4.1872704029083252e-01" purity="3.5663458704948425e-01" nType="0">
          <Node pos="l" depth="2" NCoef="0" IVar="-1" Cut="0.0000000000000000e+00" cType="1" res="2.7828649035654962e-04" rms="4.3548530340194702e-01" purity="4.6756771206855774e-01" nType="-99"/>
          <Node pos="r" depth="2" NCoef="0" IVar="-1" Cut="0.0000000000000000e+00" cType="1" res="-2.6159625849686563e-04" rms="3.9940926432609558e-01" purity="2.8100040555000305e-01" nType="-99"/>
        </Node>
        <Node pos="r" depth="1" NCoef="0" IVar="1" Cut="2.2188191223144531e+02" cType="1" res="1.7684240639209747e-01" rms="3.7649133801460266e-01" purity="8.1990951299667358e-01" nType="0">
          <Node pos="l" depth="2" NCoef="0" IVar="-1" Cut="0.0000000000000000e+00" cType="1" res="2.8843575273640454e-04" rms="4.2479908466339111e-01" purity="7.5287461280822754e-01" nType="-99"/>
          <Node pos="r" depth="2" NCoef="0" IVar="-1" Cut="0.0000000000000000e+00" cType="1" res="4.1471712756901979e-04" rms="2.6304277777671814e-01" purity="9.2412561178207397e-01" nType="-99"/>
        </Node>
      </Node>
    </BinaryTree>
    <BinaryTree type="DecisionTree" boostWeight="1.0000000000000000e+00" itree="753">
      <Node pos="s" depth="0" NCoef="0" IVar="3" Cut="1.3542619705200195e+01" cType="1" res="5.3657662123441696e-02" rms="4.1766631603240967e-01" purity="4.9234467744827271e-01" nType="0">
        <Node pos="l" depth="1" NCoef="0" IVar="0" Cut="1.2183989398181438e-02" cType="1" res="-2.3932868614792824e-02" rms="4.0328684449195862e-01" purity="2.8350415825843811e-01" nType="0">
          <Node pos="l" depth="2" NCoef="0" IVar="-1" Cut="0.0000000000000000e+00" cType="1" res="1.8914013344328851e-04" rms="4.3774175643920898e-01" purity="4.4514489173889160e-01" nType="-99"/>
          <Node pos="r" depth="2" NCoef="0" IVar="-1" Cut="0.0000000000000000e+00" cType="1" res="-5.1652058027684689e-04" rms="3.7869945168495178e-01" purity="2.1978797018527985e-01" nType="-99"/>
        </Node>
        <Node pos="r" depth="1" NCoef="0" IVar="0" Cut="4.1392721235752106e-02" cType="1" res="1.2219541519880295e-01" rms="4.1815954446792603e-01" purity="6.7681890726089478e-01" nType="0">
          <Node pos="l" depth="2" NCoef="0" IVar="-1" Cut="0.0000000000000000e+00" cType="1" res="4.4478671043179929e-04" rms="3.4981873631477356e-01" purity="8.4488183259963989e-01" nType="-99"/>
          <Node pos="r" depth="2" NCoef="0" IVar="-1" Cut="0.0000000000000000e+00" cType="1" res="1.5308301954064518e-04" rms="4.3733397126197815e-01" purity="5.8374381065368652e-01" nType="-99"/>
        </Node>
      </Node>
    </BinaryTree>
    <BinaryTree type="DecisionTree" boostWeight="1.0000000000000000e+00" itree="754">
      <Node pos="s" depth="0" NCoef="0" IVar="2" Cut="3.5598781250000000e+04" cType="1" res="4.1920430958271027e-02" rms="4.1974657773971558e-01" purity="4.7587755322456360e-01" nType="0">
        <Node pos="l" depth="1" NCoef="0" IVar="1" Cut="3.8584842681884766e+01" cType="1" res="-2.1489927545189857e-02" rms="4.0491974353790283e-01" purity="2.8663668036460876e-01" nType="0">
          <Node pos="l" depth="2" NCoef="0" IVar="-1" Cut="0.0000000000000000e+00" cType="1" res="-2.5294586084783077e-03" rms="2.9423028230667114e-01" purity="9.9499598145484924e-02" nType="-99"/>
          <Node pos="r" depth="2" NCoef="0" IVar="-1" Cut="0.0000000000000000e+00" cType="1" res="7.3250703280791640e-05" rms="4.3553838133811951e-01" purity="3.6050838232040405e-01" nType="-99"/>
        </Node>
        <Node pos="r" depth="1" NCoef="0" IVar="0" Cut="4.1265200823545456e-02" cType="1" res="1.1707891523838043e-01" rms="4.2457637190818787e-01" purity="7.0017939805984497e-01" nType="0">
          <Node pos="l" depth="2" NCoef="0" IVar="-1" Cut="0.0000000000000000e+00" cType="1" res="5.1833683392032981e-04" rms="3.4026196599006653e-01" purity="8.5917985439300537e-01" nType="-99"/>
          <Node pos="r" depth="2" NCoef="0" IVar="-1" Cut="0.0000000000000000e+00" cType="1" res="1.7854986072052270e-04" rms="4.5164334774017334e-01" purity="6.1322623491287231e-01" nType="-99"/>
        </Node>
      </Node>
    </BinaryTree>
    <BinaryTree type="DecisionTree" boostWeight="1.0000000000000000e+00" itree="755">
      <Node pos="s" depth="0" NCoef="0" IVar="2" Cut="3.6123000000000000e+04" cType="1" res="6.6796869039535522e-02" rms="4.1851267218589783e-01" purity="5.0740927457809448e-01" nType="0">
        <Node pos="l" depth="1" NCoef="0" IVar="1" Cut="3.8498767852783203e+01" cType="1" res="1.0131703456863761e-03" rms="4.1171935200691223e-01" purity="3.1656062602996826e-01" nType="0">
          <Node pos="l" depth="2" NCoef="0" IVar="-1" Cut="0.0000000000000000e+00" cType="1" res="-1.5803588321432471e-03" rms="3.1502297520637512e-01" purity="1.1499775946140289e-01" nType="-99"/>
          <Node pos="r" depth="2" NCoef="0" IVar="-1" Cut="0.0000000000000000e+00" cType="1" res="1.6666426381561905e-04" rms="4.3687665462493896e-01" purity="3.9295107126235962e-01" nType="-99"/>
        </Node>
        <Node pos="r" depth="1" NCoef="0" IVar="0" Cut="4.1371610015630722e-02" cType="1" res="1.4361296594142914e-01" rms="4.1326114535331726e-01" purity="7.3026460409164429e-01" nType="0">
          <Node pos="l" depth="2" NCoef="0" IVar="-1" Cut="0.0000000000000000e+00" cType="1" res="4.8758927732706070e-04" rms="3.2797047495841980e-01" purity="8.7295734882354736e-01" nType="-99"/>
          <Node pos="r" depth="2" NCoef="0" IVar="-1" Cut="0.0000000000000000e+00" cType="1" res="2.2767620976082981e-04" rms="4.4159874320030212e-01" purity="6.5535235404968262e-01" nType="-99"/>
        </Node>
      </Node>
    </BinaryTree>
    <BinaryTree type="DecisionTree" boostWeight="1.0000000000000000e+00" itree="756">
      <Node pos="s" depth="0" NCoef="0" IVar="2" Cut="2.2068197265625000e+04" cType="1" res="5.9771247208118439e-02" rms="4.1900759935379028e-01" purity="4.9946415424346924e-01" nType="0">
        <Node pos="l" depth="1" NCoef="0" IVar="0" Cut="1.2088770978152752e-02" cType="1" res="-3.1755100935697556e-02" rms="3.9787051081657410e-01" purity="2.6817801594734192e-01" nType="0">
          <Node pos="l" depth="2" NCoef="0" IVar="-1" Cut="0.0000000000000000e+00" cType="1" res="2.4670598213560879e-04" rms="4.4005566835403442e-01" purity="4.0141573548316956e-01" nType="-99"/>
          <Node pos="r" depth="2" NCoef="0" IVar="-1" Cut="0.0000000000000000e+00" cType="1" res="-5.5643962696194649e-04" rms="3.7065988779067993e-01" purity="2.1155780553817749e-01" nType="-99"/>
        </Node>
        <Node pos="r" depth="1" NCoef="0" IVar="0" Cut="4.1265200823545456e-02" cType="1" res="1.1987123638391495e-01" rms="4.2165443301200867e-01" purity="6.5133613348007202e-01" nType="0">
          <Node pos="l" depth="2" NCoef="0" IVar="-1" Cut="0.0000000000000000e+00" cType="1" res="4.9662590026855469e-04" rms="3.7196704745292664e-01" purity="8.0209499597549438e-01" nType="-99"/>
          <Node pos="r" depth="2" NCoef="0" IVar="-1" Cut="0.0000000000000000e+00" cType="1" res="1.6734268865548074e-04" rms="4.3700417876243591e-01" purity="5.6112098693847656e-01" nType="-99"/>
        </Node>
      </Node>
    </BinaryTree>
    <BinaryTree type="DecisionTree" boostWeight="1.0000000000000000e+00" itree="757">
      <Node pos="s" depth="0" NCoef="0" IVar="3" Cut="1.4930736541748047e+01" cType="1" res="5.5068742483854294e-02" rms="4.1804888844490051e-01" purity="4.9267569184303284e-01" nType="0">
        <Node pos="l" depth="1" NCoef="0" IVar="0" Cut="1.0038150474429131e-02" cType="1" res="-1.6595965251326561e-02" rms="4.0332025289535522e-01" purity="2.9351985454559326e-01" nType="0">
          <Node pos="l" depth="2" NCoef="0" IVar="-1" Cut="0.0000000000000000e+00" cType="1" res="2.1759312949143350e-04" rms="4.3761339783668518e-01" purity="4.5579701662063599e-01" nType="-99"/>
          <Node pos="r" depth="2" NCoef="0" IVar="-1" Cut="0.0000000000000000e+00" cType="1" res="-3.4299184335395694e-04" rms="3.8470569252967834e-01" purity="2.4616129696369171e-01" nType="-99"/>
        </Node>
        <Node pos="r" depth="1" NCoef="0" IVar="0" Cut="3.9179917424917221e-02" cType="1" res="1.2483213096857071e-01" rms="4.2032730579376221e-01" purity="6.8654781579971313e-01" nType="0">
          <Node pos="l" depth="2" NCoef="0" IVar="-1" Cut="0.0000000000000000e+00" cType="1" res="4.9981317715719342e-04" rms="3.2924357056617737e-01" purity="8.6940169334411621e-01" nType="-99"/>
          <Node pos="r" depth="2" NCoef="0" IVar="-1" Cut="0.0000000000000000e+00" cType="1" res="1.7991820641327649e-04" rms="4.4504007697105408e-01" purity="5.9513771533966064e-01" nType="-99"/>
        </Node>
      </Node>
    </BinaryTree>
    <BinaryTree type="DecisionTree" boostWeight="1.0000000000000000e+00" itree="758">
      <Node pos="s" depth="0" NCoef="0" IVar="1" Cut="1.0533761596679688e+02" cType="1" res="7.3134966194629669e-02" rms="4.2031681537628174e-01" purity="5.1343512535095215e-01" nType="0">
        <Node pos="l" depth="1" NCoef="0" IVar="1" Cut="3.9495250701904297e+01" cType="1" res="-8.8814217597246170e-03" rms="3.9962100982666016e-01" purity="2.6016929745674133e-01" nType="0">
          <Node pos="l" depth="2" NCoef="0" IVar="-1" Cut="0.0000000000000000e+00" cType="1" res="-7.6755858026444912e-04" rms="3.3034262061119080e-01" purity="1.3196487724781036e-01" nType="-99"/>
          <Node pos="r" depth="2" NCoef="0" IVar="-1" Cut="0.0000000000000000e+00" cType="1" res="1.5219471242744476e-04" rms="4.2916914820671082e-01" purity="3.3548575639724731e-01" nType="-99"/>
        </Node>
        <Node pos="r" depth="1" NCoef="0" IVar="0" Cut="4.1265200823545456e-02" cType="1" res="1.3023853302001953e-01" rms="4.2489618062973022e-01" purity="6.8977046012878418e-01" nType="0">
          <Node pos="l" depth="2" NCoef="0" IVar="-1" Cut="0.0000000000000000e+00" cType="1" res="3.5787091474048793e-04" rms="3.8595098257064819e-01" purity="7.9001122713088989e-01" nType="-99"/>
          <Node pos="r" depth="2" NCoef="0" IVar="-1" Cut="0.0000000000000000e+00" cType="1" res="1.8295533664058894e-04" rms="4.4313645362854004e-01" purity="6.1024278402328491e-01" nType="-99"/>
        </Node>
      </Node>
    </BinaryTree>
    <BinaryTree type="DecisionTree" boostWeight="1.0000000000000000e+00" itree="759">
      <Node pos="s" depth="0" NCoef="0" IVar="1" Cut="1.3967222595214844e+02" cType="1" res="5.5624403059482574e-02" rms="4.1559085249900818e-01" purity="4.9762806296348572e-01" nType="0">
        <Node pos="l" depth="1" NCoef="0" IVar="1" Cut="5.2781982421875000e+01" cType="1" res="-1.1134259402751923e-02" rms="4.0437516570091248e-01" purity="2.9650938510894775e-01" nType="0">
          <Node pos="l" depth="2" NCoef="0" IVar="-1" Cut="0.0000000000000000e+00" cType="1" res="-1.5711118467152119e-03" rms="3.2851988077163696e-01" purity="1.2914384901523590e-01" nType="-99"/>
          <Node pos="r" depth="2" NCoef="0" IVar="-1" Cut="0.0000000000000000e+00" cType="1" res="1.3528083218261600e-04" rms="4.3498149514198303e-01" purity="3.8818100094795227e-01" nType="-99"/>
        </Node>
        <Node pos="r" depth="1" NCoef="0" IVar="1" Cut="2.5998254394531250e+02" cType="1" res="1.3594189286231995e-01" rms="4.1468942165374756e-01" purity="7.3959445953369141e-01" nType="0">
          <Node pos="l" depth="2" NCoef="0" IVar="-1" Cut="0.0000000000000000e+00" cType="1" res="2.4915486574172974e-04" rms="4.4063818454742432e-01" purity="6.9174140691757202e-01" nType="-99"/>
          <Node pos="r" depth="2" NCoef="0" IVar="-1" Cut="0.0000000000000000e+00" cType="1" res="5.6204514112323523e-04" rms="2.5079783797264099e-01" purity="9.2782199382781982e-01" nType="-99"/>
        </Node>
      </Node>
    </BinaryTree>
    <BinaryTree type="DecisionTree" boostWeight="1.0000000000000000e+00" itree="760">
      <Node pos="s" depth="0" NCoef="0" IVar="1" Cut="1.0517140960693359e+02" cType="1" res="6.0238391160964966e-02" rms="4.1855734586715698e-01" purity="4.9853539466857910e-01" nType="0">
        <Node pos="l" depth="1" NCoef="0" IVar="0" Cut="1.2183989398181438e-02" cType="1" res="-2.4140328168869019e-02" rms="3.9042830467224121e-01" purity="2.4425165355205536e-01" nType="0">
          <Node pos="l" depth="2" NCoef="0" IVar="-1" Cut="0.0000000000000000e+00" cType="1" res="1.4818862837273628e-04" rms="4.5001438260078430e-01" purity="3.9768749475479126e-01" nType="-99"/>
          <Node pos="r" depth="2" NCoef="0" IVar="-1" Cut="0.0000000000000000e+00" cType="1" res="-7.0174224674701691e-04" rms="3.5665115714073181e-01" purity="1.8641313910484314e-01" nType="-99"/>
        </Node>
        <Node pos="r" depth="1" NCoef="0" IVar="0" Cut="4.2733144015073776e-02" cType="1" res="1.1998004466295242e-01" rms="4.2742475867271423e-01" purity="6.7857283353805542e-01" nType="0">
          <Node pos="l" depth="2" NCoef="0" IVar="-1" Cut="0.0000000000000000e+00" cType="1" res="3.5002504591830075e-04" rms="3.9350911974906921e-01" purity="7.7730250358581543e-01" nType="-99"/>
          <Node pos="r" depth="2" NCoef="0" IVar="-1" Cut="0.0000000000000000e+00" cType="1" res="1.8344038107898086e-04" rms="4.4301933050155640e-01" purity="5.9504771232604980e-01" nType="-99"/>
        </Node>
      </Node>
    </BinaryTree>
    <BinaryTree type="DecisionTree" boostWeight="1.0000000000000000e+00" itree="761">
      <Node pos="s" depth="0" NCoef="0" IVar="1" Cut="9.1298477172851562e+01" cType="1" res="6.8209990859031677e-02" rms="4.2010092735290527e-01" purity="5.0833886861801147e-01" nType="0">
        <Node pos="l" depth="1" NCoef="0" IVar="0" Cut="1.1172619648277760e-02" cType="1" res="-1.9392007961869240e-02" rms="3.8655591011047363e-01" purity="2.3944753408432007e-01" nType="0">
          <Node pos="l" depth="2" NCoef="0" IVar="-1" Cut="0.0000000000000000e+00" cType="1" res="1.9389810040593147e-04" rms="4.5628127455711365e-01" purity="4.1203528642654419e-01" nType="-99"/>
          <Node pos="r" depth="2" NCoef="0" IVar="-1" Cut="0.0000000000000000e+00" cType="1" res="-5.2085507195442915e-04" rms="3.4170213341712952e-01" purity="1.7068001627922058e-01" nType="-99"/>
        </Node>
        <Node pos="r" depth="1" NCoef="0" IVar="0" Cut="2.8488764539361000e-02" cType="1" res="1.1712623387575150e-01" rms="4.3001922965049744e-01" purity="6.5848565101623535e-01" nType="0">
          <Node pos="l" depth="2" NCoef="0" IVar="-1" Cut="0.0000000000000000e+00" cType="1" res="4.1987720760516822e-04" rms="3.7053954601287842e-01" purity="8.1249260902404785e-01" nType="-99"/>
          <Node pos="r" depth="2" NCoef="0" IVar="-1" Cut="0.0000000000000000e+00" cType="1" res="2.0909078011754900e-04" rms="4.4229990243911743e-01" purity="6.0053938627243042e-01" nType="-99"/>
        </Node>
      </Node>
    </BinaryTree>
    <BinaryTree type="DecisionTree" boostWeight="1.0000000000000000e+00" itree="762">
      <Node pos="s" depth="0" NCoef="0" IVar="2" Cut="6.6204593750000000e+04" cType="1" res="5.7369194924831390e-02" rms="4.1597074270248413e-01" purity="4.9921920895576477e-01" nType="0">
        <Node pos="l" depth="1" NCoef="0" IVar="0" Cut="3.7466101348400116e-02" cType="1" res="1.4727585949003696e-02" rms="4.2292726039886475e-01" purity="3.8191273808479309e-01" nType="0">
          <Node pos="l" depth="2" NCoef="0" IVar="-1" Cut="0.0000000000000000e+00" cType="1" res="2.3113365750759840e-04" rms="4.3585065007209778e-01" purity="4.7483035922050476e-01" nType="-99"/>
          <Node pos="r" depth="2" NCoef="0" IVar="-1" Cut="0.0000000000000000e+00" cType="1" res="-4.5448995660990477e-04" rms="3.9233186841011047e-01" purity="2.5511795282363892e-01" nType="-99"/>
        </Node>
        <Node pos="r" depth="1" NCoef="0" IVar="1" Cut="1.9695610046386719e+02" cType="1" res="1.7712287604808807e-01" rms="3.7039855122566223e-01" purity="8.2865995168685913e-01" nType="0">
          <Node pos="l" depth="2" NCoef="0" IVar="-1" Cut="0.0000000000000000e+00" cType="1" res="2.8334427042864263e-04" rms="4.1439890861511230e-01" purity="7.6844006776809692e-01" nType="-99"/>
          <Node pos="r" depth="2" NCoef="0" IVar="-1" Cut="0.0000000000000000e+00" cType="1" res="4.0444231126457453e-04" rms="3.0884939432144165e-01" purity="8.9116412401199341e-01" nType="-99"/>
        </Node>
      </Node>
    </BinaryTree>
    <BinaryTree type="DecisionTree" boostWeight="1.0000000000000000e+00" itree="763">
      <Node pos="s" depth="0" NCoef="0" IVar="2" Cut="6.6204593750000000e+04" cType="1" res="7.0205375552177429e-02" rms="4.1722753643989563e-01" purity="5.1232808828353882e-01" nType="0">
        <Node pos="l" depth="1" NCoef="0" IVar="0" Cut="5.0030406564474106e-02" cType="1" res="3.1024986878037453e-02" rms="4.2656648159027100e-01" purity="3.9978721737861633e-01" nType="0">
          <Node pos="l" depth="2" NCoef="0" IVar="-1" Cut="0.0000000000000000e+00" cType="1" res="2.0438537467271090e-04" rms="4.3629887700080872e-01" purity="4.6896171569824219e-01" nType="-99"/>
          <Node pos="r" depth="2" NCoef="0" IVar="-1" Cut="0.0000000000000000e+00" cType="1" res="-6.9664703914895654e-04" rms="3.7401351332664490e-01" purity="2.1672257781028748e-01" nType="-99"/>
        </Node>
        <Node pos="r" depth="1" NCoef="0" IVar="1" Cut="2.3110444641113281e+02" cType="1" res="1.8183504045009613e-01" rms="3.6714091897010803e-01" purity="8.3297073841094971e-01" nType="0">
          <Node pos="l" depth="2" NCoef="0" IVar="-1" Cut="0.0000000000000000e+00" cType="1" res="3.2440375071018934e-04" rms="4.1097819805145264e-01" purity="7.7675747871398926e-01" nType="-99"/>
          <Node pos="r" depth="2" NCoef="0" IVar="-1" Cut="0.0000000000000000e+00" cType="1" res="4.5502456487156451e-04" rms="2.5860741734504700e-01" purity="9.2755532264709473e-01" nType="-99"/>
        </Node>
      </Node>
    </BinaryTree>
    <BinaryTree type="DecisionTree" boostWeight="1.0000000000000000e+00" itree="764">
      <Node pos="s" depth="0" NCoef="0" IVar="3" Cut="1.4930736541748047e+01" cType="1" res="7.3065109550952911e-02" rms="4.2175760865211487e-01" purity="5.1161366701126099e-01" nType="0">
        <Node pos="l" depth="1" NCoef="0" IVar="0" Cut="1.0800702497363091e-02" cType="1" res="1.0716412216424942e-02" rms="4.1799181699752808e-01" purity="3.2224866747856140e-01" nType="0">
          <Node pos="l" depth="2" NCoef="0" IVar="-1" Cut="0.0000000000000000e+00" cType="1" res="2.3812700237613171e-04" rms="4.4588837027549744e-01" purity="4.7846311330795288e-01" nType="-99"/>
          <Node pos="r" depth="2" NCoef="0" IVar="-1" Cut="0.0000000000000000e+00" cType="1" res="-1.3958117051515728e-04" rms="4.0095895528793335e-01" purity="2.7292531728744507e-01" nType="-99"/>
        </Node>
        <Node pos="r" depth="1" NCoef="0" IVar="0" Cut="5.5020269006490707e-02" cType="1" res="1.3432668149471283e-01" rms="4.1643020510673523e-01" purity="6.9767689704895020e-01" nType="0">
          <Node pos="l" depth="2" NCoef="0" IVar="-1" Cut="0.0000000000000000e+00" cType="1" res="4.7084083780646324e-04" rms="3.7771418690681458e-01" purity="8.0237758159637451e-01" nType="-99"/>
          <Node pos="r" depth="2" NCoef="0" IVar="-1" Cut="0.0000000000000000e+00" cType="1" res="1.5463589807040989e-04" rms="4.3897169828414917e-01" purity="5.7889407873153687e-01" nType="-99"/>
        </Node>
      </Node>
    </BinaryTree>
    <BinaryTree type="DecisionTree" boostWeight="1.0000000000000000e+00" itree="765">
      <Node pos="s" depth="0" NCoef="0" IVar="1" Cut="1.0525318145751953e+02" cType="1" res="6.5429076552391052e-02" rms="4.1898331046104431e-01" purity="5.0546634197235107e-01" nType="0">
        <Node pos="l" depth="1" NCoef="0" IVar="0" Cut="1.2566522695124149e-02" cType="1" res="-1.4523579739034176e-02" rms="3.9395499229431152e-01" purity="2.5575470924377441e-01" nType="0">
          <Node pos="l" depth="2" NCoef="0" IVar="-1" Cut="0.0000000000000000e+00" cType="1" res="2.6844991953112185e-04" rms="4.4322863221168518e-01" purity="3.8761076331138611e-01" nType="-99"/>
          <Node pos="r" depth="2" NCoef="0" IVar="-1" Cut="0.0000000000000000e+00" cType="1" res="-2.5851040845736861e-04" rms="3.6888936161994934e-01" purity="2.0681783556938171e-01" nType="-99"/>
        </Node>
        <Node pos="r" depth="1" NCoef="0" IVar="0" Cut="4.2733144015073776e-02" cType="1" res="1.2179887294769287e-01" rms="4.2685782909393311e-01" purity="6.8152290582656860e-01" nType="0">
          <Node pos="l" depth="2" NCoef="0" IVar="-1" Cut="0.0000000000000000e+00" cType="1" res="4.0276694926433265e-04" rms="3.9059591293334961e-01" purity="7.8180164098739624e-01" nType="-99"/>
          <Node pos="r" depth="2" NCoef="0" IVar="-1" Cut="0.0000000000000000e+00" cType="1" res="1.4568616461474448e-04" rms="4.4438117742538452e-01" purity="5.9208160638809204e-01" nType="-99"/>
        </Node>
      </Node>
    </BinaryTree>
    <BinaryTree type="DecisionTree" boostWeight="1.0000000000000000e+00" itree="766">
      <Node pos="s" depth="0" NCoef="0" IVar="2" Cut="6.6204593750000000e+04" cType="1" res="6.6727384924888611e-02" rms="4.1426250338554382e-01" purity="5.1125699281692505e-01" nType="0">
        <Node pos="l" depth="1" NCoef="0" IVar="0" Cut="3.8101427257061005e-02" cType="1" res="2.2447945550084114e-02" rms="4.2353770136833191e-01" purity="3.9014500379562378e-01" nType="0">
          <Node pos="l" depth="2" NCoef="0" IVar="-1" Cut="0.0000000000000000e+00" cType="1" res="2.5689223548397422e-04" rms="4.3771669268608093e-01" purity="4.8992934823036194e-01" nType="-99"/>
          <Node pos="r" depth="2" NCoef="0" IVar="-1" Cut="0.0000000000000000e+00" cType="1" res="-4.7456461470574141e-04" rms="3.8408890366554260e-01" purity="2.4390470981597900e-01" nType="-99"/>
        </Node>
        <Node pos="r" depth="1" NCoef="0" IVar="1" Cut="2.2618206787109375e+02" cType="1" res="1.8635196983814240e-01" rms="3.6195728182792664e-01" purity="8.3845126628875732e-01" nType="0">
          <Node pos="l" depth="2" NCoef="0" IVar="-1" Cut="0.0000000000000000e+00" cType="1" res="2.6950443862006068e-04" rms="4.1344612836837769e-01" purity="7.7283734083175659e-01" nType="-99"/>
          <Node pos="r" depth="2" NCoef="0" IVar="-1" Cut="0.0000000000000000e+00" cType="1" res="4.2232728446833789e-04" rms="2.5065684318542480e-01" purity="9.3211704492568970e-01" nType="-99"/>
        </Node>
      </Node>
    </BinaryTree>
    <BinaryTree type="DecisionTree" boostWeight="1.0000000000000000e+00" itree="767">
      <Node pos="s" depth="0" NCoef="0" IVar="2" Cut="5.4184500000000000e+04" cType="1" res="6.3139714300632477e-02" rms="4.1976496577262878e-01" purity="5.0328212976455688e-01" nType="0">
        <Node pos="l" depth="1" NCoef="0" IVar="0" Cut="1.2566522695124149e-02" cType="1" res="1.3252010568976402e-02" rms="4.2547163367271423e-01" purity="3.4927383065223694e-01" nType="0">
          <Node pos="l" depth="2" NCoef="0" IVar="-1" Cut="0.0000000000000000e+00" cType="1" res="1.7892608593683690e-04" rms="4.4971179962158203e-01" purity="4.8665449023246765e-01" nType="-99"/>
          <Node pos="r" depth="2" NCoef="0" IVar="-1" Cut="0.0000000000000000e+00" cType="1" res="-1.0169399320147932e-04" rms="4.1216832399368286e-01" purity="3.1107872724533081e-01" nType="-99"/>
        </Node>
        <Node pos="r" depth="1" NCoef="0" IVar="1" Cut="2.4399609375000000e+02" cType="1" res="1.5653437376022339e-01" rms="3.9216172695159912e-01" purity="7.9160070419311523e-01" nType="0">
          <Node pos="l" depth="2" NCoef="0" IVar="-1" Cut="0.0000000000000000e+00" cType="1" res="2.5892531266435981e-04" rms="4.2540928721427917e-01" purity="7.4027925729751587e-01" nType="-99"/>
          <Node pos="r" depth="2" NCoef="0" IVar="-1" Cut="0.0000000000000000e+00" cType="1" res="6.2409677775576711e-04" rms="2.5317415595054626e-01" purity="9.3013370037078857e-01" nType="-99"/>
        </Node>
      </Node>
    </BinaryTree>
    <BinaryTree type="DecisionTree" boostWeight="1.0000000000000000e+00" itree="768">
      <Node pos="s" depth="0" NCoef="0" IVar="2" Cut="3.6123000000000000e+04" cType="1" res="5.0710018724203110e-02" rms="4.1532474756240845e-01" purity="4.9206966161727905e-01" nType="0">
        <Node pos="l" depth="1" NCoef="0" IVar="0" Cut="2.5085821747779846e-02" cType="1" res="-2.1445784717798233e-02" rms="4.0117833018302917e-01" purity="2.9103836417198181e-01" nType="0">
          <Node pos="l" depth="2" NCoef="0" IVar="-1" Cut="0.0000000000000000e+00" cType="1" res="1.8275951151736081e-04" rms="4.4020253419876099e-01" purity="4.2007836699485779e-01" nType="-99"/>
          <Node pos="r" depth="2" NCoef="0" IVar="-1" Cut="0.0000000000000000e+00" cType="1" res="-9.9515821784734726e-04" rms="3.4990563988685608e-01" purity="1.7464126646518707e-01" nType="-99"/>
        </Node>
        <Node pos="r" depth="1" NCoef="0" IVar="0" Cut="3.9660222828388214e-02" cType="1" res="1.3315773010253906e-01" rms="4.1586780548095703e-01" purity="7.2177499532699585e-01" nType="0">
          <Node pos="l" depth="2" NCoef="0" IVar="-1" Cut="0.0000000000000000e+00" cType="1" res="4.5471853809431195e-04" rms="3.2777091860771179e-01" purity="8.7224048376083374e-01" nType="-99"/>
          <Node pos="r" depth="2" NCoef="0" IVar="-1" Cut="0.0000000000000000e+00" cType="1" res="2.2282400459516793e-04" rms="4.4301405549049377e-01" purity="6.4787322282791138e-01" nType="-99"/>
        </Node>
      </Node>
    </BinaryTree>
    <BinaryTree type="DecisionTree" boostWeight="1.0000000000000000e+00" itree="769">
      <Node pos="s" depth="0" NCoef="0" IVar="3" Cut="1.4930736541748047e+01" cType="1" res="5.2932731807231903e-02" rms="4.1501921415328979e-01" purity="4.9314829707145691e-01" nType="0">
        <Node pos="l" depth="1" NCoef="0" IVar="0" Cut="2.1601404994726181e-02" cType="1" res="-3.1962573528289795e-02" rms="3.9826872944831848e-01" purity="2.7355897426605225e-01" nType="0">
          <Node pos="l" depth="2" NCoef="0" IVar="-1" Cut="0.0000000000000000e+00" cType="1" res="1.9048177637159824e-04" rms="4.3688452243804932e-01" purity="4.0751928091049194e-01" nType="-99"/>
          <Node pos="r" depth="2" NCoef="0" IVar="-1" Cut="0.0000000000000000e+00" cType="1" res="-9.0462650405243039e-04" rms="3.5161408782005310e-01" purity="1.6593107581138611e-01" nType="-99"/>
        </Node>
        <Node pos="r" depth="1" NCoef="0" IVar="0" Cut="4.2780715972185135e-02" cType="1" res="1.3157519698143005e-01" rms="4.1472822427749634e-01" purity="6.9656407833099365e-01" nType="0">
          <Node pos="l" depth="2" NCoef="0" IVar="-1" Cut="0.0000000000000000e+00" cType="1" res="4.8087016330100596e-04" rms="3.4685128927230835e-01" purity="8.4735435247421265e-01" nType="-99"/>
          <Node pos="r" depth="2" NCoef="0" IVar="-1" Cut="0.0000000000000000e+00" cType="1" res="1.9269909535069019e-04" rms="4.3769577145576477e-01" purity="6.1111521720886230e-01" nType="-99"/>
        </Node>
      </Node>
    </BinaryTree>
    <BinaryTree type="DecisionTree" boostWeight="1.0000000000000000e+00" itree="770">
      <Node pos="s" depth="0" NCoef="0" IVar="2" Cut="5.3826414062500000e+04" cType="1" res="5.5166997015476227e-02" rms="4.1407394409179688e-01" purity="4.9993520975112915e-01" nType="0">
        <Node pos="l" depth="1" NCoef="0" IVar="0" Cut="2.5133045390248299e-02" cType="1" res="-6.7757838405668736e-03" rms="4.1681942343711853e-01" purity="3.2782182097434998e-01" nType="0">
          <Node pos="l" depth="2" NCoef="0" IVar="-1" Cut="0.0000000000000000e+00" cType="1" res="1.8644765077624470e-04" rms="4.4282174110412598e-01" purity="4.4406282901763916e-01" nType="-99"/>
          <Node pos="r" depth="2" NCoef="0" IVar="-1" Cut="0.0000000000000000e+00" cType="1" res="-4.8085604794323444e-04" rms="3.8800475001335144e-01" purity="2.4277983605861664e-01" nType="-99"/>
        </Node>
        <Node pos="r" depth="1" NCoef="0" IVar="1" Cut="2.4892790222167969e+02" cType="1" res="1.6259379684925079e-01" rms="3.8640156388282776e-01" purity="7.9842984676361084e-01" nType="0">
          <Node pos="l" depth="2" NCoef="0" IVar="-1" Cut="0.0000000000000000e+00" cType="1" res="2.7085654437541962e-04" rms="4.1981062293052673e-01" purity="7.4891936779022217e-01" nType="-99"/>
          <Node pos="r" depth="2" NCoef="0" IVar="-1" Cut="0.0000000000000000e+00" cType="1" res="4.4300055014900863e-04" rms="2.4182607233524323e-01" purity="9.3655937910079956e-01" nType="-99"/>
        </Node>
      </Node>
    </BinaryTree>
    <BinaryTree type="DecisionTree" boostWeight="1.0000000000000000e+00" itree="771">
      <Node pos="s" depth="0" NCoef="0" IVar="2" Cut="3.6123000000000000e+04" cType="1" res="5.0953079015016556e-02" rms="4.1198599338531494e-01" purity="4.9651500582695007e-01" nType="0">
        <Node pos="l" depth="1" NCoef="0" IVar="1" Cut="3.8814407348632812e+01" cType="1" res="-2.7048511430621147e-02" rms="3.9710116386413574e-01" purity="2.8538924455642700e-01" nType="0">
          <Node pos="l" depth="2" NCoef="0" IVar="-1" Cut="0.0000000000000000e+00" cType="1" res="-2.5168154388666153e-03" rms="2.9159793257713318e-01" purity="9.6406169235706329e-02" nType="-99"/>
          <Node pos="r" depth="2" NCoef="0" IVar="-1" Cut="0.0000000000000000e+00" cType="1" res="4.6911507524782792e-05" rms="4.2643332481384277e-01" purity="3.6016029119491577e-01" nType="-99"/>
        </Node>
        <Node pos="r" depth="1" NCoef="0" IVar="0" Cut="4.2839553207159042e-02" cType="1" res="1.3657961785793304e-01" rms="4.1102549433708191e-01" purity="7.2827911376953125e-01" nType="0">
          <Node pos="l" depth="2" NCoef="0" IVar="-1" Cut="0.0000000000000000e+00" cType="1" res="3.4198260982520878e-04" rms="3.3928334712982178e-01" purity="8.5927951335906982e-01" nType="-99"/>
          <Node pos="r" depth="2" NCoef="0" IVar="-1" Cut="0.0000000000000000e+00" cType="1" res="2.1543222828768194e-04" rms="4.3775182962417603e-01" purity="6.5103137493133545e-01" nType="-99"/>
        </Node>
      </Node>
    </BinaryTree>
    <BinaryTree type="DecisionTree" boostWeight="1.0000000000000000e+00" itree="772">
      <Node pos="s" depth="0" NCoef="0" IVar="3" Cut="1.4930736541748047e+01" cType="1" res="5.5897653102874756e-02" rms="4.1439568996429443e-01" purity="4.9835005402565002e-01" nType="0">
        <Node pos="l" depth="1" NCoef="0" IVar="1" Cut="6.4607437133789062e+01" cType="1" res="-2.1031515672802925e-02" rms="4.0081155300140381e-01" purity="2.8682610392570496e-01" nType="0">
          <Node pos="l" depth="2" NCoef="0" IVar="-1" Cut="0.0000000000000000e+00" cType="1" res="-1.4502578414976597e-03" rms="3.2685247063636780e-01" purity="1.3268743455410004e-01" nType="-99"/>
          <Node pos="r" depth="2" NCoef="0" IVar="-1" Cut="0.0000000000000000e+00" cType="1" res="1.2400990817695856e-04" rms="4.4905206561088562e-01" purity="4.2253676056861877e-01" nType="-99"/>
        </Node>
        <Node pos="r" depth="1" NCoef="0" IVar="0" Cut="4.2733144015073776e-02" cType="1" res="1.2754026055335999e-01" rms="4.1399589180946350e-01" purity="6.9533812999725342e-01" nType="0">
          <Node pos="l" depth="2" NCoef="0" IVar="-1" Cut="0.0000000000000000e+00" cType="1" res="4.9458106514066458e-04" rms="3.4097588062286377e-01" purity="8.5338836908340454e-01" nType="-99"/>
          <Node pos="r" depth="2" NCoef="0" IVar="-1" Cut="0.0000000000000000e+00" cType="1" res="1.8281069060321897e-04" rms="4.3809965252876282e-01" purity="6.0269033908843994e-01" nType="-99"/>
        </Node>
      </Node>
    </BinaryTree>
    <BinaryTree type="DecisionTree" boostWeight="1.0000000000000000e+00" itree="773">
      <Node pos="s" depth="0" NCoef="0" IVar="1" Cut="5.2157405853271484e+01" cType="1" res="6.5677441656589508e-02" rms="4.1646939516067505e-01" purity="5.0837516784667969e-01" nType="0">
        <Node pos="l" depth="1" NCoef="0" IVar="1" Cut="2.6832382202148438e+01" cType="1" res="-8.8249102234840393e-02" rms="3.2268610596656799e-01" purity="1.2554930150508881e-01" nType="0">
          <Node pos="l" depth="2" NCoef="0" IVar="-1" Cut="0.0000000000000000e+00" cType="1" res="-3.2605712767690420e-03" rms="2.9301139712333679e-01" purity="9.6108593046665192e-02" nType="-99"/>
          <Node pos="r" depth="2" NCoef="0" IVar="-1" Cut="0.0000000000000000e+00" cType="1" res="-6.2271067872643471e-04" rms="3.5009577870368958e-01" purity="1.6073636710643768e-01" nType="-99"/>
        </Node>
        <Node pos="r" depth="1" NCoef="0" IVar="0" Cut="2.6167873293161392e-02" cType="1" res="1.0121528059244156e-01" rms="4.2745524644851685e-01" purity="5.9676027297973633e-01" nType="0">
          <Node pos="l" depth="2" NCoef="0" IVar="-1" Cut="0.0000000000000000e+00" cType="1" res="4.7791842371225357e-04" rms="4.0463647246360779e-01" purity="7.6838326454162598e-01" nType="-99"/>
          <Node pos="r" depth="2" NCoef="0" IVar="-1" Cut="0.0000000000000000e+00" cType="1" res="1.7796455358620733e-04" rms="4.2466732859611511e-01" purity="5.3666239976882935e-01" nType="-99"/>
        </Node>
      </Node>
    </BinaryTree>
    <BinaryTree type="DecisionTree" boostWeight="1.0000000000000000e+00" itree="774">
      <Node pos="s" depth="0" NCoef="0" IVar="2" Cut="3.6123000000000000e+04" cType="1" res="6.0845691710710526e-02" rms="4.1780847311019897e-01" purity="5.0148713588714600e-01" nType="0">
        <Node pos="l" depth="1" NCoef="0" IVar="0" Cut="3.4942522644996643e-02" cType="1" res="-7.9939803108572960e-03" rms="4.0820378065109253e-01" purity="3.0522131919860840e-01" nType="0">
          <Node pos="l" depth="2" NCoef="0" IVar="-1" Cut="0.0000000000000000e+00" cType="1" res="1.1741533671738580e-04" rms="4.4238239526748657e-01" purity="4.0617260336875916e-01" nType="-99"/>
          <Node pos="r" depth="2" NCoef="0" IVar="-1" Cut="0.0000000000000000e+00" cType="1" res="-1.5966320643201470e-03" rms="3.2676628232002258e-01" purity="1.3341242074966431e-01" nType="-99"/>
        </Node>
        <Node pos="r" depth="1" NCoef="0" IVar="0" Cut="3.9660222828388214e-02" cType="1" res="1.3975991308689117e-01" rms="4.1472730040550232e-01" purity="7.2647607326507568e-01" nType="0">
          <Node pos="l" depth="2" NCoef="0" IVar="-1" Cut="0.0000000000000000e+00" cType="1" res="4.5256016892381012e-04" rms="3.2709768414497375e-01" purity="8.7291979789733887e-01" nType="-99"/>
          <Node pos="r" depth="2" NCoef="0" IVar="-1" Cut="0.0000000000000000e+00" cType="1" res="2.4877494433894753e-04" rms="4.4066914916038513e-01" purity="6.6105145215988159e-01" nType="-99"/>
        </Node>
      </Node>
    </BinaryTree>
    <BinaryTree type="DecisionTree" boostWeight="1.0000000000000000e+00" itree="775">
      <Node pos="s" depth="0" NCoef="0" IVar="1" Cut="1.3166255187988281e+02" cType="1" res="6.2393561005592346e-02" rms="4.1727119684219360e-01" purity="5.0367462635040283e-01" nType="0">
        <Node pos="l" depth="1" NCoef="0" IVar="1" Cut="3.6820198059082031e+01" cType="1" res="-1.2250716798007488e-02" rms="4.0318721532821655e-01" purity="2.8288030624389648e-01" nType="0">
          <Node pos="l" depth="2" NCoef="0" IVar="-1" Cut="0.0000000000000000e+00" cType="1" res="-2.2620968520641327e-03" rms="3.0281293392181396e-01" purity="1.0718603432178497e-01" nType="-99"/>
          <Node pos="r" depth="2" NCoef="0" IVar="-1" Cut="0.0000000000000000e+00" cType="1" res="1.0607013246044517e-04" rms="4.3051615357398987e-01" purity="3.5095530748367310e-01" nType="-99"/>
        </Node>
        <Node pos="r" depth="1" NCoef="0" IVar="1" Cut="2.4547425842285156e+02" cType="1" res="1.3983154296875000e-01" rms="4.1752377152442932e-01" purity="7.3273259401321411e-01" nType="0">
          <Node pos="l" depth="2" NCoef="0" IVar="-1" Cut="0.0000000000000000e+00" cType="1" res="2.8052608831785619e-04" rms="4.4404101371765137e-01" purity="6.8346351385116577e-01" nType="-99"/>
          <Node pos="r" depth="2" NCoef="0" IVar="-1" Cut="0.0000000000000000e+00" cType="1" res="4.7435125452466309e-04" rms="2.6915994286537170e-01" purity="9.1501051187515259e-01" nType="-99"/>
        </Node>
      </Node>
    </BinaryTree>
    <BinaryTree type="DecisionTree" boostWeight="1.0000000000000000e+00" itree="776">
      <Node pos="s" depth="0" NCoef="0" IVar="1" Cut="1.0537150573730469e+02" cType="1" res="5.9227839112281799e-02" rms="4.1479197144508362e-01" purity="5.0311309099197388e-01" nType="0">
        <Node pos="l" depth="1" NCoef="0" IVar="0" Cut="1.2566522695124149e-02" cType="1" res="-3.2554421573877335e-02" rms="3.8097524642944336e-01" purity="2.3525302112102509e-01" nType="0">
          <Node pos="l" depth="2" NCoef="0" IVar="-1" Cut="0.0000000000000000e+00" cType="1" res="3.3685355447232723e-04" rms="4.3906366825103760e-01" purity="3.8192221522331238e-01" nType="-99"/>
          <Node pos="r" depth="2" NCoef="0" IVar="-1" Cut="0.0000000000000000e+00" cType="1" res="-7.5946084689348936e-04" rms="3.4934774041175842e-01" purity="1.7981424927711487e-01" nType="-99"/>
        </Node>
        <Node pos="r" depth="1" NCoef="0" IVar="1" Cut="2.4971443176269531e+02" cType="1" res="1.2125363945960999e-01" rms="4.2508593201637268e-01" purity="6.8413096666336060e-01" nType="0">
          <Node pos="l" depth="2" NCoef="0" IVar="-1" Cut="0.0000000000000000e+00" cType="1" res="2.5182176614180207e-04" rms="4.4635400176048279e-01" purity="6.3503247499465942e-01" nType="-99"/>
          <Node pos="r" depth="2" NCoef="0" IVar="-1" Cut="0.0000000000000000e+00" cType="1" res="4.3671292951330543e-04" rms="2.6165530085563660e-01" purity="9.2007517814636230e-01" nType="-99"/>
        </Node>
      </Node>
    </BinaryTree>
    <BinaryTree type="DecisionTree" boostWeight="1.0000000000000000e+00" itree="777">
      <Node pos="s" depth="0" NCoef="0" IVar="2" Cut="6.6204593750000000e+04" cType="1" res="6.1941821128129959e-02" rms="4.1856929659843445e-01" purity="5.0167000293731689e-01" nType="0">
        <Node pos="l" depth="1" NCoef="0" IVar="0" Cut="3.8101427257061005e-02" cType="1" res="2.2168764844536781e-02" rms="4.2692947387695312e-01" purity="3.8698542118072510e-01" nType="0">
          <Node pos="l" depth="2" NCoef="0" IVar="-1" Cut="0.0000000000000000e+00" cType="1" res="2.1105662744957954e-04" rms="4.3674361705780029e-01" purity="4.8160210251808167e-01" nType="-99"/>
          <Node pos="r" depth="2" NCoef="0" IVar="-1" Cut="0.0000000000000000e+00" cType="1" res="-4.7462308430112898e-04" rms="3.9863511919975281e-01" purity="2.4972227215766907e-01" nType="-99"/>
        </Node>
        <Node pos="r" depth="1" NCoef="0" IVar="1" Cut="2.3110444641113281e+02" cType="1" res="1.7515920102596283e-01" rms="3.7115758657455444e-01" purity="8.2812929153442383e-01" nType="0">
          <Node pos="l" depth="2" NCoef="0" IVar="-1" Cut="0.0000000000000000e+00" cType="1" res="2.8165508410893381e-04" rms="4.1893073916435242e-01" purity="7.6389032602310181e-01" nType="-99"/>
          <Node pos="r" depth="2" NCoef="0" IVar="-1" Cut="0.0000000000000000e+00" cType="1" res="4.5423876144923270e-04" rms="2.5199449062347412e-01" purity="9.3166106939315796e-01" nType="-99"/>
        </Node>
      </Node>
    </BinaryTree>
    <BinaryTree type="DecisionTree" boostWeight="1.0000000000000000e+00" itree="778">
      <Node pos="s" depth="0" NCoef="0" IVar="3" Cut="1.3542619705200195e+01" cType="1" res="5.2992165088653564e-02" rms="4.1875675320625305e-01" purity="4.8992925882339478e-01" nType="0">
        <Node pos="l" depth="1" NCoef="0" IVar="1" Cut="3.8498767852783203e+01" cType="1" res="-1.9895549863576889e-02" rms="4.0871778130531311e-01" purity="2.8042834997177124e-01" nType="0">
          <Node pos="l" depth="2" NCoef="0" IVar="-1" Cut="0.0000000000000000e+00" cType="1" res="-2.1899046842008829e-03" rms="3.0558705329895020e-01" purity="1.0544697940349579e-01" nType="-99"/>
          <Node pos="r" depth="2" NCoef="0" IVar="-1" Cut="0.0000000000000000e+00" cType="1" res="6.8015928263776004e-05" rms="4.4375577569007874e-01" purity="3.6320826411247253e-01" nType="-99"/>
        </Node>
        <Node pos="r" depth="1" NCoef="0" IVar="0" Cut="3.9660222828388214e-02" cType="1" res="1.1728171259164810e-01" rms="4.1697147488594055e-01" purity="6.7471647262573242e-01" nType="0">
          <Node pos="l" depth="2" NCoef="0" IVar="-1" Cut="0.0000000000000000e+00" cType="1" res="4.4505618279799819e-04" rms="3.3964183926582336e-01" purity="8.5822629928588867e-01" nType="-99"/>
          <Node pos="r" depth="2" NCoef="0" IVar="-1" Cut="0.0000000000000000e+00" cType="1" res="1.3788818614557385e-04" rms="4.3531158566474915e-01" purity="5.7913917303085327e-01" nType="-99"/>
        </Node>
      </Node>
    </BinaryTree>
    <BinaryTree type="DecisionTree" boostWeight="1.0000000000000000e+00" itree="779">
      <Node pos="s" depth="0" NCoef="0" IVar="2" Cut="6.6204593750000000e+04" cType="1" res="5.3849913179874420e-02" rms="4.1350737214088440e-01" purity="4.9600443243980408e-01" nType="0">
        <Node pos="l" depth="1" NCoef="0" IVar="1" Cut="3.8673717498779297e+01" cType="1" res="5.8440649881958961e-03" rms="4.2033961415290833e-01" purity="3.6887249350547791e-01" nType="0">
          <Node pos="l" depth="2" NCoef="0" IVar="-1" Cut="0.0000000000000000e+00" cType="1" res="-1.7841786611825228e-03" rms="3.0274909734725952e-01" purity="1.0345569252967834e-01" nType="-99"/>
          <Node pos="r" depth="2" NCoef="0" IVar="-1" Cut="0.0000000000000000e+00" cType="1" res="1.3841032341588289e-04" rms="4.4134420156478882e-01" purity="4.3820604681968689e-01" nType="-99"/>
        </Node>
        <Node pos="r" depth="1" NCoef="0" IVar="1" Cut="2.2618206787109375e+02" cType="1" res="1.8196997046470642e-01" rms="3.6499118804931641e-01" purity="8.3529967069625854e-01" nType="0">
          <Node pos="l" depth="2" NCoef="0" IVar="-1" Cut="0.0000000000000000e+00" cType="1" res="3.1869614031165838e-04" rms="4.0833127498626709e-01" purity="7.8039944171905518e-01" nType="-99"/>
          <Node pos="r" depth="2" NCoef="0" IVar="-1" Cut="0.0000000000000000e+00" cType="1" res="5.8064737822860479e-04" rms="2.6617211103439331e-01" purity="9.2263692617416382e-01" nType="-99"/>
        </Node>
      </Node>
    </BinaryTree>
    <BinaryTree type="DecisionTree" boostWeight="1.0000000000000000e+00" itree="780">
      <Node pos="s" depth="0" NCoef="0" IVar="3" Cut="1.3542619705200195e+01" cType="1" res="5.9827655553817749e-02" rms="4.1610983014106750e-01" purity="5.0207036733627319e-01" nType="0">
        <Node pos="l" depth="1" NCoef="0" IVar="0" Cut="1.0800702497363091e-02" cType="1" res="-2.5211587548255920e-02" rms="4.0033775568008423e-01" purity="2.8003123402595520e-01" nType="0">
          <Node pos="l" depth="2" NCoef="0" IVar="-1" Cut="0.0000000000000000e+00" cType="1" res="1.8856124370358884e-04" rms="4.3730196356773376e-01" purity="4.3224239349365234e-01" nType="-99"/>
          <Node pos="r" depth="2" NCoef="0" IVar="-1" Cut="0.0000000000000000e+00" cType="1" res="-5.6816224241629243e-04" rms="3.7948063015937805e-01" purity="2.3018090426921844e-01" nType="-99"/>
        </Node>
        <Node pos="r" depth="1" NCoef="0" IVar="0" Cut="3.9293061941862106e-02" cType="1" res="1.3106082379817963e-01" rms="4.1569468379020691e-01" purity="6.8806153535842896e-01" nType="0">
          <Node pos="l" depth="2" NCoef="0" IVar="-1" Cut="0.0000000000000000e+00" cType="1" res="4.5472639612853527e-04" rms="3.3164811134338379e-01" purity="8.6584651470184326e-01" nType="-99"/>
          <Node pos="r" depth="2" NCoef="0" IVar="-1" Cut="0.0000000000000000e+00" cType="1" res="2.1666818065568805e-04" rms="4.3864503502845764e-01" purity="5.9818691015243530e-01" nType="-99"/>
        </Node>
      </Node>
    </BinaryTree>
    <BinaryTree type="DecisionTree" boostWeight="1.0000000000000000e+00" itree="781">
      <Node pos="s" depth="0" NCoef="0" IVar="1" Cut="2.3128488159179688e+02" cType="1" res="5.1095712929964066e-02" rms="4.1757947206497192e-01" purity="4.8751774430274963e-01" nType="0">
        <Node pos="l" depth="1" NCoef="0" IVar="0" Cut="5.6977529078722000e-02" cType="1" res="2.3794833570718765e-02" rms="4.2535939812660217e-01" purity="4.2985662817955017e-01" nType="0">
          <Node pos="l" depth="2" NCoef="0" IVar="-1" Cut="0.0000000000000000e+00" cType="1" res="2.0115154620725662e-04" rms="4.2693710327148438e-01" purity="4.7209531068801880e-01" nType="-99"/>
          <Node pos="r" depth="2" NCoef="0" IVar="-1" Cut="0.0000000000000000e+00" cType="1" res="-4.4686935143545270e-04" rms="4.0240141749382019e-01" purity="3.0914607644081116e-01" nType="-99"/>
        </Node>
        <Node pos="r" depth="1" NCoef="0" IVar="0" Cut="5.5020269006490707e-02" cType="1" res="2.4615034461021423e-01" rms="2.9008054733276367e-01" purity="8.9948523044586182e-01" nType="0">
          <Node pos="l" depth="2" NCoef="0" IVar="-1" Cut="0.0000000000000000e+00" cType="1" res="4.3796622776426375e-04" rms="3.4208697080612183e-01" purity="8.4932297468185425e-01" nType="-99"/>
          <Node pos="r" depth="2" NCoef="0" IVar="-1" Cut="0.0000000000000000e+00" cType="1" res="4.6190593275241554e-04" rms="2.6488849520683289e-01" purity="9.1953599452972412e-01" nType="-99"/>
        </Node>
      </Node>
    </BinaryTree>
    <BinaryTree type="DecisionTree" boostWeight="1.0000000000000000e+00" itree="782">
      <Node pos="s" depth="0" NCoef="0" IVar="1" Cut="9.1790054321289062e+01" cType="1" res="5.9697315096855164e-02" rms="4.1609126329421997e-01" purity="5.0172722339630127e-01" nType="0">
        <Node pos="l" depth="1" NCoef="0" IVar="1" Cut="2.0935403823852539e+01" cType="1" res="-4.1565239429473877e-02" rms="3.7323594093322754e-01" purity="2.0989190042018890e-01" nType="0">
          <Node pos="l" depth="2" NCoef="0" IVar="-1" Cut="0.0000000000000000e+00" cType="1" res="-3.7895888090133667e-03" rms="2.7554115653038025e-01" purity="8.4485813975334167e-02" nType="-99"/>
          <Node pos="r" depth="2" NCoef="0" IVar="-1" Cut="0.0000000000000000e+00" cType="1" res="-1.1240538151469082e-04" rms="3.9086455106735229e-01" purity="2.4289208650588989e-01" nType="-99"/>
        </Node>
        <Node pos="r" depth="1" NCoef="0" IVar="1" Cut="2.6007012939453125e+02" cType="1" res="1.1414903402328491e-01" rms="4.2760109901428223e-01" purity="6.5865528583526611e-01" nType="0">
          <Node pos="l" depth="2" NCoef="0" IVar="-1" Cut="0.0000000000000000e+00" cType="1" res="2.4765302077867091e-04" rms="4.4681608676910400e-01" purity="6.1040371656417847e-01" nType="-99"/>
          <Node pos="r" depth="2" NCoef="0" IVar="-1" Cut="0.0000000000000000e+00" cType="1" res="5.0543819088488817e-04" rms="2.3992204666137695e-01" purity="9.3428486585617065e-01" nType="-99"/>
        </Node>
      </Node>
    </BinaryTree>
    <BinaryTree type="DecisionTree" boostWeight="1.0000000000000000e+00" itree="783">
      <Node pos="s" depth="0" NCoef="0" IVar="1" Cut="1.5843783569335938e+02" cType="1" res="5.1610510796308517e-02" rms="4.1391739249229431e-01" purity="4.9315917491912842e-01" nType="0">
        <Node pos="l" depth="1" NCoef="0" IVar="0" Cut="6.4363040030002594e-02" cType="1" res="-5.0275619141757488e-03" rms="4.1080766916275024e-01" purity="3.3364039659500122e-01" nType="0">
          <Node pos="l" depth="2" NCoef="0" IVar="-1" Cut="0.0000000000000000e+00" cType="1" res="1.1086028825957328e-04" rms="4.2178073525428772e-01" purity="3.7393221259117126e-01" nType="-99"/>
          <Node pos="r" depth="2" NCoef="0" IVar="-1" Cut="0.0000000000000000e+00" cType="1" res="-2.3113815113902092e-03" rms="3.1517890095710754e-01" purity="1.3045383989810944e-01" nType="-99"/>
        </Node>
        <Node pos="r" depth="1" NCoef="0" IVar="1" Cut="2.4961164855957031e+02" cType="1" res="1.5046045184135437e-01" rms="4.0054175257682800e-01" purity="7.7156591415405273e-01" nType="0">
          <Node pos="l" depth="2" NCoef="0" IVar="-1" Cut="0.0000000000000000e+00" cType="1" res="2.5241973344236612e-04" rms="4.3219527602195740e-01" purity="7.1953743696212769e-01" nType="-99"/>
          <Node pos="r" depth="2" NCoef="0" IVar="-1" Cut="0.0000000000000000e+00" cType="1" res="5.3556734928861260e-04" rms="2.7069282531738281e-01" purity="9.1442459821701050e-01" nType="-99"/>
        </Node>
      </Node>
    </BinaryTree>
    <BinaryTree type="DecisionTree" boostWeight="1.0000000000000000e+00" itree="784">
      <Node pos="s" depth="0" NCoef="0" IVar="1" Cut="1.0547126770019531e+02" cType="1" res="6.6808782517910004e-02" rms="4.1841855645179749e-01" purity="5.0699025392532349e-01" nType="0">
        <Node pos="l" depth="1" NCoef="0" IVar="0" Cut="1.2566522695124149e-02" cType="1" res="-1.3593145646154881e-02" rms="3.9371523261070251e-01" purity="2.5389155745506287e-01" nType="0">
          <Node pos="l" depth="2" NCoef="0" IVar="-1" Cut="0.0000000000000000e+00" cType="1" res="1.6291977954097092e-04" rms="4.4312450289726257e-01" purity="3.8802117109298706e-01" nType="-99"/>
          <Node pos="r" depth="2" NCoef="0" IVar="-1" Cut="0.0000000000000000e+00" cType="1" res="-3.2780080800876021e-04" rms="3.6773341894149780e-01" purity="2.0353625714778900e-01" nType="-99"/>
        </Node>
        <Node pos="r" depth="1" NCoef="0" IVar="0" Cut="2.7510134503245354e-02" cType="1" res="1.2339670211076736e-01" rms="4.2596045136451721e-01" purity="6.8512445688247681e-01" nType="0">
          <Node pos="l" depth="2" NCoef="0" IVar="-1" Cut="0.0000000000000000e+00" cType="1" res="4.1636236710473895e-04" rms="3.5778012871742249e-01" purity="8.3222651481628418e-01" nType="-99"/>
          <Node pos="r" depth="2" NCoef="0" IVar="-1" Cut="0.0000000000000000e+00" cType="1" res="2.3750381660647690e-04" rms="4.3871280550956726e-01" purity="6.3902717828750610e-01" nType="-99"/>
        </Node>
      </Node>
    </BinaryTree>
    <BinaryTree type="DecisionTree" boostWeight="1.0000000000000000e+00" itree="785">
      <Node pos="s" depth="0" NCoef="0" IVar="2" Cut="7.2246000000000000e+04" cType="1" res="6.6009283065795898e-02" rms="4.1783815622329712e-01" purity="5.0600534677505493e-01" nType="0">
        <Node pos="l" depth="1" NCoef="0" IVar="0" Cut="5.0266090780496597e-02" cType="1" res="2.6607349514961243e-02" rms="4.2940846085548401e-01" purity="4.0482690930366516e-01" nType="0">
          <Node pos="l" depth="2" NCoef="0" IVar="-1" Cut="0.0000000000000000e+00" cType="1" res="2.0339514594525099e-04" rms="4.3606364727020264e-01" purity="4.6872171759605408e-01" nType="-99"/>
          <Node pos="r" depth="2" NCoef="0" IVar="-1" Cut="0.0000000000000000e+00" cType="1" res="-5.8990833349525928e-04" rms="3.9228600263595581e-01" purity="2.5029262900352478e-01" nType="-99"/>
        </Node>
        <Node pos="r" depth="1" NCoef="0" IVar="1" Cut="2.2577809143066406e+02" cType="1" res="2.0510996878147125e-01" rms="3.3934000134468079e-01" purity="8.6319583654403687e-01" nType="0">
          <Node pos="l" depth="2" NCoef="0" IVar="-1" Cut="0.0000000000000000e+00" cType="1" res="3.3508430351503193e-04" rms="4.0099897980690002e-01" purity="7.9274529218673706e-01" nType="-99"/>
          <Node pos="r" depth="2" NCoef="0" IVar="-1" Cut="0.0000000000000000e+00" cType="1" res="3.8204109296202660e-04" rms="2.4530534446239471e-01" purity="9.3551582098007202e-01" nType="-99"/>
        </Node>
      </Node>
    </BinaryTree>
    <BinaryTree type="DecisionTree" boostWeight="1.0000000000000000e+00" itree="786">
      <Node pos="s" depth="0" NCoef="0" IVar="1" Cut="1.0525318145751953e+02" cType="1" res="4.4400908052921295e-02" rms="4.1186130046844482e-01" purity="4.8613378405570984e-01" nType="0">
        <Node pos="l" depth="1" NCoef="0" IVar="1" Cut="5.9666114807128906e+01" cType="1" res="-6.0031589120626450e-02" rms="3.6110970377922058e-01" purity="2.0403280854225159e-01" nType="0">
          <Node pos="l" depth="2" NCoef="0" IVar="-1" Cut="0.0000000000000000e+00" cType="1" res="-2.4993517436087132e-03" rms="2.8529122471809387e-01" purity="9.5249354839324951e-02" nType="-99"/>
          <Node pos="r" depth="2" NCoef="0" IVar="-1" Cut="0.0000000000000000e+00" cType="1" res="7.4925737862940878e-06" rms="4.2099195718765259e-01" purity="3.2397308945655823e-01" nType="-99"/>
        </Node>
        <Node pos="r" depth="1" NCoef="0" IVar="1" Cut="2.4961184692382812e+02" cType="1" res="1.1475040763616562e-01" rms="4.2867276072502136e-01" purity="6.7616713047027588e-01" nType="0">
          <Node pos="l" depth="2" NCoef="0" IVar="-1" Cut="0.0000000000000000e+00" cType="1" res="2.4319934891536832e-04" rms="4.5007908344268799e-01" purity="6.2555956840515137e-01" nType="-99"/>
          <Node pos="r" depth="2" NCoef="0" IVar="-1" Cut="0.0000000000000000e+00" cType="1" res="3.5270539228804410e-04" rms="2.6085790991783142e-01" purity="9.2103856801986694e-01" nType="-99"/>
        </Node>
      </Node>
    </BinaryTree>
    <BinaryTree type="DecisionTree" boostWeight="1.0000000000000000e+00" itree="787">
      <Node pos="s" depth="0" NCoef="0" IVar="1" Cut="1.3938558959960938e+02" cType="1" res="5.6067366153001785e-02" rms="4.1769891977310181e-01" purity="4.9429276585578918e-01" nType="0">
        <Node pos="l" depth="1" NCoef="0" IVar="0" Cut="1.2470351532101631e-02" cType="1" res="-7.9579008743166924e-03" rms="4.0964859724044800e-01" purity="2.9000127315521240e-01" nType="0">
          <Node pos="l" depth="2" NCoef="0" IVar="-1" Cut="0.0000000000000000e+00" cType="1" res="1.9544792303349823e-04" rms="4.5147296786308289e-01" purity="4.3569892644882202e-01" nType="-99"/>
          <Node pos="r" depth="2" NCoef="0" IVar="-1" Cut="0.0000000000000000e+00" cType="1" res="-3.0168323428370059e-04" rms="3.8908997178077698e-01" purity="2.4584768712520599e-01" nType="-99"/>
        </Node>
        <Node pos="r" depth="1" NCoef="0" IVar="2" Cut="8.8272789062500000e+04" cType="1" res="1.3266308605670929e-01" rms="4.1433021426200867e-01" purity="7.3869395256042480e-01" nType="0">
          <Node pos="l" depth="2" NCoef="0" IVar="-1" Cut="0.0000000000000000e+00" cType="1" res="2.4107196077238768e-04" rms="4.3905410170555115e-01" purity="6.9094634056091309e-01" nType="-99"/>
          <Node pos="r" depth="2" NCoef="0" IVar="-1" Cut="0.0000000000000000e+00" cType="1" res="5.5264151887968183e-04" rms="2.7441561222076416e-01" purity="9.1639643907546997e-01" nType="-99"/>
        </Node>
      </Node>
    </BinaryTree>
    <BinaryTree type="DecisionTree" boostWeight="1.0000000000000000e+00" itree="788">
      <Node pos="s" depth="0" NCoef="0" IVar="2" Cut="6.6204593750000000e+04" cType="1" res="6.4345851540565491e-02" rms="4.1729000210762024e-01" purity="5.0551992654800415e-01" nType="0">
        <Node pos="l" depth="1" NCoef="0" IVar="0" Cut="3.7466101348400116e-02" cType="1" res="2.4629103019833565e-02" rms="4.2639210820198059e-01" purity="3.8954487442970276e-01" nType="0">
          <Node pos="l" depth="2" NCoef="0" IVar="-1" Cut="0.0000000000000000e+00" cType="1" res="1.8604466458782554e-04" rms="4.4097796082496643e-01" purity="4.8426333069801331e-01" nType="-99"/>
          <Node pos="r" depth="2" NCoef="0" IVar="-1" Cut="0.0000000000000000e+00" cType="1" res="-4.3231190647929907e-04" rms="3.9123862981796265e-01" purity="2.5927338004112244e-01" nType="-99"/>
        </Node>
        <Node pos="r" depth="1" NCoef="0" IVar="1" Cut="2.2952496337890625e+02" cType="1" res="1.7559660971164703e-01" rms="3.6854466795921326e-01" purity="8.3037817478179932e-01" nType="0">
          <Node pos="l" depth="2" NCoef="0" IVar="-1" Cut="0.0000000000000000e+00" cType="1" res="2.6946273283101618e-04" rms="4.1860845685005188e-01" purity="7.6305443048477173e-01" nType="-99"/>
          <Node pos="r" depth="2" NCoef="0" IVar="-1" Cut="0.0000000000000000e+00" cType="1" res="4.4646250898949802e-04" rms="2.5200977921485901e-01" purity="9.3154126405715942e-01" nType="-99"/>
        </Node>
      </Node>
    </BinaryTree>
    <BinaryTree type="DecisionTree" boostWeight="1.0000000000000000e+00" itree="789">
      <Node pos="s" depth="0" NCoef="0" IVar="2" Cut="4.4136394531250000e+04" cType="1" res="4.9970790743827820e-02" rms="4.1444304585456848e-01" purity="4.9148207902908325e-01" nType="0">
        <Node pos="l" depth="1" NCoef="0" IVar="1" Cut="3.8584842681884766e+01" cType="1" res="-1.5007734298706055e-02" rms="4.0757432579994202e-01" purity="3.0271807312965393e-01" nType="0">
          <Node pos="l" depth="2" NCoef="0" IVar="-1" Cut="0.0000000000000000e+00" cType="1" res="-2.2356458939611912e-03" rms="3.0319225788116455e-01" purity="1.0282152146100998e-01" nType="-99"/>
          <Node pos="r" depth="2" NCoef="0" IVar="-1" Cut="0.0000000000000000e+00" cType="1" res="8.0496509326621890e-05" rms="4.3344125151634216e-01" purity="3.7115415930747986e-01" nType="-99"/>
        </Node>
        <Node pos="r" depth="1" NCoef="0" IVar="0" Cut="4.1265200823545456e-02" cType="1" res="1.4085213840007782e-01" rms="4.0681105852127075e-01" purity="7.5549441576004028e-01" nType="0">
          <Node pos="l" depth="2" NCoef="0" IVar="-1" Cut="0.0000000000000000e+00" cType="1" res="4.6317206579260528e-04" rms="3.1232264637947083e-01" purity="8.8688880205154419e-01" nType="-99"/>
          <Node pos="r" depth="2" NCoef="0" IVar="-1" Cut="0.0000000000000000e+00" cType="1" res="2.1021827706135809e-04" rms="4.4070002436637878e-01" purity="6.8306475877761841e-01" nType="-99"/>
        </Node>
      </Node>
    </BinaryTree>
    <BinaryTree type="DecisionTree" boostWeight="1.0000000000000000e+00" itree="790">
      <Node pos="s" depth="0" NCoef="0" IVar="3" Cut="1.4930736541748047e+01" cType="1" res="7.5373560190200806e-02" rms="4.1528162360191345e-01" purity="5.2024501562118530e-01" nType="0">
        <Node pos="l" depth="1" NCoef="0" IVar="0" Cut="1.2183989398181438e-02" cType="1" res="-6.7405914887785912e-03" rms="4.0958157181739807e-01" purity="2.9940330982208252e-01" nType="0">
          <Node pos="l" depth="2" NCoef="0" IVar="-1" Cut="0.0000000000000000e+00" cType="1" res="3.6681274650618434e-04" rms="4.2695122957229614e-01" purity="4.2965990304946899e-01" nType="-99"/>
          <Node pos="r" depth="2" NCoef="0" IVar="-1" Cut="0.0000000000000000e+00" cType="1" res="-2.2915871522855014e-04" rms="3.9909800887107849e-01" purity="2.5429108738899231e-01" nType="-99"/>
        </Node>
        <Node pos="r" depth="1" NCoef="0" IVar="0" Cut="4.2799498885869980e-02" cType="1" res="1.4894048869609833e-01" rms="4.0647041797637939e-01" purity="7.1809935569763184e-01" nType="0">
          <Node pos="l" depth="2" NCoef="0" IVar="-1" Cut="0.0000000000000000e+00" cType="1" res="3.9163976907730103e-04" rms="3.3554387092590332e-01" purity="8.6271941661834717e-01" nType="-99"/>
          <Node pos="r" depth="2" NCoef="0" IVar="-1" Cut="0.0000000000000000e+00" cType="1" res="2.2480270126834512e-04" rms="4.3149241805076599e-01" purity="6.3149672746658325e-01" nType="-99"/>
        </Node>
      </Node>
    </BinaryTree>
    <BinaryTree type="DecisionTree" boostWeight="1.0000000000000000e+00" itree="791">
      <Node pos="s" depth="0" NCoef="0" IVar="2" Cut="6.6204593750000000e+04" cType="1" res="6.5497748553752899e-02" rms="4.2184987664222717e-01" purity="5.0139719247817993e-01" nType="0">
        <Node pos="l" depth="1" NCoef="0" IVar="0" Cut="5.0801903009414673e-02" cType="1" res="3.2673504203557968e-02" rms="4.3003648519515991e-01" purity="3.9715260267257690e-01" nType="0">
          <Node pos="l" depth="2" NCoef="0" IVar="-1" Cut="0.0000000000000000e+00" cType="1" res="2.4337005743291229e-04" rms="4.3982714414596558e-01" purity="4.6262013912200928e-01" nType="-99"/>
          <Node pos="r" depth="2" NCoef="0" IVar="-1" Cut="0.0000000000000000e+00" cType="1" res="-8.6647004354745150e-04" rms="3.7649255990982056e-01" purity="2.1847924590110779e-01" nType="-99"/>
        </Node>
        <Node pos="r" depth="1" NCoef="0" IVar="1" Cut="2.0215196228027344e+02" cType="1" res="1.6559417545795441e-01" rms="3.7866252660751343e-01" purity="8.1928753852844238e-01" nType="0">
          <Node pos="l" depth="2" NCoef="0" IVar="-1" Cut="0.0000000000000000e+00" cType="1" res="2.8232688782736659e-04" rms="4.2148345708847046e-01" purity="7.5926303863525391e-01" nType="-99"/>
          <Node pos="r" depth="2" NCoef="0" IVar="-1" Cut="0.0000000000000000e+00" cType="1" res="4.6030079829506576e-04" rms="3.0950191617012024e-01" purity="8.9069324731826782e-01" nType="-99"/>
        </Node>
      </Node>
    </BinaryTree>
    <BinaryTree type="DecisionTree" boostWeight="1.0000000000000000e+00" itree="792">
      <Node pos="s" depth="0" NCoef="0" IVar="3" Cut="1.4930736541748047e+01" cType="1" res="5.2262201905250549e-02" rms="4.1193675994873047e-01" purity="4.9563711881637573e-01" nType="0">
        <Node pos="l" depth="1" NCoef="0" IVar="0" Cut="2.2131901234388351e-02" cType="1" res="-3.2755997031927109e-02" rms="3.9421314001083374e-01" purity="2.7184206247329712e-01" nType="0">
          <Node pos="l" depth="2" NCoef="0" IVar="-1" Cut="0.0000000000000000e+00" cType="1" res="1.4530529733747244e-04" rms="4.3053048849105835e-01" purity="3.9425474405288696e-01" nType="-99"/>
          <Node pos="r" depth="2" NCoef="0" IVar="-1" Cut="0.0000000000000000e+00" cType="1" res="-9.4163627363741398e-04" rms="3.5397601127624512e-01" purity="1.7408557236194611e-01" nType="-99"/>
        </Node>
        <Node pos="r" depth="1" NCoef="0" IVar="0" Cut="3.9660222828388214e-02" cType="1" res="1.2959909439086914e-01" rms="4.1247165203094482e-01" purity="6.9921261072158813e-01" nType="0">
          <Node pos="l" depth="2" NCoef="0" IVar="-1" Cut="0.0000000000000000e+00" cType="1" res="4.7848862595856190e-04" rms="3.3595940470695496e-01" purity="8.6443537473678589e-01" nType="-99"/>
          <Node pos="r" depth="2" NCoef="0" IVar="-1" Cut="0.0000000000000000e+00" cType="1" res="2.0082667469978333e-04" rms="4.3260660767555237e-01" purity="6.2288874387741089e-01" nType="-99"/>
        </Node>
      </Node>
    </BinaryTree>
    <BinaryTree type="DecisionTree" boostWeight="1.0000000000000000e+00" itree="793">
      <Node pos="s" depth="0" NCoef="0" IVar="2" Cut="7.0266148437500000e+04" cType="1" res="6.0027707368135452e-02" rms="4.1754138469696045e-01" purity="4.9960964918136597e-01" nType="0">
        <Node pos="l" depth="1" NCoef="0" IVar="0" Cut="5.1490433514118195e-02" cType="1" res="1.9761877134442329e-02" rms="4.2766806483268738e-01" purity="3.9182665944099426e-01" nType="0">
          <Node pos="l" depth="2" NCoef="0" IVar="-1" Cut="0.0000000000000000e+00" cType="1" res="2.3759418400004506e-04" rms="4.3565154075622559e-01" purity="4.5065775513648987e-01" nType="-99"/>
          <Node pos="r" depth="2" NCoef="0" IVar="-1" Cut="0.0000000000000000e+00" cType="1" res="-6.8577460478991270e-04" rms="3.8726514577865601e-01" purity="2.3870855569839478e-01" nType="-99"/>
        </Node>
        <Node pos="r" depth="1" NCoef="0" IVar="1" Cut="2.1018479919433594e+02" cType="1" res="1.9070848822593689e-01" rms="3.5245275497436523e-01" purity="8.4941393136978149e-01" nType="0">
          <Node pos="l" depth="2" NCoef="0" IVar="-1" Cut="0.0000000000000000e+00" cType="1" res="3.1523010693490505e-04" rms="4.0398901700973511e-01" purity="7.8689157962799072e-01" nType="-99"/>
          <Node pos="r" depth="2" NCoef="0" IVar="-1" Cut="0.0000000000000000e+00" cType="1" res="3.7813754170201719e-04" rms="2.7769276499748230e-01" purity="9.1471105813980103e-01" nType="-99"/>
        </Node>
      </Node>
    </BinaryTree>
    <BinaryTree type="DecisionTree" boostWeight="1.0000000000000000e+00" itree="794">
      <Node pos="s" depth="0" NCoef="0" IVar="1" Cut="1.5836036682128906e+02" cType="1" res="6.9458179175853729e-02" rms="4.1761338710784912e-01" purity="5.1054435968399048e-01" nType="0">
        <Node pos="l" depth="1" NCoef="0" IVar="0" Cut="3.8617823272943497e-02" cType="1" res="1.9485602155327797e-02" rms="4.2059865593910217e-01" purity="3.5750740766525269e-01" nType="0">
          <Node pos="l" depth="2" NCoef="0" IVar="-1" Cut="0.0000000000000000e+00" cType="1" res="1.7820499488152564e-04" rms="4.4268321990966797e-01" purity="4.5046895742416382e-01" nType="-99"/>
          <Node pos="r" depth="2" NCoef="0" IVar="-1" Cut="0.0000000000000000e+00" cType="1" res="-6.4984813798218966e-04" rms="3.6660382151603699e-01" purity="2.1089476346969604e-01" nType="-99"/>
        </Node>
        <Node pos="r" depth="1" NCoef="0" IVar="1" Cut="2.4954248046875000e+02" cType="1" res="1.5694116055965424e-01" rms="3.9748629927635193e-01" purity="7.7845388650894165e-01" nType="0">
          <Node pos="l" depth="2" NCoef="0" IVar="-1" Cut="0.0000000000000000e+00" cType="1" res="2.5972063303925097e-04" rms="4.3007314205169678e-01" purity="7.2829812765121460e-01" nType="-99"/>
          <Node pos="r" depth="2" NCoef="0" IVar="-1" Cut="0.0000000000000000e+00" cType="1" res="3.6924809683114290e-04" rms="2.6724496483802795e-01" purity="9.1637098789215088e-01" nType="-99"/>
        </Node>
      </Node>
    </BinaryTree>
    <BinaryTree type="DecisionTree" boostWeight="1.0000000000000000e+00" itree="795">
      <Node pos="s" depth="0" NCoef="0" IVar="1" Cut="1.3458947753906250e+02" cType="1" res="5.5987652391195297e-02" rms="4.1450098156929016e-01" purity="4.9668797850608826e-01" nType="0">
        <Node pos="l" depth="1" NCoef="0" IVar="0" Cut="2.5400951504707336e-02" cType="1" res="-1.0205821134150028e-02" rms="4.0098521113395691e-01" purity="2.8773936629295349e-01" nType="0">
          <Node pos="l" depth="2" NCoef="0" IVar="-1" Cut="0.0000000000000000e+00" cType="1" res="1.6284109733533114e-04" rms="4.3798157572746277e-01" purity="4.1627588868141174e-01" nType="-99"/>
          <Node pos="r" depth="2" NCoef="0" IVar="-1" Cut="0.0000000000000000e+00" cType="1" res="-8.1995991058647633e-04" rms="3.5564914345741272e-01" purity="1.7918163537979126e-01" nType="-99"/>
        </Node>
        <Node pos="r" depth="1" NCoef="0" IVar="1" Cut="2.5098649597167969e+02" cType="1" res="1.3000622391700745e-01" rms="4.1684246063232422e-01" purity="7.3033750057220459e-01" nType="0">
          <Node pos="l" depth="2" NCoef="0" IVar="-1" Cut="0.0000000000000000e+00" cType="1" res="2.2472845739684999e-04" rms="4.4353646039962769e-01" purity="6.7941325902938843e-01" nType="-99"/>
          <Node pos="r" depth="2" NCoef="0" IVar="-1" Cut="0.0000000000000000e+00" cType="1" res="4.9147591926157475e-04" rms="2.5743025541305542e-01" purity="9.2281168699264526e-01" nType="-99"/>
        </Node>
      </Node>
    </BinaryTree>
    <BinaryTree type="DecisionTree" boostWeight="1.0000000000000000e+00" itree="796">
      <Node pos="s" depth="0" NCoef="0" IVar="1" Cut="1.2500346374511719e+02" cType="1" res="5.9410113841295242e-02" rms="4.1278973221778870e-01" purity="5.0177502632141113e-01" nType="0">
        <Node pos="l" depth="1" NCoef="0" IVar="1" Cut="4.0985748291015625e+01" cType="1" res="-1.7793728038668633e-02" rms="3.9234629273414612e-01" purity="2.7130532264709473e-01" nType="0">
          <Node pos="l" depth="2" NCoef="0" IVar="-1" Cut="0.0000000000000000e+00" cType="1" res="-1.9883001223206520e-03" rms="2.8842005133628845e-01" purity="9.4060562551021576e-02" nType="-99"/>
          <Node pos="r" depth="2" NCoef="0" IVar="-1" Cut="0.0000000000000000e+00" cType="1" res="1.2366671580821276e-04" rms="4.2452725768089294e-01" purity="3.5245221853256226e-01" nType="-99"/>
        </Node>
        <Node pos="r" depth="1" NCoef="0" IVar="1" Cut="2.3302647399902344e+02" cType="1" res="1.3229539990425110e-01" rms="4.1832417249679565e-01" purity="7.1935290098190308e-01" nType="0">
          <Node pos="l" depth="2" NCoef="0" IVar="-1" Cut="0.0000000000000000e+00" cType="1" res="2.4821521947160363e-04" rms="4.4558459520339966e-01" purity="6.6362154483795166e-01" nType="-99"/>
          <Node pos="r" depth="2" NCoef="0" IVar="-1" Cut="0.0000000000000000e+00" cType="1" res="4.3521253974176943e-04" rms="2.8073781728744507e-01" purity="9.0592569112777710e-01" nType="-99"/>
        </Node>
      </Node>
    </BinaryTree>
    <BinaryTree type="DecisionTree" boostWeight="1.0000000000000000e+00" itree="797">
      <Node pos="s" depth="0" NCoef="0" IVar="2" Cut="5.4184500000000000e+04" cType="1" res="6.2499284744262695e-02" rms="4.2113324999809265e-01" purity="4.9863776564598083e-01" nType="0">
        <Node pos="l" depth="1" NCoef="0" IVar="0" Cut="1.2700475752353668e-02" cType="1" res="1.6447920352220535e-02" rms="4.2691090703010559e-01" purity="3.4758171439170837e-01" nType="0">
          <Node pos="l" depth="2" NCoef="0" IVar="-1" Cut="0.0000000000000000e+00" cType="1" res="2.4431286146864295e-04" rms="4.4067481160163879e-01" purity="4.8430094122886658e-01" nType="-99"/>
          <Node pos="r" depth="2" NCoef="0" IVar="-1" Cut="0.0000000000000000e+00" cType="1" res="-6.8623819970525801e-05" rms="4.1739174723625183e-01" purity="3.0965381860733032e-01" nType="-99"/>
        </Node>
        <Node pos="r" depth="1" NCoef="0" IVar="1" Cut="2.3056416320800781e+02" cType="1" res="1.5056355297565460e-01" rms="3.9518690109252930e-01" purity="7.8750294446945190e-01" nType="0">
          <Node pos="l" depth="2" NCoef="0" IVar="-1" Cut="0.0000000000000000e+00" cType="1" res="2.4334902991540730e-04" rms="4.3266239762306213e-01" purity="7.2713518142700195e-01" nType="-99"/>
          <Node pos="r" depth="2" NCoef="0" IVar="-1" Cut="0.0000000000000000e+00" cType="1" res="4.5681951451115310e-04" rms="2.6750493049621582e-01" purity="9.2131483554840088e-01" nType="-99"/>
        </Node>
      </Node>
    </BinaryTree>
    <BinaryTree type="DecisionTree" boostWeight="1.0000000000000000e+00" itree="798">
      <Node pos="s" depth="0" NCoef="0" IVar="2" Cut="6.1173269531250000e+04" cType="1" res="5.5877916514873505e-02" rms="4.1473922133445740e-01" purity="4.9575600028038025e-01" nType="0">
        <Node pos="l" depth="1" NCoef="0" IVar="0" Cut="3.8101427257061005e-02" cType="1" res="7.5031048618257046e-03" rms="4.2131483554840088e-01" purity="3.5421121120452881e-01" nType="0">
          <Node pos="l" depth="2" NCoef="0" IVar="-1" Cut="0.0000000000000000e+00" cType="1" res="1.5983288176357746e-04" rms="4.4370934367179871e-01" purity="4.4919979572296143e-01" nType="-99"/>
          <Node pos="r" depth="2" NCoef="0" IVar="-1" Cut="0.0000000000000000e+00" cType="1" res="-7.1911141276359558e-04" rms="3.7055516242980957e-01" purity="2.1245788037776947e-01" nType="-99"/>
        </Node>
        <Node pos="r" depth="1" NCoef="0" IVar="1" Cut="2.2025901794433594e+02" cType="1" res="1.6554726660251617e-01" rms="3.7711086869239807e-01" purity="8.1664878129959106e-01" nType="0">
          <Node pos="l" depth="2" NCoef="0" IVar="-1" Cut="0.0000000000000000e+00" cType="1" res="2.5566431577317417e-04" rms="4.2850601673126221e-01" purity="7.4178713560104370e-01" nType="-99"/>
          <Node pos="r" depth="2" NCoef="0" IVar="-1" Cut="0.0000000000000000e+00" cType="1" res="3.5279188887216151e-04" rms="2.6027426123619080e-01" purity="9.2562073469161987e-01" nType="-99"/>
        </Node>
      </Node>
    </BinaryTree>
    <BinaryTree type="DecisionTree" boostWeight="1.0000000000000000e+00" itree="799">
      <Node pos="s" depth="0" NCoef="0" IVar="1" Cut="2.2947479248046875e+02" cType="1" res="5.8675453066825867e-02" rms="4.1632986068725586e-01" purity="4.9664917588233948e-01" nType="0">
        <Node pos="l" depth="1" NCoef="0" IVar="0" Cut="6.4363040030002594e-02" cType="1" res="3.3520139753818512e-02" rms="4.2445331811904907e-01" purity="4.4190460443496704e-01" nType="0">
          <Node pos="l" depth="2" NCoef="0" IVar="-1" Cut="0.0000000000000000e+00" cType="1" res="2.1706639381591231e-04" rms="4.2412218451499939e-01" purity="4.8171237111091614e-01" nType="-99"/>
          <Node pos="r" depth="2" NCoef="0" IVar="-1" Cut="0.0000000000000000e+00" cType="1" res="-8.0873188562691212e-04" rms="3.9284130930900574e-01" purity="2.7148729562759399e-01" nType="-99"/>
        </Node>
        <Node pos="r" depth="1" NCoef="0" IVar="-1" Cut="0.0000000000000000e+00" cType="1" res="5.3079653298482299e-04" rms="2.9041799902915955e-01" purity="8.9886152744293213e-01" nType="-99"/>
      </Node>
    </BinaryTree>
    <BinaryTree type="DecisionTree" boostWeight="1.0000000000000000e+00" itree="800">
      <Node pos="s" depth="0" NCoef="0" IVar="3" Cut="1.2258180618286133e+01" cType="1" res="5.9218924492597580e-02" rms="4.1736799478530884e-01" purity="4.9898707866668701e-01" nType="0">
        <Node pos="l" depth="1" NCoef="0" IVar="0" Cut="2.0067924633622169e-02" cType="1" res="-2.1358115598559380e-02" rms="4.0546566247940063e-01" purity="2.7754884958267212e-01" nType="0">
          <Node pos="l" depth="2" NCoef="0" IVar="-1" Cut="0.0000000000000000e+00" cType="1" res="1.4231468958314508e-04" rms="4.4755440950393677e-01" purity="4.0490186214447021e-01" nType="-99"/>
          <Node pos="r" depth="2" NCoef="0" IVar="-1" Cut="0.0000000000000000e+00" cType="1" res="-9.1087148757651448e-04" rms="3.5559055209159851e-01" purity="1.7721314728260040e-01" nType="-99"/>
        </Node>
        <Node pos="r" depth="1" NCoef="0" IVar="0" Cut="3.8859125226736069e-02" cType="1" res="1.2227510660886765e-01" rms="4.1569602489471436e-01" purity="6.7227518558502197e-01" nType="0">
          <Node pos="l" depth="2" NCoef="0" IVar="-1" Cut="0.0000000000000000e+00" cType="1" res="4.6208626008592546e-04" rms="3.4270876646041870e-01" purity="8.4787797927856445e-01" nType="-99"/>
          <Node pos="r" depth="2" NCoef="0" IVar="-1" Cut="0.0000000000000000e+00" cType="1" res="1.9772903760895133e-04" rms="4.3562939763069153e-01" purity="5.8767169713973999e-01" nType="-99"/>
        </Node>
      </Node>
    </BinaryTree>
    <BinaryTree type="DecisionTree" boostWeight="1.0000000000000000e+00" itree="801">
      <Node pos="s" depth="0" NCoef="0" IVar="2" Cut="7.2246000000000000e+04" cType="1" res="5.6094501167535782e-02" rms="4.1409343481063843e-01" purity="4.9685403704643250e-01" nType="0">
        <Node pos="l" depth="1" NCoef="0" IVar="0" Cut="6.4363040030002594e-02" cType="1" res="1.8477650359272957e-02" rms="4.2264363169670105e-01" purity="4.0030714869499207e-01" nType="0">
          <Node pos="l" depth="2" NCoef="0" IVar="-1" Cut="0.0000000000000000e+00" cType="1" res="1.4893348270561546e-04" rms="4.2679196596145630e-01" purity="4.3909233808517456e-01" nType="-99"/>
          <Node pos="r" depth="2" NCoef="0" IVar="-1" Cut="0.0000000000000000e+00" cType="1" res="-1.2235164176672697e-03" rms="3.7234282493591309e-01" purity="2.2248999774456024e-01" nType="-99"/>
        </Node>
        <Node pos="r" depth="1" NCoef="0" IVar="1" Cut="2.0194917297363281e+02" cType="1" res="1.9612008333206177e-01" rms="3.4636360406875610e-01" purity="8.5624170303344727e-01" nType="0">
          <Node pos="l" depth="2" NCoef="0" IVar="-1" Cut="0.0000000000000000e+00" cType="1" res="2.7559258160181344e-04" rms="3.9934986829757690e-01" purity="7.9427176713943481e-01" nType="-99"/>
          <Node pos="r" depth="2" NCoef="0" IVar="-1" Cut="0.0000000000000000e+00" cType="1" res="4.8168600187636912e-04" rms="2.8818666934967041e-01" purity="9.0726751089096069e-01" nType="-99"/>
        </Node>
      </Node>
    </BinaryTree>
    <BinaryTree type="DecisionTree" boostWeight="1.0000000000000000e+00" itree="802">
      <Node pos="s" depth="0" NCoef="0" IVar="1" Cut="1.2372009277343750e+02" cType="1" res="6.6505901515483856e-02" rms="4.1665363311767578e-01" purity="5.0730556249618530e-01" nType="0">
        <Node pos="l" depth="1" NCoef="0" IVar="0" Cut="2.5133045390248299e-02" cType="1" res="-1.7826922703534365e-03" rms="4.0113985538482666e-01" purity="2.8717157244682312e-01" nType="0">
          <Node pos="l" depth="2" NCoef="0" IVar="-1" Cut="0.0000000000000000e+00" cType="1" res="1.7043018306139857e-04" rms="4.4109952449798584e-01" purity="4.1534975171089172e-01" nType="-99"/>
          <Node pos="r" depth="2" NCoef="0" IVar="-1" Cut="0.0000000000000000e+00" cType="1" res="-8.3666795399039984e-04" rms="3.4895601868629456e-01" purity="1.7256118357181549e-01" nType="-99"/>
        </Node>
        <Node pos="r" depth="1" NCoef="0" IVar="0" Cut="2.8488764539361000e-02" cType="1" res="1.3119684159755707e-01" rms="4.2073312401771545e-01" purity="7.1584230661392212e-01" nType="0">
          <Node pos="l" depth="2" NCoef="0" IVar="-1" Cut="0.0000000000000000e+00" cType="1" res="5.1305140368640423e-04" rms="3.3147400617599487e-01" purity="8.6124676465988159e-01" nType="-99"/>
          <Node pos="r" depth="2" NCoef="0" IVar="-1" Cut="0.0000000000000000e+00" cType="1" res="2.4248610134236515e-04" rms="4.3947848677635193e-01" purity="6.6607069969177246e-01" nType="-99"/>
        </Node>
      </Node>
    </BinaryTree>
    <BinaryTree type="DecisionTree" boostWeight="1.0000000000000000e+00" itree="803">
      <Node pos="s" depth="0" NCoef="0" IVar="1" Cut="1.3710118103027344e+02" cType="1" res="6.8609848618507385e-02" rms="4.1309952735900879e-01" purity="5.1384347677230835e-01" nType="0">
        <Node pos="l" depth="1" NCoef="0" IVar="1" Cut="7.7825912475585938e+01" cType="1" res="-2.5033743586391211e-03" rms="4.0505483746528625e-01" purity="2.9808098077774048e-01" nType="0">
          <Node pos="l" depth="2" NCoef="0" IVar="-1" Cut="0.0000000000000000e+00" cType="1" res="-5.1073863869532943e-04" rms="3.5330379009246826e-01" purity="1.6874611377716064e-01" nType="-99"/>
          <Node pos="r" depth="2" NCoef="0" IVar="-1" Cut="0.0000000000000000e+00" cType="1" res="2.2284583246801049e-04" rms="4.4839128851890564e-01" purity="4.4219002127647400e-01" nType="-99"/>
        </Node>
        <Node pos="r" depth="1" NCoef="0" IVar="1" Cut="2.5565281677246094e+02" cType="1" res="1.4687314629554749e-01" rms="4.0768134593963623e-01" purity="7.5129973888397217e-01" nType="0">
          <Node pos="l" depth="2" NCoef="0" IVar="-1" Cut="0.0000000000000000e+00" cType="1" res="2.9044770053587854e-04" rms="4.3091464042663574e-01" purity="7.1091711521148682e-01" nType="-99"/>
          <Node pos="r" depth="2" NCoef="0" IVar="-1" Cut="0.0000000000000000e+00" cType="1" res="4.5824679546058178e-04" rms="2.5669008493423462e-01" purity="9.2481225728988647e-01" nType="-99"/>
        </Node>
      </Node>
    </BinaryTree>
    <BinaryTree type="DecisionTree" boostWeight="1.0000000000000000e+00" itree="804">
      <Node pos="s" depth="0" NCoef="0" IVar="3" Cut="1.3542619705200195e+01" cType="1" res="5.9584952890872955e-02" rms="4.1320392489433289e-01" purity="5.0219929218292236e-01" nType="0">
        <Node pos="l" depth="1" NCoef="0" IVar="0" Cut="1.0800702497363091e-02" cType="1" res="-1.6636637970805168e-02" rms="3.9932042360305786e-01" purity="2.8992578387260437e-01" nType="0">
          <Node pos="l" depth="2" NCoef="0" IVar="-1" Cut="0.0000000000000000e+00" cType="1" res="2.1937425481155515e-04" rms="4.3671992421150208e-01" purity="4.5781433582305908e-01" nType="-99"/>
          <Node pos="r" depth="2" NCoef="0" IVar="-1" Cut="0.0000000000000000e+00" cType="1" res="-5.3394201677292585e-04" rms="3.7488338351249695e-01" purity="2.3165649175643921e-01" nType="-99"/>
        </Node>
        <Node pos="r" depth="1" NCoef="0" IVar="0" Cut="3.9660222828388214e-02" cType="1" res="1.2531688809394836e-01" rms="4.1368445754051208e-01" purity="6.8525969982147217e-01" nType="0">
          <Node pos="l" depth="2" NCoef="0" IVar="-1" Cut="0.0000000000000000e+00" cType="1" res="4.6297759399749339e-04" rms="3.3591970801353455e-01" purity="8.5838198661804199e-01" nType="-99"/>
          <Node pos="r" depth="2" NCoef="0" IVar="-1" Cut="0.0000000000000000e+00" cType="1" res="1.7350049165543169e-04" rms="4.3584281206130981e-01" purity="5.9436976909637451e-01" nType="-99"/>
        </Node>
      </Node>
    </BinaryTree>
    <BinaryTree type="DecisionTree" boostWeight="1.0000000000000000e+00" itree="805">
      <Node pos="s" depth="0" NCoef="0" IVar="1" Cut="1.3166255187988281e+02" cType="1" res="5.9852931648492813e-02" rms="4.1551759839057922e-01" purity="5.0095689296722412e-01" nType="0">
        <Node pos="l" depth="1" NCoef="0" IVar="0" Cut="1.2183989398181438e-02" cType="1" res="-9.3549843877553940e-03" rms="4.0307039022445679e-01" purity="2.8282192349433899e-01" nType="0">
          <Node pos="l" depth="2" NCoef="0" IVar="-1" Cut="0.0000000000000000e+00" cType="1" res="2.0762908388860524e-04" rms="4.4536772370338440e-01" purity="4.2299675941467285e-01" nType="-99"/>
          <Node pos="r" depth="2" NCoef="0" IVar="-1" Cut="0.0000000000000000e+00" cType="1" res="-3.0514417449012399e-04" rms="3.8319316506385803e-01" purity="2.3970091342926025e-01" nType="-99"/>
        </Node>
        <Node pos="r" depth="1" NCoef="0" IVar="0" Cut="3.9251808077096939e-02" cType="1" res="1.3231450319290161e-01" rms="4.1600173711776733e-01" purity="7.2934699058532715e-01" nType="0">
          <Node pos="l" depth="2" NCoef="0" IVar="-1" Cut="0.0000000000000000e+00" cType="1" res="4.1973509360104799e-04" rms="3.6289951205253601e-01" purity="8.2799178361892700e-01" nType="-99"/>
          <Node pos="r" depth="2" NCoef="0" IVar="-1" Cut="0.0000000000000000e+00" cType="1" res="1.8601465853862464e-04" rms="4.3767133355140686e-01" purity="6.6716963052749634e-01" nType="-99"/>
        </Node>
      </Node>
    </BinaryTree>
    <BinaryTree type="DecisionTree" boostWeight="1.0000000000000000e+00" itree="806">
      <Node pos="s" depth="0" NCoef="0" IVar="2" Cut="6.8273312500000000e+04" cType="1" res="6.5082751214504242e-02" rms="4.1532516479492188e-01" purity="5.0745016336441040e-01" nType="0">
        <Node pos="l" depth="1" NCoef="0" IVar="0" Cut="5.0266090780496597e-02" cType="1" res="2.7171302586793900e-02" rms="4.2453455924987793e-01" purity="3.9930289983749390e-01" nType="0">
          <Node pos="l" depth="2" NCoef="0" IVar="-1" Cut="0.0000000000000000e+00" cType="1" res="1.6649800818413496e-04" rms="4.3139252066612244e-01" purity="4.6670019626617432e-01" nType="-99"/>
          <Node pos="r" depth="2" NCoef="0" IVar="-1" Cut="0.0000000000000000e+00" cType="1" res="-7.9162965994328260e-04" rms="3.8352972269058228e-01" purity="2.2414395213127136e-01" nType="-99"/>
        </Node>
        <Node pos="r" depth="1" NCoef="0" IVar="1" Cut="2.0142605590820312e+02" cType="1" res="1.8143387138843536e-01" rms="3.6167478561401367e-01" purity="8.3935660123825073e-01" nType="0">
          <Node pos="l" depth="2" NCoef="0" IVar="-1" Cut="0.0000000000000000e+00" cType="1" res="2.9310846002772450e-04" rms="4.0461549162864685e-01" purity="7.8640919923782349e-01" nType="-99"/>
          <Node pos="r" depth="2" NCoef="0" IVar="-1" Cut="0.0000000000000000e+00" cType="1" res="4.5769798452965915e-04" rms="2.9872560501098633e-01" purity="8.9881223440170288e-01" nType="-99"/>
        </Node>
      </Node>
    </BinaryTree>
    <BinaryTree type="DecisionTree" boostWeight="1.0000000000000000e+00" itree="807">
      <Node pos="s" depth="0" NCoef="0" IVar="3" Cut="1.2480910301208496e+01" cType="1" res="6.3330121338367462e-02" rms="4.1538169980049133e-01" purity="5.0550973415374756e-01" nType="0">
        <Node pos="l" depth="1" NCoef="0" IVar="0" Cut="2.0980533212423325e-02" cType="1" res="-1.3830577954649925e-02" rms="4.0138429403305054e-01" purity="2.9175278544425964e-01" nType="0">
          <Node pos="l" depth="2" NCoef="0" IVar="-1" Cut="0.0000000000000000e+00" cType="1" res="1.9505388627294451e-04" rms="4.3164646625518799e-01" purity="4.1231647133827209e-01" nType="-99"/>
          <Node pos="r" depth="2" NCoef="0" IVar="-1" Cut="0.0000000000000000e+00" cType="1" res="-6.6681159660220146e-04" rms="3.6557212471961975e-01" purity="1.9219334423542023e-01" nType="-99"/>
        </Node>
        <Node pos="r" depth="1" NCoef="0" IVar="0" Cut="4.2733144015073776e-02" cType="1" res="1.2538821995258331e-01" rms="4.1604951024055481e-01" purity="6.7742830514907837e-01" nType="0">
          <Node pos="l" depth="2" NCoef="0" IVar="-1" Cut="0.0000000000000000e+00" cType="1" res="4.3817647383548319e-04" rms="3.6205264925956726e-01" purity="8.2431429624557495e-01" nType="-99"/>
          <Node pos="r" depth="2" NCoef="0" IVar="-1" Cut="0.0000000000000000e+00" cType="1" res="1.7769620171748102e-04" rms="4.3395569920539856e-01" purity="5.9369194507598877e-01" nType="-99"/>
        </Node>
      </Node>
    </BinaryTree>
    <BinaryTree type="DecisionTree" boostWeight="1.0000000000000000e+00" itree="808">
      <Node pos="s" depth="0" NCoef="0" IVar="2" Cut="5.4184500000000000e+04" cType="1" res="5.5910971015691757e-02" rms="4.1615492105484009e-01" purity="4.9470719695091248e-01" nType="0">
        <Node pos="l" depth="1" NCoef="0" IVar="1" Cut="3.5614398956298828e+01" cType="1" res="7.8848330304026604e-03" rms="4.1821768879890442e-01" purity="3.4334588050842285e-01" nType="0">
          <Node pos="l" depth="2" NCoef="0" IVar="-1" Cut="0.0000000000000000e+00" cType="1" res="-2.7109610382467508e-03" rms="2.9079753160476685e-01" purity="9.5461435616016388e-02" nType="-99"/>
          <Node pos="r" depth="2" NCoef="0" IVar="-1" Cut="0.0000000000000000e+00" cType="1" res="1.3493410369846970e-04" rms="4.4068971276283264e-01" purity="4.0944811701774597e-01" nType="-99"/>
        </Node>
        <Node pos="r" depth="1" NCoef="0" IVar="0" Cut="3.8227032870054245e-02" cType="1" res="1.4837746322154999e-01" rms="3.9608114957809448e-01" purity="7.8612869977951050e-01" nType="0">
          <Node pos="l" depth="2" NCoef="0" IVar="-1" Cut="0.0000000000000000e+00" cType="1" res="4.4625787995755672e-04" rms="2.8115880489349365e-01" purity="9.1245037317276001e-01" nType="-99"/>
          <Node pos="r" depth="2" NCoef="0" IVar="-1" Cut="0.0000000000000000e+00" cType="1" res="2.6553097995929420e-04" rms="4.2990905046463013e-01" purity="7.3039752244949341e-01" nType="-99"/>
        </Node>
      </Node>
    </BinaryTree>
    <BinaryTree type="DecisionTree" boostWeight="1.0000000000000000e+00" itree="809">
      <Node pos="s" depth="0" NCoef="0" IVar="3" Cut="1.4930736541748047e+01" cType="1" res="6.5881423652172089e-02" rms="4.1430461406707764e-01" purity="5.1047909259796143e-01" nType="0">
        <Node pos="l" depth="1" NCoef="0" IVar="0" Cut="1.2183989398181438e-02" cType="1" res="-1.0208224877715111e-02" rms="4.0694072842597961e-01" purity="2.9467773437500000e-01" nType="0">
          <Node pos="l" depth="2" NCoef="0" IVar="-1" Cut="0.0000000000000000e+00" cType="1" res="2.5852888938970864e-04" rms="4.4358381628990173e-01" purity="4.6727150678634644e-01" nType="-99"/>
          <Node pos="r" depth="2" NCoef="0" IVar="-1" Cut="0.0000000000000000e+00" cType="1" res="-3.9292089059017599e-04" rms="3.8089373707771301e-01" purity="2.3006458580493927e-01" nType="-99"/>
        </Node>
        <Node pos="r" depth="1" NCoef="0" IVar="0" Cut="3.9660222828388214e-02" cType="1" res="1.3560394942760468e-01" rms="4.0868496894836426e-01" purity="7.0822238922119141e-01" nType="0">
          <Node pos="l" depth="2" NCoef="0" IVar="-1" Cut="0.0000000000000000e+00" cType="1" res="4.3266866123303771e-04" rms="3.2549676299095154e-01" purity="8.7278985977172852e-01" nType="-99"/>
          <Node pos="r" depth="2" NCoef="0" IVar="-1" Cut="0.0000000000000000e+00" cType="1" res="2.3276126012206078e-04" rms="4.3408596515655518e-01" purity="6.2107259035110474e-01" nType="-99"/>
        </Node>
      </Node>
    </BinaryTree>
    <BinaryTree type="DecisionTree" boostWeight="1.0000000000000000e+00" itree="810">
      <Node pos="s" depth="0" NCoef="0" IVar="3" Cut="1.4930736541748047e+01" cType="1" res="4.8172757029533386e-02" rms="4.1255593299865723e-01" purity="4.8775815963745117e-01" nType="0">
        <Node pos="l" depth="1" NCoef="0" IVar="0" Cut="1.1065950617194176e-02" cType="1" res="-3.1824212521314621e-02" rms="3.9456325769424438e-01" purity="2.6997691392898560e-01" nType="0">
          <Node pos="l" depth="2" NCoef="0" IVar="-1" Cut="0.0000000000000000e+00" cType="1" res="3.3603096380829811e-04" rms="4.2557099461555481e-01" purity="4.1545632481575012e-01" nType="-99"/>
          <Node pos="r" depth="2" NCoef="0" IVar="-1" Cut="0.0000000000000000e+00" cType="1" res="-4.5539659913629293e-04" rms="3.7868243455886841e-01" purity="2.2467218339443207e-01" nType="-99"/>
        </Node>
        <Node pos="r" depth="1" NCoef="0" IVar="0" Cut="3.8965530693531036e-02" cType="1" res="1.2281036376953125e-01" rms="4.1498214006423950e-01" purity="6.9094938039779663e-01" nType="0">
          <Node pos="l" depth="2" NCoef="0" IVar="-1" Cut="0.0000000000000000e+00" cType="1" res="5.0724035827443004e-04" rms="3.2279831171035767e-01" purity="8.7607890367507935e-01" nType="-99"/>
          <Node pos="r" depth="2" NCoef="0" IVar="-1" Cut="0.0000000000000000e+00" cType="1" res="1.8496335542295128e-04" rms="4.4018030166625977e-01" purity="5.9462928771972656e-01" nType="-99"/>
        </Node>
      </Node>
    </BinaryTree>
    <BinaryTree type="DecisionTree" boostWeight="1.0000000000000000e+00" itree="811">
      <Node pos="s" depth="0" NCoef="0" IVar="3" Cut="1.3542619705200195e+01" cType="1" res="5.6905400007963181e-02" rms="4.1053846478462219e-01" purity="5.0302493572235107e-01" nType="0">
        <Node pos="l" depth="1" NCoef="0" IVar="0" Cut="1.0490266606211662e-02" cType="1" res="-2.6714200153946877e-02" rms="3.9128655195236206e-01" purity="2.8353321552276611e-01" nType="0">
          <Node pos="l" depth="2" NCoef="0" IVar="-1" Cut="0.0000000000000000e+00" cType="1" res="2.7955626137554646e-04" rms="4.2656266689300537e-01" purity="4.6118316054344177e-01" nType="-99"/>
          <Node pos="r" depth="2" NCoef="0" IVar="-1" Cut="0.0000000000000000e+00" cType="1" res="-6.1964255291968584e-04" rms="3.6792632937431335e-01" purity="2.2353211045265198e-01" nType="-99"/>
        </Node>
        <Node pos="r" depth="1" NCoef="0" IVar="0" Cut="3.8859125226736069e-02" cType="1" res="1.2756618857383728e-01" rms="4.1313996911048889e-01" purity="6.8850123882293701e-01" nType="0">
          <Node pos="l" depth="2" NCoef="0" IVar="-1" Cut="0.0000000000000000e+00" cType="1" res="5.0760118756443262e-04" rms="3.3376553654670715e-01" purity="8.6250698566436768e-01" nType="-99"/>
          <Node pos="r" depth="2" NCoef="0" IVar="-1" Cut="0.0000000000000000e+00" cType="1" res="2.0232539100106806e-04" rms="4.3455010652542114e-01" purity="6.0470098257064819e-01" nType="-99"/>
        </Node>
      </Node>
    </BinaryTree>
    <BinaryTree type="DecisionTree" boostWeight="1.0000000000000000e+00" itree="812">
      <Node pos="s" depth="0" NCoef="0" IVar="3" Cut="2.3991142272949219e+01" cType="1" res="4.5836295932531357e-02" rms="4.1594383120536804e-01" purity="4.8338937759399414e-01" nType="0">
        <Node pos="l" depth="1" NCoef="0" IVar="1" Cut="3.8498767852783203e+01" cType="1" res="-1.2826619669795036e-02" rms="4.0811213850975037e-01" purity="3.1192928552627563e-01" nType="0">
          <Node pos="l" depth="2" NCoef="0" IVar="-1" Cut="0.0000000000000000e+00" cType="1" res="-2.0063431002199650e-03" rms="3.0386728048324585e-01" purity="1.0776704549789429e-01" nType="-99"/>
          <Node pos="r" depth="2" NCoef="0" IVar="-1" Cut="0.0000000000000000e+00" cType="1" res="7.7326243626885116e-05" rms="4.3419954180717468e-01" purity="3.8168221712112427e-01" nType="-99"/>
        </Node>
        <Node pos="r" depth="1" NCoef="0" IVar="0" Cut="4.2799498885869980e-02" cType="1" res="1.3437429070472717e-01" rms="4.1196706891059875e-01" purity="7.4216836690902710e-01" nType="0">
          <Node pos="l" depth="2" NCoef="0" IVar="-1" Cut="0.0000000000000000e+00" cType="1" res="4.8968789633363485e-04" rms="3.3004793524742126e-01" purity="8.7207221984863281e-01" nType="-99"/>
          <Node pos="r" depth="2" NCoef="0" IVar="-1" Cut="0.0000000000000000e+00" cType="1" res="2.2656354121863842e-04" rms="4.3952465057373047e-01" purity="6.7866700887680054e-01" nType="-99"/>
        </Node>
      </Node>
    </BinaryTree>
    <BinaryTree type="DecisionTree" boostWeight="1.0000000000000000e+00" itree="813">
      <Node pos="s" depth="0" NCoef="0" IVar="2" Cut="3.6123000000000000e+04" cType="1" res="6.8371377885341644e-02" rms="4.1695636510848999e-01" purity="5.0953572988510132e-01" nType="0">
        <Node pos="l" depth="1" NCoef="0" IVar="0" Cut="1.1377927847206593e-02" cType="1" res="9.8277591168880463e-03" rms="4.1483908891677856e-01" purity="3.1849166750907898e-01" nType="0">
          <Node pos="l" depth="2" NCoef="0" IVar="-1" Cut="0.0000000000000000e+00" cType="1" res="3.0561728635802865e-04" rms="4.4274705648422241e-01" purity="5.0152218341827393e-01" nType="-99"/>
          <Node pos="r" depth="2" NCoef="0" IVar="-1" Cut="0.0000000000000000e+00" cType="1" res="-2.2837964934296906e-04" rms="3.9390879869461060e-01" purity="2.5817942619323730e-01" nType="-99"/>
        </Node>
        <Node pos="r" depth="1" NCoef="0" IVar="0" Cut="4.1265200823545456e-02" cType="1" res="1.3608698546886444e-01" rms="4.0907201170921326e-01" purity="7.3051059246063232e-01" nType="0">
          <Node pos="l" depth="2" NCoef="0" IVar="-1" Cut="0.0000000000000000e+00" cType="1" res="4.1377008892595768e-04" rms="3.1955429911613464e-01" purity="8.7894588708877563e-01" nType="-99"/>
          <Node pos="r" depth="2" NCoef="0" IVar="-1" Cut="0.0000000000000000e+00" cType="1" res="1.7745947116054595e-04" rms="4.4044825434684753e-01" purity="6.4663922786712646e-01" nType="-99"/>
        </Node>
      </Node>
    </BinaryTree>
    <BinaryTree type="DecisionTree" boostWeight="1.0000000000000000e+00" itree="814">
      <Node pos="s" depth="0" NCoef="0" IVar="3" Cut="1.3542619705200195e+01" cType="1" res="6.0762312263250351e-02" rms="4.1618850827217102e-01" purity="5.0069493055343628e-01" nType="0">
        <Node pos="l" depth="1" NCoef="0" IVar="0" Cut="1.2183989398181438e-02" cType="1" res="-1.2543394230306149e-02" rms="4.0163943171501160e-01" purity="2.9278856515884399e-01" nType="0">
          <Node pos="l" depth="2" NCoef="0" IVar="-1" Cut="0.0000000000000000e+00" cType="1" res="1.7422674864064902e-04" rms="4.3112421035766602e-01" purity="4.2982077598571777e-01" nType="-99"/>
          <Node pos="r" depth="2" NCoef="0" IVar="-1" Cut="0.0000000000000000e+00" cType="1" res="-3.3184300991706550e-04" rms="3.8437888026237488e-01" purity="2.4266077578067780e-01" nType="-99"/>
        </Node>
        <Node pos="r" depth="1" NCoef="0" IVar="0" Cut="4.1265200823545456e-02" cType="1" res="1.2483803927898407e-01" rms="4.1810348629951477e-01" purity="6.8242359161376953e-01" nType="0">
          <Node pos="l" depth="2" NCoef="0" IVar="-1" Cut="0.0000000000000000e+00" cType="1" res="4.6841742005199194e-04" rms="3.4105408191680908e-01" purity="8.5315233469009399e-01" nType="-99"/>
          <Node pos="r" depth="2" NCoef="0" IVar="-1" Cut="0.0000000000000000e+00" cType="1" res="1.9187114958185703e-04" rms="4.4288590550422668e-01" purity="5.8318954706192017e-01" nType="-99"/>
        </Node>
      </Node>
    </BinaryTree>
    <BinaryTree type="DecisionTree" boostWeight="1.0000000000000000e+00" itree="815">
      <Node pos="s" depth="0" NCoef="0" IVar="3" Cut="1.3542619705200195e+01" cType="1" res="5.6806720793247223e-02" rms="4.1604354977607727e-01" purity="4.9612855911254883e-01" nType="0">
        <Node pos="l" depth="1" NCoef="0" IVar="0" Cut="1.2183989398181438e-02" cType="1" res="-1.8656907603144646e-02" rms="4.0167066454887390e-01" purity="2.8332993388175964e-01" nType="0">
          <Node pos="l" depth="2" NCoef="0" IVar="-1" Cut="0.0000000000000000e+00" cType="1" res="1.8202957289759070e-04" rms="4.3879991769790649e-01" purity="4.4491085410118103e-01" nType="-99"/>
          <Node pos="r" depth="2" NCoef="0" IVar="-1" Cut="0.0000000000000000e+00" cType="1" res="-5.4315378656610847e-04" rms="3.7655439972877502e-01" purity="2.2166827321052551e-01" nType="-99"/>
        </Node>
        <Node pos="r" depth="1" NCoef="0" IVar="0" Cut="4.2733144015073776e-02" cType="1" res="1.2271033227443695e-01" rms="4.1718056797981262e-01" purity="6.8196898698806763e-01" nType="0">
          <Node pos="l" depth="2" NCoef="0" IVar="-1" Cut="0.0000000000000000e+00" cType="1" res="4.6673667384311557e-04" rms="3.5673052072525024e-01" purity="8.3102971315383911e-01" nType="-99"/>
          <Node pos="r" depth="2" NCoef="0" IVar="-1" Cut="0.0000000000000000e+00" cType="1" res="1.9684771541506052e-04" rms="4.3769380450248718e-01" purity="6.0106825828552246e-01" nType="-99"/>
        </Node>
      </Node>
    </BinaryTree>
    <BinaryTree type="DecisionTree" boostWeight="1.0000000000000000e+00" itree="816">
      <Node pos="s" depth="0" NCoef="0" IVar="2" Cut="4.4136394531250000e+04" cType="1" res="5.7949684560298920e-02" rms="4.1349321603775024e-01" purity="5.0010925531387329e-01" nType="0">
        <Node pos="l" depth="1" NCoef="0" IVar="0" Cut="2.5085821747779846e-02" cType="1" res="4.5896014198660851e-03" rms="4.1104671359062195e-01" purity="3.2481572031974792e-01" nType="0">
          <Node pos="l" depth="2" NCoef="0" IVar="-1" Cut="0.0000000000000000e+00" cType="1" res="2.4379846581723541e-04" rms="4.4131040573120117e-01" purity="4.4694644212722778e-01" nType="-99"/>
          <Node pos="r" depth="2" NCoef="0" IVar="-1" Cut="0.0000000000000000e+00" cType="1" res="-3.5691572702489793e-04" rms="3.7638962268829346e-01" purity="2.2807432711124420e-01" nType="-99"/>
        </Node>
        <Node pos="r" depth="1" NCoef="0" IVar="0" Cut="4.4180817902088165e-02" cType="1" res="1.3582222163677216e-01" rms="4.0459993481636047e-01" purity="7.5592881441116333e-01" nType="0">
          <Node pos="l" depth="2" NCoef="0" IVar="-1" Cut="0.0000000000000000e+00" cType="1" res="4.5640254393219948e-04" rms="3.1831523776054382e-01" purity="8.8068807125091553e-01" nType="-99"/>
          <Node pos="r" depth="2" NCoef="0" IVar="-1" Cut="0.0000000000000000e+00" cType="1" res="2.2405630443245173e-04" rms="4.4266599416732788e-01" purity="6.6964673995971680e-01" nType="-99"/>
        </Node>
      </Node>
    </BinaryTree>
    <BinaryTree type="DecisionTree" boostWeight="1.0000000000000000e+00" itree="817">
      <Node pos="s" depth="0" NCoef="0" IVar="1" Cut="1.5883671569824219e+02" cType="1" res="6.2545254826545715e-02" rms="4.1767975687980652e-01" purity="5.0263822078704834e-01" nType="0">
        <Node pos="l" depth="1" NCoef="0" IVar="0" Cut="1.2566522695124149e-02" cType="1" res="1.1752420105040073e-02" rms="4.1882854700088501e-01" purity="3.4768113493919373e-01" nType="0">
          <Node pos="l" depth="2" NCoef="0" IVar="-1" Cut="0.0000000000000000e+00" cType="1" res="1.9518488261383027e-04" rms="4.3766376376152039e-01" purity="4.9146303534507751e-01" nType="-99"/>
          <Node pos="r" depth="2" NCoef="0" IVar="-1" Cut="0.0000000000000000e+00" cType="1" res="-1.4869346341583878e-04" rms="4.0623024106025696e-01" purity="3.0688872933387756e-01" nType="-99"/>
        </Node>
        <Node pos="r" depth="1" NCoef="0" IVar="1" Cut="2.5600585937500000e+02" cType="1" res="1.5168069303035736e-01" rms="4.0037161111831665e-01" purity="7.7456980943679810e-01" nType="0">
          <Node pos="l" depth="2" NCoef="0" IVar="-1" Cut="0.0000000000000000e+00" cType="1" res="2.3881344532128423e-04" rms="4.2709472775459290e-01" purity="7.3235559463500977e-01" nType="-99"/>
          <Node pos="r" depth="2" NCoef="0" IVar="-1" Cut="0.0000000000000000e+00" cType="1" res="4.8748025437816978e-04" rms="2.7022555470466614e-01" purity="9.1596096754074097e-01" nType="-99"/>
        </Node>
      </Node>
    </BinaryTree>
    <BinaryTree type="DecisionTree" boostWeight="1.0000000000000000e+00" itree="818">
      <Node pos="s" depth="0" NCoef="0" IVar="1" Cut="1.0517140960693359e+02" cType="1" res="5.2593123167753220e-02" rms="4.1366702318191528e-01" purity="4.9206021428108215e-01" nType="0">
        <Node pos="l" depth="1" NCoef="0" IVar="1" Cut="5.4515071868896484e+01" cType="1" res="-2.8760416433215141e-02" rms="3.8015231490135193e-01" purity="2.3575299978256226e-01" nType="0">
          <Node pos="l" depth="2" NCoef="0" IVar="-1" Cut="0.0000000000000000e+00" cType="1" res="-6.3134252559393644e-04" rms="3.2495525479316711e-01" purity="1.2810036540031433e-01" nType="-99"/>
          <Node pos="r" depth="2" NCoef="0" IVar="-1" Cut="0.0000000000000000e+00" cType="1" res="9.2933318228460848e-05" rms="4.1986057162284851e-01" purity="3.3651095628738403e-01" nType="-99"/>
        </Node>
        <Node pos="r" depth="1" NCoef="0" IVar="0" Cut="2.8488764539361000e-02" cType="1" res="1.1038916558027267e-01" rms="4.2658978700637817e-01" purity="6.7414861917495728e-01" nType="0">
          <Node pos="l" depth="2" NCoef="0" IVar="-1" Cut="0.0000000000000000e+00" cType="1" res="4.7252661897800863e-04" rms="3.6563095450401306e-01" purity="8.2115006446838379e-01" nType="-99"/>
          <Node pos="r" depth="2" NCoef="0" IVar="-1" Cut="0.0000000000000000e+00" cType="1" res="2.0191638031974435e-04" rms="4.3804728984832764e-01" purity="6.2457650899887085e-01" nType="-99"/>
        </Node>
      </Node>
    </BinaryTree>
    <BinaryTree type="DecisionTree" boostWeight="1.0000000000000000e+00" itree="819">
      <Node pos="s" depth="0" NCoef="0" IVar="1" Cut="1.3844578552246094e+02" cType="1" res="6.2769226729869843e-02" rms="4.1321894526481628e-01" purity="5.0599348545074463e-01" nType="0">
        <Node pos="l" depth="1" NCoef="0" IVar="0" Cut="3.8617823272943497e-02" cType="1" res="-3.0209419783204794e-03" rms="4.0408706665039062e-01" purity="2.9845705628395081e-01" nType="0">
          <Node pos="l" depth="2" NCoef="0" IVar="-1" Cut="0.0000000000000000e+00" cType="1" res="1.3532144657801837e-04" rms="4.3546685576438904e-01" purity="3.9107757806777954e-01" nType="-99"/>
          <Node pos="r" depth="2" NCoef="0" IVar="-1" Cut="0.0000000000000000e+00" cType="1" res="-1.2487844796851277e-03" rms="3.3006149530410767e-01" purity="1.3911740481853485e-01" nType="-99"/>
        </Node>
        <Node pos="r" depth="1" NCoef="0" IVar="1" Cut="2.5799053955078125e+02" cType="1" res="1.3886696100234985e-01" rms="4.1059157252311707e-01" purity="7.4604529142379761e-01" nType="0">
          <Node pos="l" depth="2" NCoef="0" IVar="-1" Cut="0.0000000000000000e+00" cType="1" res="2.6805352536030114e-04" rms="4.3427830934524536e-01" purity="7.0499992370605469e-01" nType="-99"/>
          <Node pos="r" depth="2" NCoef="0" IVar="-1" Cut="0.0000000000000000e+00" cType="1" res="4.2620251770131290e-04" rms="2.5667291879653931e-01" purity="9.2304009199142456e-01" nType="-99"/>
        </Node>
      </Node>
    </BinaryTree>
    <BinaryTree type="DecisionTree" boostWeight="1.0000000000000000e+00" itree="820">
      <Node pos="s" depth="0" NCoef="0" IVar="2" Cut="6.6204593750000000e+04" cType="1" res="5.2110064774751663e-02" rms="4.1490006446838379e-01" purity="4.9123579263687134e-01" nType="0">
        <Node pos="l" depth="1" NCoef="0" IVar="0" Cut="1.2542910873889923e-02" cType="1" res="6.9233458489179611e-03" rms="4.2265841364860535e-01" purity="3.6420410871505737e-01" nType="0">
          <Node pos="l" depth="2" NCoef="0" IVar="-1" Cut="0.0000000000000000e+00" cType="1" res="2.6124881696887314e-04" rms="4.4249337911605835e-01" purity="4.8669385910034180e-01" nType="-99"/>
          <Node pos="r" depth="2" NCoef="0" IVar="-1" Cut="0.0000000000000000e+00" cType="1" res="-1.6070046694949269e-04" rms="4.1121423244476318e-01" purity="3.3305001258850098e-01" nType="-99"/>
        </Node>
        <Node pos="r" depth="1" NCoef="0" IVar="1" Cut="2.3208036804199219e+02" cType="1" res="1.7355027794837952e-01" rms="3.6666497588157654e-01" purity="8.3263581991195679e-01" nType="0">
          <Node pos="l" depth="2" NCoef="0" IVar="-1" Cut="0.0000000000000000e+00" cType="1" res="2.6243567117489874e-04" rms="4.0831691026687622e-01" purity="7.7917146682739258e-01" nType="-99"/>
          <Node pos="r" depth="2" NCoef="0" IVar="-1" Cut="0.0000000000000000e+00" cType="1" res="5.4062955314293504e-04" rms="2.5998145341873169e-01" purity="9.2668431997299194e-01" nType="-99"/>
        </Node>
      </Node>
    </BinaryTree>
    <BinaryTree type="DecisionTree" boostWeight="1.0000000000000000e+00" itree="821">
      <Node pos="s" depth="0" NCoef="0" IVar="1" Cut="2.3292008972167969e+02" cType="1" res="5.8169819414615631e-02" rms="4.1806769371032715e-01" purity="4.9626281857490540e-01" nType="0">
        <Node pos="l" depth="1" NCoef="0" IVar="0" Cut="5.6977529078722000e-02" cType="1" res="3.5641152411699295e-02" rms="4.2620843648910522e-01" purity="4.4558745622634888e-01" nType="0">
          <Node pos="l" depth="2" NCoef="0" IVar="-1" Cut="0.0000000000000000e+00" cType="1" res="1.9356641860213131e-04" rms="4.2628642916679382e-01" purity="4.8525077104568481e-01" nType="-99"/>
          <Node pos="r" depth="2" NCoef="0" IVar="-1" Cut="0.0000000000000000e+00" cType="1" res="-3.4607775160111487e-04" rms="4.1001999378204346e-01" purity="3.3325263857841492e-01" nType="-99"/>
        </Node>
        <Node pos="r" depth="1" NCoef="0" IVar="-1" Cut="0.0000000000000000e+00" cType="1" res="3.9475111407227814e-04" rms="2.8977274894714355e-01" purity="8.9932489395141602e-01" nType="-99"/>
      </Node>
    </BinaryTree>
    <BinaryTree type="DecisionTree" boostWeight="1.0000000000000000e+00" itree="822">
      <Node pos="s" depth="0" NCoef="0" IVar="3" Cut="1.4930736541748047e+01" cType="1" res="5.6745085865259171e-02" rms="4.1577687859535217e-01" purity="4.9696972966194153e-01" nType="0">
        <Node pos="l" depth="1" NCoef="0" IVar="0" Cut="2.0035559311509132e-02" cType="1" res="-1.6993086785078049e-02" rms="4.0548026561737061e-01" purity="2.8380754590034485e-01" nType="0">
          <Node pos="l" depth="2" NCoef="0" IVar="-1" Cut="0.0000000000000000e+00" cType="1" res="1.5430705389007926e-04" rms="4.3906179070472717e-01" purity="4.0977641940116882e-01" nType="-99"/>
          <Node pos="r" depth="2" NCoef="0" IVar="-1" Cut="0.0000000000000000e+00" cType="1" res="-6.7176629090681672e-04" rms="3.7229311466217041e-01" purity="1.9740603864192963e-01" nType="-99"/>
        </Node>
        <Node pos="r" depth="1" NCoef="0" IVar="0" Cut="4.2733144015073776e-02" cType="1" res="1.2591768801212311e-01" rms="4.1342169046401978e-01" purity="6.9693374633789062e-01" nType="0">
          <Node pos="l" depth="2" NCoef="0" IVar="-1" Cut="0.0000000000000000e+00" cType="1" res="4.5146830962039530e-04" rms="3.4245124459266663e-01" purity="8.5191357135772705e-01" nType="-99"/>
          <Node pos="r" depth="2" NCoef="0" IVar="-1" Cut="0.0000000000000000e+00" cType="1" res="1.8759920203592628e-04" rms="4.3844968080520630e-01" purity="6.0542714595794678e-01" nType="-99"/>
        </Node>
      </Node>
    </BinaryTree>
    <BinaryTree type="DecisionTree" boostWeight="1.0000000000000000e+00" itree="823">
      <Node pos="s" depth="0" NCoef="0" IVar="2" Cut="7.1768554687500000e+04" cType="1" res="5.3414531052112579e-02" rms="4.1269472241401672e-01" purity="4.9667039513587952e-01" nType="0">
        <Node pos="l" depth="1" NCoef="0" IVar="0" Cut="3.8617823272943497e-02" cType="1" res="1.4395262114703655e-02" rms="4.2105600237846375e-01" purity="3.9632913470268250e-01" nType="0">
          <Node pos="l" depth="2" NCoef="0" IVar="-1" Cut="0.0000000000000000e+00" cType="1" res="2.4193921126425266e-04" rms="4.2684093117713928e-01" purity="4.8242363333702087e-01" nType="-99"/>
          <Node pos="r" depth="2" NCoef="0" IVar="-1" Cut="0.0000000000000000e+00" cType="1" res="-4.5387688442133367e-04" rms="4.0122082829475403e-01" purity="2.7681940793991089e-01" nType="-99"/>
        </Node>
        <Node pos="r" depth="1" NCoef="0" IVar="1" Cut="2.0142605590820312e+02" cType="1" res="1.9289560616016388e-01" rms="3.4713059663772583e-01" purity="8.5535746812820435e-01" nType="0">
          <Node pos="l" depth="2" NCoef="0" IVar="-1" Cut="0.0000000000000000e+00" cType="1" res="2.9560973052866757e-04" rms="4.0282890200614929e-01" purity="7.8867089748382568e-01" nType="-99"/>
          <Node pos="r" depth="2" NCoef="0" IVar="-1" Cut="0.0000000000000000e+00" cType="1" res="4.0313610224984586e-04" rms="2.8701609373092651e-01" purity="9.0821081399917603e-01" nType="-99"/>
        </Node>
      </Node>
    </BinaryTree>
    <BinaryTree type="DecisionTree" boostWeight="1.0000000000000000e+00" itree="824">
      <Node pos="s" depth="0" NCoef="0" IVar="2" Cut="2.2068197265625000e+04" cType="1" res="6.3439838588237762e-02" rms="4.1550475358963013e-01" purity="5.0536185503005981e-01" nType="0">
        <Node pos="l" depth="1" NCoef="0" IVar="0" Cut="2.0067924633622169e-02" cType="1" res="-1.8787767738103867e-02" rms="3.9943134784698486e-01" purity="2.7842676639556885e-01" nType="0">
          <Node pos="l" depth="2" NCoef="0" IVar="-1" Cut="0.0000000000000000e+00" cType="1" res="1.6123012755997479e-04" rms="4.3749135732650757e-01" purity="4.1571411490440369e-01" nType="-99"/>
          <Node pos="r" depth="2" NCoef="0" IVar="-1" Cut="0.0000000000000000e+00" cType="1" res="-1.4172515366226435e-03" rms="3.4350320696830750e-01" purity="1.5273109078407288e-01" nType="-99"/>
        </Node>
        <Node pos="r" depth="1" NCoef="0" IVar="0" Cut="3.8859125226736069e-02" cType="1" res="1.1791949719190598e-01" rms="4.1698318719863892e-01" purity="6.5571713447570801e-01" nType="0">
          <Node pos="l" depth="2" NCoef="0" IVar="-1" Cut="0.0000000000000000e+00" cType="1" res="4.6602607471868396e-04" rms="3.6286079883575439e-01" purity="8.2059550285339355e-01" nType="-99"/>
          <Node pos="r" depth="2" NCoef="0" IVar="-1" Cut="0.0000000000000000e+00" cType="1" res="1.6227076412178576e-04" rms="4.3051803112030029e-01" purity="5.6590026617050171e-01" nType="-99"/>
        </Node>
      </Node>
    </BinaryTree>
    <BinaryTree type="DecisionTree" boostWeight="1.0000000000000000e+00" itree="825">
      <Node pos="s" depth="0" NCoef="0" IVar="3" Cut="1.3542619705200195e+01" cType="1" res="6.3169673085212708e-02" rms="4.1686120629310608e-01" purity="5.0429701805114746e-01" nType="0">
        <Node pos="l" depth="1" NCoef="0" IVar="1" Cut="6.6678985595703125e+01" cType="1" res="-8.7216934189200401e-03" rms="4.0557810664176941e-01" purity="2.9583948850631714e-01" nType="0">
          <Node pos="l" depth="2" NCoef="0" IVar="-1" Cut="0.0000000000000000e+00" cType="1" res="-8.0919498577713966e-04" rms="3.4042206406593323e-01" purity="1.4652965962886810e-01" nType="-99"/>
          <Node pos="r" depth="2" NCoef="0" IVar="-1" Cut="0.0000000000000000e+00" cType="1" res="1.9010996038559824e-04" rms="4.5343667268753052e-01" purity="4.4108423590660095e-01" nType="-99"/>
        </Node>
        <Node pos="r" depth="1" NCoef="0" IVar="0" Cut="4.2733144015073776e-02" cType="1" res="1.2547814846038818e-01" rms="4.1647836565971375e-01" purity="6.8496781587600708e-01" nType="0">
          <Node pos="l" depth="2" NCoef="0" IVar="-1" Cut="0.0000000000000000e+00" cType="1" res="5.2225770195946097e-04" rms="3.4842890501022339e-01" purity="8.4304177761077881e-01" nType="-99"/>
          <Node pos="r" depth="2" NCoef="0" IVar="-1" Cut="0.0000000000000000e+00" cType="1" res="1.8136449216399342e-04" rms="4.4007715582847595e-01" purity="5.9142881631851196e-01" nType="-99"/>
        </Node>
      </Node>
    </BinaryTree>
    <BinaryTree type="DecisionTree" boostWeight="1.0000000000000000e+00" itree="826">
      <Node pos="s" depth="0" NCoef="0" IVar="2" Cut="7.2246000000000000e+04" cType="1" res="5.7186625897884369e-02" rms="4.1317075490951538e-01" purity="4.9952098727226257e-01" nType="0">
        <Node pos="l" depth="1" NCoef="0" IVar="0" Cut="3.8108117878437042e-02" cType="1" res="2.1669847890734673e-02" rms="4.2218157649040222e-01" purity="4.0440112352371216e-01" nType="0">
          <Node pos="l" depth="2" NCoef="0" IVar="-1" Cut="0.0000000000000000e+00" cType="1" res="2.5407658540643752e-04" rms="4.2698970437049866e-01" purity="4.9468907713890076e-01" nType="-99"/>
          <Node pos="r" depth="2" NCoef="0" IVar="-1" Cut="0.0000000000000000e+00" cType="1" res="-4.0497453301213682e-04" rms="4.0344631671905518e-01" purity="2.8226613998413086e-01" nType="-99"/>
        </Node>
        <Node pos="r" depth="1" NCoef="0" IVar="1" Cut="2.2947694396972656e+02" cType="1" res="1.8984793126583099e-01" rms="3.4681978821754456e-01" purity="8.5481011867523193e-01" nType="0">
          <Node pos="l" depth="2" NCoef="0" IVar="-1" Cut="0.0000000000000000e+00" cType="1" res="2.4085010227281600e-04" rms="4.0697699785232544e-01" purity="7.8266859054565430e-01" nType="-99"/>
          <Node pos="r" depth="2" NCoef="0" IVar="-1" Cut="0.0000000000000000e+00" cType="1" res="3.9954637759365141e-04" rms="2.4816390872001648e-01" purity="9.3362772464752197e-01" nType="-99"/>
        </Node>
      </Node>
    </BinaryTree>
    <BinaryTree type="DecisionTree" boostWeight="1.0000000000000000e+00" itree="827">
      <Node pos="s" depth="0" NCoef="0" IVar="2" Cut="7.2246000000000000e+04" cType="1" res="5.7270970195531845e-02" rms="4.1743689775466919e-01" purity="4.9617099761962891e-01" nType="0">
        <Node pos="l" depth="1" NCoef="0" IVar="0" Cut="3.7628732621669769e-02" cType="1" res="2.3832909762859344e-02" rms="4.2671075463294983e-01" purity="4.0357941389083862e-01" nType="0">
          <Node pos="l" depth="2" NCoef="0" IVar="-1" Cut="0.0000000000000000e+00" cType="1" res="2.3763638455420732e-04" rms="4.3168929219245911e-01" purity="4.8458179831504822e-01" nType="-99"/>
          <Node pos="r" depth="2" NCoef="0" IVar="-1" Cut="0.0000000000000000e+00" cType="1" res="-2.6029400760307908e-04" rms="4.1207152605056763e-01" purity="3.0089825391769409e-01" nType="-99"/>
        </Node>
        <Node pos="r" depth="1" NCoef="0" IVar="1" Cut="2.2577809143066406e+02" cType="1" res="1.8499501049518585e-01" rms="3.5180476307868958e-01" purity="8.4984499216079712e-01" nType="0">
          <Node pos="l" depth="2" NCoef="0" IVar="-1" Cut="0.0000000000000000e+00" cType="1" res="2.9622908914461732e-04" rms="4.1004365682601929e-01" purity="7.7803456783294678e-01" nType="-99"/>
          <Node pos="r" depth="2" NCoef="0" IVar="-1" Cut="0.0000000000000000e+00" cType="1" res="4.7427872777916491e-04" rms="2.5636199116706848e-01" purity="9.2878347635269165e-01" nType="-99"/>
        </Node>
      </Node>
    </BinaryTree>
    <BinaryTree type="DecisionTree" boostWeight="1.0000000000000000e+00" itree="828">
      <Node pos="s" depth="0" NCoef="0" IVar="3" Cut="1.4930736541748047e+01" cType="1" res="5.5699344724416733e-02" rms="4.1539749503135681e-01" purity="4.9470838904380798e-01" nType="0">
        <Node pos="l" depth="1" NCoef="0" IVar="0" Cut="1.1065950617194176e-02" cType="1" res="-2.0577207207679749e-02" rms="3.9921298623085022e-01" purity="2.8212377429008484e-01" nType="0">
          <Node pos="l" depth="2" NCoef="0" IVar="-1" Cut="0.0000000000000000e+00" cType="1" res="3.6818778607994318e-04" rms="4.2216598987579346e-01" purity="4.2384269833564758e-01" nType="-99"/>
          <Node pos="r" depth="2" NCoef="0" IVar="-1" Cut="0.0000000000000000e+00" cType="1" res="-3.4477052395232022e-04" rms="3.8698980212211609e-01" purity="2.3789902031421661e-01" nType="-99"/>
        </Node>
        <Node pos="r" depth="1" NCoef="0" IVar="0" Cut="3.9660222828388214e-02" cType="1" res="1.2696553766727448e-01" rms="4.1756236553192139e-01" purity="6.9332903623580933e-01" nType="0">
          <Node pos="l" depth="2" NCoef="0" IVar="-1" Cut="0.0000000000000000e+00" cType="1" res="4.7419813927263021e-04" rms="3.3536106348037720e-01" purity="8.6521077156066895e-01" nType="-99"/>
          <Node pos="r" depth="2" NCoef="0" IVar="-1" Cut="0.0000000000000000e+00" cType="1" res="2.2069222177378833e-04" rms="4.4005262851715088e-01" purity="6.1232447624206543e-01" nType="-99"/>
        </Node>
      </Node>
    </BinaryTree>
    <BinaryTree type="DecisionTree" boostWeight="1.0000000000000000e+00" itree="829">
      <Node pos="s" depth="0" NCoef="0" IVar="3" Cut="1.4930736541748047e+01" cType="1" res="5.3089592605829239e-02" rms="4.1787073016166687e-01" purity="4.9115654826164246e-01" nType="0">
        <Node pos="l" depth="1" NCoef="0" IVar="0" Cut="1.2183989398181438e-02" cType="1" res="-1.8733344972133636e-02" rms="4.0263807773590088e-01" purity="2.8179404139518738e-01" nType="0">
          <Node pos="l" depth="2" NCoef="0" IVar="-1" Cut="0.0000000000000000e+00" cType="1" res="3.5986056900583208e-04" rms="4.4293573498725891e-01" purity="4.4237852096557617e-01" nType="-99"/>
          <Node pos="r" depth="2" NCoef="0" IVar="-1" Cut="0.0000000000000000e+00" cType="1" res="-4.9036886775866151e-04" rms="3.7801408767700195e-01" purity="2.2411739826202393e-01" nType="-99"/>
        </Node>
        <Node pos="r" depth="1" NCoef="0" IVar="0" Cut="4.2733144015073776e-02" cType="1" res="1.2064128369092941e-01" rms="4.2066162824630737e-01" purity="6.8806844949722290e-01" nType="0">
          <Node pos="l" depth="2" NCoef="0" IVar="-1" Cut="0.0000000000000000e+00" cType="1" res="4.9981015035882592e-04" rms="3.6134597659111023e-01" purity="8.3831268548965454e-01" nType="-99"/>
          <Node pos="r" depth="2" NCoef="0" IVar="-1" Cut="0.0000000000000000e+00" cType="1" res="1.8984859343618155e-04" rms="4.3903431296348572e-01" purity="6.0457104444503784e-01" nType="-99"/>
        </Node>
      </Node>
    </BinaryTree>
    <BinaryTree type="DecisionTree" boostWeight="1.0000000000000000e+00" itree="830">
      <Node pos="s" depth="0" NCoef="0" IVar="2" Cut="7.1197562500000000e+04" cType="1" res="6.5861910581588745e-02" rms="4.1644260287284851e-01" purity="5.0750178098678589e-01" nType="0">
        <Node pos="l" depth="1" NCoef="0" IVar="0" Cut="3.8101427257061005e-02" cType="1" res="2.8343528509140015e-02" rms="4.2790073156356812e-01" purity="4.0486288070678711e-01" nType="0">
          <Node pos="l" depth="2" NCoef="0" IVar="-1" Cut="0.0000000000000000e+00" cType="1" res="2.7137203142046928e-04" rms="4.3736803531646729e-01" purity="4.9732926487922668e-01" nType="-99"/>
          <Node pos="r" depth="2" NCoef="0" IVar="-1" Cut="0.0000000000000000e+00" cType="1" res="-4.0448346408084035e-04" rms="3.9890128374099731e-01" purity="2.7698621153831482e-01" nType="-99"/>
        </Node>
        <Node pos="r" depth="1" NCoef="0" IVar="1" Cut="2.0627568054199219e+02" cType="1" res="1.9344955682754517e-01" rms="3.4562820196151733e-01" purity="8.5654294490814209e-01" nType="0">
          <Node pos="l" depth="2" NCoef="0" IVar="-1" Cut="0.0000000000000000e+00" cType="1" res="3.5134123754687607e-04" rms="4.0620428323745728e-01" purity="7.8476166725158691e-01" nType="-99"/>
          <Node pos="r" depth="2" NCoef="0" IVar="-1" Cut="0.0000000000000000e+00" cType="1" res="4.2720488272607327e-04" rms="2.7384528517723083e-01" purity="9.1710174083709717e-01" nType="-99"/>
        </Node>
      </Node>
    </BinaryTree>
    <BinaryTree type="DecisionTree" boostWeight="1.0000000000000000e+00" itree="831">
      <Node pos="s" depth="0" NCoef="0" IVar="3" Cut="1.3542619705200195e+01" cType="1" res="4.9667824059724808e-02" rms="4.1017910838127136e-01" purity="4.9466958642005920e-01" nType="0">
        <Node pos="l" depth="1" NCoef="0" IVar="0" Cut="1.2183989398181438e-02" cType="1" res="-3.6570802330970764e-02" rms="3.8838016986846924e-01" purity="2.6643964648246765e-01" nType="0">
          <Node pos="l" depth="2" NCoef="0" IVar="-1" Cut="0.0000000000000000e+00" cType="1" res="2.8286472661420703e-04" rms="4.2694482207298279e-01" purity="4.0838059782981873e-01" nType="-99"/>
          <Node pos="r" depth="2" NCoef="0" IVar="-1" Cut="0.0000000000000000e+00" cType="1" res="-6.2284350860863924e-04" rms="3.6694842576980591e-01" purity="2.1481519937515259e-01" nType="-99"/>
        </Node>
        <Node pos="r" depth="1" NCoef="0" IVar="0" Cut="4.2733144015073776e-02" cType="1" res="1.2176275253295898e-01" rms="4.1398623585700989e-01" purity="6.8546837568283081e-01" nType="0">
          <Node pos="l" depth="2" NCoef="0" IVar="-1" Cut="0.0000000000000000e+00" cType="1" res="4.7106933197937906e-04" rms="3.4836730360984802e-01" purity="8.4101808071136475e-01" nType="-99"/>
          <Node pos="r" depth="2" NCoef="0" IVar="-1" Cut="0.0000000000000000e+00" cType="1" res="1.6511528519913554e-04" rms="4.3705016374588013e-01" purity="5.9175753593444824e-01" nType="-99"/>
        </Node>
      </Node>
    </BinaryTree>
    <BinaryTree type="DecisionTree" boostWeight="1.0000000000000000e+00" itree="832">
      <Node pos="s" depth="0" NCoef="0" IVar="2" Cut="6.6204593750000000e+04" cType="1" res="6.5489262342453003e-02" rms="4.1810479760169983e-01" purity="5.0515520572662354e-01" nType="0">
        <Node pos="l" depth="1" NCoef="0" IVar="0" Cut="3.7699569016695023e-02" cType="1" res="2.7249628677964211e-02" rms="4.2898970842361450e-01" purity="3.8628867268562317e-01" nType="0">
          <Node pos="l" depth="2" NCoef="0" IVar="-1" Cut="0.0000000000000000e+00" cType="1" res="1.7286061483900994e-04" rms="4.4355386495590210e-01" purity="4.8462539911270142e-01" nType="-99"/>
          <Node pos="r" depth="2" NCoef="0" IVar="-1" Cut="0.0000000000000000e+00" cType="1" res="-4.8244601930491626e-04" rms="3.9155265688896179e-01" purity="2.4611204862594604e-01" nType="-99"/>
        </Node>
        <Node pos="r" depth="1" NCoef="0" IVar="1" Cut="2.2618206787109375e+02" cType="1" res="1.7068473994731903e-01" rms="3.6654832959175110e-01" purity="8.3215147256851196e-01" nType="0">
          <Node pos="l" depth="2" NCoef="0" IVar="-1" Cut="0.0000000000000000e+00" cType="1" res="2.5260887923650444e-04" rms="4.1426244378089905e-01" purity="7.6923811435699463e-01" nType="-99"/>
          <Node pos="r" depth="2" NCoef="0" IVar="-1" Cut="0.0000000000000000e+00" cType="1" res="4.7321474994532764e-04" rms="2.6123356819152832e-01" purity="9.2559862136840820e-01" nType="-99"/>
        </Node>
      </Node>
    </BinaryTree>
    <BinaryTree type="DecisionTree" boostWeight="1.0000000000000000e+00" itree="833">
      <Node pos="s" depth="0" NCoef="0" IVar="2" Cut="1.7241273437500000e+04" cType="1" res="6.2161602079868317e-02" rms="4.1819846630096436e-01" purity="5.0105762481689453e-01" nType="0">
        <Node pos="l" depth="1" NCoef="0" IVar="0" Cut="1.9940771162509918e-02" cType="1" res="-3.1562861055135727e-02" rms="3.9233791828155518e-01" purity="2.6243895292282104e-01" nType="0">
          <Node pos="l" depth="2" NCoef="0" IVar="-1" Cut="0.0000000000000000e+00" cType="1" res="1.0668967297533527e-04" rms="4.2659819126129150e-01" purity="3.6422768235206604e-01" nType="-99"/>
          <Node pos="r" depth="2" NCoef="0" IVar="-1" Cut="0.0000000000000000e+00" cType="1" res="-8.3238125080242753e-04" rms="3.4150752425193787e-01" purity="1.5186387300491333e-01" nType="-99"/>
        </Node>
        <Node pos="r" depth="1" NCoef="0" IVar="0" Cut="3.9660222828388214e-02" cType="1" res="1.0689668357372284e-01" rms="4.2273002862930298e-01" purity="6.1495137214660645e-01" nType="0">
          <Node pos="l" depth="2" NCoef="0" IVar="-1" Cut="0.0000000000000000e+00" cType="1" res="3.1146465335041285e-04" rms="3.9358255267143250e-01" purity="7.6861053705215454e-01" nType="-99"/>
          <Node pos="r" depth="2" NCoef="0" IVar="-1" Cut="0.0000000000000000e+00" cType="1" res="1.1834785254905000e-04" rms="4.2399638891220093e-01" purity="5.1652526855468750e-01" nType="-99"/>
        </Node>
      </Node>
    </BinaryTree>
    <BinaryTree type="DecisionTree" boostWeight="1.0000000000000000e+00" itree="834">
      <Node pos="s" depth="0" NCoef="0" IVar="1" Cut="1.0533761596679688e+02" cType="1" res="6.9317594170570374e-02" rms="4.1678836941719055e-01" purity="5.1205742359161377e-01" nType="0">
        <Node pos="l" depth="1" NCoef="0" IVar="0" Cut="1.2566522695124149e-02" cType="1" res="-1.2561067938804626e-02" rms="3.9670056104660034e-01" purity="2.4857835471630096e-01" nType="0">
          <Node pos="l" depth="2" NCoef="0" IVar="-1" Cut="0.0000000000000000e+00" cType="1" res="2.8357544215396047e-04" rms="4.5878589153289795e-01" purity="4.1417565941810608e-01" nType="-99"/>
          <Node pos="r" depth="2" NCoef="0" IVar="-1" Cut="0.0000000000000000e+00" cType="1" res="-5.5340840481221676e-04" rms="3.5795211791992188e-01" purity="1.8280115723609924e-01" nType="-99"/>
        </Node>
        <Node pos="r" depth="1" NCoef="0" IVar="0" Cut="4.2733144015073776e-02" cType="1" res="1.2536247074604034e-01" rms="4.2091327905654907e-01" purity="6.9240552186965942e-01" nType="0">
          <Node pos="l" depth="2" NCoef="0" IVar="-1" Cut="0.0000000000000000e+00" cType="1" res="4.0549514233134687e-04" rms="3.8264179229736328e-01" purity="7.9066151380538940e-01" nType="-99"/>
          <Node pos="r" depth="2" NCoef="0" IVar="-1" Cut="0.0000000000000000e+00" cType="1" res="1.5273217286448926e-04" rms="4.4113931059837341e-01" purity="6.0449141263961792e-01" nType="-99"/>
        </Node>
      </Node>
    </BinaryTree>
    <BinaryTree type="DecisionTree" boostWeight="1.0000000000000000e+00" itree="835">
      <Node pos="s" depth="0" NCoef="0" IVar="2" Cut="6.6204593750000000e+04" cType="1" res="5.5806875228881836e-02" rms="4.1664025187492371e-01" purity="4.9362057447433472e-01" nType="0">
        <Node pos="l" depth="1" NCoef="0" IVar="0" Cut="5.0266090780496597e-02" cType="1" res="2.1389484405517578e-02" rms="4.2347645759582520e-01" purity="3.8376909494400024e-01" nType="0">
          <Node pos="l" depth="2" NCoef="0" IVar="-1" Cut="0.0000000000000000e+00" cType="1" res="2.0536132797133178e-04" rms="4.3566319346427917e-01" purity="4.5336928963661194e-01" nType="-99"/>
          <Node pos="r" depth="2" NCoef="0" IVar="-1" Cut="0.0000000000000000e+00" cType="1" res="-1.0121075902134180e-03" rms="3.6160174012184143e-01" purity="1.9851599633693695e-01" nType="-99"/>
        </Node>
        <Node pos="r" depth="1" NCoef="0" IVar="1" Cut="2.3208036804199219e+02" cType="1" res="1.5763679146766663e-01" rms="3.7778663635253906e-01" purity="8.1863564252853394e-01" nType="0">
          <Node pos="l" depth="2" NCoef="0" IVar="-1" Cut="0.0000000000000000e+00" cType="1" res="2.3127254098653793e-04" rms="4.2279714345932007e-01" purity="7.5484240055084229e-01" nType="-99"/>
          <Node pos="r" depth="2" NCoef="0" IVar="-1" Cut="0.0000000000000000e+00" cType="1" res="4.0360051207244396e-04" rms="2.6327711343765259e-01" purity="9.2461389303207397e-01" nType="-99"/>
        </Node>
      </Node>
    </BinaryTree>
    <BinaryTree type="DecisionTree" boostWeight="1.0000000000000000e+00" itree="836">
      <Node pos="s" depth="0" NCoef="0" IVar="1" Cut="1.3941770935058594e+02" cType="1" res="5.0114154815673828e-02" rms="4.1149708628654480e-01" purity="4.9248665571212769e-01" nType="0">
        <Node pos="l" depth="1" NCoef="0" IVar="1" Cut="3.9129756927490234e+01" cType="1" res="-1.7878577113151550e-02" rms="3.9888706803321838e-01" purity="2.8160947561264038e-01" nType="0">
          <Node pos="l" depth="2" NCoef="0" IVar="-1" Cut="0.0000000000000000e+00" cType="1" res="-1.9057262688875198e-03" rms="3.0952298641204834e-01" purity="1.1049568653106689e-01" nType="-99"/>
          <Node pos="r" depth="2" NCoef="0" IVar="-1" Cut="0.0000000000000000e+00" cType="1" res="6.7653163569048047e-05" rms="4.2561030387878418e-01" purity="3.5003715753555298e-01" nType="-99"/>
        </Node>
        <Node pos="r" depth="1" NCoef="0" IVar="1" Cut="2.5976361083984375e+02" cType="1" res="1.3027811050415039e-01" rms="4.1170528531074524e-01" purity="7.4111241102218628e-01" nType="0">
          <Node pos="l" depth="2" NCoef="0" IVar="-1" Cut="0.0000000000000000e+00" cType="1" res="2.3703956685494632e-04" rms="4.3447503447532654e-01" purity="6.9976514577865601e-01" nType="-99"/>
          <Node pos="r" depth="2" NCoef="0" IVar="-1" Cut="0.0000000000000000e+00" cType="1" res="4.4241803698241711e-04" rms="2.5489324331283569e-01" purity="9.2451637983322144e-01" nType="-99"/>
        </Node>
      </Node>
    </BinaryTree>
    <BinaryTree type="DecisionTree" boostWeight="1.0000000000000000e+00" itree="837">
      <Node pos="s" depth="0" NCoef="0" IVar="3" Cut="1.3542619705200195e+01" cType="1" res="6.8599551916122437e-02" rms="4.1669863462448120e-01" purity="5.0940883159637451e-01" nType="0">
        <Node pos="l" depth="1" NCoef="0" IVar="0" Cut="2.1601404994726181e-02" cType="1" res="5.6304037570953369e-03" rms="4.1097232699394226e-01" purity="3.1055340170860291e-01" nType="0">
          <Node pos="l" depth="2" NCoef="0" IVar="-1" Cut="0.0000000000000000e+00" cType="1" res="1.5038339188322425e-04" rms="4.3797799944877625e-01" purity="4.3312612175941467e-01" nType="-99"/>
          <Node pos="r" depth="2" NCoef="0" IVar="-1" Cut="0.0000000000000000e+00" cType="1" res="-3.2325205393135548e-04" rms="3.7836346030235291e-01" purity="2.0860597491264343e-01" nType="-99"/>
        </Node>
        <Node pos="r" depth="1" NCoef="0" IVar="0" Cut="4.2833082377910614e-02" cType="1" res="1.2472652643918991e-01" rms="4.1373634338378906e-01" purity="6.8665683269500732e-01" nType="0">
          <Node pos="l" depth="2" NCoef="0" IVar="-1" Cut="0.0000000000000000e+00" cType="1" res="4.6059757005423307e-04" rms="3.5512557625770569e-01" purity="8.4038847684860229e-01" nType="-99"/>
          <Node pos="r" depth="2" NCoef="0" IVar="-1" Cut="0.0000000000000000e+00" cType="1" res="1.7569842748343945e-04" rms="4.3177673220634460e-01" purity="5.9477865695953369e-01" nType="-99"/>
        </Node>
      </Node>
    </BinaryTree>
    <BinaryTree type="DecisionTree" boostWeight="1.0000000000000000e+00" itree="838">
      <Node pos="s" depth="0" NCoef="0" IVar="3" Cut="1.3542619705200195e+01" cType="1" res="5.6656129658222198e-02" rms="4.1604667901992798e-01" purity="4.9600678682327271e-01" nType="0">
        <Node pos="l" depth="1" NCoef="0" IVar="0" Cut="3.2402105629444122e-02" cType="1" res="-1.0089905001223087e-02" rms="4.0299329161643982e-01" purity="2.9593074321746826e-01" nType="0">
          <Node pos="l" depth="2" NCoef="0" IVar="-1" Cut="0.0000000000000000e+00" cType="1" res="1.4404489775188267e-04" rms="4.3829536437988281e-01" purity="3.9483663439750671e-01" nType="-99"/>
          <Node pos="r" depth="2" NCoef="0" IVar="-1" Cut="0.0000000000000000e+00" cType="1" res="-1.8432650249451399e-03" rms="3.1071376800537109e-01" purity="1.1464990675449371e-01" nType="-99"/>
        </Node>
        <Node pos="r" depth="1" NCoef="0" IVar="0" Cut="3.8859125226736069e-02" cType="1" res="1.1684981733560562e-01" rms="4.1844421625137329e-01" purity="6.7644172906875610e-01" nType="0">
          <Node pos="l" depth="2" NCoef="0" IVar="-1" Cut="0.0000000000000000e+00" cType="1" res="5.1948695909231901e-04" rms="3.4506493806838989e-01" purity="8.5066974163055420e-01" nType="-99"/>
          <Node pos="r" depth="2" NCoef="0" IVar="-1" Cut="0.0000000000000000e+00" cType="1" res="2.0203476015012711e-04" rms="4.3699517846107483e-01" purity="6.0199350118637085e-01" nType="-99"/>
        </Node>
      </Node>
    </BinaryTree>
    <BinaryTree type="DecisionTree" boostWeight="1.0000000000000000e+00" itree="839">
      <Node pos="s" depth="0" NCoef="0" IVar="1" Cut="2.3292008972167969e+02" cType="1" res="6.5357290208339691e-02" rms="4.1894486546516418e-01" purity="5.0343155860900879e-01" nType="0">
        <Node pos="l" depth="1" NCoef="0" IVar="0" Cut="4.2733144015073776e-02" cType="1" res="4.4438868761062622e-02" rms="4.2752268910408020e-01" purity="4.5470932126045227e-01" nType="0">
          <Node pos="l" depth="2" NCoef="0" IVar="-1" Cut="0.0000000000000000e+00" cType="1" res="2.4134105478879064e-04" rms="4.2865243554115295e-01" purity="5.1891601085662842e-01" nType="-99"/>
          <Node pos="r" depth="2" NCoef="0" IVar="-1" Cut="0.0000000000000000e+00" cType="1" res="-1.6750910435803235e-04" rms="4.1376653313636780e-01" purity="3.5915341973304749e-01" nType="-99"/>
        </Node>
        <Node pos="r" depth="1" NCoef="0" IVar="-1" Cut="0.0000000000000000e+00" cType="1" res="4.0906461072154343e-04" rms="2.9038903117179871e-01" purity="8.9848428964614868e-01" nType="-99"/>
      </Node>
    </BinaryTree>
    <BinaryTree type="DecisionTree" boostWeight="1.0000000000000000e+00" itree="840">
      <Node pos="s" depth="0" NCoef="0" IVar="2" Cut="8.1564359375000000e+04" cType="1" res="6.1726059764623642e-02" rms="4.1659530997276306e-01" purity="5.0212115049362183e-01" nType="0">
        <Node pos="l" depth="1" NCoef="0" IVar="0" Cut="5.6977529078722000e-02" cType="1" res="3.8808878511190414e-02" rms="4.2494270205497742e-01" purity="4.4639170169830322e-01" nType="0">
          <Node pos="l" depth="2" NCoef="0" IVar="-1" Cut="0.0000000000000000e+00" cType="1" res="2.4720677174627781e-04" rms="4.2526677250862122e-01" purity="4.9518281221389771e-01" nType="-99"/>
          <Node pos="r" depth="2" NCoef="0" IVar="-1" Cut="0.0000000000000000e+00" cType="1" res="-5.9011206030845642e-04" rms="3.9909702539443970e-01" purity="2.9188466072082520e-01" nType="-99"/>
        </Node>
        <Node pos="r" depth="1" NCoef="0" IVar="-1" Cut="0.0000000000000000e+00" cType="1" res="4.3662276584655046e-04" rms="3.0896022915840149e-01" purity="8.9039862155914307e-01" nType="-99"/>
      </Node>
    </BinaryTree>
    <BinaryTree type="DecisionTree" boostWeight="1.0000000000000000e+00" itree="841">
      <Node pos="s" depth="0" NCoef="0" IVar="3" Cut="1.4930736541748047e+01" cType="1" res="5.8703649789094925e-02" rms="4.1682571172714233e-01" purity="4.9734449386596680e-01" nType="0">
        <Node pos="l" depth="1" NCoef="0" IVar="0" Cut="1.2183989398181438e-02" cType="1" res="-1.3814461417496204e-02" rms="4.0134662389755249e-01" purity="2.8883543610572815e-01" nType="0">
          <Node pos="l" depth="2" NCoef="0" IVar="-1" Cut="0.0000000000000000e+00" cType="1" res="3.3269962295889854e-04" rms="4.3879473209381104e-01" purity="4.4078034162521362e-01" nType="-99"/>
          <Node pos="r" depth="2" NCoef="0" IVar="-1" Cut="0.0000000000000000e+00" cType="1" res="-3.7761169369332492e-04" rms="3.7942129373550415e-01" purity="2.3464393615722656e-01" nType="-99"/>
        </Node>
        <Node pos="r" depth="1" NCoef="0" IVar="0" Cut="4.2833082377910614e-02" cType="1" res="1.2708151340484619e-01" rms="4.1958433389663696e-01" purity="6.9394922256469727e-01" nType="0">
          <Node pos="l" depth="2" NCoef="0" IVar="-1" Cut="0.0000000000000000e+00" cType="1" res="4.0480931056663394e-04" rms="3.4343522787094116e-01" purity="8.5174596309661865e-01" nType="-99"/>
          <Node pos="r" depth="2" NCoef="0" IVar="-1" Cut="0.0000000000000000e+00" cType="1" res="2.0641928131226450e-04" rms="4.4752222299575806e-01" purity="6.0090458393096924e-01" nType="-99"/>
        </Node>
      </Node>
    </BinaryTree>
    <BinaryTree type="DecisionTree" boostWeight="1.0000000000000000e+00" itree="842">
      <Node pos="s" depth="0" NCoef="0" IVar="2" Cut="6.6204593750000000e+04" cType="1" res="6.4497716724872589e-02" rms="4.1494396328926086e-01" purity="5.0796961784362793e-01" nType="0">
        <Node pos="l" depth="1" NCoef="0" IVar="0" Cut="3.7522803992033005e-02" cType="1" res="2.3891281336545944e-02" rms="4.2488980293273926e-01" purity="3.8820835947990417e-01" nType="0">
          <Node pos="l" depth="2" NCoef="0" IVar="-1" Cut="0.0000000000000000e+00" cType="1" res="2.6569567853584886e-04" rms="4.3477267026901245e-01" purity="4.8000106215476990e-01" nType="-99"/>
          <Node pos="r" depth="2" NCoef="0" IVar="-1" Cut="0.0000000000000000e+00" cType="1" res="-3.6262909998185933e-04" rms="4.0013486146926880e-01" purity="2.6221889257431030e-01" nType="-99"/>
        </Node>
        <Node pos="r" depth="1" NCoef="0" IVar="1" Cut="2.2618206787109375e+02" cType="1" res="1.7581532895565033e-01" rms="3.6382466554641724e-01" purity="8.3628046512603760e-01" nType="0">
          <Node pos="l" depth="2" NCoef="0" IVar="-1" Cut="0.0000000000000000e+00" cType="1" res="2.9459834331646562e-04" rms="4.0234956145286560e-01" purity="7.8905081748962402e-01" nType="-99"/>
          <Node pos="r" depth="2" NCoef="0" IVar="-1" Cut="0.0000000000000000e+00" cType="1" res="4.6671740710735321e-04" rms="2.7147200703620911e-01" purity="9.1899275779724121e-01" nType="-99"/>
        </Node>
      </Node>
    </BinaryTree>
    <BinaryTree type="DecisionTree" boostWeight="1.0000000000000000e+00" itree="843">
      <Node pos="s" depth="0" NCoef="0" IVar="3" Cut="1.4930736541748047e+01" cType="1" res="6.5080128610134125e-02" rms="4.1346669197082520e-01" purity="5.0920951366424561e-01" nType="0">
        <Node pos="l" depth="1" NCoef="0" IVar="0" Cut="2.2131901234388351e-02" cType="1" res="-6.8624909035861492e-03" rms="4.0399673581123352e-01" purity="2.9851764440536499e-01" nType="0">
          <Node pos="l" depth="2" NCoef="0" IVar="-1" Cut="0.0000000000000000e+00" cType="1" res="1.3482842769008130e-04" rms="4.3985947966575623e-01" purity="4.4014647603034973e-01" nType="-99"/>
          <Node pos="r" depth="2" NCoef="0" IVar="-1" Cut="0.0000000000000000e+00" cType="1" res="-8.5959763964638114e-04" rms="3.5409143567085266e-01" purity="1.7548839747905731e-01" nType="-99"/>
        </Node>
        <Node pos="r" depth="1" NCoef="0" IVar="0" Cut="4.2733144015073776e-02" cType="1" res="1.3147860765457153e-01" rms="4.1099128127098083e-01" purity="7.0366472005844116e-01" nType="0">
          <Node pos="l" depth="2" NCoef="0" IVar="-1" Cut="0.0000000000000000e+00" cType="1" res="4.0193740278482437e-04" rms="3.3618092536926270e-01" purity="8.6091947555541992e-01" nType="-99"/>
          <Node pos="r" depth="2" NCoef="0" IVar="-1" Cut="0.0000000000000000e+00" cType="1" res="1.8792058108374476e-04" rms="4.3727687001228333e-01" purity="6.0751718282699585e-01" nType="-99"/>
        </Node>
      </Node>
    </BinaryTree>
    <BinaryTree type="DecisionTree" boostWeight="1.0000000000000000e+00" itree="844">
      <Node pos="s" depth="0" NCoef="0" IVar="2" Cut="7.0266148437500000e+04" cType="1" res="5.7151280343532562e-02" rms="4.1833192110061646e-01" purity="4.9427112936973572e-01" nType="0">
        <Node pos="l" depth="1" NCoef="0" IVar="0" Cut="3.8108117878437042e-02" cType="1" res="2.3417189717292786e-02" rms="4.2733043432235718e-01" purity="3.9488181471824646e-01" nType="0">
          <Node pos="l" depth="2" NCoef="0" IVar="-1" Cut="0.0000000000000000e+00" cType="1" res="2.1711370209231973e-04" rms="4.3994036316871643e-01" purity="4.8098435997962952e-01" nType="-99"/>
          <Node pos="r" depth="2" NCoef="0" IVar="-1" Cut="0.0000000000000000e+00" cType="1" res="-3.2202369766309857e-04" rms="3.9789301156997681e-01" purity="2.7881675958633423e-01" nType="-99"/>
        </Node>
        <Node pos="r" depth="1" NCoef="0" IVar="1" Cut="2.0142605590820312e+02" cType="1" res="1.7407058179378510e-01" rms="3.6195680499076843e-01" purity="8.3874547481536865e-01" nType="0">
          <Node pos="l" depth="2" NCoef="0" IVar="-1" Cut="0.0000000000000000e+00" cType="1" res="2.8174315229989588e-04" rms="4.0952235460281372e-01" purity="7.7673637866973877e-01" nType="-99"/>
          <Node pos="r" depth="2" NCoef="0" IVar="-1" Cut="0.0000000000000000e+00" cType="1" res="3.5497301723808050e-04" rms="3.0193898081779480e-01" purity="8.9683878421783447e-01" nType="-99"/>
        </Node>
      </Node>
    </BinaryTree>
    <BinaryTree type="DecisionTree" boostWeight="1.0000000000000000e+00" itree="845">
      <Node pos="s" depth="0" NCoef="0" IVar="3" Cut="1.3542619705200195e+01" cType="1" res="6.4427368342876434e-02" rms="4.1326278448104858e-01" purity="5.0887626409530640e-01" nType="0">
        <Node pos="l" depth="1" NCoef="0" IVar="0" Cut="1.2183989398181438e-02" cType="1" res="-1.6123536974191666e-02" rms="4.0341395139694214e-01" purity="2.8228634595870972e-01" nType="0">
          <Node pos="l" depth="2" NCoef="0" IVar="-1" Cut="0.0000000000000000e+00" cType="1" res="3.2577366800978780e-04" rms="4.3564230203628540e-01" purity="4.2162248492240906e-01" nType="-99"/>
          <Node pos="r" depth="2" NCoef="0" IVar="-1" Cut="0.0000000000000000e+00" cType="1" res="-3.5245114122517407e-04" rms="3.8542303442955017e-01" purity="2.3209734261035919e-01" nType="-99"/>
        </Node>
        <Node pos="r" depth="1" NCoef="0" IVar="0" Cut="4.1265200823545456e-02" cType="1" res="1.3117291033267975e-01" rms="4.0941363573074341e-01" purity="6.9663166999816895e-01" nType="0">
          <Node pos="l" depth="2" NCoef="0" IVar="-1" Cut="0.0000000000000000e+00" cType="1" res="4.4180502300150692e-04" rms="3.3420696854591370e-01" purity="8.6029964685440063e-01" nType="-99"/>
          <Node pos="r" depth="2" NCoef="0" IVar="-1" Cut="0.0000000000000000e+00" cType="1" res="2.0966885494999588e-04" rms="4.3335744738578796e-01" purity="6.0426867008209229e-01" nType="-99"/>
        </Node>
      </Node>
    </BinaryTree>
    <BinaryTree type="DecisionTree" boostWeight="1.0000000000000000e+00" itree="846">
      <Node pos="s" depth="0" NCoef="0" IVar="2" Cut="7.2246000000000000e+04" cType="1" res="6.2072895467281342e-02" rms="4.1406077146530151e-01" purity="5.0537091493606567e-01" nType="0">
        <Node pos="l" depth="1" NCoef="0" IVar="1" Cut="7.1970230102539062e+01" cType="1" res="2.6620464399456978e-02" rms="4.2455750703811646e-01" purity="4.0930858254432678e-01" nType="0">
          <Node pos="l" depth="2" NCoef="0" IVar="-1" Cut="0.0000000000000000e+00" cType="1" res="-5.1476131193339825e-04" rms="3.5139659047126770e-01" purity="1.6494010388851166e-01" nType="-99"/>
          <Node pos="r" depth="2" NCoef="0" IVar="-1" Cut="0.0000000000000000e+00" cType="1" res="2.1806186123285443e-04" rms="4.5131474733352661e-01" purity="5.2873617410659790e-01" nType="-99"/>
        </Node>
        <Node pos="r" depth="1" NCoef="0" IVar="1" Cut="2.3777470397949219e+02" cType="1" res="1.9275353848934174e-01" rms="3.4247374534606934e-01" purity="8.5946494340896606e-01" nType="0">
          <Node pos="l" depth="2" NCoef="0" IVar="-1" Cut="0.0000000000000000e+00" cType="1" res="3.2674445537850261e-04" rms="3.9818888902664185e-01" purity="7.9634082317352295e-01" nType="-99"/>
          <Node pos="r" depth="2" NCoef="0" IVar="-1" Cut="0.0000000000000000e+00" cType="1" res="4.6571617713198066e-04" rms="2.3844349384307861e-01" purity="9.3921422958374023e-01" nType="-99"/>
        </Node>
      </Node>
    </BinaryTree>
    <BinaryTree type="DecisionTree" boostWeight="1.0000000000000000e+00" itree="847">
      <Node pos="s" depth="0" NCoef="0" IVar="1" Cut="1.3922813415527344e+02" cType="1" res="5.4958425462245941e-02" rms="4.1348278522491455e-01" purity="4.9590671062469482e-01" nType="0">
        <Node pos="l" depth="1" NCoef="0" IVar="0" Cut="2.5400951504707336e-02" cType="1" res="-4.8968088813126087e-03" rms="4.0186205506324768e-01" purity="2.9724854230880737e-01" nType="0">
          <Node pos="l" depth="2" NCoef="0" IVar="-1" Cut="0.0000000000000000e+00" cType="1" res="2.2555493342224509e-04" rms="4.3732565641403198e-01" purity="4.2701247334480286e-01" nType="-99"/>
          <Node pos="r" depth="2" NCoef="0" IVar="-1" Cut="0.0000000000000000e+00" cType="1" res="-7.1136245969682932e-04" rms="3.5889574885368347e-01" purity="1.9090095162391663e-01" nType="-99"/>
        </Node>
        <Node pos="r" depth="1" NCoef="0" IVar="1" Cut="2.5960073852539062e+02" cType="1" res="1.2736736238002777e-01" rms="4.1575592756271362e-01" purity="7.3623025417327881e-01" nType="0">
          <Node pos="l" depth="2" NCoef="0" IVar="-1" Cut="0.0000000000000000e+00" cType="1" res="2.4896909599192441e-04" rms="4.3939292430877686e-01" purity="6.9276845455169678e-01" nType="-99"/>
          <Node pos="r" depth="2" NCoef="0" IVar="-1" Cut="0.0000000000000000e+00" cType="1" res="4.6654013567604125e-04" rms="2.6190865039825439e-01" purity="9.2049819231033325e-01" nType="-99"/>
        </Node>
      </Node>
    </BinaryTree>
    <BinaryTree type="DecisionTree" boostWeight="1.0000000000000000e+00" itree="848">
      <Node pos="s" depth="0" NCoef="0" IVar="1" Cut="1.3158508300781250e+02" cType="1" res="5.5832132697105408e-02" rms="4.1266885399818420e-01" purity="4.9835541844367981e-01" nType="0">
        <Node pos="l" depth="1" NCoef="0" IVar="0" Cut="5.0266090780496597e-02" cType="1" res="-1.2165817432105541e-02" rms="3.9676296710968018e-01" purity="2.7991867065429688e-01" nType="0">
          <Node pos="l" depth="2" NCoef="0" IVar="-1" Cut="0.0000000000000000e+00" cType="1" res="1.0247025784337893e-04" rms="4.2446279525756836e-01" purity="3.4276524186134338e-01" nType="-99"/>
          <Node pos="r" depth="2" NCoef="0" IVar="-1" Cut="0.0000000000000000e+00" cType="1" res="-3.1380988657474518e-03" rms="2.7550488710403442e-01" purity="8.8181629776954651e-02" nType="-99"/>
        </Node>
        <Node pos="r" depth="1" NCoef="0" IVar="0" Cut="3.9251808077096939e-02" cType="1" res="1.2695933878421783e-01" rms="4.1697385907173157e-01" purity="7.2684466838836670e-01" nType="0">
          <Node pos="l" depth="2" NCoef="0" IVar="-1" Cut="0.0000000000000000e+00" cType="1" res="3.9581101736985147e-04" rms="3.6255270242691040e-01" purity="8.2579785585403442e-01" nType="-99"/>
          <Node pos="r" depth="2" NCoef="0" IVar="-1" Cut="0.0000000000000000e+00" cType="1" res="1.9871529366355389e-04" rms="4.4116777181625366e-01" purity="6.6193252801895142e-01" nType="-99"/>
        </Node>
      </Node>
    </BinaryTree>
    <BinaryTree type="DecisionTree" boostWeight="1.0000000000000000e+00" itree="849">
      <Node pos="s" depth="0" NCoef="0" IVar="2" Cut="6.6204593750000000e+04" cType="1" res="6.7180790007114410e-02" rms="4.1624590754508972e-01" purity="5.0921034812927246e-01" nType="0">
        <Node pos="l" depth="1" NCoef="0" IVar="0" Cut="3.7411056458950043e-02" cType="1" res="2.9646079987287521e-02" rms="4.2717981338500977e-01" purity="3.9178162813186646e-01" nType="0">
          <Node pos="l" depth="2" NCoef="0" IVar="-1" Cut="0.0000000000000000e+00" cType="1" res="1.8284071120433509e-04" rms="4.3989491462707520e-01" purity="4.8547437787055969e-01" nType="-99"/>
          <Node pos="r" depth="2" NCoef="0" IVar="-1" Cut="0.0000000000000000e+00" cType="1" res="-3.0766645795665681e-04" rms="3.9606192708015442e-01" purity="2.6093921065330505e-01" nType="-99"/>
        </Node>
        <Node pos="r" depth="1" NCoef="0" IVar="1" Cut="2.2618206787109375e+02" cType="1" res="1.7098057270050049e-01" rms="3.6481153964996338e-01" purity="8.3395165205001831e-01" nType="0">
          <Node pos="l" depth="2" NCoef="0" IVar="-1" Cut="0.0000000000000000e+00" cType="1" res="2.6953575434163213e-04" rms="4.1533464193344116e-01" purity="7.6751840114593506e-01" nType="-99"/>
          <Node pos="r" depth="2" NCoef="0" IVar="-1" Cut="0.0000000000000000e+00" cType="1" res="4.9176882021129131e-04" rms="2.5423592329025269e-01" purity="9.2992919683456421e-01" nType="-99"/>
        </Node>
      </Node>
    </BinaryTree>
    <BinaryTree type="DecisionTree" boostWeight="1.0000000000000000e+00" itree="850">
      <Node pos="s" depth="0" NCoef="0" IVar="2" Cut="7.2246000000000000e+04" cType="1" res="4.7439053654670715e-02" rms="4.1147747635841370e-01" purity="4.9012380838394165e-01" nType="0">
        <Node pos="l" depth="1" NCoef="0" IVar="0" Cut="5.1490433514118195e-02" cType="1" res="1.1416804976761341e-02" rms="4.1875085234642029e-01" purity="3.9450272917747498e-01" nType="0">
          <Node pos="l" depth="2" NCoef="0" IVar="-1" Cut="0.0000000000000000e+00" cType="1" res="1.8212896247860044e-04" rms="4.2370545864105225e-01" purity="4.5172581076622009e-01" nType="-99"/>
          <Node pos="r" depth="2" NCoef="0" IVar="-1" Cut="0.0000000000000000e+00" cType="1" res="-6.9885799894109368e-04" rms="3.8996955752372742e-01" purity="2.4862919747829437e-01" nType="-99"/>
        </Node>
        <Node pos="r" depth="1" NCoef="0" IVar="1" Cut="2.0292155456542969e+02" cType="1" res="1.8329124152660370e-01" rms="3.5098537802696228e-01" purity="8.5074347257614136e-01" nType="0">
          <Node pos="l" depth="2" NCoef="0" IVar="-1" Cut="0.0000000000000000e+00" cType="1" res="2.8302770806476474e-04" rms="4.2027258872985840e-01" purity="7.6057767868041992e-01" nType="-99"/>
          <Node pos="r" depth="2" NCoef="0" IVar="-1" Cut="0.0000000000000000e+00" cType="1" res="3.9977382402867079e-04" rms="2.8012549877166748e-01" purity="9.1294640302658081e-01" nType="-99"/>
        </Node>
      </Node>
    </BinaryTree>
    <BinaryTree type="DecisionTree" boostWeight="1.0000000000000000e+00" itree="851">
      <Node pos="s" depth="0" NCoef="0" IVar="3" Cut="1.3542619705200195e+01" cType="1" res="5.8347236365079880e-02" rms="4.1637030243873596e-01" purity="4.9726966023445129e-01" nType="0">
        <Node pos="l" depth="1" NCoef="0" IVar="0" Cut="1.0800702497363091e-02" cType="1" res="-1.2048748321831226e-02" rms="4.0441101789474487e-01" purity="2.8822648525238037e-01" nType="0">
          <Node pos="l" depth="2" NCoef="0" IVar="-1" Cut="0.0000000000000000e+00" cType="1" res="5.4561655269935727e-04" rms="4.3392962217330933e-01" purity="4.7183761000633240e-01" nType="-99"/>
          <Node pos="r" depth="2" NCoef="0" IVar="-1" Cut="0.0000000000000000e+00" cType="1" res="-4.5941141434013844e-04" rms="3.8305073976516724e-01" purity="2.2388309240341187e-01" nType="-99"/>
        </Node>
        <Node pos="r" depth="1" NCoef="0" IVar="0" Cut="3.8821943104267120e-02" cType="1" res="1.1972352117300034e-01" rms="4.1693499684333801e-01" purity="6.7952853441238403e-01" nType="0">
          <Node pos="l" depth="2" NCoef="0" IVar="-1" Cut="0.0000000000000000e+00" cType="1" res="4.5065575977787375e-04" rms="3.3778107166290283e-01" purity="8.5785067081451416e-01" nType="-99"/>
          <Node pos="r" depth="2" NCoef="0" IVar="-1" Cut="0.0000000000000000e+00" cType="1" res="1.9364610488992184e-04" rms="4.3849861621856689e-01" purity="5.9512746334075928e-01" nType="-99"/>
        </Node>
      </Node>
    </BinaryTree>
    <BinaryTree type="DecisionTree" boostWeight="1.0000000000000000e+00" itree="852">
      <Node pos="s" depth="0" NCoef="0" IVar="2" Cut="4.4136394531250000e+04" cType="1" res="5.7517200708389282e-02" rms="4.1807231307029724e-01" purity="4.9626520276069641e-01" nType="0">
        <Node pos="l" depth="1" NCoef="0" IVar="0" Cut="1.2566522695124149e-02" cType="1" res="2.1268883720040321e-03" rms="4.1710612177848816e-01" purity="3.1414571404457092e-01" nType="0">
          <Node pos="l" depth="2" NCoef="0" IVar="-1" Cut="0.0000000000000000e+00" cType="1" res="2.1756983187515289e-04" rms="4.3954834342002869e-01" purity="4.5169135928153992e-01" nType="-99"/>
          <Node pos="r" depth="2" NCoef="0" IVar="-1" Cut="0.0000000000000000e+00" cType="1" res="-1.6433440032415092e-04" rms="4.0514683723449707e-01" purity="2.7232795953750610e-01" nType="-99"/>
        </Node>
        <Node pos="r" depth="1" NCoef="0" IVar="0" Cut="4.2733144015073776e-02" cType="1" res="1.3642342388629913e-01" rms="4.0661674737930298e-01" purity="7.5570327043533325e-01" nType="0">
          <Node pos="l" depth="2" NCoef="0" IVar="-1" Cut="0.0000000000000000e+00" cType="1" res="4.3539665057323873e-04" rms="3.1830558180809021e-01" purity="8.8016104698181152e-01" nType="-99"/>
          <Node pos="r" depth="2" NCoef="0" IVar="-1" Cut="0.0000000000000000e+00" cType="1" res="2.1828689204994589e-04" rms="4.4365790486335754e-01" purity="6.7926180362701416e-01" nType="-99"/>
        </Node>
      </Node>
    </BinaryTree>
    <BinaryTree type="DecisionTree" boostWeight="1.0000000000000000e+00" itree="853">
      <Node pos="s" depth="0" NCoef="0" IVar="1" Cut="2.3135374450683594e+02" cType="1" res="5.9411093592643738e-02" rms="4.1347849369049072e-01" purity="5.0265884399414062e-01" nType="0">
        <Node pos="l" depth="1" NCoef="0" IVar="0" Cut="5.0810825079679489e-02" cType="1" res="3.4619618207216263e-02" rms="4.2269769310951233e-01" purity="4.4679617881774902e-01" nType="0">
          <Node pos="l" depth="2" NCoef="0" IVar="-1" Cut="0.0000000000000000e+00" cType="1" res="2.1801910770591348e-04" rms="4.2246386408805847e-01" purity="4.9979990720748901e-01" nType="-99"/>
          <Node pos="r" depth="2" NCoef="0" IVar="-1" Cut="0.0000000000000000e+00" cType="1" res="-3.2365086372010410e-04" rms="4.0818515419960022e-01" purity="3.2924866676330566e-01" nType="-99"/>
        </Node>
        <Node pos="r" depth="1" NCoef="0" IVar="-1" Cut="0.0000000000000000e+00" cType="1" res="3.9366763667203486e-04" rms="2.8196200728416443e-01" purity="9.0379959344863892e-01" nType="-99"/>
      </Node>
    </BinaryTree>
    <BinaryTree type="DecisionTree" boostWeight="1.0000000000000000e+00" itree="854">
      <Node pos="s" depth="0" NCoef="0" IVar="3" Cut="1.2596701622009277e+01" cType="1" res="5.4661326110363007e-02" rms="4.1430547833442688e-01" purity="4.9392703175544739e-01" nType="0">
        <Node pos="l" depth="1" NCoef="0" IVar="0" Cut="2.4367978796362877e-02" cType="1" res="-2.6277299970388412e-02" rms="3.9749419689178467e-01" purity="2.7133974432945251e-01" nType="0">
          <Node pos="l" depth="2" NCoef="0" IVar="-1" Cut="0.0000000000000000e+00" cType="1" res="9.1019406681880355e-05" rms="4.3511584401130676e-01" purity="3.7166103720664978e-01" nType="-99"/>
          <Node pos="r" depth="2" NCoef="0" IVar="-1" Cut="0.0000000000000000e+00" cType="1" res="-6.7366886651143432e-04" rms="3.4859195351600647e-01" purity="1.6872608661651611e-01" nType="-99"/>
        </Node>
        <Node pos="r" depth="1" NCoef="0" IVar="0" Cut="2.8488764539361000e-02" cType="1" res="1.2044467777013779e-01" rms="4.1603985428810120e-01" purity="6.7483615875244141e-01" nType="0">
          <Node pos="l" depth="2" NCoef="0" IVar="-1" Cut="0.0000000000000000e+00" cType="1" res="4.5692769344896078e-04" rms="2.8711545467376709e-01" purity="9.0335398912429810e-01" nType="-99"/>
          <Node pos="r" depth="2" NCoef="0" IVar="-1" Cut="0.0000000000000000e+00" cType="1" res="2.4553851108066738e-04" rms="4.3209809064865112e-01" purity="6.2271296977996826e-01" nType="-99"/>
        </Node>
      </Node>
    </BinaryTree>
    <BinaryTree type="DecisionTree" boostWeight="1.0000000000000000e+00" itree="855">
      <Node pos="s" depth="0" NCoef="0" IVar="1" Cut="1.5836036682128906e+02" cType="1" res="5.0510723143815994e-02" rms="4.1043215990066528e-01" purity="4.9474567174911499e-01" nType="0">
        <Node pos="l" depth="1" NCoef="0" IVar="1" Cut="3.6785533905029297e+01" cType="1" res="-6.6708582453429699e-03" rms="4.0808928012847900e-01" purity="3.2726210355758667e-01" nType="0">
          <Node pos="l" depth="2" NCoef="0" IVar="-1" Cut="0.0000000000000000e+00" cType="1" res="-2.7394194621592760e-03" rms="2.9243123531341553e-01" purity="9.4288758933544159e-02" nType="-99"/>
          <Node pos="r" depth="2" NCoef="0" IVar="-1" Cut="0.0000000000000000e+00" cType="1" res="9.9913777376059443e-05" rms="4.3144163489341736e-01" purity="3.9512285590171814e-01" nType="-99"/>
        </Node>
        <Node pos="r" depth="1" NCoef="0" IVar="1" Cut="2.4954165649414062e+02" cType="1" res="1.4673352241516113e-01" rms="3.9613205194473267e-01" purity="7.7657997608184814e-01" nType="0">
          <Node pos="l" depth="2" NCoef="0" IVar="-1" Cut="0.0000000000000000e+00" cType="1" res="2.7274520834907889e-04" rms="4.3064102530479431e-01" purity="7.2042953968048096e-01" nType="-99"/>
          <Node pos="r" depth="2" NCoef="0" IVar="-1" Cut="0.0000000000000000e+00" cType="1" res="4.4462259393185377e-04" rms="2.6139795780181885e-01" purity="9.2106288671493530e-01" nType="-99"/>
        </Node>
      </Node>
    </BinaryTree>
    <BinaryTree type="DecisionTree" boostWeight="1.0000000000000000e+00" itree="856">
      <Node pos="s" depth="0" NCoef="0" IVar="2" Cut="7.2246000000000000e+04" cType="1" res="5.9591468423604965e-02" rms="4.1301903128623962e-01" purity="5.0330460071563721e-01" nType="0">
        <Node pos="l" depth="1" NCoef="0" IVar="1" Cut="3.5473712921142578e+01" cType="1" res="2.3450879380106926e-02" rms="4.2277637124061584e-01" purity="4.0598452091217041e-01" nType="0">
          <Node pos="l" depth="2" NCoef="0" IVar="-1" Cut="0.0000000000000000e+00" cType="1" res="-2.4084162432700396e-03" rms="3.0356854200363159e-01" purity="1.0296633094549179e-01" nType="-99"/>
          <Node pos="r" depth="2" NCoef="0" IVar="-1" Cut="0.0000000000000000e+00" cType="1" res="1.6341774608008564e-04" rms="4.3943727016448975e-01" purity="4.6983325481414795e-01" nType="-99"/>
        </Node>
        <Node pos="r" depth="1" NCoef="0" IVar="1" Cut="2.0142605590820312e+02" cType="1" res="1.9125127792358398e-01" rms="3.4464928507804871e-01" purity="8.5784089565277100e-01" nType="0">
          <Node pos="l" depth="2" NCoef="0" IVar="-1" Cut="0.0000000000000000e+00" cType="1" res="2.6816959143616259e-04" rms="3.9722308516502380e-01" purity="7.9589885473251343e-01" nType="-99"/>
          <Node pos="r" depth="2" NCoef="0" IVar="-1" Cut="0.0000000000000000e+00" cType="1" res="3.8067804416641593e-04" rms="2.8737512230873108e-01" purity="9.0814572572708130e-01" nType="-99"/>
        </Node>
      </Node>
    </BinaryTree>
    <BinaryTree type="DecisionTree" boostWeight="1.0000000000000000e+00" itree="857">
      <Node pos="s" depth="0" NCoef="0" IVar="1" Cut="1.3710118103027344e+02" cType="1" res="6.1577726155519485e-02" rms="4.1648569703102112e-01" purity="5.0159424543380737e-01" nType="0">
        <Node pos="l" depth="1" NCoef="0" IVar="0" Cut="1.2566522695124149e-02" cType="1" res="1.3767328346148133e-03" rms="4.0982446074485779e-01" purity="2.9495656490325928e-01" nType="0">
          <Node pos="l" depth="2" NCoef="0" IVar="-1" Cut="0.0000000000000000e+00" cType="1" res="2.0387730910442770e-04" rms="4.4798985123634338e-01" purity="4.3464356660842896e-01" nType="-99"/>
          <Node pos="r" depth="2" NCoef="0" IVar="-1" Cut="0.0000000000000000e+00" cType="1" res="-1.8360815010964870e-04" rms="3.9162600040435791e-01" purity="2.5194355845451355e-01" nType="-99"/>
        </Node>
        <Node pos="r" depth="1" NCoef="0" IVar="0" Cut="4.2733144015073776e-02" cType="1" res="1.3063804805278778e-01" rms="4.1333734989166260e-01" purity="7.3864138126373291e-01" nType="0">
          <Node pos="l" depth="2" NCoef="0" IVar="-1" Cut="0.0000000000000000e+00" cType="1" res="3.4557475009933114e-04" rms="3.6729592084884644e-01" purity="8.2135987281799316e-01" nType="-99"/>
          <Node pos="r" depth="2" NCoef="0" IVar="-1" Cut="0.0000000000000000e+00" cType="1" res="2.1479444694705307e-04" rms="4.3699774146080017e-01" purity="6.7726469039916992e-01" nType="-99"/>
        </Node>
      </Node>
    </BinaryTree>
    <BinaryTree type="DecisionTree" boostWeight="1.0000000000000000e+00" itree="858">
      <Node pos="s" depth="0" NCoef="0" IVar="2" Cut="6.1173269531250000e+04" cType="1" res="5.6041374802589417e-02" rms="4.1336143016815186e-01" purity="4.9927952885627747e-01" nType="0">
        <Node pos="l" depth="1" NCoef="0" IVar="0" Cut="2.5133045390248299e-02" cType="1" res="8.1354044377803802e-03" rms="4.1962552070617676e-01" purity="3.5686117410659790e-01" nType="0">
          <Node pos="l" depth="2" NCoef="0" IVar="-1" Cut="0.0000000000000000e+00" cType="1" res="2.9416324105113745e-04" rms="4.3575072288513184e-01" purity="4.5725265145301819e-01" nType="-99"/>
          <Node pos="r" depth="2" NCoef="0" IVar="-1" Cut="0.0000000000000000e+00" cType="1" res="-1.9786291522905231e-04" rms="4.0284264087677002e-01" purity="2.9022362828254700e-01" nType="-99"/>
        </Node>
        <Node pos="r" depth="1" NCoef="0" IVar="1" Cut="2.1746818542480469e+02" cType="1" res="1.6305507719516754e-01" rms="3.7766811251640320e-01" purity="8.1741762161254883e-01" nType="0">
          <Node pos="l" depth="2" NCoef="0" IVar="-1" Cut="0.0000000000000000e+00" cType="1" res="2.2971858561504632e-04" rms="4.2235469818115234e-01" purity="7.5528830289840698e-01" nType="-99"/>
          <Node pos="r" depth="2" NCoef="0" IVar="-1" Cut="0.0000000000000000e+00" cType="1" res="4.0825412725098431e-04" rms="2.7613383531570435e-01" purity="9.1536015272140503e-01" nType="-99"/>
        </Node>
      </Node>
    </BinaryTree>
    <BinaryTree type="DecisionTree" boostWeight="1.0000000000000000e+00" itree="859">
      <Node pos="s" depth="0" NCoef="0" IVar="2" Cut="3.5598781250000000e+04" cType="1" res="6.8031936883926392e-02" rms="4.1129618883132935e-01" purity="5.1449960470199585e-01" nType="0">
        <Node pos="l" depth="1" NCoef="0" IVar="0" Cut="3.6266315728425980e-02" cType="1" res="3.3882169518619776e-03" rms="4.0714484453201294e-01" purity="3.1455317139625549e-01" nType="0">
          <Node pos="l" depth="2" NCoef="0" IVar="-1" Cut="0.0000000000000000e+00" cType="1" res="1.3257817772682756e-04" rms="4.4172951579093933e-01" purity="4.1758510470390320e-01" nType="-99"/>
          <Node pos="r" depth="2" NCoef="0" IVar="-1" Cut="0.0000000000000000e+00" cType="1" res="-1.7780626658350229e-03" rms="3.1107684969902039e-01" purity="1.1682720482349396e-01" nType="-99"/>
        </Node>
        <Node pos="r" depth="1" NCoef="0" IVar="0" Cut="4.1265200823545456e-02" cType="1" res="1.4002257585525513e-01" rms="4.0387123823165894e-01" purity="7.3717033863067627e-01" nType="0">
          <Node pos="l" depth="2" NCoef="0" IVar="-1" Cut="0.0000000000000000e+00" cType="1" res="4.1690183570608497e-04" rms="3.2446849346160889e-01" purity="8.7283200025558472e-01" nType="-99"/>
          <Node pos="r" depth="2" NCoef="0" IVar="-1" Cut="0.0000000000000000e+00" cType="1" res="2.3411307483911514e-04" rms="4.3168330192565918e-01" purity="6.6769099235534668e-01" nType="-99"/>
        </Node>
      </Node>
    </BinaryTree>
    <BinaryTree type="DecisionTree" boostWeight="1.0000000000000000e+00" itree="860">
      <Node pos="s" depth="0" NCoef="0" IVar="1" Cut="1.5836036682128906e+02" cType="1" res="6.6249370574951172e-02" rms="4.1042581200599670e-01" purity="5.1460248231887817e-01" nType="0">
        <Node pos="l" depth="1" NCoef="0" IVar="0" Cut="6.4363040030002594e-02" cType="1" res="1.2547546066343784e-02" rms="4.1279819607734680e-01" purity="3.5128906369209290e-01" nType="0">
          <Node pos="l" depth="2" NCoef="0" IVar="-1" Cut="0.0000000000000000e+00" cType="1" res="1.9633938791230321e-04" rms="4.2556047439575195e-01" purity="3.9879792928695679e-01" nType="-99"/>
          <Node pos="r" depth="2" NCoef="0" IVar="-1" Cut="0.0000000000000000e+00" cType="1" res="-2.9985334258526564e-03" rms="2.7671205997467041e-01" purity="1.0073753446340561e-01" nType="-99"/>
        </Node>
        <Node pos="r" depth="1" NCoef="0" IVar="1" Cut="2.4954287719726562e+02" cType="1" res="1.5557497739791870e-01" rms="3.9041620492935181e-01" purity="7.8625196218490601e-01" nType="0">
          <Node pos="l" depth="2" NCoef="0" IVar="-1" Cut="0.0000000000000000e+00" cType="1" res="2.7168606175109744e-04" rms="4.2594906687736511e-01" purity="7.3280674219131470e-01" nType="-99"/>
          <Node pos="r" depth="2" NCoef="0" IVar="-1" Cut="0.0000000000000000e+00" cType="1" res="4.7275738324970007e-04" rms="2.5344821810722351e-01" purity="9.2514437437057495e-01" nType="-99"/>
        </Node>
      </Node>
    </BinaryTree>
    <BinaryTree type="DecisionTree" boostWeight="1.0000000000000000e+00" itree="861">
      <Node pos="s" depth="0" NCoef="0" IVar="2" Cut="6.6204593750000000e+04" cType="1" res="5.4232824593782425e-02" rms="4.1037049889564514e-01" purity="5.0027787685394287e-01" nType="0">
        <Node pos="l" depth="1" NCoef="0" IVar="1" Cut="7.2004119873046875e+01" cType="1" res="7.7878264710307121e-03" rms="4.1873133182525635e-01" purity="3.7086293101310730e-01" nType="0">
          <Node pos="l" depth="2" NCoef="0" IVar="-1" Cut="0.0000000000000000e+00" cType="1" res="-1.1527198366820812e-03" rms="3.3148333430290222e-01" purity="1.4158719778060913e-01" nType="-99"/>
          <Node pos="r" depth="2" NCoef="0" IVar="-1" Cut="0.0000000000000000e+00" cType="1" res="1.8431276839692146e-04" rms="4.5305925607681274e-01" purity="4.9401754140853882e-01" nType="-99"/>
        </Node>
        <Node pos="r" depth="1" NCoef="0" IVar="1" Cut="2.0142605590820312e+02" cType="1" res="1.7606399953365326e-01" rms="3.6016550660133362e-01" purity="8.3974993228912354e-01" nType="0">
          <Node pos="l" depth="2" NCoef="0" IVar="-1" Cut="0.0000000000000000e+00" cType="1" res="2.7026419411413372e-04" rms="4.1046774387359619e-01" purity="7.7537882328033447e-01" nType="-99"/>
          <Node pos="r" depth="2" NCoef="0" IVar="-1" Cut="0.0000000000000000e+00" cType="1" res="5.0020200433209538e-04" rms="2.8685727715492249e-01" purity="9.0775316953659058e-01" nType="-99"/>
        </Node>
      </Node>
    </BinaryTree>
    <BinaryTree type="DecisionTree" boostWeight="1.0000000000000000e+00" itree="862">
      <Node pos="s" depth="0" NCoef="0" IVar="0" Cut="1.4244382269680500e-02" cType="1" res="6.8977333605289459e-02" rms="4.2042383551597595e-01" purity="5.0678312778472900e-01" nType="0">
        <Node pos="l" depth="1" NCoef="0" IVar="1" Cut="3.3748901367187500e+01" cType="1" res="1.9879344105720520e-01" rms="4.3795773386955261e-01" purity="5.7388079166412354e-01" nType="0">
          <Node pos="l" depth="2" NCoef="0" IVar="-1" Cut="0.0000000000000000e+00" cType="1" res="6.7293411120772362e-05" rms="4.4085365533828735e-01" purity="2.6490768790245056e-01" nType="-99"/>
          <Node pos="r" depth="2" NCoef="0" IVar="-1" Cut="0.0000000000000000e+00" cType="1" res="2.5500953779555857e-04" rms="3.8474625349044800e-01" purity="8.1714105606079102e-01" nType="-99"/>
        </Node>
        <Node pos="r" depth="1" NCoef="0" IVar="2" Cut="6.7350984375000000e+04" cType="1" res="3.8015943020582199e-02" rms="4.1010811924934387e-01" purity="4.9078020453453064e-01" nType="0">
          <Node pos="l" depth="2" NCoef="0" IVar="-1" Cut="0.0000000000000000e+00" cType="1" res="-7.8683930041734129e-05" rms="4.1380742192268372e-01" purity="3.4690156579017639e-01" nType="-99"/>
          <Node pos="r" depth="2" NCoef="0" IVar="-1" Cut="0.0000000000000000e+00" cType="1" res="3.8171527558006346e-04" rms="3.7230846285820007e-01" purity="8.2657527923583984e-01" nType="-99"/>
        </Node>
      </Node>
    </BinaryTree>
    <BinaryTree type="DecisionTree" boostWeight="1.0000000000000000e+00" itree="863">
      <Node pos="s" depth="0" NCoef="0" IVar="3" Cut="1.4930736541748047e+01" cType="1" res="4.8582267016172409e-02" rms="4.1278752684593201e-01" purity="4.8775100708007812e-01" nType="0">
        <Node pos="l" depth="1" NCoef="0" IVar="0" Cut="2.4367978796362877e-02" cType="1" res="-2.2071495652198792e-02" rms="3.9638310670852661e-01" purity="2.7899295091629028e-01" nType="0">
          <Node pos="l" depth="2" NCoef="0" IVar="-1" Cut="0.0000000000000000e+00" cType="1" res="1.5195096784736961e-04" rms="4.3334442377090454e-01" purity="3.9578002691268921e-01" nType="-99"/>
          <Node pos="r" depth="2" NCoef="0" IVar="-1" Cut="0.0000000000000000e+00" cType="1" res="-7.3785043787211180e-04" rms="3.5026517510414124e-01" purity="1.6997841000556946e-01" nType="-99"/>
        </Node>
        <Node pos="r" depth="1" NCoef="0" IVar="0" Cut="5.5020269006490707e-02" cType="1" res="1.1614735424518585e-01" rms="4.1683146357536316e-01" purity="6.8738305568695068e-01" nType="0">
          <Node pos="l" depth="2" NCoef="0" IVar="-1" Cut="0.0000000000000000e+00" cType="1" res="4.5386416604742408e-04" rms="3.8267064094543457e-01" purity="7.9086166620254517e-01" nType="-99"/>
          <Node pos="r" depth="2" NCoef="0" IVar="-1" Cut="0.0000000000000000e+00" cType="1" res="1.1149985948577523e-04" rms="4.3704974651336670e-01" purity="5.7424688339233398e-01" nType="-99"/>
        </Node>
      </Node>
    </BinaryTree>
    <BinaryTree type="DecisionTree" boostWeight="1.0000000000000000e+00" itree="864">
      <Node pos="s" depth="0" NCoef="0" IVar="2" Cut="7.2246000000000000e+04" cType="1" res="6.3895441591739655e-02" rms="4.1914799809455872e-01" purity="5.0215220451354980e-01" nType="0">
        <Node pos="l" depth="1" NCoef="0" IVar="0" Cut="3.7699569016695023e-02" cType="1" res="2.8925741091370583e-02" rms="4.3170875310897827e-01" purity="4.0330648422241211e-01" nType="0">
          <Node pos="l" depth="2" NCoef="0" IVar="-1" Cut="0.0000000000000000e+00" cType="1" res="2.1483056480064988e-04" rms="4.4184163212776184e-01" purity="4.8915767669677734e-01" nType="-99"/>
          <Node pos="r" depth="2" NCoef="0" IVar="-1" Cut="0.0000000000000000e+00" cType="1" res="-3.3373179030604661e-04" rms="4.0594375133514404e-01" purity="2.9064568877220154e-01" nType="-99"/>
        </Node>
        <Node pos="r" depth="1" NCoef="0" IVar="1" Cut="2.0194917297363281e+02" cType="1" res="1.9054402410984039e-01" rms="3.4133568406105042e-01" purity="8.6013841629028320e-01" nType="0">
          <Node pos="l" depth="2" NCoef="0" IVar="-1" Cut="0.0000000000000000e+00" cType="1" res="3.3685116795822978e-04" rms="4.0157136321067810e-01" purity="7.8960633277893066e-01" nType="-99"/>
          <Node pos="r" depth="2" NCoef="0" IVar="-1" Cut="0.0000000000000000e+00" cType="1" res="4.6926186769269407e-04" rms="2.7662724256515503e-01" purity="9.1493016481399536e-01" nType="-99"/>
        </Node>
      </Node>
    </BinaryTree>
    <BinaryTree type="DecisionTree" boostWeight="1.0000000000000000e+00" itree="865">
      <Node pos="s" depth="0" NCoef="0" IVar="2" Cut="7.2246000000000000e+04" cType="1" res="5.7465679943561554e-02" rms="4.1206732392311096e-01" purity="5.0058561563491821e-01" nType="0">
        <Node pos="l" depth="1" NCoef="0" IVar="0" Cut="3.8617823272943497e-02" cType="1" res="2.0381303504109383e-02" rms="4.2203304171562195e-01" purity="4.0169212222099304e-01" nType="0">
          <Node pos="l" depth="2" NCoef="0" IVar="-1" Cut="0.0000000000000000e+00" cType="1" res="1.9556039478629827e-04" rms="4.3110799789428711e-01" purity="4.8833593726158142e-01" nType="-99"/>
          <Node pos="r" depth="2" NCoef="0" IVar="-1" Cut="0.0000000000000000e+00" cType="1" res="-3.9938490954227746e-04" rms="3.9670336246490479e-01" purity="2.8171581029891968e-01" nType="-99"/>
        </Node>
        <Node pos="r" depth="1" NCoef="0" IVar="1" Cut="2.0142605590820312e+02" cType="1" res="1.9275024533271790e-01" rms="3.4081777930259705e-01" purity="8.6135095357894897e-01" nType="0">
          <Node pos="l" depth="2" NCoef="0" IVar="-1" Cut="0.0000000000000000e+00" cType="1" res="2.9946301947347820e-04" rms="4.0183803439140320e-01" purity="7.8902852535247803e-01" nType="-99"/>
          <Node pos="r" depth="2" NCoef="0" IVar="-1" Cut="0.0000000000000000e+00" cType="1" res="3.9977097185328603e-04" rms="2.8086015582084656e-01" purity="9.1262447834014893e-01" nType="-99"/>
        </Node>
      </Node>
    </BinaryTree>
    <BinaryTree type="DecisionTree" boostWeight="1.0000000000000000e+00" itree="866">
      <Node pos="s" depth="0" NCoef="0" IVar="2" Cut="7.2246000000000000e+04" cType="1" res="5.0444852560758591e-02" rms="4.1285488009452820e-01" purity="4.9174469709396362e-01" nType="0">
        <Node pos="l" depth="1" NCoef="0" IVar="0" Cut="5.0810825079679489e-02" cType="1" res="1.1225899681448936e-02" rms="4.2200237512588501e-01" purity="3.8847720623016357e-01" nType="0">
          <Node pos="l" depth="2" NCoef="0" IVar="-1" Cut="0.0000000000000000e+00" cType="1" res="2.0310378749854863e-04" rms="4.2786744236946106e-01" purity="4.4958239793777466e-01" nType="-99"/>
          <Node pos="r" depth="2" NCoef="0" IVar="-1" Cut="0.0000000000000000e+00" cType="1" res="-8.2133535761386156e-04" rms="3.8981407880783081e-01" purity="2.3745657503604889e-01" nType="-99"/>
        </Node>
        <Node pos="r" depth="1" NCoef="0" IVar="1" Cut="1.9680345153808594e+02" cType="1" res="1.8947817385196686e-01" rms="3.4437343478202820e-01" purity="8.5783356428146362e-01" nType="0">
          <Node pos="l" depth="2" NCoef="0" IVar="-1" Cut="0.0000000000000000e+00" cType="1" res="2.4793369811959565e-04" rms="4.1834142804145813e-01" purity="7.6502346992492676e-01" nType="-99"/>
          <Node pos="r" depth="2" NCoef="0" IVar="-1" Cut="0.0000000000000000e+00" cType="1" res="3.3910336787812412e-04" rms="2.8269952535629272e-01" purity="9.1101807355880737e-01" nType="-99"/>
        </Node>
      </Node>
    </BinaryTree>
    <BinaryTree type="DecisionTree" boostWeight="1.0000000000000000e+00" itree="867">
      <Node pos="s" depth="0" NCoef="0" IVar="2" Cut="4.0782179687500000e+04" cType="1" res="5.9139825403690338e-02" rms="4.1005530953407288e-01" purity="5.0596827268600464e-01" nType="0">
        <Node pos="l" depth="1" NCoef="0" IVar="0" Cut="2.4177541956305504e-02" cType="1" res="-1.0691881179809570e-02" rms="4.0695640444755554e-01" purity="2.9826116561889648e-01" nType="0">
          <Node pos="l" depth="2" NCoef="0" IVar="-1" Cut="0.0000000000000000e+00" cType="1" res="1.8699010252021253e-04" rms="4.3873035907745361e-01" purity="4.0944111347198486e-01" nType="-99"/>
          <Node pos="r" depth="2" NCoef="0" IVar="-1" Cut="0.0000000000000000e+00" cType="1" res="-3.9270016713999212e-04" rms="3.7605279684066772e-01" purity="2.1490336954593658e-01" nType="-99"/>
        </Node>
        <Node pos="r" depth="1" NCoef="0" IVar="0" Cut="4.1371610015630722e-02" cType="1" res="1.4439877867698669e-01" rms="3.9750933647155762e-01" purity="7.5956201553344727e-01" nType="0">
          <Node pos="l" depth="2" NCoef="0" IVar="-1" Cut="0.0000000000000000e+00" cType="1" res="4.1537993820384145e-04" rms="3.1332442164421082e-01" purity="8.8473635911941528e-01" nType="-99"/>
          <Node pos="r" depth="2" NCoef="0" IVar="-1" Cut="0.0000000000000000e+00" cType="1" res="2.7104251785203815e-04" rms="4.2833513021469116e-01" purity="6.9331294298171997e-01" nType="-99"/>
        </Node>
      </Node>
    </BinaryTree>
    <BinaryTree type="DecisionTree" boostWeight="1.0000000000000000e+00" itree="868">
      <Node pos="s" depth="0" NCoef="0" IVar="3" Cut="1.4930736541748047e+01" cType="1" res="6.4425379037857056e-02" rms="4.1554704308509827e-01" purity="5.0680440664291382e-01" nType="0">
        <Node pos="l" depth="1" NCoef="0" IVar="0" Cut="1.0800702497363091e-02" cType="1" res="1.4263468328863382e-03" rms="4.0926724672317505e-01" purity="3.0449384450912476e-01" nType="0">
          <Node pos="l" depth="2" NCoef="0" IVar="-1" Cut="0.0000000000000000e+00" cType="1" res="2.3798244365025312e-04" rms="4.4658991694450378e-01" purity="4.7162777185440063e-01" nType="-99"/>
          <Node pos="r" depth="2" NCoef="0" IVar="-1" Cut="0.0000000000000000e+00" cType="1" res="-2.9868894489482045e-04" rms="3.8680735230445862e-01" purity="2.4991287291049957e-01" nType="-99"/>
        </Node>
        <Node pos="r" depth="1" NCoef="0" IVar="0" Cut="3.8617823272943497e-02" cType="1" res="1.2488110363483429e-01" rms="4.1253650188446045e-01" purity="7.0094758272171021e-01" nType="0">
          <Node pos="l" depth="2" NCoef="0" IVar="-1" Cut="0.0000000000000000e+00" cType="1" res="4.2525012395344675e-04" rms="3.1856536865234375e-01" purity="8.7915992736816406e-01" nType="-99"/>
          <Node pos="r" depth="2" NCoef="0" IVar="-1" Cut="0.0000000000000000e+00" cType="1" res="1.8541290774010122e-04" rms="4.3969359993934631e-01" purity="6.1289161443710327e-01" nType="-99"/>
        </Node>
      </Node>
    </BinaryTree>
    <BinaryTree type="DecisionTree" boostWeight="1.0000000000000000e+00" itree="869">
      <Node pos="s" depth="0" NCoef="0" IVar="2" Cut="1.7566537109375000e+04" cType="1" res="5.9866014868021011e-02" rms="4.1794049739837646e-01" purity="4.9865677952766418e-01" nType="0">
        <Node pos="l" depth="1" NCoef="0" IVar="0" Cut="9.9703855812549591e-03" cType="1" res="-3.2978095114231110e-02" rms="3.9075481891632080e-01" purity="2.5534906983375549e-01" nType="0">
          <Node pos="l" depth="2" NCoef="0" IVar="-1" Cut="0.0000000000000000e+00" cType="1" res="2.5745161110535264e-04" rms="4.4097566604614258e-01" purity="4.0661263465881348e-01" nType="-99"/>
          <Node pos="r" depth="2" NCoef="0" IVar="-1" Cut="0.0000000000000000e+00" cType="1" res="-9.1638247249647975e-04" rms="3.5415747761726379e-01" purity="1.8823865056037903e-01" nType="-99"/>
        </Node>
        <Node pos="r" depth="1" NCoef="0" IVar="0" Cut="2.8488764539361000e-02" cType="1" res="1.0488642007112503e-01" rms="4.2323529720306396e-01" purity="6.1663752794265747e-01" nType="0">
          <Node pos="l" depth="2" NCoef="0" IVar="-1" Cut="0.0000000000000000e+00" cType="1" res="3.0036456882953644e-04" rms="3.6601707339286804e-01" purity="8.2236933708190918e-01" nType="-99"/>
          <Node pos="r" depth="2" NCoef="0" IVar="-1" Cut="0.0000000000000000e+00" cType="1" res="1.7812571604736149e-04" rms="4.2684879899024963e-01" purity="5.6079953908920288e-01" nType="-99"/>
        </Node>
      </Node>
    </BinaryTree>
    <BinaryTree type="DecisionTree" boostWeight="1.0000000000000000e+00" itree="870">
      <Node pos="s" depth="0" NCoef="0" IVar="1" Cut="9.2772712707519531e+01" cType="1" res="5.4184719920158386e-02" rms="4.0929278731346130e-01" purity="5.0073313713073730e-01" nType="0">
        <Node pos="l" depth="1" NCoef="0" IVar="1" Cut="2.5924314498901367e+01" cType="1" res="-4.3005570769309998e-02" rms="3.6270964145660400e-01" purity="2.0842461287975311e-01" nType="0">
          <Node pos="l" depth="2" NCoef="0" IVar="-1" Cut="0.0000000000000000e+00" cType="1" res="-3.6826867144554853e-03" rms="2.6365908980369568e-01" purity="7.5156219303607941e-02" nType="-99"/>
          <Node pos="r" depth="2" NCoef="0" IVar="-1" Cut="0.0000000000000000e+00" cType="1" res="-6.7568427766673267e-05" rms="3.8744461536407471e-01" purity="2.5790917873382568e-01" nType="-99"/>
        </Node>
        <Node pos="r" depth="1" NCoef="0" IVar="0" Cut="2.7510134503245354e-02" cType="1" res="1.0743228346109390e-01" rms="4.2333528399467468e-01" purity="6.6087990999221802e-01" nType="0">
          <Node pos="l" depth="2" NCoef="0" IVar="-1" Cut="0.0000000000000000e+00" cType="1" res="4.6904713963158429e-04" rms="3.7548980116844177e-01" purity="8.0786126852035522e-01" nType="-99"/>
          <Node pos="r" depth="2" NCoef="0" IVar="-1" Cut="0.0000000000000000e+00" cType="1" res="2.0186044275760651e-04" rms="4.3110179901123047e-01" purity="6.1449116468429565e-01" nType="-99"/>
        </Node>
      </Node>
    </BinaryTree>
    <BinaryTree type="DecisionTree" boostWeight="1.0000000000000000e+00" itree="871">
      <Node pos="s" depth="0" NCoef="0" IVar="2" Cut="6.1173269531250000e+04" cType="1" res="6.3635274767875671e-02" rms="4.0803858637809753e-01" purity="5.1473855972290039e-01" nType="0">
        <Node pos="l" depth="1" NCoef="0" IVar="0" Cut="3.7699569016695023e-02" cType="1" res="1.2272939085960388e-02" rms="4.1693341732025146e-01" purity="3.6462089419364929e-01" nType="0">
          <Node pos="l" depth="2" NCoef="0" IVar="-1" Cut="0.0000000000000000e+00" cType="1" res="2.2999464999884367e-04" rms="4.3217092752456665e-01" purity="4.6063286066055298e-01" nType="-99"/>
          <Node pos="r" depth="2" NCoef="0" IVar="-1" Cut="0.0000000000000000e+00" cType="1" res="-5.8184040244668722e-04" rms="3.8192951679229736e-01" purity="2.2342549264431000e-01" nType="-99"/>
        </Node>
        <Node pos="r" depth="1" NCoef="0" IVar="1" Cut="2.4353530883789062e+02" cType="1" res="1.7157240211963654e-01" rms="3.6589688062667847e-01" purity="8.3020853996276855e-01" nType="0">
          <Node pos="l" depth="2" NCoef="0" IVar="-1" Cut="0.0000000000000000e+00" cType="1" res="2.6793312281370163e-04" rms="4.1018030047416687e-01" purity="7.7286452054977417e-01" nType="-99"/>
          <Node pos="r" depth="2" NCoef="0" IVar="-1" Cut="0.0000000000000000e+00" cType="1" res="3.7998848711140454e-04" rms="2.2701990604400635e-01" purity="9.4529819488525391e-01" nType="-99"/>
        </Node>
      </Node>
    </BinaryTree>
    <BinaryTree type="DecisionTree" boostWeight="1.0000000000000000e+00" itree="872">
      <Node pos="s" depth="0" NCoef="0" IVar="3" Cut="1.4930736541748047e+01" cType="1" res="6.2162179499864578e-02" rms="4.1327914595603943e-01" purity="5.0556027889251709e-01" nType="0">
        <Node pos="l" depth="1" NCoef="0" IVar="0" Cut="2.4367978796362877e-02" cType="1" res="-5.7561398716643453e-04" rms="4.0631973743438721e-01" purity="3.0482488870620728e-01" nType="0">
          <Node pos="l" depth="2" NCoef="0" IVar="-1" Cut="0.0000000000000000e+00" cType="1" res="2.3866476840339601e-04" rms="4.4244179129600525e-01" purity="4.3440085649490356e-01" nType="-99"/>
          <Node pos="r" depth="2" NCoef="0" IVar="-1" Cut="0.0000000000000000e+00" cType="1" res="-5.6596979266032577e-04" rms="3.5158741474151611e-01" purity="1.7262333631515503e-01" nType="-99"/>
        </Node>
        <Node pos="r" depth="1" NCoef="0" IVar="0" Cut="3.8120627403259277e-02" cType="1" res="1.2222227454185486e-01" rms="4.1095605492591858e-01" purity="6.9772809743881226e-01" nType="0">
          <Node pos="l" depth="2" NCoef="0" IVar="-1" Cut="0.0000000000000000e+00" cType="1" res="4.4079663348384202e-04" rms="3.1370937824249268e-01" purity="8.8368457555770874e-01" nType="-99"/>
          <Node pos="r" depth="2" NCoef="0" IVar="-1" Cut="0.0000000000000000e+00" cType="1" res="1.9160541705787182e-04" rms="4.3790078163146973e-01" purity="6.0434418916702271e-01" nType="-99"/>
        </Node>
      </Node>
    </BinaryTree>
    <BinaryTree type="DecisionTree" boostWeight="1.0000000000000000e+00" itree="873">
      <Node pos="s" depth="0" NCoef="0" IVar="1" Cut="1.0517140960693359e+02" cType="1" res="5.6948419660329819e-02" rms="4.1581088304519653e-01" purity="4.9629467725753784e-01" nType="0">
        <Node pos="l" depth="1" NCoef="0" IVar="3" Cut="4.9926767349243164e+00" cType="1" res="-1.6510788351297379e-02" rms="3.8820391893386841e-01" purity="2.4334670603275299e-01" nType="0">
          <Node pos="l" depth="2" NCoef="0" IVar="-1" Cut="0.0000000000000000e+00" cType="1" res="-9.5583795337006450e-04" rms="3.5409203171730042e-01" purity="1.7404879629611969e-01" nType="-99"/>
          <Node pos="r" depth="2" NCoef="0" IVar="-1" Cut="0.0000000000000000e+00" cType="1" res="7.4935698648914695e-05" rms="4.0296784043312073e-01" purity="2.9113534092903137e-01" nType="-99"/>
        </Node>
        <Node pos="r" depth="1" NCoef="0" IVar="0" Cut="2.8488764539361000e-02" cType="1" res="1.0896733403205872e-01" rms="4.2671939730644226e-01" purity="6.7541557550430298e-01" nType="0">
          <Node pos="l" depth="2" NCoef="0" IVar="-1" Cut="0.0000000000000000e+00" cType="1" res="3.7840587901882827e-04" rms="3.6382797360420227e-01" purity="8.2063281536102295e-01" nType="-99"/>
          <Node pos="r" depth="2" NCoef="0" IVar="-1" Cut="0.0000000000000000e+00" cType="1" res="1.8348453158978373e-04" rms="4.4009801745414734e-01" purity="6.2507706880569458e-01" nType="-99"/>
        </Node>
      </Node>
    </BinaryTree>
    <BinaryTree type="DecisionTree" boostWeight="1.0000000000000000e+00" itree="874">
      <Node pos="s" depth="0" NCoef="0" IVar="3" Cut="1.2596701622009277e+01" cType="1" res="5.8290593326091766e-02" rms="4.1015672683715820e-01" purity="5.0379669666290283e-01" nType="0">
        <Node pos="l" depth="1" NCoef="0" IVar="0" Cut="1.9222566857933998e-02" cType="1" res="-3.0019266530871391e-02" rms="3.9220690727233887e-01" purity="2.6726880669593811e-01" nType="0">
          <Node pos="l" depth="2" NCoef="0" IVar="-1" Cut="0.0000000000000000e+00" cType="1" res="1.6156228957697749e-04" rms="4.2782720923423767e-01" purity="3.8065025210380554e-01" nType="-99"/>
          <Node pos="r" depth="2" NCoef="0" IVar="-1" Cut="0.0000000000000000e+00" cType="1" res="-6.1925163026899099e-04" rms="3.6029964685440063e-01" purity="1.9030269980430603e-01" nType="-99"/>
        </Node>
        <Node pos="r" depth="1" NCoef="0" IVar="0" Cut="3.9660222828388214e-02" cType="1" res="1.2551225721836090e-01" rms="4.1077548265457153e-01" purity="6.8384230136871338e-01" nType="0">
          <Node pos="l" depth="2" NCoef="0" IVar="-1" Cut="0.0000000000000000e+00" cType="1" res="4.5641951146535575e-04" rms="3.4103071689605713e-01" purity="8.4934467077255249e-01" nType="-99"/>
          <Node pos="r" depth="2" NCoef="0" IVar="-1" Cut="0.0000000000000000e+00" cType="1" res="2.0941683033015579e-04" rms="4.3135660886764526e-01" purity="6.0357850790023804e-01" nType="-99"/>
        </Node>
      </Node>
    </BinaryTree>
    <BinaryTree type="DecisionTree" boostWeight="1.0000000000000000e+00" itree="875">
      <Node pos="s" depth="0" NCoef="0" IVar="1" Cut="2.2930630493164062e+02" cType="1" res="5.7094689458608627e-02" rms="4.1774320602416992e-01" purity="4.9343246221542358e-01" nType="0">
        <Node pos="l" depth="1" NCoef="0" IVar="0" Cut="5.6977529078722000e-02" cType="1" res="3.5823337733745575e-02" rms="4.2536008358001709e-01" purity="4.4335272908210754e-01" nType="0">
          <Node pos="l" depth="2" NCoef="0" IVar="-1" Cut="0.0000000000000000e+00" cType="1" res="2.1301794913597405e-04" rms="4.2456954717636108e-01" purity="4.8551964759826660e-01" nType="-99"/>
          <Node pos="r" depth="2" NCoef="0" IVar="-1" Cut="0.0000000000000000e+00" cType="1" res="-4.3162947986274958e-04" rms="4.1032800078392029e-01" purity="3.2051199674606323e-01" nType="-99"/>
        </Node>
        <Node pos="r" depth="1" NCoef="0" IVar="3" Cut="4.1251903533935547e+01" cType="1" res="2.2477556765079498e-01" rms="3.0364918708801270e-01" purity="8.8820785284042358e-01" nType="0">
          <Node pos="l" depth="2" NCoef="0" IVar="-1" Cut="0.0000000000000000e+00" cType="1" res="4.2478373507037759e-04" rms="3.9733216166496277e-01" purity="7.7335417270660400e-01" nType="-99"/>
          <Node pos="r" depth="2" NCoef="0" IVar="-1" Cut="0.0000000000000000e+00" cType="1" res="4.7686786274425685e-04" rms="2.6570037007331848e-01" purity="9.2278867959976196e-01" nType="-99"/>
        </Node>
      </Node>
    </BinaryTree>
    <BinaryTree type="DecisionTree" boostWeight="1.0000000000000000e+00" itree="876">
      <Node pos="s" depth="0" NCoef="0" IVar="2" Cut="3.6123000000000000e+04" cType="1" res="6.1678744852542877e-02" rms="4.1179114580154419e-01" purity="5.0606095790863037e-01" nType="0">
        <Node pos="l" depth="1" NCoef="0" IVar="0" Cut="2.5085821747779846e-02" cType="1" res="-1.5866336179897189e-03" rms="4.0515795350074768e-01" purity="3.0671244859695435e-01" nType="0">
          <Node pos="l" depth="2" NCoef="0" IVar="-1" Cut="0.0000000000000000e+00" cType="1" res="2.2315906244330108e-04" rms="4.3764317035675049e-01" purity="4.3032231926918030e-01" nType="-99"/>
          <Node pos="r" depth="2" NCoef="0" IVar="-1" Cut="0.0000000000000000e+00" cType="1" res="-5.6427426170557737e-04" rms="3.6408075690269470e-01" purity="1.9474485516548157e-01" nType="-99"/>
        </Node>
        <Node pos="r" depth="1" NCoef="0" IVar="0" Cut="4.2839553207159042e-02" cType="1" res="1.3369855284690857e-01" rms="4.0742802619934082e-01" purity="7.3299455642700195e-01" nType="0">
          <Node pos="l" depth="2" NCoef="0" IVar="-1" Cut="0.0000000000000000e+00" cType="1" res="3.7761731073260307e-04" rms="3.2626637816429138e-01" purity="8.7144285440444946e-01" nType="-99"/>
          <Node pos="r" depth="2" NCoef="0" IVar="-1" Cut="0.0000000000000000e+00" cType="1" res="2.0130559278186411e-04" rms="4.3983858823776245e-01" purity="6.4687901735305786e-01" nType="-99"/>
        </Node>
      </Node>
    </BinaryTree>
    <BinaryTree type="DecisionTree" boostWeight="1.0000000000000000e+00" itree="877">
      <Node pos="s" depth="0" NCoef="0" IVar="2" Cut="6.8965093750000000e+04" cType="1" res="5.7638403028249741e-02" rms="4.1420364379882812e-01" purity="4.9782979488372803e-01" nType="0">
        <Node pos="l" depth="1" NCoef="0" IVar="0" Cut="3.7699569016695023e-02" cType="1" res="2.1021282300353050e-02" rms="4.2347583174705505e-01" purity="3.9029523730278015e-01" nType="0">
          <Node pos="l" depth="2" NCoef="0" IVar="-1" Cut="0.0000000000000000e+00" cType="1" res="2.4913490051403642e-04" rms="4.3366715312004089e-01" purity="4.7730916738510132e-01" nType="-99"/>
          <Node pos="r" depth="2" NCoef="0" IVar="-1" Cut="0.0000000000000000e+00" cType="1" res="-2.8807832859456539e-04" rms="3.9983034133911133e-01" purity="2.7526646852493286e-01" nType="-99"/>
        </Node>
        <Node pos="r" depth="1" NCoef="0" IVar="1" Cut="2.0142605590820312e+02" cType="1" res="1.7482146620750427e-01" rms="3.5872748494148254e-01" purity="8.4196460247039795e-01" nType="0">
          <Node pos="l" depth="2" NCoef="0" IVar="-1" Cut="0.0000000000000000e+00" cType="1" res="2.9250376974232495e-04" rms="4.1088837385177612e-01" purity="7.7577632665634155e-01" nType="-99"/>
          <Node pos="r" depth="2" NCoef="0" IVar="-1" Cut="0.0000000000000000e+00" cType="1" res="4.0093078860081732e-04" rms="2.9146510362625122e-01" purity="9.0447336435317993e-01" nType="-99"/>
        </Node>
      </Node>
    </BinaryTree>
    <BinaryTree type="DecisionTree" boostWeight="1.0000000000000000e+00" itree="878">
      <Node pos="s" depth="0" NCoef="0" IVar="1" Cut="1.3177465820312500e+02" cType="1" res="5.4279819130897522e-02" rms="4.1053169965744019e-01" purity="4.9977630376815796e-01" nType="0">
        <Node pos="l" depth="1" NCoef="0" IVar="1" Cut="6.2233680725097656e+01" cType="1" res="-1.6464646905660629e-02" rms="3.9341670274734497e-01" purity="2.7523061633110046e-01" nType="0">
          <Node pos="l" depth="2" NCoef="0" IVar="-1" Cut="0.0000000000000000e+00" cType="1" res="-9.0879481285810471e-04" rms="3.2671654224395752e-01" purity="1.2655097246170044e-01" nType="-99"/>
          <Node pos="r" depth="2" NCoef="0" IVar="-1" Cut="0.0000000000000000e+00" cType="1" res="1.2355917715467513e-04" rms="4.3156763911247253e-01" purity="3.8791158795356750e-01" nType="-99"/>
        </Node>
        <Node pos="r" depth="1" NCoef="0" IVar="1" Cut="2.4556985473632812e+02" cType="1" res="1.2697251141071320e-01" rms="4.1502761840820312e-01" purity="7.3050570487976074e-01" nType="0">
          <Node pos="l" depth="2" NCoef="0" IVar="-1" Cut="0.0000000000000000e+00" cType="1" res="2.2326681937556714e-04" rms="4.4254529476165771e-01" purity="6.7843538522720337e-01" nType="-99"/>
          <Node pos="r" depth="2" NCoef="0" IVar="-1" Cut="0.0000000000000000e+00" cType="1" res="3.9299466880038381e-04" rms="2.6354613900184631e-01" purity="9.1838508844375610e-01" nType="-99"/>
        </Node>
      </Node>
    </BinaryTree>
    <BinaryTree type="DecisionTree" boostWeight="1.0000000000000000e+00" itree="879">
      <Node pos="s" depth="0" NCoef="0" IVar="3" Cut="1.4930736541748047e+01" cType="1" res="4.4787216931581497e-02" rms="4.0781754255294800e-01" purity="4.8851683735847473e-01" nType="0">
        <Node pos="l" depth="1" NCoef="0" IVar="0" Cut="2.4367978796362877e-02" cType="1" res="-3.6372113972902298e-02" rms="3.8472920656204224e-01" purity="2.6653262972831726e-01" nType="0">
          <Node pos="l" depth="2" NCoef="0" IVar="-1" Cut="0.0000000000000000e+00" cType="1" res="1.0037152242148295e-04" rms="4.2362189292907715e-01" purity="3.8859447836875916e-01" nType="-99"/>
          <Node pos="r" depth="2" NCoef="0" IVar="-1" Cut="0.0000000000000000e+00" cType="1" res="-8.4002950461581349e-04" rms="3.3594506978988647e-01" purity="1.5298716723918915e-01" nType="-99"/>
        </Node>
        <Node pos="r" depth="1" NCoef="0" IVar="0" Cut="3.8821943104267120e-02" cType="1" res="1.1961536854505539e-01" rms="4.1414248943328857e-01" purity="6.9318425655364990e-01" nType="0">
          <Node pos="l" depth="2" NCoef="0" IVar="-1" Cut="0.0000000000000000e+00" cType="1" res="4.8884423449635506e-04" rms="3.2974049448966980e-01" purity="8.7089031934738159e-01" nType="-99"/>
          <Node pos="r" depth="2" NCoef="0" IVar="-1" Cut="0.0000000000000000e+00" cType="1" res="1.8818669195752591e-04" rms="4.3639260530471802e-01" purity="6.1111533641815186e-01" nType="-99"/>
        </Node>
      </Node>
    </BinaryTree>
    <BinaryTree type="DecisionTree" boostWeight="1.0000000000000000e+00" itree="880">
      <Node pos="s" depth="0" NCoef="0" IVar="2" Cut="6.1173269531250000e+04" cType="1" res="5.3195770829916000e-02" rms="4.1164657473564148e-01" purity="4.9681544303894043e-01" nType="0">
        <Node pos="l" depth="1" NCoef="0" IVar="0" Cut="3.8101427257061005e-02" cType="1" res="8.1461844965815544e-03" rms="4.1731804609298706e-01" purity="3.5670930147171021e-01" nType="0">
          <Node pos="l" depth="2" NCoef="0" IVar="-1" Cut="0.0000000000000000e+00" cType="1" res="2.1754170302301645e-04" rms="4.3466305732727051e-01" purity="4.5061668753623962e-01" nType="-99"/>
          <Node pos="r" depth="2" NCoef="0" IVar="-1" Cut="0.0000000000000000e+00" cType="1" res="-6.0944812139496207e-04" rms="3.7967151403427124e-01" purity="2.2007037699222565e-01" nType="-99"/>
        </Node>
        <Node pos="r" depth="1" NCoef="0" IVar="1" Cut="2.4123907470703125e+02" cType="1" res="1.5504857897758484e-01" rms="3.7929013371467590e-01" purity="8.1358200311660767e-01" nType="0">
          <Node pos="l" depth="2" NCoef="0" IVar="-1" Cut="0.0000000000000000e+00" cType="1" res="2.5638099759817123e-04" rms="4.2150333523750305e-01" purity="7.5412952899932861e-01" nType="-99"/>
          <Node pos="r" depth="2" NCoef="0" IVar="-1" Cut="0.0000000000000000e+00" cType="1" res="3.3698690822347999e-04" rms="2.4236242473125458e-01" purity="9.3691861629486084e-01" nType="-99"/>
        </Node>
      </Node>
    </BinaryTree>
    <BinaryTree type="DecisionTree" boostWeight="1.0000000000000000e+00" itree="881">
      <Node pos="s" depth="0" NCoef="0" IVar="1" Cut="2.1162248229980469e+02" cType="1" res="5.7637620717287064e-02" rms="4.1341966390609741e-01" purity="4.9994647502899170e-01" nType="0">
        <Node pos="l" depth="1" NCoef="0" IVar="0" Cut="4.9881406128406525e-02" cType="1" res="3.0740603804588318e-02" rms="4.2288306355476379e-01" purity="4.3490663170814514e-01" nType="0">
          <Node pos="l" depth="2" NCoef="0" IVar="-1" Cut="0.0000000000000000e+00" cType="1" res="2.8016261057928205e-04" rms="4.2399120330810547e-01" purity="4.9716541171073914e-01" nType="-99"/>
          <Node pos="r" depth="2" NCoef="0" IVar="-1" Cut="0.0000000000000000e+00" cType="1" res="-4.7750727389939129e-04" rms="4.0095046162605286e-01" purity="2.9263591766357422e-01" nType="-99"/>
        </Node>
        <Node pos="r" depth="1" NCoef="0" IVar="3" Cut="4.5066810607910156e+01" cType="1" res="2.1347753703594208e-01" rms="3.1077834963798523e-01" purity="8.7678384780883789e-01" nType="0">
          <Node pos="l" depth="2" NCoef="0" IVar="-1" Cut="0.0000000000000000e+00" cType="1" res="2.3411092115566134e-04" rms="3.9342516660690308e-01" purity="7.5621932744979858e-01" nType="-99"/>
          <Node pos="r" depth="2" NCoef="0" IVar="-1" Cut="0.0000000000000000e+00" cType="1" res="3.8097900687716901e-04" rms="2.6326644420623779e-01" purity="9.2386394739151001e-01" nType="-99"/>
        </Node>
      </Node>
    </BinaryTree>
    <BinaryTree type="DecisionTree" boostWeight="1.0000000000000000e+00" itree="882">
      <Node pos="s" depth="0" NCoef="0" IVar="1" Cut="1.0533761596679688e+02" cType="1" res="6.1857074499130249e-02" rms="4.1362854838371277e-01" purity="5.0579285621643066e-01" nType="0">
        <Node pos="l" depth="1" NCoef="0" IVar="1" Cut="1.9236221313476562e+01" cType="1" res="-1.7723862081766129e-02" rms="3.8489219546318054e-01" purity="2.4435473978519440e-01" nType="0">
          <Node pos="l" depth="2" NCoef="0" IVar="-1" Cut="0.0000000000000000e+00" cType="1" res="-5.9413379058241844e-03" rms="2.3672334849834442e-01" purity="6.0473501682281494e-02" nType="-99"/>
          <Node pos="r" depth="2" NCoef="0" IVar="-1" Cut="0.0000000000000000e+00" cType="1" res="4.3667732825269923e-05" rms="4.0075245499610901e-01" purity="2.7775302529335022e-01" nType="-99"/>
        </Node>
        <Node pos="r" depth="1" NCoef="0" IVar="0" Cut="4.1265200823545456e-02" cType="1" res="1.1621841788291931e-01" rms="4.2365312576293945e-01" purity="6.8437999486923218e-01" nType="0">
          <Node pos="l" depth="2" NCoef="0" IVar="-1" Cut="0.0000000000000000e+00" cType="1" res="4.0172226727008820e-04" rms="3.8954296708106995e-01" purity="7.8492647409439087e-01" nType="-99"/>
          <Node pos="r" depth="2" NCoef="0" IVar="-1" Cut="0.0000000000000000e+00" cType="1" res="1.5751428145449609e-04" rms="4.3864527344703674e-01" purity="6.0569870471954346e-01" nType="-99"/>
        </Node>
      </Node>
    </BinaryTree>
    <BinaryTree type="DecisionTree" boostWeight="1.0000000000000000e+00" itree="883">
      <Node pos="s" depth="0" NCoef="0" IVar="2" Cut="7.2246000000000000e+04" cType="1" res="6.1448242515325546e-02" rms="4.1524425148963928e-01" purity="5.0404208898544312e-01" nType="0">
        <Node pos="l" depth="1" NCoef="0" IVar="0" Cut="1.2702706269919872e-02" cType="1" res="2.6205871254205704e-02" rms="4.2628443241119385e-01" purity="4.0577653050422668e-01" nType="0">
          <Node pos="l" depth="2" NCoef="0" IVar="-1" Cut="0.0000000000000000e+00" cType="1" res="3.0676514143124223e-04" rms="4.3760198354721069e-01" purity="5.2019512653350830e-01" nType="-99"/>
          <Node pos="r" depth="2" NCoef="0" IVar="-1" Cut="0.0000000000000000e+00" cType="1" res="-2.5747007384779863e-05" rms="4.1743326187133789e-01" purity="3.7792792916297913e-01" nType="-99"/>
        </Node>
        <Node pos="r" depth="1" NCoef="0" IVar="1" Cut="1.9680345153808594e+02" cType="1" res="1.8851318955421448e-01" rms="3.4395810961723328e-01" purity="8.5833472013473511e-01" nType="0">
          <Node pos="l" depth="2" NCoef="0" IVar="-1" Cut="0.0000000000000000e+00" cType="1" res="2.2903803619556129e-04" rms="4.0717384219169617e-01" purity="7.8149676322937012e-01" nType="-99"/>
          <Node pos="r" depth="2" NCoef="0" IVar="-1" Cut="0.0000000000000000e+00" cType="1" res="3.4561593201942742e-04" rms="2.8854724764823914e-01" purity="9.0706926584243774e-01" nType="-99"/>
        </Node>
      </Node>
    </BinaryTree>
    <BinaryTree type="DecisionTree" boostWeight="1.0000000000000000e+00" itree="884">
      <Node pos="s" depth="0" NCoef="0" IVar="1" Cut="9.2416587829589844e+01" cType="1" res="5.6026894599199295e-02" rms="4.1325232386589050e-01" purity="4.9607741832733154e-01" nType="0">
        <Node pos="l" depth="1" NCoef="0" IVar="0" Cut="1.2566522695124149e-02" cType="1" res="-2.0569117739796638e-02" rms="3.7823283672332764e-01" purity="2.2685408592224121e-01" nType="0">
          <Node pos="l" depth="2" NCoef="0" IVar="-1" Cut="0.0000000000000000e+00" cType="1" res="2.4927538470365107e-04" rms="4.4103917479515076e-01" purity="3.6049857735633850e-01" nType="-99"/>
          <Node pos="r" depth="2" NCoef="0" IVar="-1" Cut="0.0000000000000000e+00" cType="1" res="-6.4764346461743116e-04" rms="3.4261581301689148e-01" purity="1.7106179893016815e-01" nType="-99"/>
        </Node>
        <Node pos="r" depth="1" NCoef="0" IVar="0" Cut="2.8488764539361000e-02" cType="1" res="1.0050096362829208e-01" rms="4.2601242661476135e-01" purity="6.5239703655242920e-01" nType="0">
          <Node pos="l" depth="2" NCoef="0" IVar="-1" Cut="0.0000000000000000e+00" cType="1" res="4.0688633453100920e-04" rms="3.7619361281394958e-01" purity="8.0766016244888306e-01" nType="-99"/>
          <Node pos="r" depth="2" NCoef="0" IVar="-1" Cut="0.0000000000000000e+00" cType="1" res="1.6487375251017511e-04" rms="4.3423646688461304e-01" purity="5.9526592493057251e-01" nType="-99"/>
        </Node>
      </Node>
    </BinaryTree>
    <BinaryTree type="DecisionTree" boostWeight="1.0000000000000000e+00" itree="885">
      <Node pos="s" depth="0" NCoef="0" IVar="3" Cut="1.3542619705200195e+01" cType="1" res="5.7135134935379028e-02" rms="4.1231563687324524e-01" purity="5.0085091590881348e-01" nType="0">
        <Node pos="l" depth="1" NCoef="0" IVar="0" Cut="2.1601404994726181e-02" cType="1" res="-2.0448666065931320e-02" rms="3.9697718620300293e-01" purity="2.7981153130531311e-01" nType="0">
          <Node pos="l" depth="2" NCoef="0" IVar="-1" Cut="0.0000000000000000e+00" cType="1" res="2.7697003679350019e-04" rms="4.3592563271522522e-01" purity="4.1737893223762512e-01" nType="-99"/>
          <Node pos="r" depth="2" NCoef="0" IVar="-1" Cut="0.0000000000000000e+00" cType="1" res="-1.1894284980371594e-03" rms="3.4676471352577209e-01" purity="1.6301994025707245e-01" nType="-99"/>
        </Node>
        <Node pos="r" depth="1" NCoef="0" IVar="0" Cut="4.2733144015073776e-02" cType="1" res="1.2265953421592712e-01" rms="4.1365557909011841e-01" purity="6.8753248453140259e-01" nType="0">
          <Node pos="l" depth="2" NCoef="0" IVar="-1" Cut="0.0000000000000000e+00" cType="1" res="4.2721873614937067e-04" rms="3.4633275866508484e-01" purity="8.4539115428924561e-01" nType="-99"/>
          <Node pos="r" depth="2" NCoef="0" IVar="-1" Cut="0.0000000000000000e+00" cType="1" res="1.9366425112821162e-04" rms="4.3818891048431396e-01" purity="5.9050703048706055e-01" nType="-99"/>
        </Node>
      </Node>
    </BinaryTree>
    <BinaryTree type="DecisionTree" boostWeight="1.0000000000000000e+00" itree="886">
      <Node pos="s" depth="0" NCoef="0" IVar="3" Cut="1.4930736541748047e+01" cType="1" res="5.3887929767370224e-02" rms="4.1288915276527405e-01" purity="4.9639332294464111e-01" nType="0">
        <Node pos="l" depth="1" NCoef="0" IVar="0" Cut="1.2183989398181438e-02" cType="1" res="-1.9706122577190399e-02" rms="3.9878836274147034e-01" purity="2.8001642227172852e-01" nType="0">
          <Node pos="l" depth="2" NCoef="0" IVar="-1" Cut="0.0000000000000000e+00" cType="1" res="3.0161760514602065e-04" rms="4.3246248364448547e-01" purity="4.2583873867988586e-01" nType="-99"/>
          <Node pos="r" depth="2" NCoef="0" IVar="-1" Cut="0.0000000000000000e+00" cType="1" res="-3.4750654594972730e-04" rms="3.8030344247817993e-01" purity="2.2960290312767029e-01" nType="-99"/>
        </Node>
        <Node pos="r" depth="1" NCoef="0" IVar="0" Cut="2.8601082041859627e-02" cType="1" res="1.2174350768327713e-01" rms="4.1404366493225098e-01" purity="6.9589829444885254e-01" nType="0">
          <Node pos="l" depth="2" NCoef="0" IVar="-1" Cut="0.0000000000000000e+00" cType="1" res="4.4811348197981715e-04" rms="2.6442158222198486e-01" purity="9.2088580131530762e-01" nType="-99"/>
          <Node pos="r" depth="2" NCoef="0" IVar="-1" Cut="0.0000000000000000e+00" cType="1" res="2.1705082326661795e-04" rms="4.3428713083267212e-01" purity="6.4191466569900513e-01" nType="-99"/>
        </Node>
      </Node>
    </BinaryTree>
    <BinaryTree type="DecisionTree" boostWeight="1.0000000000000000e+00" itree="887">
      <Node pos="s" depth="0" NCoef="0" IVar="1" Cut="1.0517140960693359e+02" cType="1" res="5.5210880935192108e-02" rms="4.1138631105422974e-01" purity="4.9997800588607788e-01" nType="0">
        <Node pos="l" depth="1" NCoef="0" IVar="0" Cut="1.2566522695124149e-02" cType="1" res="-2.7229947969317436e-02" rms="3.7857249379158020e-01" purity="2.3318178951740265e-01" nType="0">
          <Node pos="l" depth="2" NCoef="0" IVar="-1" Cut="0.0000000000000000e+00" cType="1" res="1.1533839278854430e-04" rms="4.3349713087081909e-01" purity="3.7505200505256653e-01" nType="-99"/>
          <Node pos="r" depth="2" NCoef="0" IVar="-1" Cut="0.0000000000000000e+00" cType="1" res="-6.5055309096351266e-04" rms="3.4911456704139709e-01" purity="1.7849363386631012e-01" nType="-99"/>
        </Node>
        <Node pos="r" depth="1" NCoef="0" IVar="0" Cut="3.7740882486104965e-02" cType="1" res="1.1136660724878311e-01" rms="4.2321690917015076e-01" purity="6.8171000480651855e-01" nType="0">
          <Node pos="l" depth="2" NCoef="0" IVar="-1" Cut="0.0000000000000000e+00" cType="1" res="3.9161214954219759e-04" rms="3.8103634119033813e-01" purity="7.9400074481964111e-01" nType="-99"/>
          <Node pos="r" depth="2" NCoef="0" IVar="-1" Cut="0.0000000000000000e+00" cType="1" res="1.7230193770956248e-04" rms="4.4008815288543701e-01" purity="6.1012649536132812e-01" nType="-99"/>
        </Node>
      </Node>
    </BinaryTree>
    <BinaryTree type="DecisionTree" boostWeight="1.0000000000000000e+00" itree="888">
      <Node pos="s" depth="0" NCoef="0" IVar="2" Cut="2.2068197265625000e+04" cType="1" res="6.4141400158405304e-02" rms="4.1378486156463623e-01" purity="5.0731688737869263e-01" nType="0">
        <Node pos="l" depth="1" NCoef="0" IVar="0" Cut="2.0980533212423325e-02" cType="1" res="-2.3651661351323128e-02" rms="3.9670062065124512e-01" purity="2.6710081100463867e-01" nType="0">
          <Node pos="l" depth="2" NCoef="0" IVar="-1" Cut="0.0000000000000000e+00" cType="1" res="1.6607774887233973e-04" rms="4.4446048140525818e-01" purity="3.9497467875480652e-01" nType="-99"/>
          <Node pos="r" depth="2" NCoef="0" IVar="-1" Cut="0.0000000000000000e+00" cType="1" res="-1.5050465008243918e-03" rms="3.2731786370277405e-01" purity="1.4371483027935028e-01" nType="-99"/>
        </Node>
        <Node pos="r" depth="1" NCoef="0" IVar="0" Cut="3.9660222828388214e-02" cType="1" res="1.2035053968429565e-01" rms="4.1471537947654724e-01" purity="6.6111421585083008e-01" nType="0">
          <Node pos="l" depth="2" NCoef="0" IVar="-1" Cut="0.0000000000000000e+00" cType="1" res="4.4578468077816069e-04" rms="3.6141431331634521e-01" purity="8.2371908426284790e-01" nType="-99"/>
          <Node pos="r" depth="2" NCoef="0" IVar="-1" Cut="0.0000000000000000e+00" cType="1" res="1.6999115177895874e-04" rms="4.2917966842651367e-01" purity="5.6544739007949829e-01" nType="-99"/>
        </Node>
      </Node>
    </BinaryTree>
    <BinaryTree type="DecisionTree" boostWeight="1.0000000000000000e+00" itree="889">
      <Node pos="s" depth="0" NCoef="0" IVar="3" Cut="1.1949813842773438e+01" cType="1" res="6.6919416189193726e-02" rms="4.0915322303771973e-01" purity="5.1676297187805176e-01" nType="0">
        <Node pos="l" depth="1" NCoef="0" IVar="0" Cut="2.0980533212423325e-02" cType="1" res="-1.1665181256830692e-02" rms="4.0013778209686279e-01" purity="2.9010856151580811e-01" nType="0">
          <Node pos="l" depth="2" NCoef="0" IVar="-1" Cut="0.0000000000000000e+00" cType="1" res="2.7835564105771482e-04" rms="4.3537482619285583e-01" purity="4.1790977120399475e-01" nType="-99"/>
          <Node pos="r" depth="2" NCoef="0" IVar="-1" Cut="0.0000000000000000e+00" cType="1" res="-5.8529881061986089e-04" rms="3.5414534807205200e-01" purity="1.7751482129096985e-01" nType="-99"/>
        </Node>
        <Node pos="r" depth="1" NCoef="0" IVar="0" Cut="4.2733144015073776e-02" cType="1" res="1.2507453560829163e-01" rms="4.0602168440818787e-01" purity="6.8449455499649048e-01" nType="0">
          <Node pos="l" depth="2" NCoef="0" IVar="-1" Cut="0.0000000000000000e+00" cType="1" res="4.9355335067957640e-04" rms="3.4989190101623535e-01" purity="8.3437097072601318e-01" nType="-99"/>
          <Node pos="r" depth="2" NCoef="0" IVar="-1" Cut="0.0000000000000000e+00" cType="1" res="1.7022075189743191e-04" rms="4.2556390166282654e-01" purity="5.9149253368377686e-01" nType="-99"/>
        </Node>
      </Node>
    </BinaryTree>
    <BinaryTree type="DecisionTree" boostWeight="1.0000000000000000e+00" itree="890">
      <Node pos="s" depth="0" NCoef="0" IVar="3" Cut="1.1995571136474609e+01" cType="1" res="5.0193626433610916e-02" rms="4.1404208540916443e-01" purity="4.8912444710731506e-01" nType="0">
        <Node pos="l" depth="1" NCoef="0" IVar="0" Cut="1.0038150474429131e-02" cType="1" res="-2.3434586822986603e-02" rms="3.9680376648902893e-01" purity="2.7180647850036621e-01" nType="0">
          <Node pos="l" depth="2" NCoef="0" IVar="-1" Cut="0.0000000000000000e+00" cType="1" res="3.3354913466610014e-04" rms="4.2707461118698120e-01" purity="4.2087900638580322e-01" nType="-99"/>
          <Node pos="r" depth="2" NCoef="0" IVar="-1" Cut="0.0000000000000000e+00" cType="1" res="-3.3796421485021710e-04" rms="3.8119375705718994e-01" purity="2.2594702243804932e-01" nType="-99"/>
        </Node>
        <Node pos="r" depth="1" NCoef="0" IVar="0" Cut="4.2733144015073776e-02" cType="1" res="1.0759166628122330e-01" rms="4.1809886693954468e-01" purity="6.5853816270828247e-01" nType="0">
          <Node pos="l" depth="2" NCoef="0" IVar="-1" Cut="0.0000000000000000e+00" cType="1" res="4.5014830539003015e-04" rms="3.6040645837783813e-01" purity="8.2267338037490845e-01" nType="-99"/>
          <Node pos="r" depth="2" NCoef="0" IVar="-1" Cut="0.0000000000000000e+00" cType="1" res="1.3863800268154591e-04" rms="4.3726983666419983e-01" purity="5.5627828836441040e-01" nType="-99"/>
        </Node>
      </Node>
    </BinaryTree>
    <BinaryTree type="DecisionTree" boostWeight="1.0000000000000000e+00" itree="891">
      <Node pos="s" depth="0" NCoef="0" IVar="3" Cut="1.3542619705200195e+01" cType="1" res="6.2479171901941299e-02" rms="4.1560298204421997e-01" purity="5.0240623950958252e-01" nType="0">
        <Node pos="l" depth="1" NCoef="0" IVar="0" Cut="1.0038150474429131e-02" cType="1" res="-2.6338950265198946e-03" rms="4.0694442391395569e-01" purity="2.9622220993041992e-01" nType="0">
          <Node pos="l" depth="2" NCoef="0" IVar="-1" Cut="0.0000000000000000e+00" cType="1" res="1.5563119086436927e-04" rms="4.4279885292053223e-01" purity="4.5842728018760681e-01" nType="-99"/>
          <Node pos="r" depth="2" NCoef="0" IVar="-1" Cut="0.0000000000000000e+00" cType="1" res="-3.0768295982852578e-04" rms="3.8699537515640259e-01" purity="2.4571965634822845e-01" nType="-99"/>
        </Node>
        <Node pos="r" depth="1" NCoef="0" IVar="0" Cut="3.9766632020473480e-02" cType="1" res="1.1952169984579086e-01" rms="4.1472530364990234e-01" purity="6.8303453922271729e-01" nType="0">
          <Node pos="l" depth="2" NCoef="0" IVar="-1" Cut="0.0000000000000000e+00" cType="1" res="3.9897896931506693e-04" rms="3.4547963738441467e-01" purity="8.5231518745422363e-01" nType="-99"/>
          <Node pos="r" depth="2" NCoef="0" IVar="-1" Cut="0.0000000000000000e+00" cType="1" res="1.7456451314501464e-04" rms="4.3377974629402161e-01" purity="6.0115808248519897e-01" nType="-99"/>
        </Node>
      </Node>
    </BinaryTree>
    <BinaryTree type="DecisionTree" boostWeight="1.0000000000000000e+00" itree="892">
      <Node pos="s" depth="0" NCoef="0" IVar="1" Cut="1.0537150573730469e+02" cType="1" res="5.5454913526773453e-02" rms="4.0903046727180481e-01" purity="4.9937990307807922e-01" nType="0">
        <Node pos="l" depth="1" NCoef="0" IVar="1" Cut="5.9789157867431641e+01" cType="1" res="-2.8668452054262161e-02" rms="3.7544649839401245e-01" purity="2.3202581703662872e-01" nType="0">
          <Node pos="l" depth="2" NCoef="0" IVar="-1" Cut="0.0000000000000000e+00" cType="1" res="-1.7464829143136740e-03" rms="3.1182006001472473e-01" purity="1.1753053963184357e-01" nType="-99"/>
          <Node pos="r" depth="2" NCoef="0" IVar="-1" Cut="0.0000000000000000e+00" cType="1" res="1.5370993060059845e-04" rms="4.2515459656715393e-01" purity="3.5445323586463928e-01" nType="-99"/>
        </Node>
        <Node pos="r" depth="1" NCoef="0" IVar="0" Cut="2.8488764539361000e-02" cType="1" res="1.1381116509437561e-01" rms="4.2103138566017151e-01" purity="6.8484306335449219e-01" nType="0">
          <Node pos="l" depth="2" NCoef="0" IVar="-1" Cut="0.0000000000000000e+00" cType="1" res="4.9174024024978280e-04" rms="3.5776010155677795e-01" purity="8.2720690965652466e-01" nType="-99"/>
          <Node pos="r" depth="2" NCoef="0" IVar="-1" Cut="0.0000000000000000e+00" cType="1" res="2.1307324641384184e-04" rms="4.3403533101081848e-01" purity="6.3745617866516113e-01" nType="-99"/>
        </Node>
      </Node>
    </BinaryTree>
    <BinaryTree type="DecisionTree" boostWeight="1.0000000000000000e+00" itree="893">
      <Node pos="s" depth="0" NCoef="0" IVar="2" Cut="4.4136394531250000e+04" cType="1" res="4.5321777462959290e-02" rms="4.1434684395790100e-01" purity="4.8212420940399170e-01" nType="0">
        <Node pos="l" depth="1" NCoef="0" IVar="0" Cut="1.2700475752353668e-02" cType="1" res="-7.2258762083947659e-03" rms="4.0848276019096375e-01" purity="3.0339875817298889e-01" nType="0">
          <Node pos="l" depth="2" NCoef="0" IVar="-1" Cut="0.0000000000000000e+00" cType="1" res="1.9446232181508094e-04" rms="4.3526780605316162e-01" purity="4.5002689957618713e-01" nType="-99"/>
          <Node pos="r" depth="2" NCoef="0" IVar="-1" Cut="0.0000000000000000e+00" cType="1" res="-2.6894095935858786e-04" rms="3.9403638243675232e-01" purity="2.5822591781616211e-01" nType="-99"/>
        </Node>
        <Node pos="r" depth="1" NCoef="0" IVar="0" Cut="4.2733144015073776e-02" cType="1" res="1.2274176627397537e-01" rms="4.1076788306236267e-01" purity="7.4544560909271240e-01" nType="0">
          <Node pos="l" depth="2" NCoef="0" IVar="-1" Cut="0.0000000000000000e+00" cType="1" res="4.8625154886394739e-04" rms="3.2665258646011353e-01" purity="8.7351524829864502e-01" nType="-99"/>
          <Node pos="r" depth="2" NCoef="0" IVar="-1" Cut="0.0000000000000000e+00" cType="1" res="1.9710324704647064e-04" rms="4.4197496771812439e-01" purity="6.7697894573211670e-01" nType="-99"/>
        </Node>
      </Node>
    </BinaryTree>
    <BinaryTree type="DecisionTree" boostWeight="1.0000000000000000e+00" itree="894">
      <Node pos="s" depth="0" NCoef="0" IVar="2" Cut="7.2246000000000000e+04" cType="1" res="5.7216878980398178e-02" rms="4.1808220744132996e-01" purity="4.9315372109413147e-01" nType="0">
        <Node pos="l" depth="1" NCoef="0" IVar="0" Cut="3.8108117878437042e-02" cType="1" res="2.7818089351058006e-02" rms="4.2699408531188965e-01" purity="4.0496885776519775e-01" nType="0">
          <Node pos="l" depth="2" NCoef="0" IVar="-1" Cut="0.0000000000000000e+00" cType="1" res="2.1727436978835613e-04" rms="4.3438845872879028e-01" purity="4.8662936687469482e-01" nType="-99"/>
          <Node pos="r" depth="2" NCoef="0" IVar="-1" Cut="0.0000000000000000e+00" cType="1" res="-2.4778977967798710e-04" rms="4.0801042318344116e-01" purity="2.9908210039138794e-01" nType="-99"/>
        </Node>
        <Node pos="r" depth="1" NCoef="0" IVar="1" Cut="2.2577809143066406e+02" cType="1" res="1.7445950210094452e-01" rms="3.5716325044631958e-01" purity="8.4483563899993896e-01" nType="0">
          <Node pos="l" depth="2" NCoef="0" IVar="-1" Cut="0.0000000000000000e+00" cType="1" res="3.1637863139621913e-04" rms="3.9579382538795471e-01" purity="7.9852366447448730e-01" nType="-99"/>
          <Node pos="r" depth="2" NCoef="0" IVar="-1" Cut="0.0000000000000000e+00" cType="1" res="4.1396819869987667e-04" rms="2.8392055630683899e-01" purity="9.1121906042098999e-01" nType="-99"/>
        </Node>
      </Node>
    </BinaryTree>
    <BinaryTree type="DecisionTree" boostWeight="1.0000000000000000e+00" itree="895">
      <Node pos="s" depth="0" NCoef="0" IVar="2" Cut="4.4136394531250000e+04" cType="1" res="4.8473853617906570e-02" rms="4.1138702630996704e-01" purity="4.8974609375000000e-01" nType="0">
        <Node pos="l" depth="1" NCoef="0" IVar="0" Cut="1.2700475752353668e-02" cType="1" res="-5.6224130094051361e-03" rms="4.0664535760879517e-01" purity="3.0835199356079102e-01" nType="0">
          <Node pos="l" depth="2" NCoef="0" IVar="-1" Cut="0.0000000000000000e+00" cType="1" res="3.6239426117390394e-04" rms="4.3147563934326172e-01" purity="4.3942475318908691e-01" nType="-99"/>
          <Node pos="r" depth="2" NCoef="0" IVar="-1" Cut="0.0000000000000000e+00" cType="1" res="-2.3380988568533212e-04" rms="3.9473116397857666e-01" purity="2.6925837993621826e-01" nType="-99"/>
        </Node>
        <Node pos="r" depth="1" NCoef="0" IVar="0" Cut="4.4180817902088165e-02" cType="1" res="1.2685987353324890e-01" rms="4.0555518865585327e-01" purity="7.5258785486221313e-01" nType="0">
          <Node pos="l" depth="2" NCoef="0" IVar="-1" Cut="0.0000000000000000e+00" cType="1" res="4.1889102431014180e-04" rms="3.2866841554641724e-01" purity="8.7169307470321655e-01" nType="-99"/>
          <Node pos="r" depth="2" NCoef="0" IVar="-1" Cut="0.0000000000000000e+00" cType="1" res="1.6952108126133680e-04" rms="4.3823766708374023e-01" purity="6.7757910490036011e-01" nType="-99"/>
        </Node>
      </Node>
    </BinaryTree>
    <BinaryTree type="DecisionTree" boostWeight="1.0000000000000000e+00" itree="896">
      <Node pos="s" depth="0" NCoef="0" IVar="2" Cut="2.2068197265625000e+04" cType="1" res="6.0952678322792053e-02" rms="4.0900102257728577e-01" purity="5.0798362493515015e-01" nType="0">
        <Node pos="l" depth="1" NCoef="0" IVar="0" Cut="1.2088770978152752e-02" cType="1" res="-3.2047506421804428e-02" rms="3.8569977879524231e-01" purity="2.6075270771980286e-01" nType="0">
          <Node pos="l" depth="2" NCoef="0" IVar="-1" Cut="0.0000000000000000e+00" cType="1" res="1.7724164354149252e-04" rms="4.3496704101562500e-01" purity="4.2710965871810913e-01" nType="-99"/>
          <Node pos="r" depth="2" NCoef="0" IVar="-1" Cut="0.0000000000000000e+00" cType="1" res="-9.8868960049003363e-04" rms="3.4837928414344788e-01" purity="1.8552601337432861e-01" nType="-99"/>
        </Node>
        <Node pos="r" depth="1" NCoef="0" IVar="0" Cut="4.1265200823545456e-02" cType="1" res="1.1933317035436630e-01" rms="4.1239356994628906e-01" purity="6.6318184137344360e-01" nType="0">
          <Node pos="l" depth="2" NCoef="0" IVar="-1" Cut="0.0000000000000000e+00" cType="1" res="4.6721103717572987e-04" rms="3.6526519060134888e-01" purity="8.1192338466644287e-01" nType="-99"/>
          <Node pos="r" depth="2" NCoef="0" IVar="-1" Cut="0.0000000000000000e+00" cType="1" res="1.6001854964997619e-04" rms="4.2729899287223816e-01" purity="5.7009667158126831e-01" nType="-99"/>
        </Node>
      </Node>
    </BinaryTree>
    <BinaryTree type="DecisionTree" boostWeight="1.0000000000000000e+00" itree="897">
      <Node pos="s" depth="0" NCoef="0" IVar="3" Cut="1.4930736541748047e+01" cType="1" res="6.5574906766414642e-02" rms="4.1103398799896240e-01" purity="5.1174831390380859e-01" nType="0">
        <Node pos="l" depth="1" NCoef="0" IVar="1" Cut="3.8709392547607422e+01" cType="1" res="-5.8958493173122406e-03" rms="4.0113067626953125e-01" purity="2.9744669795036316e-01" nType="0">
          <Node pos="l" depth="2" NCoef="0" IVar="-1" Cut="0.0000000000000000e+00" cType="1" res="-2.1274096798151731e-03" rms="3.1354308128356934e-01" purity="1.0814920812845230e-01" nType="-99"/>
          <Node pos="r" depth="2" NCoef="0" IVar="-1" Cut="0.0000000000000000e+00" cType="1" res="1.2391165364533663e-04" rms="4.2890644073486328e-01" purity="3.8043463230133057e-01" nType="-99"/>
        </Node>
        <Node pos="r" depth="1" NCoef="0" IVar="0" Cut="4.2799498885869980e-02" cType="1" res="1.3071531057357788e-01" rms="4.0912193059921265e-01" purity="7.0706880092620850e-01" nType="0">
          <Node pos="l" depth="2" NCoef="0" IVar="-1" Cut="0.0000000000000000e+00" cType="1" res="4.0077831363305449e-04" rms="3.3781206607818604e-01" purity="8.5749727487564087e-01" nType="-99"/>
          <Node pos="r" depth="2" NCoef="0" IVar="-1" Cut="0.0000000000000000e+00" cType="1" res="1.7961788398679346e-04" rms="4.3669521808624268e-01" purity="6.1319124698638916e-01" nType="-99"/>
        </Node>
      </Node>
    </BinaryTree>
    <BinaryTree type="DecisionTree" boostWeight="1.0000000000000000e+00" itree="898">
      <Node pos="s" depth="0" NCoef="0" IVar="3" Cut="1.2596701622009277e+01" cType="1" res="5.9012655168771744e-02" rms="4.0901035070419312e-01" purity="5.0625419616699219e-01" nType="0">
        <Node pos="l" depth="1" NCoef="0" IVar="1" Cut="6.8283050537109375e+01" cType="1" res="-2.3988375440239906e-02" rms="3.9354813098907471e-01" purity="2.7521404623985291e-01" nType="0">
          <Node pos="l" depth="2" NCoef="0" IVar="-1" Cut="0.0000000000000000e+00" cType="1" res="-1.1875964701175690e-03" rms="3.2497802376747131e-01" purity="1.2971368432044983e-01" nType="-99"/>
          <Node pos="r" depth="2" NCoef="0" IVar="-1" Cut="0.0000000000000000e+00" cType="1" res="1.3957104238215834e-04" rms="4.4941791892051697e-01" purity="4.3248486518859863e-01" nType="-99"/>
        </Node>
        <Node pos="r" depth="1" NCoef="0" IVar="0" Cut="4.2733144015073776e-02" cType="1" res="1.2352097779512405e-01" rms="4.0916791558265686e-01" purity="6.8581837415695190e-01" nType="0">
          <Node pos="l" depth="2" NCoef="0" IVar="-1" Cut="0.0000000000000000e+00" cType="1" res="4.3246333370916545e-04" rms="3.4404370188713074e-01" purity="8.4519588947296143e-01" nType="-99"/>
          <Node pos="r" depth="2" NCoef="0" IVar="-1" Cut="0.0000000000000000e+00" cType="1" res="1.5863901353441179e-04" rms="4.3227377533912659e-01" purity="5.8356034755706787e-01" nType="-99"/>
        </Node>
      </Node>
    </BinaryTree>
    <BinaryTree type="DecisionTree" boostWeight="1.0000000000000000e+00" itree="899">
      <Node pos="s" depth="0" NCoef="0" IVar="3" Cut="1.2596701622009277e+01" cType="1" res="6.8311586976051331e-02" rms="4.1287353634834290e-01" purity="5.1263421773910522e-01" nType="0">
        <Node pos="l" depth="1" NCoef="0" IVar="0" Cut="3.3197853714227676e-02" cType="1" res="3.0606065411120653e-03" rms="4.0421968698501587e-01" purity="3.0660721659660339e-01" nType="0">
          <Node pos="l" depth="2" NCoef="0" IVar="-1" Cut="0.0000000000000000e+00" cType="1" res="1.7621570441406220e-04" rms="4.4224384427070618e-01" purity="4.0652331709861755e-01" nType="-99"/>
          <Node pos="r" depth="2" NCoef="0" IVar="-1" Cut="0.0000000000000000e+00" cType="1" res="-2.0774351432919502e-03" rms="2.8503790497779846e-01" purity="1.0031678527593613e-01" nType="-99"/>
        </Node>
        <Node pos="r" depth="1" NCoef="0" IVar="0" Cut="4.2733144015073776e-02" cType="1" res="1.2172599136829376e-01" rms="4.1220679879188538e-01" purity="6.8128770589828491e-01" nType="0">
          <Node pos="l" depth="2" NCoef="0" IVar="-1" Cut="0.0000000000000000e+00" cType="1" res="4.3535049189813435e-04" rms="3.5069656372070312e-01" purity="8.4007686376571655e-01" nType="-99"/>
          <Node pos="r" depth="2" NCoef="0" IVar="-1" Cut="0.0000000000000000e+00" cType="1" res="1.5040124708320946e-04" rms="4.3338674306869507e-01" purity="5.8080381155014038e-01" nType="-99"/>
        </Node>
      </Node>
    </BinaryTree>
    <BinaryTree type="DecisionTree" boostWeight="1.0000000000000000e+00" itree="900">
      <Node pos="s" depth="0" NCoef="0" IVar="1" Cut="5.2157405853271484e+01" cType="1" res="6.4887300133705139e-02" rms="4.1232886910438538e-01" purity="5.0883561372756958e-01" nType="0">
        <Node pos="l" depth="1" NCoef="0" IVar="1" Cut="2.4300992965698242e+01" cType="1" res="-6.5153069794178009e-02" rms="3.3474934101104736e-01" purity="1.3703258335590363e-01" nType="0">
          <Node pos="l" depth="2" NCoef="0" IVar="-1" Cut="0.0000000000000000e+00" cType="1" res="-8.6843880126252770e-04" rms="3.0822560191154480e-01" purity="1.0781752318143845e-01" nType="-99"/>
          <Node pos="r" depth="2" NCoef="0" IVar="-1" Cut="0.0000000000000000e+00" cType="1" res="-3.3861296833492815e-04" rms="3.5429018735885620e-01" purity="1.6430115699768066e-01" nType="-99"/>
        </Node>
        <Node pos="r" depth="1" NCoef="0" IVar="0" Cut="2.7510134503245354e-02" cType="1" res="9.5163665711879730e-02" rms="4.2267626523971558e-01" purity="5.9539973735809326e-01" nType="0">
          <Node pos="l" depth="2" NCoef="0" IVar="-1" Cut="0.0000000000000000e+00" cType="1" res="4.7101001837290823e-04" rms="4.0809220075607300e-01" purity="7.5397938489913940e-01" nType="-99"/>
          <Node pos="r" depth="2" NCoef="0" IVar="-1" Cut="0.0000000000000000e+00" cType="1" res="1.5689733845647424e-04" rms="4.1911560297012329e-01" purity="5.3508418798446655e-01" nType="-99"/>
        </Node>
      </Node>
    </BinaryTree>
    <BinaryTree type="DecisionTree" boostWeight="1.0000000000000000e+00" itree="901">
      <Node pos="s" depth="0" NCoef="0" IVar="1" Cut="2.1169802856445312e+02" cType="1" res="5.7981327176094055e-02" rms="4.0841189026832581e-01" purity="5.0388431549072266e-01" nType="0">
        <Node pos="l" depth="1" NCoef="0" IVar="0" Cut="3.8617823272943497e-02" cType="1" res="2.9145419597625732e-02" rms="4.1762501001358032e-01" purity="4.3596425652503967e-01" nType="0">
          <Node pos="l" depth="2" NCoef="0" IVar="-1" Cut="0.0000000000000000e+00" cType="1" res="2.7435037191025913e-04" rms="4.1900548338890076e-01" purity="5.1941645145416260e-01" nType="-99"/>
          <Node pos="r" depth="2" NCoef="0" IVar="-1" Cut="0.0000000000000000e+00" cType="1" res="-3.1069328542798758e-04" rms="4.0332570672035217e-01" purity="3.2863107323646545e-01" nType="-99"/>
        </Node>
        <Node pos="r" depth="1" NCoef="0" IVar="1" Cut="2.5475715637207031e+02" cType="1" res="2.1863870322704315e-01" rms="3.0652254819869995e-01" purity="8.8229626417160034e-01" nType="0">
          <Node pos="l" depth="2" NCoef="0" IVar="-1" Cut="0.0000000000000000e+00" cType="1" res="3.0891859205439687e-04" rms="4.1541922092437744e-01" purity="7.5110065937042236e-01" nType="-99"/>
          <Node pos="r" depth="2" NCoef="0" IVar="-1" Cut="0.0000000000000000e+00" cType="1" res="3.8442068034783006e-04" rms="2.3689490556716919e-01" purity="9.3602335453033447e-01" nType="-99"/>
        </Node>
      </Node>
    </BinaryTree>
    <BinaryTree type="DecisionTree" boostWeight="1.0000000000000000e+00" itree="902">
      <Node pos="s" depth="0" NCoef="0" IVar="3" Cut="1.2480910301208496e+01" cType="1" res="5.9705663472414017e-02" rms="4.1521495580673218e-01" purity="4.9992537498474121e-01" nType="0">
        <Node pos="l" depth="1" NCoef="0" IVar="0" Cut="3.6551970988512039e-02" cType="1" res="-5.2993348799645901e-03" rms="4.0326669812202454e-01" purity="2.9391637444496155e-01" nType="0">
          <Node pos="l" depth="2" NCoef="0" IVar="-1" Cut="0.0000000000000000e+00" cType="1" res="1.1461823305580765e-04" rms="4.3977096676826477e-01" purity="3.7827035784721375e-01" nType="-99"/>
          <Node pos="r" depth="2" NCoef="0" IVar="-1" Cut="0.0000000000000000e+00" cType="1" res="-3.1477431766688824e-03" rms="2.7244439721107483e-01" purity="8.1736780703067780e-02" nType="-99"/>
        </Node>
        <Node pos="r" depth="1" NCoef="0" IVar="0" Cut="3.8617823272943497e-02" cType="1" res="1.1318366229534149e-01" rms="4.1726794838905334e-01" purity="6.6940391063690186e-01" nType="0">
          <Node pos="l" depth="2" NCoef="0" IVar="-1" Cut="0.0000000000000000e+00" cType="1" res="4.5417231740429997e-04" rms="3.3531135320663452e-01" purity="8.6032390594482422e-01" nType="-99"/>
          <Node pos="r" depth="2" NCoef="0" IVar="-1" Cut="0.0000000000000000e+00" cType="1" res="1.3975329056847841e-04" rms="4.3969142436981201e-01" purity="5.6733196973800659e-01" nType="-99"/>
        </Node>
      </Node>
    </BinaryTree>
    <BinaryTree type="DecisionTree" boostWeight="1.0000000000000000e+00" itree="903">
      <Node pos="s" depth="0" NCoef="0" IVar="1" Cut="1.0533761596679688e+02" cType="1" res="5.6500472128391266e-02" rms="4.1283383965492249e-01" purity="4.9887734651565552e-01" nType="0">
        <Node pos="l" depth="1" NCoef="0" IVar="1" Cut="3.9495246887207031e+01" cType="1" res="-2.0348640158772469e-02" rms="3.8163343071937561e-01" purity="2.4082635343074799e-01" nType="0">
          <Node pos="l" depth="2" NCoef="0" IVar="-1" Cut="0.0000000000000000e+00" cType="1" res="-2.1316632628440857e-03" rms="3.0861184000968933e-01" purity="1.0673094540834427e-01" nType="-99"/>
          <Node pos="r" depth="2" NCoef="0" IVar="-1" Cut="0.0000000000000000e+00" cType="1" res="1.1474348866613582e-04" rms="4.1315865516662598e-01" purity="3.1987810134887695e-01" nType="-99"/>
        </Node>
        <Node pos="r" depth="1" NCoef="0" IVar="0" Cut="3.8859125226736069e-02" cType="1" res="1.0998135805130005e-01" rms="4.2510223388671875e-01" purity="6.7846035957336426e-01" nType="0">
          <Node pos="l" depth="2" NCoef="0" IVar="-1" Cut="0.0000000000000000e+00" cType="1" res="3.7418224383145571e-04" rms="3.9289820194244385e-01" purity="7.8254008293151855e-01" nType="-99"/>
          <Node pos="r" depth="2" NCoef="0" IVar="-1" Cut="0.0000000000000000e+00" cType="1" res="1.7517732339911163e-04" rms="4.3699976801872253e-01" purity="6.1045753955841064e-01" nType="-99"/>
        </Node>
      </Node>
    </BinaryTree>
    <BinaryTree type="DecisionTree" boostWeight="1.0000000000000000e+00" itree="904">
      <Node pos="s" depth="0" NCoef="0" IVar="3" Cut="1.3542619705200195e+01" cType="1" res="6.5843403339385986e-02" rms="4.1379314661026001e-01" purity="5.0934237241744995e-01" nType="0">
        <Node pos="l" depth="1" NCoef="0" IVar="0" Cut="1.1065950617194176e-02" cType="1" res="4.4539775699377060e-03" rms="4.0848603844642639e-01" purity="3.0344584584236145e-01" nType="0">
          <Node pos="l" depth="2" NCoef="0" IVar="-1" Cut="0.0000000000000000e+00" cType="1" res="2.0736476290039718e-04" rms="4.4558075070381165e-01" purity="4.8913788795471191e-01" nType="-99"/>
          <Node pos="r" depth="2" NCoef="0" IVar="-1" Cut="0.0000000000000000e+00" cType="1" res="-3.5195794771425426e-04" rms="3.7959235906600952e-01" purity="2.3310162127017975e-01" nType="-99"/>
        </Node>
        <Node pos="r" depth="1" NCoef="0" IVar="0" Cut="4.1312772780656815e-02" cType="1" res="1.1906055361032486e-01" rms="4.1098505258560181e-01" purity="6.8782955408096313e-01" nType="0">
          <Node pos="l" depth="2" NCoef="0" IVar="-1" Cut="0.0000000000000000e+00" cType="1" res="4.4484305544756353e-04" rms="3.3438059687614441e-01" purity="8.5910105705261230e-01" nType="-99"/>
          <Node pos="r" depth="2" NCoef="0" IVar="-1" Cut="0.0000000000000000e+00" cType="1" res="1.6568595310673118e-04" rms="4.3623113632202148e-01" purity="5.8626598119735718e-01" nType="-99"/>
        </Node>
      </Node>
    </BinaryTree>
    <BinaryTree type="DecisionTree" boostWeight="1.0000000000000000e+00" itree="905">
      <Node pos="s" depth="0" NCoef="0" IVar="1" Cut="2.3310374450683594e+02" cType="1" res="4.8195526003837585e-02" rms="4.1143262386322021e-01" purity="4.8920410871505737e-01" nType="0">
        <Node pos="l" depth="1" NCoef="0" IVar="0" Cut="7.1221910417079926e-02" cType="1" res="2.6056889444589615e-02" rms="4.1849830746650696e-01" purity="4.3847119808197021e-01" nType="0">
          <Node pos="l" depth="2" NCoef="0" IVar="-1" Cut="0.0000000000000000e+00" cType="1" res="1.9978807540610433e-04" rms="4.1761562228202820e-01" purity="4.6671143174171448e-01" nType="-99"/>
          <Node pos="r" depth="2" NCoef="0" IVar="-1" Cut="0.0000000000000000e+00" cType="1" res="-7.2341487975791097e-04" rms="3.9231583476066589e-01" purity="2.8423640131950378e-01" nType="-99"/>
        </Node>
        <Node pos="r" depth="1" NCoef="0" IVar="-1" Cut="0.0000000000000000e+00" cType="1" res="5.1253073615953326e-04" rms="2.9494637250900269e-01" purity="8.9536261558532715e-01" nType="-99"/>
      </Node>
    </BinaryTree>
    <BinaryTree type="DecisionTree" boostWeight="1.0000000000000000e+00" itree="906">
      <Node pos="s" depth="0" NCoef="0" IVar="2" Cut="2.2068197265625000e+04" cType="1" res="5.7364784181118011e-02" rms="4.1069489717483521e-01" purity="5.0114971399307251e-01" nType="0">
        <Node pos="l" depth="1" NCoef="0" IVar="0" Cut="1.0490266606211662e-02" cType="1" res="-2.6624092832207680e-02" rms="3.8643813133239746e-01" purity="2.6795047521591187e-01" nType="0">
          <Node pos="l" depth="2" NCoef="0" IVar="-1" Cut="0.0000000000000000e+00" cType="1" res="2.1186943922657520e-04" rms="4.2742514610290527e-01" purity="4.5128238201141357e-01" nType="-99"/>
          <Node pos="r" depth="2" NCoef="0" IVar="-1" Cut="0.0000000000000000e+00" cType="1" res="-7.5637083500623703e-04" rms="3.5567784309387207e-01" purity="1.9515907764434814e-01" nType="-99"/>
        </Node>
        <Node pos="r" depth="1" NCoef="0" IVar="0" Cut="2.8488764539361000e-02" cType="1" res="1.1206916719675064e-01" rms="4.1674593091011047e-01" purity="6.5303915739059448e-01" nType="0">
          <Node pos="l" depth="2" NCoef="0" IVar="-1" Cut="0.0000000000000000e+00" cType="1" res="4.6622540685348213e-04" rms="3.2558354735374451e-01" purity="8.6497366428375244e-01" nType="-99"/>
          <Node pos="r" depth="2" NCoef="0" IVar="-1" Cut="0.0000000000000000e+00" cType="1" res="2.2918451577425003e-04" rms="4.2815950512886047e-01" purity="6.0345828533172607e-01" nType="-99"/>
        </Node>
      </Node>
    </BinaryTree>
    <BinaryTree type="DecisionTree" boostWeight="1.0000000000000000e+00" itree="907">
      <Node pos="s" depth="0" NCoef="0" IVar="3" Cut="1.4930736541748047e+01" cType="1" res="5.7291176170110703e-02" rms="4.1054749488830566e-01" purity="5.0268048048019409e-01" nType="0">
        <Node pos="l" depth="1" NCoef="0" IVar="0" Cut="3.0525049194693565e-02" cType="1" res="-1.9601382315158844e-02" rms="3.9873570203781128e-01" purity="2.7598688006401062e-01" nType="0">
          <Node pos="l" depth="2" NCoef="0" IVar="-1" Cut="0.0000000000000000e+00" cType="1" res="1.0640866094036028e-04" rms="4.3959352374076843e-01" purity="3.7843149900436401e-01" nType="-99"/>
          <Node pos="r" depth="2" NCoef="0" IVar="-1" Cut="0.0000000000000000e+00" cType="1" res="-1.5780660323798656e-03" rms="3.1994965672492981e-01" purity="1.2933489680290222e-01" nType="-99"/>
        </Node>
        <Node pos="r" depth="1" NCoef="0" IVar="0" Cut="3.9707794785499573e-02" cType="1" res="1.2603284418582916e-01" rms="4.0875893831253052e-01" purity="7.0534378290176392e-01" nType="0">
          <Node pos="l" depth="2" NCoef="0" IVar="-1" Cut="0.0000000000000000e+00" cType="1" res="3.7572492146864533e-04" rms="3.2952812314033508e-01" purity="8.6907470226287842e-01" nType="-99"/>
          <Node pos="r" depth="2" NCoef="0" IVar="-1" Cut="0.0000000000000000e+00" cType="1" res="2.0389011478982866e-04" rms="4.3278449773788452e-01" purity="6.2547641992568970e-01" nType="-99"/>
        </Node>
      </Node>
    </BinaryTree>
    <BinaryTree type="DecisionTree" boostWeight="1.0000000000000000e+00" itree="908">
      <Node pos="s" depth="0" NCoef="0" IVar="1" Cut="2.2512013244628906e+02" cType="1" res="6.0759719461202621e-02" rms="4.1748237609863281e-01" purity="4.9919784069061279e-01" nType="0">
        <Node pos="l" depth="1" NCoef="0" IVar="0" Cut="5.6977529078722000e-02" cType="1" res="3.7363957613706589e-02" rms="4.2660814523696899e-01" purity="4.4297033548355103e-01" nType="0">
          <Node pos="l" depth="2" NCoef="0" IVar="-1" Cut="0.0000000000000000e+00" cType="1" res="2.4552582181058824e-04" rms="4.2706289887428284e-01" purity="4.8820412158966064e-01" nType="-99"/>
          <Node pos="r" depth="2" NCoef="0" IVar="-1" Cut="0.0000000000000000e+00" cType="1" res="-4.1950389277189970e-04" rms="4.0365439653396606e-01" purity="3.0865049362182617e-01" nType="-99"/>
        </Node>
        <Node pos="r" depth="1" NCoef="0" IVar="2" Cut="7.3279843750000000e+04" cType="1" res="2.2336180508136749e-01" rms="3.0085170269012451e-01" purity="8.8998287916183472e-01" nType="0">
          <Node pos="l" depth="2" NCoef="0" IVar="-1" Cut="0.0000000000000000e+00" cType="1" res="4.5554371899925172e-04" rms="4.1291952133178711e-01" purity="7.4884915351867676e-01" nType="-99"/>
          <Node pos="r" depth="2" NCoef="0" IVar="-1" Cut="0.0000000000000000e+00" cType="1" res="3.8215046515688300e-04" rms="2.6064810156822205e-01" purity="9.2636352777481079e-01" nType="-99"/>
        </Node>
      </Node>
    </BinaryTree>
    <BinaryTree type="DecisionTree" boostWeight="1.0000000000000000e+00" itree="909">
      <Node pos="s" depth="0" NCoef="0" IVar="1" Cut="1.5869773864746094e+02" cType="1" res="5.5712230503559113e-02" rms="4.1256672143936157e-01" purity="4.9695897102355957e-01" nType="0">
        <Node pos="l" depth="1" NCoef="0" IVar="0" Cut="6.0445196926593781e-02" cType="1" res="6.2778121791779995e-03" rms="4.1309943795204163e-01" purity="3.3699923753738403e-01" nType="0">
          <Node pos="l" depth="2" NCoef="0" IVar="-1" Cut="0.0000000000000000e+00" cType="1" res="1.2810682528652251e-04" rms="4.2592418193817139e-01" purity="3.8485839962959290e-01" nType="-99"/>
          <Node pos="r" depth="2" NCoef="0" IVar="-1" Cut="0.0000000000000000e+00" cType="1" res="-2.1591025870293379e-03" rms="3.1694602966308594e-01" purity="1.2969107925891876e-01" nType="-99"/>
        </Node>
        <Node pos="r" depth="1" NCoef="0" IVar="0" Cut="4.2733144015073776e-02" cType="1" res="1.4169272780418396e-01" rms="3.9724457263946533e-01" purity="7.7517437934875488e-01" nType="0">
          <Node pos="l" depth="2" NCoef="0" IVar="-1" Cut="0.0000000000000000e+00" cType="1" res="3.5088849836029112e-04" rms="3.4417134523391724e-01" purity="8.4765803813934326e-01" nType="-99"/>
          <Node pos="r" depth="2" NCoef="0" IVar="-1" Cut="0.0000000000000000e+00" cType="1" res="2.3125596635509282e-04" rms="4.2467519640922546e-01" purity="7.2627657651901245e-01" nType="-99"/>
        </Node>
      </Node>
    </BinaryTree>
    <BinaryTree type="DecisionTree" boostWeight="1.0000000000000000e+00" itree="910">
      <Node pos="s" depth="0" NCoef="0" IVar="1" Cut="1.2379756164550781e+02" cType="1" res="6.0370385646820068e-02" rms="4.1182005405426025e-01" purity="5.0544357299804688e-01" nType="0">
        <Node pos="l" depth="1" NCoef="0" IVar="0" Cut="2.5133045390248299e-02" cType="1" res="-1.6007281839847565e-02" rms="3.9114743471145630e-01" purity="2.6381325721740723e-01" nType="0">
          <Node pos="l" depth="2" NCoef="0" IVar="-1" Cut="0.0000000000000000e+00" cType="1" res="2.4907948682084680e-04" rms="4.3171262741088867e-01" purity="3.8330227136611938e-01" nType="-99"/>
          <Node pos="r" depth="2" NCoef="0" IVar="-1" Cut="0.0000000000000000e+00" cType="1" res="-1.0258106049150229e-03" rms="3.4439429640769958e-01" purity="1.6121017932891846e-01" nType="-99"/>
        </Node>
        <Node pos="r" depth="1" NCoef="0" IVar="0" Cut="4.1265200823545456e-02" cType="1" res="1.2846262753009796e-01" rms="4.1780042648315430e-01" purity="7.2086185216903687e-01" nType="0">
          <Node pos="l" depth="2" NCoef="0" IVar="-1" Cut="0.0000000000000000e+00" cType="1" res="3.9162187022157013e-04" rms="3.7264487147331238e-01" purity="8.1254738569259644e-01" nType="-99"/>
          <Node pos="r" depth="2" NCoef="0" IVar="-1" Cut="0.0000000000000000e+00" cType="1" res="2.0861315715592355e-04" rms="4.3982926011085510e-01" purity="6.5556347370147705e-01" nType="-99"/>
        </Node>
      </Node>
    </BinaryTree>
    <BinaryTree type="DecisionTree" boostWeight="1.0000000000000000e+00" itree="911">
      <Node pos="s" depth="0" NCoef="0" IVar="2" Cut="1.7799390625000000e+04" cType="1" res="5.6811552494764328e-02" rms="4.1449794173240662e-01" purity="4.9701136350631714e-01" nType="0">
        <Node pos="l" depth="1" NCoef="0" IVar="1" Cut="5.4384075164794922e+01" cType="1" res="-3.1195515766739845e-02" rms="3.8621255755424500e-01" purity="2.5885522365570068e-01" nType="0">
          <Node pos="l" depth="2" NCoef="0" IVar="-1" Cut="0.0000000000000000e+00" cType="1" res="-9.4605458434671164e-04" rms="3.1543743610382080e-01" purity="1.1890287697315216e-01" nType="-99"/>
          <Node pos="r" depth="2" NCoef="0" IVar="-1" Cut="0.0000000000000000e+00" cType="1" res="1.2004850577795878e-04" rms="4.4605550169944763e-01" purity="4.1845786571502686e-01" nType="-99"/>
        </Node>
        <Node pos="r" depth="1" NCoef="0" IVar="0" Cut="2.6440149173140526e-02" cType="1" res="1.0065130144357681e-01" rms="4.2108249664306641e-01" purity="6.1564618349075317e-01" nType="0">
          <Node pos="l" depth="2" NCoef="0" IVar="-1" Cut="0.0000000000000000e+00" cType="1" res="2.8865836793556809e-04" rms="3.4154370427131653e-01" purity="8.5479158163070679e-01" nType="-99"/>
          <Node pos="r" depth="2" NCoef="0" IVar="-1" Cut="0.0000000000000000e+00" cType="1" res="1.6256934031844139e-04" rms="4.2603600025177002e-01" purity="5.5208545923233032e-01" nType="-99"/>
        </Node>
      </Node>
    </BinaryTree>
    <BinaryTree type="DecisionTree" boostWeight="1.0000000000000000e+00" itree="912">
      <Node pos="s" depth="0" NCoef="0" IVar="2" Cut="4.4136394531250000e+04" cType="1" res="5.7968884706497192e-02" rms="4.1129028797149658e-01" purity="5.0348979234695435e-01" nType="0">
        <Node pos="l" depth="1" NCoef="0" IVar="0" Cut="5.8532711118459702e-02" cType="1" res="1.3362201862037182e-03" rms="4.1222915053367615e-01" purity="3.1103262305259705e-01" nType="0">
          <Node pos="l" depth="2" NCoef="0" IVar="-1" Cut="0.0000000000000000e+00" cType="1" res="9.1706664534285665e-05" rms="4.2964687943458557e-01" purity="3.5482344031333923e-01" nType="-99"/>
          <Node pos="r" depth="2" NCoef="0" IVar="-1" Cut="0.0000000000000000e+00" cType="1" res="-2.3649560753256083e-03" rms="2.9422432184219360e-01" purity="1.0088869929313660e-01" nType="-99"/>
        </Node>
        <Node pos="r" depth="1" NCoef="0" IVar="0" Cut="3.9358217269182205e-02" cType="1" res="1.3509438931941986e-01" rms="3.9722862839698792e-01" purity="7.6558870077133179e-01" nType="0">
          <Node pos="l" depth="2" NCoef="0" IVar="-1" Cut="0.0000000000000000e+00" cType="1" res="4.7281113802455366e-04" rms="2.9603314399719238e-01" purity="9.0025049448013306e-01" nType="-99"/>
          <Node pos="r" depth="2" NCoef="0" IVar="-1" Cut="0.0000000000000000e+00" cType="1" res="2.1865719463676214e-04" rms="4.2962837219238281e-01" purity="7.0131433010101318e-01" nType="-99"/>
        </Node>
      </Node>
    </BinaryTree>
    <BinaryTree type="DecisionTree" boostWeight="1.0000000000000000e+00" itree="913">
      <Node pos="s" depth="0" NCoef="0" IVar="2" Cut="6.1173269531250000e+04" cType="1" res="5.9346269816160202e-02" rms="4.1109856963157654e-01" purity="5.0421345233917236e-01" nType="0">
        <Node pos="l" depth="1" NCoef="0" IVar="0" Cut="3.7699569016695023e-02" cType="1" res="1.6195282340049744e-02" rms="4.1897767782211304e-01" purity="3.6430263519287109e-01" nType="0">
          <Node pos="l" depth="2" NCoef="0" IVar="-1" Cut="0.0000000000000000e+00" cType="1" res="1.9146988051943481e-04" rms="4.3781870603561401e-01" purity="4.6371257305145264e-01" nType="-99"/>
          <Node pos="r" depth="2" NCoef="0" IVar="-1" Cut="0.0000000000000000e+00" cType="1" res="-6.5745622850954533e-04" rms="3.7514439225196838e-01" purity="2.1756632626056671e-01" nType="-99"/>
        </Node>
        <Node pos="r" depth="1" NCoef="0" IVar="1" Cut="2.1725463867187500e+02" cType="1" res="1.5630078315734863e-01" rms="3.7513077259063721e-01" purity="8.1857448816299438e-01" nType="0">
          <Node pos="l" depth="2" NCoef="0" IVar="-1" Cut="0.0000000000000000e+00" cType="1" res="2.3349549155682325e-04" rms="4.1452395915985107e-01" purity="7.6435589790344238e-01" nType="-99"/>
          <Node pos="r" depth="2" NCoef="0" IVar="-1" Cut="0.0000000000000000e+00" cType="1" res="4.6027475036680698e-04" rms="2.8249508142471313e-01" purity="9.1039758920669556e-01" nType="-99"/>
        </Node>
      </Node>
    </BinaryTree>
    <BinaryTree type="DecisionTree" boostWeight="1.0000000000000000e+00" itree="914">
      <Node pos="s" depth="0" NCoef="0" IVar="2" Cut="6.6204593750000000e+04" cType="1" res="6.2205299735069275e-02" rms="4.1351091861724854e-01" purity="5.0570231676101685e-01" nType="0">
        <Node pos="l" depth="1" NCoef="0" IVar="0" Cut="3.8101427257061005e-02" cType="1" res="2.5968758389353752e-02" rms="4.2400532960891724e-01" purity="3.8628250360488892e-01" nType="0">
          <Node pos="l" depth="2" NCoef="0" IVar="-1" Cut="0.0000000000000000e+00" cType="1" res="2.3009123106021434e-04" rms="4.3172919750213623e-01" purity="4.7564315795898438e-01" nType="-99"/>
          <Node pos="r" depth="2" NCoef="0" IVar="-1" Cut="0.0000000000000000e+00" cType="1" res="-3.1881834729574621e-04" rms="4.0411004424095154e-01" purity="2.6137879490852356e-01" nType="-99"/>
        </Node>
        <Node pos="r" depth="1" NCoef="0" IVar="1" Cut="2.0048472595214844e+02" cType="1" res="1.6126038134098053e-01" rms="3.6546400189399719e-01" purity="8.3214473724365234e-01" nType="0">
          <Node pos="l" depth="2" NCoef="0" IVar="-1" Cut="0.0000000000000000e+00" cType="1" res="2.2992302547208965e-04" rms="4.1540998220443726e-01" purity="7.6428693532943726e-01" nType="-99"/>
          <Node pos="r" depth="2" NCoef="0" IVar="-1" Cut="0.0000000000000000e+00" cType="1" res="4.5514112571254373e-04" rms="2.9470160603523254e-01" purity="9.0138351917266846e-01" nType="-99"/>
        </Node>
      </Node>
    </BinaryTree>
    <BinaryTree type="DecisionTree" boostWeight="1.0000000000000000e+00" itree="915">
      <Node pos="s" depth="0" NCoef="0" IVar="2" Cut="3.5884277343750000e+04" cType="1" res="6.7475549876689911e-02" rms="4.1237738728523254e-01" purity="5.1270866394042969e-01" nType="0">
        <Node pos="l" depth="1" NCoef="0" IVar="0" Cut="1.2088770978152752e-02" cType="1" res="6.1181955970823765e-04" rms="4.0870311856269836e-01" purity="3.0210587382316589e-01" nType="0">
          <Node pos="l" depth="2" NCoef="0" IVar="-1" Cut="0.0000000000000000e+00" cType="1" res="1.9551441073417664e-04" rms="4.3321892619132996e-01" purity="4.3894582986831665e-01" nType="-99"/>
          <Node pos="r" depth="2" NCoef="0" IVar="-1" Cut="0.0000000000000000e+00" cType="1" res="-1.8841821292880923e-04" rms="3.9625579118728638e-01" purity="2.5936186313629150e-01" nType="-99"/>
        </Node>
        <Node pos="r" depth="1" NCoef="0" IVar="1" Cut="2.1815022277832031e+02" cType="1" res="1.4027783274650574e-01" rms="4.0394544601440430e-01" purity="7.4201631546020508e-01" nType="0">
          <Node pos="l" depth="2" NCoef="0" IVar="-1" Cut="0.0000000000000000e+00" cType="1" res="2.7532308013178408e-04" rms="4.3696674704551697e-01" purity="6.7748272418975830e-01" nType="-99"/>
          <Node pos="r" depth="2" NCoef="0" IVar="-1" Cut="0.0000000000000000e+00" cType="1" res="3.9299242780543864e-04" rms="2.8327822685241699e-01" purity="9.0667438507080078e-01" nType="-99"/>
        </Node>
      </Node>
    </BinaryTree>
    <BinaryTree type="DecisionTree" boostWeight="1.0000000000000000e+00" itree="916">
      <Node pos="s" depth="0" NCoef="0" IVar="3" Cut="1.3542619705200195e+01" cType="1" res="6.0657903552055359e-02" rms="4.1222324967384338e-01" purity="5.0456178188323975e-01" nType="0">
        <Node pos="l" depth="1" NCoef="0" IVar="0" Cut="1.2183989398181438e-02" cType="1" res="-5.8229975402355194e-03" rms="4.0188410878181458e-01" purity="2.9407337307929993e-01" nType="0">
          <Node pos="l" depth="2" NCoef="0" IVar="-1" Cut="0.0000000000000000e+00" cType="1" res="1.7467202269472182e-04" rms="4.2631614208221436e-01" purity="4.4676584005355835e-01" nType="-99"/>
          <Node pos="r" depth="2" NCoef="0" IVar="-1" Cut="0.0000000000000000e+00" cType="1" res="-2.5400775484740734e-04" rms="3.8582858443260193e-01" purity="2.3656763136386871e-01" nType="-99"/>
        </Node>
        <Node pos="r" depth="1" NCoef="0" IVar="0" Cut="4.1265200823545456e-02" cType="1" res="1.1791174858808517e-01" rms="4.1242292523384094e-01" purity="6.8583601713180542e-01" nType="0">
          <Node pos="l" depth="2" NCoef="0" IVar="-1" Cut="0.0000000000000000e+00" cType="1" res="4.3916242429986596e-04" rms="3.4063515067100525e-01" purity="8.5352003574371338e-01" nType="-99"/>
          <Node pos="r" depth="2" NCoef="0" IVar="-1" Cut="0.0000000000000000e+00" cType="1" res="1.5404686564579606e-04" rms="4.3561178445816040e-01" purity="5.9053897857666016e-01" nType="-99"/>
        </Node>
      </Node>
    </BinaryTree>
    <BinaryTree type="DecisionTree" boostWeight="1.0000000000000000e+00" itree="917">
      <Node pos="s" depth="0" NCoef="0" IVar="1" Cut="2.7547341918945312e+02" cType="1" res="5.9367228299379349e-02" rms="4.1603213548660278e-01" purity="4.9751523137092590e-01" nType="0">
        <Node pos="l" depth="1" NCoef="0" IVar="0" Cut="3.9251808077096939e-02" cType="1" res="4.2978409677743912e-02" rms="4.2354428768157959e-01" purity="4.6078285574913025e-01" nType="0">
          <Node pos="l" depth="2" NCoef="0" IVar="-1" Cut="0.0000000000000000e+00" cType="1" res="2.3025959671940655e-04" rms="4.2454415559768677e-01" purity="5.2694982290267944e-01" nType="-99"/>
          <Node pos="r" depth="2" NCoef="0" IVar="-1" Cut="0.0000000000000000e+00" cType="1" res="-1.0106957779498771e-04" rms="4.1376635432243347e-01" purity="3.8172611594200134e-01" nType="-99"/>
        </Node>
        <Node pos="r" depth="1" NCoef="0" IVar="-1" Cut="0.0000000000000000e+00" cType="1" res="4.4617260573431849e-04" rms="2.3663564026355743e-01" purity="9.3689674139022827e-01" nType="-99"/>
      </Node>
    </BinaryTree>
    <BinaryTree type="DecisionTree" boostWeight="1.0000000000000000e+00" itree="918">
      <Node pos="s" depth="0" NCoef="0" IVar="1" Cut="2.2512013244628906e+02" cType="1" res="5.3370486944913864e-02" rms="4.1072243452072144e-01" purity="4.9589067697525024e-01" nType="0">
        <Node pos="l" depth="1" NCoef="0" IVar="0" Cut="5.1490433514118195e-02" cType="1" res="2.9232988134026527e-02" rms="4.1920590400695801e-01" purity="4.3891161680221558e-01" nType="0">
          <Node pos="l" depth="2" NCoef="0" IVar="-1" Cut="0.0000000000000000e+00" cType="1" res="2.5222927797585726e-04" rms="4.2029267549514771e-01" purity="4.9626252055168152e-01" nType="-99"/>
          <Node pos="r" depth="2" NCoef="0" IVar="-1" Cut="0.0000000000000000e+00" cType="1" res="-3.5001369542442262e-04" rms="3.9782372117042542e-01" purity="3.0530479550361633e-01" nType="-99"/>
        </Node>
        <Node pos="r" depth="1" NCoef="0" IVar="0" Cut="5.1961783319711685e-02" cType="1" res="2.2104533016681671e-01" rms="2.9600983858108521e-01" purity="8.9170467853546143e-01" nType="0">
          <Node pos="l" depth="2" NCoef="0" IVar="-1" Cut="0.0000000000000000e+00" cType="1" res="4.2807313730008900e-04" rms="3.6639979481697083e-01" purity="8.1335180997848511e-01" nType="-99"/>
          <Node pos="r" depth="2" NCoef="0" IVar="-1" Cut="0.0000000000000000e+00" cType="1" res="3.4611241426318884e-04" rms="2.6882717013359070e-01" purity="9.1463649272918701e-01" nType="-99"/>
        </Node>
      </Node>
    </BinaryTree>
    <BinaryTree type="DecisionTree" boostWeight="1.0000000000000000e+00" itree="919">
      <Node pos="s" depth="0" NCoef="0" IVar="2" Cut="6.6204593750000000e+04" cType="1" res="5.7931751012802124e-02" rms="4.1179755330085754e-01" purity="5.0247746706008911e-01" nType="0">
        <Node pos="l" depth="1" NCoef="0" IVar="0" Cut="7.6202854514122009e-02" cType="1" res="1.8837764859199524e-02" rms="4.2119011282920837e-01" purity="3.8051870465278625e-01" nType="0">
          <Node pos="l" depth="2" NCoef="0" IVar="-1" Cut="0.0000000000000000e+00" cType="1" res="1.4069401368033141e-04" rms="4.2630413174629211e-01" purity="4.0364012122154236e-01" nType="-99"/>
          <Node pos="r" depth="2" NCoef="0" IVar="-1" Cut="0.0000000000000000e+00" cType="1" res="-9.9557475186884403e-04" rms="3.4957844018936157e-01" purity="2.0582605898380280e-01" nType="-99"/>
        </Node>
        <Node pos="r" depth="1" NCoef="0" IVar="1" Cut="2.0048472595214844e+02" cType="1" res="1.6425018012523651e-01" rms="3.6447173357009888e-01" purity="8.3415168523788452e-01" nType="0">
          <Node pos="l" depth="2" NCoef="0" IVar="-1" Cut="0.0000000000000000e+00" cType="1" res="2.2336874098982662e-04" rms="4.1105684638023376e-01" purity="7.7179056406021118e-01" nType="-99"/>
          <Node pos="r" depth="2" NCoef="0" IVar="-1" Cut="0.0000000000000000e+00" cType="1" res="3.7956659798510373e-04" rms="2.9775154590606689e-01" purity="8.9966309070587158e-01" nType="-99"/>
        </Node>
      </Node>
    </BinaryTree>
    <BinaryTree type="DecisionTree" boostWeight="1.0000000000000000e+00" itree="920">
      <Node pos="s" depth="0" NCoef="0" IVar="3" Cut="1.4930736541748047e+01" cType="1" res="5.9185869991779327e-02" rms="4.1180819272994995e-01" purity="5.0445586442947388e-01" nType="0">
        <Node pos="l" depth="1" NCoef="0" IVar="0" Cut="1.0800702497363091e-02" cType="1" res="-8.1160990521311760e-03" rms="4.0417242050170898e-01" purity="2.9004442691802979e-01" nType="0">
          <Node pos="l" depth="2" NCoef="0" IVar="-1" Cut="0.0000000000000000e+00" cType="1" res="2.8457565349526703e-04" rms="4.3916973471641541e-01" purity="4.3513408303260803e-01" nType="-99"/>
          <Node pos="r" depth="2" NCoef="0" IVar="-1" Cut="0.0000000000000000e+00" cType="1" res="-2.5162057136185467e-04" rms="3.8664409518241882e-01" purity="2.4498741328716278e-01" nType="-99"/>
        </Node>
        <Node pos="r" depth="1" NCoef="0" IVar="0" Cut="4.1265200823545456e-02" cType="1" res="1.2107468396425247e-01" rms="4.0904772281646729e-01" purity="7.0162194967269897e-01" nType="0">
          <Node pos="l" depth="2" NCoef="0" IVar="-1" Cut="0.0000000000000000e+00" cType="1" res="4.4958080979995430e-04" rms="3.2641747593879700e-01" purity="8.6814570426940918e-01" nType="-99"/>
          <Node pos="r" depth="2" NCoef="0" IVar="-1" Cut="0.0000000000000000e+00" cType="1" res="1.9009796960745007e-04" rms="4.3905809521675110e-01" purity="6.0195916891098022e-01" nType="-99"/>
        </Node>
      </Node>
    </BinaryTree>
    <BinaryTree type="DecisionTree" boostWeight="1.0000000000000000e+00" itree="921">
      <Node pos="s" depth="0" NCoef="0" IVar="3" Cut="1.4930736541748047e+01" cType="1" res="5.1491480320692062e-02" rms="4.1289269924163818e-01" purity="4.9030423164367676e-01" nType="0">
        <Node pos="l" depth="1" NCoef="0" IVar="0" Cut="1.2183989398181438e-02" cType="1" res="-9.9629377946257591e-03" rms="3.9891454577445984e-01" purity="2.9063457250595093e-01" nType="0">
          <Node pos="l" depth="2" NCoef="0" IVar="-1" Cut="0.0000000000000000e+00" cType="1" res="3.5937447682954371e-04" rms="4.3262636661529541e-01" purity="4.6125802397727966e-01" nType="-99"/>
          <Node pos="r" depth="2" NCoef="0" IVar="-1" Cut="0.0000000000000000e+00" cType="1" res="-5.0132645992562175e-04" rms="3.7503710389137268e-01" purity="2.2471596300601959e-01" nType="-99"/>
        </Node>
        <Node pos="r" depth="1" NCoef="0" IVar="0" Cut="4.2733144015073776e-02" cType="1" res="1.1158345639705658e-01" rms="4.1745948791503906e-01" purity="6.8554723262786865e-01" nType="0">
          <Node pos="l" depth="2" NCoef="0" IVar="-1" Cut="0.0000000000000000e+00" cType="1" res="4.9488357035443187e-04" rms="3.5215029120445251e-01" purity="8.4276902675628662e-01" nType="-99"/>
          <Node pos="r" depth="2" NCoef="0" IVar="-1" Cut="0.0000000000000000e+00" cType="1" res="1.5579958562739193e-04" rms="4.4030797481536865e-01" purity="5.9565371274948120e-01" nType="-99"/>
        </Node>
      </Node>
    </BinaryTree>
    <BinaryTree type="DecisionTree" boostWeight="1.0000000000000000e+00" itree="922">
      <Node pos="s" depth="0" NCoef="0" IVar="2" Cut="7.2246000000000000e+04" cType="1" res="6.2446884810924530e-02" rms="4.1244995594024658e-01" purity="5.0626295804977417e-01" nType="0">
        <Node pos="l" depth="1" NCoef="0" IVar="0" Cut="5.1490433514118195e-02" cType="1" res="3.1077148392796516e-02" rms="4.2314833402633667e-01" purity="4.1273781657218933e-01" nType="0">
          <Node pos="l" depth="2" NCoef="0" IVar="-1" Cut="0.0000000000000000e+00" cType="1" res="2.1104158076923341e-04" rms="4.2838647961616516e-01" purity="4.7401154041290283e-01" nType="-99"/>
          <Node pos="r" depth="2" NCoef="0" IVar="-1" Cut="0.0000000000000000e+00" cType="1" res="-5.6782271713018417e-04" rms="3.8857078552246094e-01" purity="2.5126108527183533e-01" nType="-99"/>
        </Node>
        <Node pos="r" depth="1" NCoef="0" IVar="1" Cut="2.0292155456542969e+02" cType="1" res="1.7963710427284241e-01" rms="3.4541147947311401e-01" purity="8.5565155744552612e-01" nType="0">
          <Node pos="l" depth="2" NCoef="0" IVar="-1" Cut="0.0000000000000000e+00" cType="1" res="2.5457117590121925e-04" rms="4.0321132540702820e-01" purity="7.8496795892715454e-01" nType="-99"/>
          <Node pos="r" depth="2" NCoef="0" IVar="-1" Cut="0.0000000000000000e+00" cType="1" res="4.4234961387701333e-04" rms="2.8289487957954407e-01" purity="9.1080009937286377e-01" nType="-99"/>
        </Node>
      </Node>
    </BinaryTree>
    <BinaryTree type="DecisionTree" boostWeight="1.0000000000000000e+00" itree="923">
      <Node pos="s" depth="0" NCoef="0" IVar="2" Cut="4.4136394531250000e+04" cType="1" res="5.1685694605112076e-02" rms="4.1042390465736389e-01" purity="4.9361741542816162e-01" nType="0">
        <Node pos="l" depth="1" NCoef="0" IVar="0" Cut="2.5133045390248299e-02" cType="1" res="-2.0914427004754543e-03" rms="4.0570896863937378e-01" purity="3.1095418334007263e-01" nType="0">
          <Node pos="l" depth="2" NCoef="0" IVar="-1" Cut="0.0000000000000000e+00" cType="1" res="2.4170176766347140e-04" rms="4.3895047903060913e-01" purity="4.4526818394660950e-01" nType="-99"/>
          <Node pos="r" depth="2" NCoef="0" IVar="-1" Cut="0.0000000000000000e+00" cType="1" res="-6.4175931038334966e-04" rms="3.6379227042198181e-01" purity="1.9852276146411896e-01" nType="-99"/>
        </Node>
        <Node pos="r" depth="1" NCoef="0" IVar="0" Cut="4.1371610015630722e-02" cType="1" res="1.2863619625568390e-01" rms="4.0483874082565308e-01" purity="7.5499290227890015e-01" nType="0">
          <Node pos="l" depth="2" NCoef="0" IVar="-1" Cut="0.0000000000000000e+00" cType="1" res="4.6416535042226315e-04" rms="3.1895571947097778e-01" purity="8.8058805465698242e-01" nType="-99"/>
          <Node pos="r" depth="2" NCoef="0" IVar="-1" Cut="0.0000000000000000e+00" cType="1" res="2.3087204317562282e-04" rms="4.3548193573951721e-01" purity="6.9159466028213501e-01" nType="-99"/>
        </Node>
      </Node>
    </BinaryTree>
    <BinaryTree type="DecisionTree" boostWeight="1.0000000000000000e+00" itree="924">
      <Node pos="s" depth="0" NCoef="0" IVar="1" Cut="4.4058822631835938e+01" cType="1" res="6.3302174210548401e-02" rms="4.1172632575035095e-01" purity="5.0804865360260010e-01" nType="0">
        <Node pos="l" depth="1" NCoef="0" IVar="1" Cut="2.0348253250122070e+01" cType="1" res="-7.6359622180461884e-02" rms="3.2293635606765747e-01" purity="1.2626872956752777e-01" nType="0">
          <Node pos="l" depth="2" NCoef="0" IVar="-1" Cut="0.0000000000000000e+00" cType="1" res="-3.3900025300681591e-03" rms="2.7891004085540771e-01" purity="8.6557805538177490e-02" nType="-99"/>
          <Node pos="r" depth="2" NCoef="0" IVar="-1" Cut="0.0000000000000000e+00" cType="1" res="-6.0368899721652269e-04" rms="3.4691980481147766e-01" purity="1.5543265640735626e-01" nType="-99"/>
        </Node>
        <Node pos="r" depth="1" NCoef="0" IVar="0" Cut="2.7510134503245354e-02" cType="1" res="9.1199204325675964e-02" rms="4.2175090312957764e-01" purity="5.8430796861648560e-01" nType="0">
          <Node pos="l" depth="2" NCoef="0" IVar="-1" Cut="0.0000000000000000e+00" cType="1" res="4.5839650556445122e-04" rms="4.0604603290557861e-01" purity="7.4462187290191650e-01" nType="-99"/>
          <Node pos="r" depth="2" NCoef="0" IVar="-1" Cut="0.0000000000000000e+00" cType="1" res="1.4442956307902932e-04" rms="4.1889274120330811e-01" purity="5.2139794826507568e-01" nType="-99"/>
        </Node>
      </Node>
    </BinaryTree>
    <BinaryTree type="DecisionTree" boostWeight="1.0000000000000000e+00" itree="925">
      <Node pos="s" depth="0" NCoef="0" IVar="3" Cut="1.3542619705200195e+01" cType="1" res="5.5692225694656372e-02" rms="4.1129818558692932e-01" purity="4.9809196591377258e-01" nType="0">
        <Node pos="l" depth="1" NCoef="0" IVar="0" Cut="1.1065950617194176e-02" cType="1" res="-2.0190134644508362e-02" rms="3.9627423882484436e-01" purity="2.7467530965805054e-01" nType="0">
          <Node pos="l" depth="2" NCoef="0" IVar="-1" Cut="0.0000000000000000e+00" cType="1" res="2.9828355764038861e-04" rms="4.2178621888160706e-01" purity="4.0284961462020874e-01" nType="-99"/>
          <Node pos="r" depth="2" NCoef="0" IVar="-1" Cut="0.0000000000000000e+00" cType="1" res="-3.6582790198735893e-04" rms="3.8437372446060181e-01" purity="2.3418751358985901e-01" nType="-99"/>
        </Node>
        <Node pos="r" depth="1" NCoef="0" IVar="0" Cut="4.2733144015073776e-02" cType="1" res="1.2025237828493118e-01" rms="4.1282176971435547e-01" purity="6.8817317485809326e-01" nType="0">
          <Node pos="l" depth="2" NCoef="0" IVar="-1" Cut="0.0000000000000000e+00" cType="1" res="4.0374175296165049e-04" rms="3.4843429923057556e-01" purity="8.4148627519607544e-01" nType="-99"/>
          <Node pos="r" depth="2" NCoef="0" IVar="-1" Cut="0.0000000000000000e+00" cType="1" res="2.0056420180480927e-04" rms="4.3654176592826843e-01" purity="5.9817296266555786e-01" nType="-99"/>
        </Node>
      </Node>
    </BinaryTree>
    <BinaryTree type="DecisionTree" boostWeight="1.0000000000000000e+00" itree="926">
      <Node pos="s" depth="0" NCoef="0" IVar="1" Cut="1.2407772064208984e+02" cType="1" res="5.5921457707881927e-02" rms="4.1154491901397705e-01" purity="4.9902406334877014e-01" nType="0">
        <Node pos="l" depth="1" NCoef="0" IVar="0" Cut="6.0919947922229767e-02" cType="1" res="-1.2844661250710487e-02" rms="3.9309528470039368e-01" purity="2.6458749175071716e-01" nType="0">
          <Node pos="l" depth="2" NCoef="0" IVar="-1" Cut="0.0000000000000000e+00" cType="1" res="4.4958465878153220e-05" rms="4.1311424970626831e-01" purity="3.0425715446472168e-01" nType="-99"/>
          <Node pos="r" depth="2" NCoef="0" IVar="-1" Cut="0.0000000000000000e+00" cType="1" res="-3.6417255178093910e-03" rms="2.4657519161701202e-01" purity="6.4211905002593994e-02" nType="-99"/>
        </Node>
        <Node pos="r" depth="1" NCoef="0" IVar="1" Cut="2.6678378295898438e+02" cType="1" res="1.1942654848098755e-01" rms="4.1794601082801819e-01" purity="7.1552479267120361e-01" nType="0">
          <Node pos="l" depth="2" NCoef="0" IVar="-1" Cut="0.0000000000000000e+00" cType="1" res="2.4256226606667042e-04" rms="4.3709611892700195e-01" purity="6.7739254236221313e-01" nType="-99"/>
          <Node pos="r" depth="2" NCoef="0" IVar="-1" Cut="0.0000000000000000e+00" cType="1" res="5.3616007789969444e-04" rms="2.5414472818374634e-01" purity="9.2674940824508667e-01" nType="-99"/>
        </Node>
      </Node>
    </BinaryTree>
    <BinaryTree type="DecisionTree" boostWeight="1.0000000000000000e+00" itree="927">
      <Node pos="s" depth="0" NCoef="0" IVar="2" Cut="6.6204593750000000e+04" cType="1" res="6.2916338443756104e-02" rms="4.1217976808547974e-01" purity="5.0673854351043701e-01" nType="0">
        <Node pos="l" depth="1" NCoef="0" IVar="0" Cut="1.2700475752353668e-02" cType="1" res="2.4007851257920265e-02" rms="4.2356270551681519e-01" purity="3.8212433457374573e-01" nType="0">
          <Node pos="l" depth="2" NCoef="0" IVar="-1" Cut="0.0000000000000000e+00" cType="1" res="1.9257141684647650e-04" rms="4.3666183948516846e-01" purity="5.1550120115280151e-01" nType="-99"/>
          <Node pos="r" depth="2" NCoef="0" IVar="-1" Cut="0.0000000000000000e+00" cType="1" res="-4.4775875721825287e-05" rms="4.1352629661560059e-01" purity="3.4719669818878174e-01" nType="-99"/>
        </Node>
        <Node pos="r" depth="1" NCoef="0" IVar="1" Cut="2.0142605590820312e+02" cType="1" res="1.6637551784515381e-01" rms="3.6037051677703857e-01" purity="8.3809262514114380e-01" nType="0">
          <Node pos="l" depth="2" NCoef="0" IVar="-1" Cut="0.0000000000000000e+00" cType="1" res="2.5264694704674184e-04" rms="4.0128397941589355e-01" purity="7.8564792871475220e-01" nType="-99"/>
          <Node pos="r" depth="2" NCoef="0" IVar="-1" Cut="0.0000000000000000e+00" cType="1" res="3.5605573793873191e-04" rms="2.9737839102745056e-01" purity="8.9967042207717896e-01" nType="-99"/>
        </Node>
      </Node>
    </BinaryTree>
    <BinaryTree type="DecisionTree" boostWeight="1.0000000000000000e+00" itree="928">
      <Node pos="s" depth="0" NCoef="0" IVar="3" Cut="1.3542619705200195e+01" cType="1" res="5.7227544486522675e-02" rms="4.0835985541343689e-01" purity="5.0369763374328613e-01" nType="0">
        <Node pos="l" depth="1" NCoef="0" IVar="1" Cut="3.3538272857666016e+01" cType="1" res="-2.2942913696169853e-02" rms="3.9638191461563110e-01" purity="2.6919931173324585e-01" nType="0">
          <Node pos="l" depth="2" NCoef="0" IVar="-1" Cut="0.0000000000000000e+00" cType="1" res="-1.9751531071960926e-03" rms="3.0533012747764587e-01" purity="1.0630174726247787e-01" nType="-99"/>
          <Node pos="r" depth="2" NCoef="0" IVar="-1" Cut="0.0000000000000000e+00" cType="1" res="3.0278888516477309e-05" rms="4.2446631193161011e-01" purity="3.3524912595748901e-01" nType="-99"/>
        </Node>
        <Node pos="r" depth="1" NCoef="0" IVar="0" Cut="3.9660222828388214e-02" cType="1" res="1.2264438718557358e-01" rms="4.0632399916648865e-01" purity="6.9504165649414062e-01" nType="0">
          <Node pos="l" depth="2" NCoef="0" IVar="-1" Cut="0.0000000000000000e+00" cType="1" res="4.2985193431377411e-04" rms="3.3838576078414917e-01" purity="8.5594213008880615e-01" nType="-99"/>
          <Node pos="r" depth="2" NCoef="0" IVar="-1" Cut="0.0000000000000000e+00" cType="1" res="2.0165820023976266e-04" rms="4.2638316750526428e-01" purity="6.1807316541671753e-01" nType="-99"/>
        </Node>
      </Node>
    </BinaryTree>
    <BinaryTree type="DecisionTree" boostWeight="1.0000000000000000e+00" itree="929">
      <Node pos="s" depth="0" NCoef="0" IVar="1" Cut="9.2416587829589844e+01" cType="1" res="5.6450232863426208e-02" rms="4.1126096248626709e-01" purity="4.9822488427162170e-01" nType="0">
        <Node pos="l" depth="1" NCoef="0" IVar="0" Cut="1.2566522695124149e-02" cType="1" res="-2.5610791519284248e-02" rms="3.7413755059242249e-01" purity="2.1710388362407684e-01" nType="0">
          <Node pos="l" depth="2" NCoef="0" IVar="-1" Cut="0.0000000000000000e+00" cType="1" res="2.0333519205451012e-04" rms="4.3918904662132263e-01" purity="3.4240835905075073e-01" nType="-99"/>
          <Node pos="r" depth="2" NCoef="0" IVar="-1" Cut="0.0000000000000000e+00" cType="1" res="-5.4384709801524878e-04" rms="3.3843111991882324e-01" purity="1.6488556563854218e-01" nType="-99"/>
        </Node>
        <Node pos="r" depth="1" NCoef="0" IVar="0" Cut="3.9660222828388214e-02" cType="1" res="1.0257218778133392e-01" rms="4.2380520701408386e-01" purity="6.5622740983963013e-01" nType="0">
          <Node pos="l" depth="2" NCoef="0" IVar="-1" Cut="0.0000000000000000e+00" cType="1" res="3.7983045331202447e-04" rms="3.9728251099586487e-01" purity="7.6482284069061279e-01" nType="-99"/>
          <Node pos="r" depth="2" NCoef="0" IVar="-1" Cut="0.0000000000000000e+00" cType="1" res="1.2646544200833887e-04" rms="4.3341389298439026e-01" purity="5.7622402906417847e-01" nType="-99"/>
        </Node>
      </Node>
    </BinaryTree>
    <BinaryTree type="DecisionTree" boostWeight="1.0000000000000000e+00" itree="930">
      <Node pos="s" depth="0" NCoef="0" IVar="1" Cut="2.1154933166503906e+02" cType="1" res="6.5152533352375031e-02" rms="4.1381469368934631e-01" purity="5.0878584384918213e-01" nType="0">
        <Node pos="l" depth="1" NCoef="0" IVar="0" Cut="7.5420089066028595e-02" cType="1" res="4.1365083307027817e-02" rms="4.2296817898750305e-01" purity="4.4868895411491394e-01" nType="0">
          <Node pos="l" depth="2" NCoef="0" IVar="-1" Cut="0.0000000000000000e+00" cType="1" res="2.0449359726626426e-04" rms="4.2168796062469482e-01" purity="4.7733226418495178e-01" nType="-99"/>
          <Node pos="r" depth="2" NCoef="0" IVar="-1" Cut="0.0000000000000000e+00" cType="1" res="-1.2350544566288590e-03" rms="3.8739374279975891e-01" purity="2.4129398167133331e-01" nType="-99"/>
        </Node>
        <Node pos="r" depth="1" NCoef="0" IVar="3" Cut="4.8241630554199219e+01" cType="1" res="2.1001766622066498e-01" rms="3.1648787856101990e-01" purity="8.7477475404739380e-01" nType="0">
          <Node pos="l" depth="2" NCoef="0" IVar="-1" Cut="0.0000000000000000e+00" cType="1" res="3.2428500708192587e-04" rms="3.9161899685859680e-01" purity="7.7723920345306396e-01" nType="-99"/>
          <Node pos="r" depth="2" NCoef="0" IVar="-1" Cut="0.0000000000000000e+00" cType="1" res="4.7212315257638693e-04" rms="2.6543718576431274e-01" purity="9.2325490713119507e-01" nType="-99"/>
        </Node>
      </Node>
    </BinaryTree>
    <BinaryTree type="DecisionTree" boostWeight="1.0000000000000000e+00" itree="931">
      <Node pos="s" depth="0" NCoef="0" IVar="2" Cut="6.6204593750000000e+04" cType="1" res="5.2179206162691116e-02" rms="4.0755328536033630e-01" purity="4.9929192662239075e-01" nType="0">
        <Node pos="l" depth="1" NCoef="0" IVar="0" Cut="3.7699569016695023e-02" cType="1" res="6.1416332609951496e-03" rms="4.1737619042396545e-01" purity="3.6373481154441833e-01" nType="0">
          <Node pos="l" depth="2" NCoef="0" IVar="-1" Cut="0.0000000000000000e+00" cType="1" res="1.9362999591976404e-04" rms="4.3266761302947998e-01" purity="4.5285373926162720e-01" nType="-99"/>
          <Node pos="r" depth="2" NCoef="0" IVar="-1" Cut="0.0000000000000000e+00" cType="1" res="-4.8974738456308842e-04" rms="3.8656944036483765e-01" purity="2.4403151869773865e-01" nType="-99"/>
        </Node>
        <Node pos="r" depth="1" NCoef="0" IVar="1" Cut="1.9695610046386719e+02" cType="1" res="1.6853234171867371e-01" rms="3.5598501563072205e-01" purity="8.4189248085021973e-01" nType="0">
          <Node pos="l" depth="2" NCoef="0" IVar="-1" Cut="0.0000000000000000e+00" cType="1" res="2.8227258007973433e-04" rms="4.0531420707702637e-01" purity="7.7761024236679077e-01" nType="-99"/>
          <Node pos="r" depth="2" NCoef="0" IVar="-1" Cut="0.0000000000000000e+00" cType="1" res="4.0165163227356970e-04" rms="2.9130724072456360e-01" purity="9.0371221303939819e-01" nType="-99"/>
        </Node>
      </Node>
    </BinaryTree>
    <BinaryTree type="DecisionTree" boostWeight="1.0000000000000000e+00" itree="932">
      <Node pos="s" depth="0" NCoef="0" IVar="2" Cut="6.6204593750000000e+04" cType="1" res="6.3784092664718628e-02" rms="4.1740190982818604e-01" purity="5.0198227167129517e-01" nType="0">
        <Node pos="l" depth="1" NCoef="0" IVar="0" Cut="1.2700475752353668e-02" cType="1" res="3.0096521601080894e-02" rms="4.2896142601966858e-01" purity="3.8582101464271545e-01" nType="0">
          <Node pos="l" depth="2" NCoef="0" IVar="-1" Cut="0.0000000000000000e+00" cType="1" res="1.7628258501645178e-04" rms="4.4532155990600586e-01" purity="5.2171260118484497e-01" nType="-99"/>
          <Node pos="r" depth="2" NCoef="0" IVar="-1" Cut="0.0000000000000000e+00" cType="1" res="-3.1288651371141896e-05" rms="4.1704586148262024e-01" purity="3.4945464134216309e-01" nType="-99"/>
        </Node>
        <Node pos="r" depth="1" NCoef="0" IVar="1" Cut="2.0318209838867188e+02" cType="1" res="1.5931533277034760e-01" rms="3.6624541878700256e-01" purity="8.3139246702194214e-01" nType="0">
          <Node pos="l" depth="2" NCoef="0" IVar="-1" Cut="0.0000000000000000e+00" cType="1" res="2.7753168251365423e-04" rms="4.1610136628150940e-01" purity="7.6368641853332520e-01" nType="-99"/>
          <Node pos="r" depth="2" NCoef="0" IVar="-1" Cut="0.0000000000000000e+00" cType="1" res="4.0721890400163829e-04" rms="2.9201215505599976e-01" purity="9.0361744165420532e-01" nType="-99"/>
        </Node>
      </Node>
    </BinaryTree>
    <BinaryTree type="DecisionTree" boostWeight="1.0000000000000000e+00" itree="933">
      <Node pos="s" depth="0" NCoef="0" IVar="3" Cut="1.3542619705200195e+01" cType="1" res="3.7457454949617386e-02" rms="4.1231381893157959e-01" purity="4.7472164034843445e-01" nType="0">
        <Node pos="l" depth="1" NCoef="0" IVar="0" Cut="1.0038150474429131e-02" cType="1" res="-3.4411802887916565e-02" rms="3.9348995685577393e-01" purity="2.5343984365463257e-01" nType="0">
          <Node pos="l" depth="2" NCoef="0" IVar="-1" Cut="0.0000000000000000e+00" cType="1" res="9.8684016847983003e-05" rms="4.2624005675315857e-01" purity="3.7891697883605957e-01" nType="-99"/>
          <Node pos="r" depth="2" NCoef="0" IVar="-1" Cut="0.0000000000000000e+00" cType="1" res="-4.1435621096752584e-04" rms="3.8085797429084778e-01" purity="2.1932360529899597e-01" nType="-99"/>
        </Node>
        <Node pos="r" depth="1" NCoef="0" IVar="0" Cut="3.9660222828388214e-02" cType="1" res="9.9675394594669342e-02" rms="4.1808062791824341e-01" purity="6.6628754138946533e-01" nType="0">
          <Node pos="l" depth="2" NCoef="0" IVar="-1" Cut="0.0000000000000000e+00" cType="1" res="5.2992533892393112e-04" rms="3.4321936964988708e-01" purity="8.5056895017623901e-01" nType="-99"/>
          <Node pos="r" depth="2" NCoef="0" IVar="-1" Cut="0.0000000000000000e+00" cType="1" res="1.2532010441645980e-04" rms="4.3932616710662842e-01" purity="5.7049363851547241e-01" nType="-99"/>
        </Node>
      </Node>
    </BinaryTree>
    <BinaryTree type="DecisionTree" boostWeight="1.0000000000000000e+00" itree="934">
      <Node pos="s" depth="0" NCoef="0" IVar="2" Cut="6.6204593750000000e+04" cType="1" res="6.0968875885009766e-02" rms="4.1204297542572021e-01" purity="5.0535720586776733e-01" nType="0">
        <Node pos="l" depth="1" NCoef="0" IVar="0" Cut="3.8101427257061005e-02" cType="1" res="2.4763049557805061e-02" rms="4.2146351933479309e-01" purity="3.8680505752563477e-01" nType="0">
          <Node pos="l" depth="2" NCoef="0" IVar="-1" Cut="0.0000000000000000e+00" cType="1" res="1.8553638074081391e-04" rms="4.3253475427627563e-01" purity="4.8543879389762878e-01" nType="-99"/>
          <Node pos="r" depth="2" NCoef="0" IVar="-1" Cut="0.0000000000000000e+00" cType="1" res="-4.9639889039099216e-04" rms="3.9093303680419922e-01" purity="2.4179530143737793e-01" nType="-99"/>
        </Node>
        <Node pos="r" depth="1" NCoef="0" IVar="1" Cut="2.3041674804687500e+02" cType="1" res="1.6056345403194427e-01" rms="3.6695373058319092e-01" purity="8.3146893978118896e-01" nType="0">
          <Node pos="l" depth="2" NCoef="0" IVar="-1" Cut="0.0000000000000000e+00" cType="1" res="2.7977157151326537e-04" rms="4.0780687332153320e-01" purity="7.7899438142776489e-01" nType="-99"/>
          <Node pos="r" depth="2" NCoef="0" IVar="-1" Cut="0.0000000000000000e+00" cType="1" res="3.7811297806911170e-04" rms="2.6381751894950867e-01" purity="9.2418760061264038e-01" nType="-99"/>
        </Node>
      </Node>
    </BinaryTree>
    <BinaryTree type="DecisionTree" boostWeight="1.0000000000000000e+00" itree="935">
      <Node pos="s" depth="0" NCoef="0" IVar="2" Cut="7.2246000000000000e+04" cType="1" res="5.1348689943552017e-02" rms="4.1322758793830872e-01" purity="4.9058857560157776e-01" nType="0">
        <Node pos="l" depth="1" NCoef="0" IVar="0" Cut="5.0266090780496597e-02" cType="1" res="2.1298047155141830e-02" rms="4.2129677534103394e-01" purity="4.0007695555686951e-01" nType="0">
          <Node pos="l" depth="2" NCoef="0" IVar="-1" Cut="0.0000000000000000e+00" cType="1" res="1.7041256069205701e-04" rms="4.2636835575103760e-01" purity="4.5890092849731445e-01" nType="-99"/>
          <Node pos="r" depth="2" NCoef="0" IVar="-1" Cut="0.0000000000000000e+00" cType="1" res="-5.0164648564532399e-04" rms="3.9489078521728516e-01" purity="2.5939986109733582e-01" nType="-99"/>
        </Node>
        <Node pos="r" depth="1" NCoef="0" IVar="1" Cut="2.1533052062988281e+02" cType="1" res="1.6901564598083496e-01" rms="3.5638177394866943e-01" purity="8.4499776363372803e-01" nType="0">
          <Node pos="l" depth="2" NCoef="0" IVar="-1" Cut="0.0000000000000000e+00" cType="1" res="2.8151931473985314e-04" rms="3.9677393436431885e-01" purity="7.9694586992263794e-01" nType="-99"/>
          <Node pos="r" depth="2" NCoef="0" IVar="-1" Cut="0.0000000000000000e+00" cType="1" res="5.0660612760111690e-04" rms="2.9343554377555847e-01" purity="9.0324872732162476e-01" nType="-99"/>
        </Node>
      </Node>
    </BinaryTree>
    <BinaryTree type="DecisionTree" boostWeight="1.0000000000000000e+00" itree="936">
      <Node pos="s" depth="0" NCoef="0" IVar="1" Cut="2.3299119567871094e+02" cType="1" res="6.1325781047344208e-02" rms="4.1217833757400513e-01" purity="5.0497096776962280e-01" nType="0">
        <Node pos="l" depth="1" NCoef="0" IVar="0" Cut="5.2880298346281052e-02" cType="1" res="3.8962636142969131e-02" rms="4.2125454545021057e-01" purity="4.5177498459815979e-01" nType="0">
          <Node pos="l" depth="2" NCoef="0" IVar="-1" Cut="0.0000000000000000e+00" cType="1" res="2.7441687416285276e-04" rms="4.2108055949211121e-01" purity="4.9957734346389771e-01" nType="-99"/>
          <Node pos="r" depth="2" NCoef="0" IVar="-1" Cut="0.0000000000000000e+00" cType="1" res="-3.1800376018509269e-04" rms="4.0685725212097168e-01" purity="3.3532691001892090e-01" nType="-99"/>
        </Node>
        <Node pos="r" depth="1" NCoef="0" IVar="-1" Cut="0.0000000000000000e+00" cType="1" res="4.2192614637315273e-04" rms="2.8595227003097534e-01" purity="9.0225470066070557e-01" nType="-99"/>
      </Node>
    </BinaryTree>
    <BinaryTree type="DecisionTree" boostWeight="1.0000000000000000e+00" itree="937">
      <Node pos="s" depth="0" NCoef="0" IVar="2" Cut="6.1173269531250000e+04" cType="1" res="6.1328209936618805e-02" rms="4.1303053498268127e-01" purity="5.0384587049484253e-01" nType="0">
        <Node pos="l" depth="1" NCoef="0" IVar="0" Cut="3.8101427257061005e-02" cType="1" res="2.5125825777649879e-02" rms="4.2061570286750793e-01" purity="3.7542420625686646e-01" nType="0">
          <Node pos="l" depth="2" NCoef="0" IVar="-1" Cut="0.0000000000000000e+00" cType="1" res="1.9589309522416443e-04" rms="4.3979355692863464e-01" purity="4.7292485833168030e-01" nType="-99"/>
          <Node pos="r" depth="2" NCoef="0" IVar="-1" Cut="0.0000000000000000e+00" cType="1" res="-4.0570279816165566e-04" rms="3.7534072995185852e-01" purity="2.2709251940250397e-01" nType="-99"/>
        </Node>
        <Node pos="r" depth="1" NCoef="0" IVar="1" Cut="2.2346327209472656e+02" cType="1" res="1.4813914895057678e-01" rms="3.8046333193778992e-01" purity="8.1179273128509521e-01" nType="0">
          <Node pos="l" depth="2" NCoef="0" IVar="-1" Cut="0.0000000000000000e+00" cType="1" res="2.6534858625382185e-04" rms="4.2121785879135132e-01" purity="7.5316321849822998e-01" nType="-99"/>
          <Node pos="r" depth="2" NCoef="0" IVar="-1" Cut="0.0000000000000000e+00" cType="1" res="4.6129489783197641e-04" rms="2.7607965469360352e-01" purity="9.1569215059280396e-01" nType="-99"/>
        </Node>
      </Node>
    </BinaryTree>
    <BinaryTree type="DecisionTree" boostWeight="1.0000000000000000e+00" itree="938">
      <Node pos="s" depth="0" NCoef="0" IVar="1" Cut="2.3142485046386719e+02" cType="1" res="6.6340155899524689e-02" rms="4.1593310236930847e-01" purity="5.0727874040603638e-01" nType="0">
        <Node pos="l" depth="1" NCoef="0" IVar="0" Cut="2.8488764539361000e-02" cType="1" res="4.7775823622941971e-02" rms="4.2440065741539001e-01" purity="4.6073651313781738e-01" nType="0">
          <Node pos="l" depth="2" NCoef="0" IVar="-1" Cut="0.0000000000000000e+00" cType="1" res="2.3466782295145094e-04" rms="4.1880354285240173e-01" purity="5.4104912281036377e-01" nType="-99"/>
          <Node pos="r" depth="2" NCoef="0" IVar="-1" Cut="0.0000000000000000e+00" cType="1" res="8.5288611444411799e-06" rms="4.2198407649993896e-01" purity="4.0635901689529419e-01" nType="-99"/>
        </Node>
        <Node pos="r" depth="1" NCoef="0" IVar="0" Cut="5.5169887840747833e-02" cType="1" res="2.2092960774898529e-01" rms="2.9492306709289551e-01" purity="8.9484691619873047e-01" nType="0">
          <Node pos="l" depth="2" NCoef="0" IVar="-1" Cut="0.0000000000000000e+00" cType="1" res="5.1472993800416589e-04" rms="3.5381790995597839e-01" purity="8.3672571182250977e-01" nType="-99"/>
          <Node pos="r" depth="2" NCoef="0" IVar="-1" Cut="0.0000000000000000e+00" cType="1" res="5.8663514209911227e-04" rms="2.6683521270751953e-01" purity="9.1712290048599243e-01" nType="-99"/>
        </Node>
      </Node>
    </BinaryTree>
    <BinaryTree type="DecisionTree" boostWeight="1.0000000000000000e+00" itree="939">
      <Node pos="s" depth="0" NCoef="0" IVar="2" Cut="7.2246000000000000e+04" cType="1" res="5.5770121514797211e-02" rms="4.1276776790618896e-01" purity="4.9783673882484436e-01" nType="0">
        <Node pos="l" depth="1" NCoef="0" IVar="0" Cut="5.1490433514118195e-02" cType="1" res="2.3027723655104637e-02" rms="4.2249166965484619e-01" purity="4.0223067998886108e-01" nType="0">
          <Node pos="l" depth="2" NCoef="0" IVar="-1" Cut="0.0000000000000000e+00" cType="1" res="2.3631734075024724e-04" rms="4.2665973305702209e-01" purity="4.6295091509819031e-01" nType="-99"/>
          <Node pos="r" depth="2" NCoef="0" IVar="-1" Cut="0.0000000000000000e+00" cType="1" res="-6.6056603100150824e-04" rms="3.9386183023452759e-01" purity="2.4442426860332489e-01" nType="-99"/>
        </Node>
        <Node pos="r" depth="1" NCoef="0" IVar="1" Cut="1.9680345153808594e+02" cType="1" res="1.7758198082447052e-01" rms="3.4833076596260071e-01" purity="8.5352092981338501e-01" nType="0">
          <Node pos="l" depth="2" NCoef="0" IVar="-1" Cut="0.0000000000000000e+00" cType="1" res="2.6245095068588853e-04" rms="4.0498453378677368e-01" purity="7.8583967685699463e-01" nType="-99"/>
          <Node pos="r" depth="2" NCoef="0" IVar="-1" Cut="0.0000000000000000e+00" cType="1" res="3.5401733475737274e-04" rms="2.9401847720146179e-01" purity="9.0233373641967773e-01" nType="-99"/>
        </Node>
      </Node>
    </BinaryTree>
    <BinaryTree type="DecisionTree" boostWeight="1.0000000000000000e+00" itree="940">
      <Node pos="s" depth="0" NCoef="0" IVar="1" Cut="5.2157405853271484e+01" cType="1" res="4.8812206834554672e-02" rms="4.1288572549819946e-01" purity="4.8945057392120361e-01" nType="0">
        <Node pos="l" depth="1" NCoef="0" IVar="0" Cut="1.0175016708672047e-02" cType="1" res="-7.9193405807018280e-02" rms="3.1756049394607544e-01" purity="1.2098660320043564e-01" nType="0">
          <Node pos="l" depth="2" NCoef="0" IVar="-1" Cut="0.0000000000000000e+00" cType="1" res="-3.2058940269052982e-04" rms="4.0323752164840698e-01" purity="2.1472959220409393e-01" nType="-99"/>
          <Node pos="r" depth="2" NCoef="0" IVar="-1" Cut="0.0000000000000000e+00" cType="1" res="-4.0075276046991348e-03" rms="2.5308278203010559e-01" purity="6.7984111607074738e-02" nType="-99"/>
        </Node>
        <Node pos="r" depth="1" NCoef="0" IVar="0" Cut="2.8488764539361000e-02" cType="1" res="7.9394906759262085e-02" rms="4.2691960930824280e-01" purity="5.7748281955718994e-01" nType="0">
          <Node pos="l" depth="2" NCoef="0" IVar="-1" Cut="0.0000000000000000e+00" cType="1" res="4.5856458018533885e-04" rms="4.1051942110061646e-01" purity="7.3489296436309814e-01" nType="-99"/>
          <Node pos="r" depth="2" NCoef="0" IVar="-1" Cut="0.0000000000000000e+00" cType="1" res="1.3134418986737728e-04" rms="4.2595061659812927e-01" purity="5.1530998945236206e-01" nType="-99"/>
        </Node>
      </Node>
    </BinaryTree>
    <BinaryTree type="DecisionTree" boostWeight="1.0000000000000000e+00" itree="941">
      <Node pos="s" depth="0" NCoef="0" IVar="1" Cut="2.1162248229980469e+02" cType="1" res="5.8204006403684616e-02" rms="4.1579040884971619e-01" purity="4.9700629711151123e-01" nType="0">
        <Node pos="l" depth="1" NCoef="0" IVar="0" Cut="2.8488764539361000e-02" cType="1" res="3.4677758812904358e-02" rms="4.2483764886856079e-01" purity="4.3623358011245728e-01" nType="0">
          <Node pos="l" depth="2" NCoef="0" IVar="-1" Cut="0.0000000000000000e+00" cType="1" res="3.2557439408265054e-04" rms="4.2722177505493164e-01" purity="5.2772057056427002e-01" nType="-99"/>
          <Node pos="r" depth="2" NCoef="0" IVar="-1" Cut="0.0000000000000000e+00" cType="1" res="-1.1445868585724384e-04" rms="4.1382369399070740e-01" purity="3.7081351876258850e-01" nType="-99"/>
        </Node>
        <Node pos="r" depth="1" NCoef="0" IVar="3" Cut="4.5087947845458984e+01" cType="1" res="2.0286844670772552e-01" rms="3.1903699040412903e-01" purity="8.7070155143737793e-01" nType="0">
          <Node pos="l" depth="2" NCoef="0" IVar="-1" Cut="0.0000000000000000e+00" cType="1" res="2.7820764807984233e-04" rms="4.2305409908294678e-01" purity="7.1229040622711182e-01" nType="-99"/>
          <Node pos="r" depth="2" NCoef="0" IVar="-1" Cut="0.0000000000000000e+00" cType="1" res="4.4636227539740503e-04" rms="2.6601079106330872e-01" purity="9.2231512069702148e-01" nType="-99"/>
        </Node>
      </Node>
    </BinaryTree>
    <BinaryTree type="DecisionTree" boostWeight="1.0000000000000000e+00" itree="942">
      <Node pos="s" depth="0" NCoef="0" IVar="3" Cut="1.3542619705200195e+01" cType="1" res="5.7403579354286194e-02" rms="4.0884467959403992e-01" purity="5.0398457050323486e-01" nType="0">
        <Node pos="l" depth="1" NCoef="0" IVar="1" Cut="3.3748901367187500e+01" cType="1" res="-2.2917801514267921e-02" rms="3.9589840173721313e-01" purity="2.7091446518898010e-01" nType="0">
          <Node pos="l" depth="2" NCoef="0" IVar="-1" Cut="0.0000000000000000e+00" cType="1" res="-2.9431735165417194e-03" rms="2.7826341986656189e-01" purity="8.7627872824668884e-02" nType="-99"/>
          <Node pos="r" depth="2" NCoef="0" IVar="-1" Cut="0.0000000000000000e+00" cType="1" res="5.2522133046295494e-05" rms="4.2882654070854187e-01" purity="3.4399598836898804e-01" nType="-99"/>
        </Node>
        <Node pos="r" depth="1" NCoef="0" IVar="0" Cut="4.2733144015073776e-02" cType="1" res="1.2318025529384613e-01" rms="4.0752419829368591e-01" purity="6.9485002756118774e-01" nType="0">
          <Node pos="l" depth="2" NCoef="0" IVar="-1" Cut="0.0000000000000000e+00" cType="1" res="4.0000531589612365e-04" rms="3.4168702363967896e-01" purity="8.4857016801834106e-01" nType="-99"/>
          <Node pos="r" depth="2" NCoef="0" IVar="-1" Cut="0.0000000000000000e+00" cType="1" res="1.6632030019536614e-04" rms="4.3231520056724548e-01" purity="6.0183155536651611e-01" nType="-99"/>
        </Node>
      </Node>
    </BinaryTree>
    <BinaryTree type="DecisionTree" boostWeight="1.0000000000000000e+00" itree="943">
      <Node pos="s" depth="0" NCoef="0" IVar="2" Cut="7.1768554687500000e+04" cType="1" res="5.9893704950809479e-02" rms="4.1019159555435181e-01" purity="5.0413024425506592e-01" nType="0">
        <Node pos="l" depth="1" NCoef="0" IVar="0" Cut="3.7628732621669769e-02" cType="1" res="2.6127539575099945e-02" rms="4.2091515660285950e-01" purity="4.0490013360977173e-01" nType="0">
          <Node pos="l" depth="2" NCoef="0" IVar="-1" Cut="0.0000000000000000e+00" cType="1" res="2.1053550881333649e-04" rms="4.2781761288642883e-01" purity="4.8976317048072815e-01" nType="-99"/>
          <Node pos="r" depth="2" NCoef="0" IVar="-1" Cut="0.0000000000000000e+00" cType="1" res="-2.4344112898688763e-04" rms="4.0361082553863525e-01" purity="2.9664677381515503e-01" nType="-99"/>
        </Node>
        <Node pos="r" depth="1" NCoef="0" IVar="1" Cut="2.3288417053222656e+02" cType="1" res="1.8025626242160797e-01" rms="3.4341907501220703e-01" purity="8.5784524679183960e-01" nType="0">
          <Node pos="l" depth="2" NCoef="0" IVar="-1" Cut="0.0000000000000000e+00" cType="1" res="3.2092281617224216e-04" rms="3.9851954579353333e-01" purity="7.9409575462341309e-01" nType="-99"/>
          <Node pos="r" depth="2" NCoef="0" IVar="-1" Cut="0.0000000000000000e+00" cType="1" res="4.4047064147889614e-04" rms="2.4639767408370972e-01" purity="9.3490940332412720e-01" nType="-99"/>
        </Node>
      </Node>
    </BinaryTree>
    <BinaryTree type="DecisionTree" boostWeight="1.0000000000000000e+00" itree="944">
      <Node pos="s" depth="0" NCoef="0" IVar="2" Cut="6.1173269531250000e+04" cType="1" res="5.2867934107780457e-02" rms="4.1272008419036865e-01" purity="4.9299854040145874e-01" nType="0">
        <Node pos="l" depth="1" NCoef="0" IVar="0" Cut="7.6202854514122009e-02" cType="1" res="1.3335405848920345e-02" rms="4.1951042413711548e-01" purity="3.5675558447837830e-01" nType="0">
          <Node pos="l" depth="2" NCoef="0" IVar="-1" Cut="0.0000000000000000e+00" cType="1" res="1.2327499280218035e-04" rms="4.2632830142974854e-01" purity="3.8387733697891235e-01" nType="-99"/>
          <Node pos="r" depth="2" NCoef="0" IVar="-1" Cut="0.0000000000000000e+00" cType="1" res="-2.3943847045302391e-03" rms="3.1642824411392212e-01" purity="1.3137313723564148e-01" nType="-99"/>
        </Node>
        <Node pos="r" depth="1" NCoef="0" IVar="1" Cut="2.2627468872070312e+02" cType="1" res="1.4487552642822266e-01" rms="3.8089731335639954e-01" purity="8.1008905172348022e-01" nType="0">
          <Node pos="l" depth="2" NCoef="0" IVar="-1" Cut="0.0000000000000000e+00" cType="1" res="2.3430120199918747e-04" rms="4.1624701023101807e-01" purity="7.5932979583740234e-01" nType="-99"/>
          <Node pos="r" depth="2" NCoef="0" IVar="-1" Cut="0.0000000000000000e+00" cType="1" res="4.4521657400764525e-04" rms="2.8071466088294983e-01" purity="9.1227936744689941e-01" nType="-99"/>
        </Node>
      </Node>
    </BinaryTree>
    <BinaryTree type="DecisionTree" boostWeight="1.0000000000000000e+00" itree="945">
      <Node pos="s" depth="0" NCoef="0" IVar="2" Cut="7.2246000000000000e+04" cType="1" res="6.5251611173152924e-02" rms="4.1281813383102417e-01" purity="5.0932317972183228e-01" nType="0">
        <Node pos="l" depth="1" NCoef="0" IVar="0" Cut="5.0810825079679489e-02" cType="1" res="3.4987460821866989e-02" rms="4.2406886816024780e-01" purity="4.1688323020935059e-01" nType="0">
          <Node pos="l" depth="2" NCoef="0" IVar="-1" Cut="0.0000000000000000e+00" cType="1" res="2.3055388010106981e-04" rms="4.2747518420219421e-01" purity="4.7762155532836914e-01" nType="-99"/>
          <Node pos="r" depth="2" NCoef="0" IVar="-1" Cut="0.0000000000000000e+00" cType="1" res="-4.7835451550781727e-04" rms="3.9899861812591553e-01" purity="2.6298946142196655e-01" nType="-99"/>
        </Node>
        <Node pos="r" depth="1" NCoef="0" IVar="1" Cut="1.9948326110839844e+02" cType="1" res="1.7906244099140167e-01" rms="3.4440299868583679e-01" purity="8.5695099830627441e-01" nType="0">
          <Node pos="l" depth="2" NCoef="0" IVar="-1" Cut="0.0000000000000000e+00" cType="1" res="2.9944401467218995e-04" rms="3.9984333515167236e-01" purity="7.9075378179550171e-01" nType="-99"/>
          <Node pos="r" depth="2" NCoef="0" IVar="-1" Cut="0.0000000000000000e+00" cType="1" res="3.7390532088465989e-04" rms="2.8840112686157227e-01" purity="9.0673089027404785e-01" nType="-99"/>
        </Node>
      </Node>
    </BinaryTree>
    <BinaryTree type="DecisionTree" boostWeight="1.0000000000000000e+00" itree="946">
      <Node pos="s" depth="0" NCoef="0" IVar="2" Cut="8.1564359375000000e+04" cType="1" res="6.0311473906040192e-02" rms="4.1140955686569214e-01" purity="5.0394874811172485e-01" nType="0">
        <Node pos="l" depth="1" NCoef="0" IVar="0" Cut="3.8108117878437042e-02" cType="1" res="3.6593072116374969e-02" rms="4.2087441682815552e-01" purity="4.4427594542503357e-01" nType="0">
          <Node pos="l" depth="2" NCoef="0" IVar="-1" Cut="0.0000000000000000e+00" cType="1" res="2.2768594499211758e-04" rms="4.1853252053260803e-01" purity="5.2186900377273560e-01" nType="-99"/>
          <Node pos="r" depth="2" NCoef="0" IVar="-1" Cut="0.0000000000000000e+00" cType="1" res="-1.5919536235742271e-04" rms="4.1541841626167297e-01" purity="3.4754788875579834e-01" nType="-99"/>
        </Node>
        <Node pos="r" depth="1" NCoef="0" IVar="-1" Cut="0.0000000000000000e+00" cType="1" res="4.2056865640915930e-04" rms="2.9783019423484802e-01" purity="8.9908921718597412e-01" nType="-99"/>
      </Node>
    </BinaryTree>
    <BinaryTree type="DecisionTree" boostWeight="1.0000000000000000e+00" itree="947">
      <Node pos="s" depth="0" NCoef="0" IVar="3" Cut="1.2596701622009277e+01" cType="1" res="5.3011544048786163e-02" rms="4.1081437468528748e-01" purity="4.9614882469177246e-01" nType="0">
        <Node pos="l" depth="1" NCoef="0" IVar="0" Cut="1.0038150474429131e-02" cType="1" res="-1.9851131364703178e-02" rms="3.9663535356521606e-01" purity="2.7399376034736633e-01" nType="0">
          <Node pos="l" depth="2" NCoef="0" IVar="-1" Cut="0.0000000000000000e+00" cType="1" res="2.1469609055202454e-04" rms="4.4370698928833008e-01" purity="4.3943440914154053e-01" nType="-99"/>
          <Node pos="r" depth="2" NCoef="0" IVar="-1" Cut="0.0000000000000000e+00" cType="1" res="-5.8032490778714418e-04" rms="3.7110888957977295e-01" purity="2.2162421047687531e-01" nType="-99"/>
        </Node>
        <Node pos="r" depth="1" NCoef="0" IVar="0" Cut="4.1265200823545456e-02" cType="1" res="1.1103742569684982e-01" rms="4.1266340017318726e-01" purity="6.7306721210479736e-01" nType="0">
          <Node pos="l" depth="2" NCoef="0" IVar="-1" Cut="0.0000000000000000e+00" cType="1" res="4.5355042675510049e-04" rms="3.5161241888999939e-01" purity="8.3815801143646240e-01" nType="-99"/>
          <Node pos="r" depth="2" NCoef="0" IVar="-1" Cut="0.0000000000000000e+00" cType="1" res="1.7755974840838462e-04" rms="4.3193000555038452e-01" purity="5.8366894721984863e-01" nType="-99"/>
        </Node>
      </Node>
    </BinaryTree>
    <BinaryTree type="DecisionTree" boostWeight="1.0000000000000000e+00" itree="948">
      <Node pos="s" depth="0" NCoef="0" IVar="3" Cut="1.4930736541748047e+01" cType="1" res="5.5810220539569855e-02" rms="4.0929260849952698e-01" purity="5.0178444385528564e-01" nType="0">
        <Node pos="l" depth="1" NCoef="0" IVar="1" Cut="7.8204040527343750e+01" cType="1" res="-1.7551831901073456e-02" rms="3.9735174179077148e-01" purity="2.7785328030586243e-01" nType="0">
          <Node pos="l" depth="2" NCoef="0" IVar="-1" Cut="0.0000000000000000e+00" cType="1" res="-7.2968512540683150e-04" rms="3.3729520440101624e-01" purity="1.5009796619415283e-01" nType="-99"/>
          <Node pos="r" depth="2" NCoef="0" IVar="-1" Cut="0.0000000000000000e+00" cType="1" res="1.4682393521070480e-04" rms="4.5707908272743225e-01" purity="4.4326126575469971e-01" nType="-99"/>
        </Node>
        <Node pos="r" depth="1" NCoef="0" IVar="0" Cut="4.1265200823545456e-02" cType="1" res="1.2163598835468292e-01" rms="4.0865740180015564e-01" purity="7.0271182060241699e-01" nType="0">
          <Node pos="l" depth="2" NCoef="0" IVar="-1" Cut="0.0000000000000000e+00" cType="1" res="4.9524754285812378e-04" rms="3.3204305171966553e-01" purity="8.6428290605545044e-01" nType="-99"/>
          <Node pos="r" depth="2" NCoef="0" IVar="-1" Cut="0.0000000000000000e+00" cType="1" res="1.7282133921980858e-04" rms="4.3507409095764160e-01" purity="6.1259013414382935e-01" nType="-99"/>
        </Node>
      </Node>
    </BinaryTree>
    <BinaryTree type="DecisionTree" boostWeight="1.0000000000000000e+00" itree="949">
      <Node pos="s" depth="0" NCoef="0" IVar="2" Cut="3.5598781250000000e+04" cType="1" res="6.0109473764896393e-02" rms="4.0705657005310059e-01" purity="5.0806212425231934e-01" nType="0">
        <Node pos="l" depth="1" NCoef="0" IVar="0" Cut="2.5085821747779846e-02" cType="1" res="-8.0820574657991529e-04" rms="4.0007337927818298e-01" purity="3.0556377768516541e-01" nType="0">
          <Node pos="l" depth="2" NCoef="0" IVar="-1" Cut="0.0000000000000000e+00" cType="1" res="2.3844500537961721e-04" rms="4.3101239204406738e-01" purity="4.3062636256217957e-01" nType="-99"/>
          <Node pos="r" depth="2" NCoef="0" IVar="-1" Cut="0.0000000000000000e+00" cType="1" res="-4.7132611507549882e-04" rms="3.6151850223541260e-01" purity="1.9174425303936005e-01" nType="-99"/>
        </Node>
        <Node pos="r" depth="1" NCoef="0" IVar="0" Cut="4.2304322123527527e-02" cType="1" res="1.2763601541519165e-01" rms="4.0406620502471924e-01" purity="7.3252916336059570e-01" nType="0">
          <Node pos="l" depth="2" NCoef="0" IVar="-1" Cut="0.0000000000000000e+00" cType="1" res="3.9493400254286826e-04" rms="3.2186535000801086e-01" purity="8.7354141473770142e-01" nType="-99"/>
          <Node pos="r" depth="2" NCoef="0" IVar="-1" Cut="0.0000000000000000e+00" cType="1" res="1.8968828953802586e-04" rms="4.3701100349426270e-01" purity="6.4780282974243164e-01" nType="-99"/>
        </Node>
      </Node>
    </BinaryTree>
    <BinaryTree type="DecisionTree" boostWeight="1.0000000000000000e+00" itree="950">
      <Node pos="s" depth="0" NCoef="0" IVar="2" Cut="7.1768554687500000e+04" cType="1" res="5.4106518626213074e-02" rms="4.0997877717018127e-01" purity="4.9813726544380188e-01" nType="0">
        <Node pos="l" depth="1" NCoef="0" IVar="0" Cut="5.0266090780496597e-02" cType="1" res="2.3061301559209824e-02" rms="4.1866263747215271e-01" purity="4.0415164828300476e-01" nType="0">
          <Node pos="l" depth="2" NCoef="0" IVar="-1" Cut="0.0000000000000000e+00" cType="1" res="1.9826977222692221e-04" rms="4.2450433969497681e-01" purity="4.7000354528427124e-01" nType="-99"/>
          <Node pos="r" depth="2" NCoef="0" IVar="-1" Cut="0.0000000000000000e+00" cType="1" res="-7.5223506428301334e-04" rms="3.8413253426551819e-01" purity="2.3832195997238159e-01" nType="-99"/>
        </Node>
        <Node pos="r" depth="1" NCoef="0" IVar="1" Cut="2.1535813903808594e+02" cType="1" res="1.6973088681697845e-01" rms="3.5259622335433960e-01" purity="8.4817588329315186e-01" nType="0">
          <Node pos="l" depth="2" NCoef="0" IVar="-1" Cut="0.0000000000000000e+00" cType="1" res="2.5824166368693113e-04" rms="4.0611073374748230e-01" purity="7.8211861848831177e-01" nType="-99"/>
          <Node pos="r" depth="2" NCoef="0" IVar="-1" Cut="0.0000000000000000e+00" cType="1" res="3.4817066625691950e-04" rms="2.7488434314727783e-01" purity="9.1660636663436890e-01" nType="-99"/>
        </Node>
      </Node>
    </BinaryTree>
    <BinaryTree type="DecisionTree" boostWeight="1.0000000000000000e+00" itree="951">
      <Node pos="s" depth="0" NCoef="0" IVar="1" Cut="1.5836036682128906e+02" cType="1" res="5.5888071656227112e-02" rms="4.0943992137908936e-01" purity="5.0139117240905762e-01" nType="0">
        <Node pos="l" depth="1" NCoef="0" IVar="0" Cut="6.4363040030002594e-02" cType="1" res="4.5549082569777966e-03" rms="4.1182187199592590e-01" purity="3.3207461237907410e-01" nType="0">
          <Node pos="l" depth="2" NCoef="0" IVar="-1" Cut="0.0000000000000000e+00" cType="1" res="1.5037861885502934e-04" rms="4.2240312695503235e-01" purity="3.7290960550308228e-01" nType="-99"/>
          <Node pos="r" depth="2" NCoef="0" IVar="-1" Cut="0.0000000000000000e+00" cType="1" res="-2.0947288721799850e-03" rms="3.2214534282684326e-01" purity="1.2718753516674042e-01" nType="-99"/>
        </Node>
        <Node pos="r" depth="1" NCoef="0" IVar="1" Cut="2.4954237365722656e+02" cType="1" res="1.4069525897502899e-01" rms="3.9097768068313599e-01" purity="7.8111785650253296e-01" nType="0">
          <Node pos="l" depth="2" NCoef="0" IVar="-1" Cut="0.0000000000000000e+00" cType="1" res="2.5108724366873503e-04" rms="4.2526045441627502e-01" purity="7.2586750984191895e-01" nType="-99"/>
          <Node pos="r" depth="2" NCoef="0" IVar="-1" Cut="0.0000000000000000e+00" cType="1" res="4.8391471500508487e-04" rms="2.5513449311256409e-01" purity="9.2520576715469360e-01" nType="-99"/>
        </Node>
      </Node>
    </BinaryTree>
    <BinaryTree type="DecisionTree" boostWeight="1.0000000000000000e+00" itree="952">
      <Node pos="s" depth="0" NCoef="0" IVar="1" Cut="2.3285124206542969e+02" cType="1" res="6.8541631102561951e-02" rms="4.1449362039566040e-01" purity="5.1255875825881958e-01" nType="0">
        <Node pos="l" depth="1" NCoef="0" IVar="0" Cut="5.1490433514118195e-02" cType="1" res="4.8985399305820465e-02" rms="4.2415803670883179e-01" purity="4.6331033110618591e-01" nType="0">
          <Node pos="l" depth="2" NCoef="0" IVar="-1" Cut="0.0000000000000000e+00" cType="1" res="2.4830608163028955e-04" rms="4.2166569828987122e-01" purity="5.1896578073501587e-01" nType="-99"/>
          <Node pos="r" depth="2" NCoef="0" IVar="-1" Cut="0.0000000000000000e+00" cType="1" res="-2.7272466104477644e-04" rms="4.1359215974807739e-01" purity="3.3238723874092102e-01" nType="-99"/>
        </Node>
        <Node pos="r" depth="1" NCoef="0" IVar="-1" Cut="0.0000000000000000e+00" cType="1" res="4.0458887815475464e-04" rms="2.8415361046791077e-01" purity="9.0210199356079102e-01" nType="-99"/>
      </Node>
    </BinaryTree>
    <BinaryTree type="DecisionTree" boostWeight="1.0000000000000000e+00" itree="953">
      <Node pos="s" depth="0" NCoef="0" IVar="1" Cut="2.3285124206542969e+02" cType="1" res="6.0992565006017685e-02" rms="4.1352131962776184e-01" purity="5.0260424613952637e-01" nType="0">
        <Node pos="l" depth="1" NCoef="0" IVar="0" Cut="5.6977529078722000e-02" cType="1" res="3.9931248873472214e-02" rms="4.2215597629547119e-01" purity="4.5161241292953491e-01" nType="0">
          <Node pos="l" depth="2" NCoef="0" IVar="-1" Cut="0.0000000000000000e+00" cType="1" res="2.4062112788669765e-04" rms="4.2127186059951782e-01" purity="4.9772202968597412e-01" nType="-99"/>
          <Node pos="r" depth="2" NCoef="0" IVar="-1" Cut="0.0000000000000000e+00" cType="1" res="-3.7503309431485832e-04" rms="4.0598583221435547e-01" purity="3.1448531150817871e-01" nType="-99"/>
        </Node>
        <Node pos="r" depth="1" NCoef="0" IVar="-1" Cut="0.0000000000000000e+00" cType="1" res="4.4446904212236404e-04" rms="2.9076889157295227e-01" purity="8.9937126636505127e-01" nType="-99"/>
      </Node>
    </BinaryTree>
    <BinaryTree type="DecisionTree" boostWeight="1.0000000000000000e+00" itree="954">
      <Node pos="s" depth="0" NCoef="0" IVar="2" Cut="6.6204593750000000e+04" cType="1" res="5.6769035756587982e-02" rms="4.0970575809478760e-01" purity="5.0038832426071167e-01" nType="0">
        <Node pos="l" depth="1" NCoef="0" IVar="0" Cut="2.5400951504707336e-02" cType="1" res="2.0892117172479630e-02" rms="4.1738128662109375e-01" purity="3.8353615999221802e-01" nType="0">
          <Node pos="l" depth="2" NCoef="0" IVar="-1" Cut="0.0000000000000000e+00" cType="1" res="2.4457022664137185e-04" rms="4.2599177360534668e-01" purity="4.9269309639930725e-01" nType="-99"/>
          <Node pos="r" depth="2" NCoef="0" IVar="-1" Cut="0.0000000000000000e+00" cType="1" res="-1.4128508337307721e-04" rms="4.0437966585159302e-01" purity="3.1039410829544067e-01" nType="-99"/>
        </Node>
        <Node pos="r" depth="1" NCoef="0" IVar="1" Cut="2.2952496337890625e+02" cType="1" res="1.5774863958358765e-01" rms="3.6901348829269409e-01" purity="8.2928186655044556e-01" nType="0">
          <Node pos="l" depth="2" NCoef="0" IVar="-1" Cut="0.0000000000000000e+00" cType="1" res="2.9144441941753030e-04" rms="4.0821394324302673e-01" purity="7.7883911132812500e-01" nType="-99"/>
          <Node pos="r" depth="2" NCoef="0" IVar="-1" Cut="0.0000000000000000e+00" cType="1" res="5.3810630924999714e-04" rms="2.6906564831733704e-01" purity="9.2087787389755249e-01" nType="-99"/>
        </Node>
      </Node>
    </BinaryTree>
    <BinaryTree type="DecisionTree" boostWeight="1.0000000000000000e+00" itree="955">
      <Node pos="s" depth="0" NCoef="0" IVar="3" Cut="1.4930736541748047e+01" cType="1" res="5.0541218370199203e-02" rms="4.0769988298416138e-01" purity="4.9607893824577332e-01" nType="0">
        <Node pos="l" depth="1" NCoef="0" IVar="0" Cut="1.2183989398181438e-02" cType="1" res="-2.0621562376618385e-02" rms="3.9377263188362122e-01" purity="2.7756944298744202e-01" nType="0">
          <Node pos="l" depth="2" NCoef="0" IVar="-1" Cut="0.0000000000000000e+00" cType="1" res="4.0166068356484175e-04" rms="4.2695111036300659e-01" purity="4.2685648798942566e-01" nType="-99"/>
          <Node pos="r" depth="2" NCoef="0" IVar="-1" Cut="0.0000000000000000e+00" cType="1" res="-4.4058190542273223e-04" rms="3.7499809265136719e-01" purity="2.2389332950115204e-01" nType="-99"/>
        </Node>
        <Node pos="r" depth="1" NCoef="0" IVar="0" Cut="4.1265200823545456e-02" cType="1" res="1.1614868044853210e-01" rms="4.0931281447410583e-01" purity="6.9753062725067139e-01" nType="0">
          <Node pos="l" depth="2" NCoef="0" IVar="-1" Cut="0.0000000000000000e+00" cType="1" res="4.7852899297140539e-04" rms="3.3871698379516602e-01" purity="8.5795986652374268e-01" nType="-99"/>
          <Node pos="r" depth="2" NCoef="0" IVar="-1" Cut="0.0000000000000000e+00" cType="1" res="1.7920984828379005e-04" rms="4.3247544765472412e-01" purity="6.1214673519134521e-01" nType="-99"/>
        </Node>
      </Node>
    </BinaryTree>
    <BinaryTree type="DecisionTree" boostWeight="1.0000000000000000e+00" itree="956">
      <Node pos="s" depth="0" NCoef="0" IVar="2" Cut="6.6204593750000000e+04" cType="1" res="5.1538147032260895e-02" rms="4.0581560134887695e-01" purity="4.9858155846595764e-01" nType="0">
        <Node pos="l" depth="1" NCoef="0" IVar="0" Cut="5.0801903009414673e-02" cType="1" res="1.1237801052629948e-02" rms="4.1371122002601624e-01" purity="3.7466382980346680e-01" nType="0">
          <Node pos="l" depth="2" NCoef="0" IVar="-1" Cut="0.0000000000000000e+00" cType="1" res="1.7481647955719382e-04" rms="4.2331972718238831e-01" purity="4.3718659877777100e-01" nType="-99"/>
          <Node pos="r" depth="2" NCoef="0" IVar="-1" Cut="0.0000000000000000e+00" cType="1" res="-8.0327503383159637e-04" rms="3.7164184451103210e-01" purity="2.1054540574550629e-01" nType="-99"/>
        </Node>
        <Node pos="r" depth="1" NCoef="0" IVar="1" Cut="2.2618206787109375e+02" cType="1" res="1.6144281625747681e-01" rms="3.6129161715507507e-01" purity="8.3652263879776001e-01" nType="0">
          <Node pos="l" depth="2" NCoef="0" IVar="-1" Cut="0.0000000000000000e+00" cType="1" res="2.7488751220516860e-04" rms="4.1079115867614746e-01" purity="7.7267962694168091e-01" nType="-99"/>
          <Node pos="r" depth="2" NCoef="0" IVar="-1" Cut="0.0000000000000000e+00" cType="1" res="3.6872530472464859e-04" rms="2.5312933325767517e-01" purity="9.3042546510696411e-01" nType="-99"/>
        </Node>
      </Node>
    </BinaryTree>
    <BinaryTree type="DecisionTree" boostWeight="1.0000000000000000e+00" itree="957">
      <Node pos="s" depth="0" NCoef="0" IVar="2" Cut="4.0782179687500000e+04" cType="1" res="5.5051479488611221e-02" rms="4.1352880001068115e-01" purity="4.9581751227378845e-01" nType="0">
        <Node pos="l" depth="1" NCoef="0" IVar="0" Cut="1.2566522695124149e-02" cType="1" res="1.6401791945099831e-03" rms="4.0999472141265869e-01" purity="3.0780988931655884e-01" nType="0">
          <Node pos="l" depth="2" NCoef="0" IVar="-1" Cut="0.0000000000000000e+00" cType="1" res="3.6428956082090735e-04" rms="4.3379202485084534e-01" purity="4.5559817552566528e-01" nType="-99"/>
          <Node pos="r" depth="2" NCoef="0" IVar="-1" Cut="0.0000000000000000e+00" cType="1" res="-1.7694478447083384e-04" rms="3.9699774980545044e-01" purity="2.6129257678985596e-01" nType="-99"/>
        </Node>
        <Node pos="r" depth="1" NCoef="0" IVar="0" Cut="3.9660222828388214e-02" cType="1" res="1.2557433545589447e-01" rms="4.0756437182426453e-01" purity="7.4405789375305176e-01" nType="0">
          <Node pos="l" depth="2" NCoef="0" IVar="-1" Cut="0.0000000000000000e+00" cType="1" res="4.9455254338681698e-04" rms="3.0549430847167969e-01" purity="8.9223051071166992e-01" nType="-99"/>
          <Node pos="r" depth="2" NCoef="0" IVar="-1" Cut="0.0000000000000000e+00" cType="1" res="2.0551231864374131e-04" rms="4.4176647067070007e-01" purity="6.7039299011230469e-01" nType="-99"/>
        </Node>
      </Node>
    </BinaryTree>
    <BinaryTree type="DecisionTree" boostWeight="1.0000000000000000e+00" itree="958">
      <Node pos="s" depth="0" NCoef="0" IVar="1" Cut="1.2135903930664062e+02" cType="1" res="5.0183102488517761e-02" rms="4.1182303428649902e-01" purity="4.9027904868125916e-01" nType="0">
        <Node pos="l" depth="1" NCoef="0" IVar="1" Cut="3.9648323059082031e+01" cType="1" res="-1.7382899299263954e-02" rms="3.8910818099975586e-01" purity="2.5667005777359009e-01" nType="0">
          <Node pos="l" depth="2" NCoef="0" IVar="-1" Cut="0.0000000000000000e+00" cType="1" res="-2.2556544281542301e-03" rms="3.0060780048370361e-01" purity="1.0345169901847839e-01" nType="-99"/>
          <Node pos="r" depth="2" NCoef="0" IVar="-1" Cut="0.0000000000000000e+00" cType="1" res="1.1633247777353972e-04" rms="4.1977822780609131e-01" purity="3.2935765385627747e-01" nType="-99"/>
        </Node>
        <Node pos="r" depth="1" NCoef="0" IVar="1" Cut="2.6143429565429688e+02" cType="1" res="1.1213105171918869e-01" rms="4.2220300436019897e-01" purity="7.0446360111236572e-01" nType="0">
          <Node pos="l" depth="2" NCoef="0" IVar="-1" Cut="0.0000000000000000e+00" cType="1" res="2.2642323165200651e-04" rms="4.4457566738128662e-01" purity="6.5768355131149292e-01" nType="-99"/>
          <Node pos="r" depth="2" NCoef="0" IVar="-1" Cut="0.0000000000000000e+00" cType="1" res="4.5293371658772230e-04" rms="2.5081279873847961e-01" purity="9.2888700962066650e-01" nType="-99"/>
        </Node>
      </Node>
    </BinaryTree>
    <BinaryTree type="DecisionTree" boostWeight="1.0000000000000000e+00" itree="959">
      <Node pos="s" depth="0" NCoef="0" IVar="1" Cut="2.3292008972167969e+02" cType="1" res="5.7647947221994400e-02" rms="4.1383853554725647e-01" purity="4.9818369746208191e-01" nType="0">
        <Node pos="l" depth="1" NCoef="0" IVar="0" Cut="6.5419681370258331e-02" cType="1" res="4.0185596793889999e-02" rms="4.2160937190055847e-01" purity="4.5270249247550964e-01" nType="0">
          <Node pos="l" depth="2" NCoef="0" IVar="-1" Cut="0.0000000000000000e+00" cType="1" res="2.4777042563073337e-04" rms="4.2078596353530884e-01" purity="4.8625960946083069e-01" nType="-99"/>
          <Node pos="r" depth="2" NCoef="0" IVar="-1" Cut="0.0000000000000000e+00" cType="1" res="-5.4410134907811880e-04" rms="4.0204331278800964e-01" purity="3.1108897924423218e-01" nType="-99"/>
        </Node>
        <Node pos="r" depth="1" NCoef="0" IVar="-1" Cut="0.0000000000000000e+00" cType="1" res="5.1912979688495398e-04" rms="3.0149951577186584e-01" purity="8.8687342405319214e-01" nType="-99"/>
      </Node>
    </BinaryTree>
    <BinaryTree type="DecisionTree" boostWeight="1.0000000000000000e+00" itree="960">
      <Node pos="s" depth="0" NCoef="0" IVar="1" Cut="2.3142485046386719e+02" cType="1" res="6.2608100473880768e-02" rms="4.1382920742034912e-01" purity="5.0545078516006470e-01" nType="0">
        <Node pos="l" depth="1" NCoef="0" IVar="0" Cut="2.6167873293161392e-02" cType="1" res="4.0365759283304214e-02" rms="4.2382985353469849e-01" purity="4.5125195384025574e-01" nType="0">
          <Node pos="l" depth="2" NCoef="0" IVar="-1" Cut="0.0000000000000000e+00" cType="1" res="2.7487034094519913e-04" rms="4.1812029480934143e-01" purity="5.3687667846679688e-01" nType="-99"/>
          <Node pos="r" depth="2" NCoef="0" IVar="-1" Cut="0.0000000000000000e+00" cType="1" res="-1.8374070350546390e-05" rms="4.2110934853553772e-01" purity="3.9940133690834045e-01" nType="-99"/>
        </Node>
        <Node pos="r" depth="1" NCoef="0" IVar="-1" Cut="0.0000000000000000e+00" cType="1" res="3.3573855762369931e-04" rms="2.8142890334129333e-01" purity="9.0420860052108765e-01" nType="-99"/>
      </Node>
    </BinaryTree>
    <BinaryTree type="DecisionTree" boostWeight="1.0000000000000000e+00" itree="961">
      <Node pos="s" depth="0" NCoef="0" IVar="1" Cut="2.6473828125000000e+02" cType="1" res="5.7895790785551071e-02" rms="4.1678136587142944e-01" purity="4.9592962861061096e-01" nType="0">
        <Node pos="l" depth="1" NCoef="0" IVar="0" Cut="3.9660222828388214e-02" cType="1" res="4.1656605899333954e-02" rms="4.2438519001007080e-01" purity="4.5808622241020203e-01" nType="0">
          <Node pos="l" depth="2" NCoef="0" IVar="-1" Cut="0.0000000000000000e+00" cType="1" res="2.7540576411411166e-04" rms="4.2275065183639526e-01" purity="5.1794749498367310e-01" nType="-99"/>
          <Node pos="r" depth="2" NCoef="0" IVar="-1" Cut="0.0000000000000000e+00" cType="1" res="-6.0844893596367911e-05" rms="4.2014822363853455e-01" purity="3.8609933853149414e-01" nType="-99"/>
        </Node>
        <Node pos="r" depth="1" NCoef="0" IVar="-1" Cut="0.0000000000000000e+00" cType="1" res="4.8912747297435999e-04" rms="2.5230377912521362e-01" purity="9.2691439390182495e-01" nType="-99"/>
      </Node>
    </BinaryTree>
    <BinaryTree type="DecisionTree" boostWeight="1.0000000000000000e+00" itree="962">
      <Node pos="s" depth="0" NCoef="0" IVar="1" Cut="1.5854992675781250e+02" cType="1" res="5.4376486688852310e-02" rms="4.1165041923522949e-01" purity="4.9667060375213623e-01" nType="0">
        <Node pos="l" depth="1" NCoef="0" IVar="0" Cut="5.0266090780496597e-02" cType="1" res="9.1466000303626060e-03" rms="4.1369757056236267e-01" purity="3.3957859873771667e-01" nType="0">
          <Node pos="l" depth="2" NCoef="0" IVar="-1" Cut="0.0000000000000000e+00" cType="1" res="1.9190377497579902e-04" rms="4.2857992649078369e-01" purity="4.0354844927787781e-01" nType="-99"/>
          <Node pos="r" depth="2" NCoef="0" IVar="-1" Cut="0.0000000000000000e+00" cType="1" res="-1.0463767684996128e-03" rms="3.5535490512847900e-01" purity="1.6933216154575348e-01" nType="-99"/>
        </Node>
        <Node pos="r" depth="1" NCoef="0" IVar="1" Cut="2.4971563720703125e+02" cType="1" res="1.3421653211116791e-01" rms="3.9558562636375427e-01" purity="7.7397018671035767e-01" nType="0">
          <Node pos="l" depth="2" NCoef="0" IVar="-1" Cut="0.0000000000000000e+00" cType="1" res="2.3296489962376654e-04" rms="4.2540290951728821e-01" purity="7.2606116533279419e-01" nType="-99"/>
          <Node pos="r" depth="2" NCoef="0" IVar="-1" Cut="0.0000000000000000e+00" cType="1" res="5.5302859982475638e-04" rms="2.7206301689147949e-01" purity="9.1255640983581543e-01" nType="-99"/>
        </Node>
      </Node>
    </BinaryTree>
    <BinaryTree type="DecisionTree" boostWeight="1.0000000000000000e+00" itree="963">
      <Node pos="s" depth="0" NCoef="0" IVar="3" Cut="1.2596701622009277e+01" cType="1" res="5.0790026783943176e-02" rms="4.1166409850120544e-01" purity="4.9326229095458984e-01" nType="0">
        <Node pos="l" depth="1" NCoef="0" IVar="1" Cut="3.5298759460449219e+01" cType="1" res="-2.1058218553662300e-02" rms="3.9471331238746643e-01" purity="2.7519541978836060e-01" nType="0">
          <Node pos="l" depth="2" NCoef="0" IVar="-1" Cut="0.0000000000000000e+00" cType="1" res="-2.5010434910655022e-03" rms="3.0057516694068909e-01" purity="1.0168498009443283e-01" nType="-99"/>
          <Node pos="r" depth="2" NCoef="0" IVar="-1" Cut="0.0000000000000000e+00" cType="1" res="4.3943971832050011e-05" rms="4.2607405781745911e-01" purity="3.5267075896263123e-01" nType="-99"/>
        </Node>
        <Node pos="r" depth="1" NCoef="0" IVar="0" Cut="2.7510134503245354e-02" cType="1" res="1.0929881781339645e-01" rms="4.1589814424514771e-01" purity="6.7084252834320068e-01" nType="0">
          <Node pos="l" depth="2" NCoef="0" IVar="-1" Cut="0.0000000000000000e+00" cType="1" res="5.7770288549363613e-04" rms="2.8854033350944519e-01" purity="9.0167856216430664e-01" nType="-99"/>
          <Node pos="r" depth="2" NCoef="0" IVar="-1" Cut="0.0000000000000000e+00" cType="1" res="2.4123879848048091e-04" rms="4.3032804131507874e-01" purity="6.2522220611572266e-01" nType="-99"/>
        </Node>
      </Node>
    </BinaryTree>
    <BinaryTree type="DecisionTree" boostWeight="1.0000000000000000e+00" itree="964">
      <Node pos="s" depth="0" NCoef="0" IVar="1" Cut="2.3285124206542969e+02" cType="1" res="5.2118025720119476e-02" rms="4.0979161858558655e-01" purity="4.9651262164115906e-01" nType="0">
        <Node pos="l" depth="1" NCoef="0" IVar="0" Cut="7.1221910417079926e-02" cType="1" res="3.0036939308047295e-02" rms="4.1837733983993530e-01" purity="4.4345644116401672e-01" nType="0">
          <Node pos="l" depth="2" NCoef="0" IVar="-1" Cut="0.0000000000000000e+00" cType="1" res="1.7573437071405351e-04" rms="4.1689288616180420e-01" purity="4.7328415513038635e-01" nType="-99"/>
          <Node pos="r" depth="2" NCoef="0" IVar="-1" Cut="0.0000000000000000e+00" cType="1" res="-8.1150088226422668e-04" rms="3.9837047457695007e-01" purity="2.7920255064964294e-01" nType="-99"/>
        </Node>
        <Node pos="r" depth="1" NCoef="0" IVar="-1" Cut="0.0000000000000000e+00" cType="1" res="4.0689951856620610e-04" rms="2.8499537706375122e-01" purity="9.0256094932556152e-01" nType="-99"/>
      </Node>
    </BinaryTree>
    <BinaryTree type="DecisionTree" boostWeight="1.0000000000000000e+00" itree="965">
      <Node pos="s" depth="0" NCoef="0" IVar="2" Cut="7.1768554687500000e+04" cType="1" res="4.9273904412984848e-02" rms="4.1215896606445312e-01" purity="4.8976674675941467e-01" nType="0">
        <Node pos="l" depth="1" NCoef="0" IVar="1" Cut="1.2622826385498047e+02" cType="1" res="1.7567560076713562e-02" rms="4.2087414860725403e-01" purity="3.9378026127815247e-01" nType="0">
          <Node pos="l" depth="2" NCoef="0" IVar="-1" Cut="0.0000000000000000e+00" cType="1" res="-1.0332163947168738e-04" rms="3.9031636714935303e-01" purity="2.5711533427238464e-01" nType="-99"/>
          <Node pos="r" depth="2" NCoef="0" IVar="-1" Cut="0.0000000000000000e+00" cType="1" res="2.2126037220004946e-04" rms="4.6024918556213379e-01" purity="6.1806553602218628e-01" nType="-99"/>
        </Node>
        <Node pos="r" depth="1" NCoef="0" IVar="1" Cut="2.1535813903808594e+02" cType="1" res="1.6721694171428680e-01" rms="3.5386240482330322e-01" purity="8.4682255983352661e-01" nType="0">
          <Node pos="l" depth="2" NCoef="0" IVar="-1" Cut="0.0000000000000000e+00" cType="1" res="2.5137324701063335e-04" rms="4.1643950343132019e-01" purity="7.6757156848907471e-01" nType="-99"/>
          <Node pos="r" depth="2" NCoef="0" IVar="-1" Cut="0.0000000000000000e+00" cType="1" res="4.6102609485387802e-04" rms="2.6895564794540405e-01" purity="9.2046159505844116e-01" nType="-99"/>
        </Node>
      </Node>
    </BinaryTree>
    <BinaryTree type="DecisionTree" boostWeight="1.0000000000000000e+00" itree="966">
      <Node pos="s" depth="0" NCoef="0" IVar="2" Cut="6.1173269531250000e+04" cType="1" res="6.2422823160886765e-02" rms="4.0874236822128296e-01" purity="5.1060575246810913e-01" nType="0">
        <Node pos="l" depth="1" NCoef="0" IVar="0" Cut="3.8101427257061005e-02" cType="1" res="2.2519053891301155e-02" rms="4.1739526391029358e-01" purity="3.7392956018447876e-01" nType="0">
          <Node pos="l" depth="2" NCoef="0" IVar="-1" Cut="0.0000000000000000e+00" cType="1" res="2.4888239568099380e-04" rms="4.3283927440643311e-01" purity="4.7429046034812927e-01" nType="-99"/>
          <Node pos="r" depth="2" NCoef="0" IVar="-1" Cut="0.0000000000000000e+00" cType="1" res="-5.2622851217165589e-04" rms="3.7922412157058716e-01" purity="2.1964463591575623e-01" nType="-99"/>
        </Node>
        <Node pos="r" depth="1" NCoef="0" IVar="1" Cut="2.1746818542480469e+02" cType="1" res="1.5269401669502258e-01" rms="3.7302520871162415e-01" purity="8.1979757547378540e-01" nType="0">
          <Node pos="l" depth="2" NCoef="0" IVar="-1" Cut="0.0000000000000000e+00" cType="1" res="2.2392705432139337e-04" rms="4.1497427225112915e-01" purity="7.6102030277252197e-01" nType="-99"/>
          <Node pos="r" depth="2" NCoef="0" IVar="-1" Cut="0.0000000000000000e+00" cType="1" res="4.0977992466650903e-04" rms="2.7592349052429199e-01" purity="9.1538721323013306e-01" nType="-99"/>
        </Node>
      </Node>
    </BinaryTree>
    <BinaryTree type="DecisionTree" boostWeight="1.0000000000000000e+00" itree="967">
      <Node pos="s" depth="0" NCoef="0" IVar="2" Cut="5.4184500000000000e+04" cType="1" res="6.2638446688652039e-02" rms="4.1301870346069336e-01" purity="5.0651097297668457e-01" nType="0">
        <Node pos="l" depth="1" NCoef="0" IVar="0" Cut="2.5400951504707336e-02" cType="1" res="1.9960056990385056e-02" rms="4.2113542556762695e-01" purity="3.4972313046455383e-01" nType="0">
          <Node pos="l" depth="2" NCoef="0" IVar="-1" Cut="0.0000000000000000e+00" cType="1" res="2.1384438150562346e-04" rms="4.4056221842765808e-01" purity="4.6710017323493958e-01" nType="-99"/>
          <Node pos="r" depth="2" NCoef="0" IVar="-1" Cut="0.0000000000000000e+00" cType="1" res="-2.5611513410694897e-04" rms="3.9833137392997742e-01" purity="2.6174384355545044e-01" nType="-99"/>
        </Node>
        <Node pos="r" depth="1" NCoef="0" IVar="0" Cut="3.8965530693531036e-02" cType="1" res="1.4170454442501068e-01" rms="3.8524711132049561e-01" purity="7.9697644710540771e-01" nType="0">
          <Node pos="l" depth="2" NCoef="0" IVar="-1" Cut="0.0000000000000000e+00" cType="1" res="4.7698838170617819e-04" rms="2.7731102705001831e-01" purity="9.1578692197799683e-01" nType="-99"/>
          <Node pos="r" depth="2" NCoef="0" IVar="-1" Cut="0.0000000000000000e+00" cType="1" res="2.1491614461410791e-04" rms="4.2067542672157288e-01" purity="7.3991191387176514e-01" nType="-99"/>
        </Node>
      </Node>
    </BinaryTree>
    <BinaryTree type="DecisionTree" boostWeight="1.0000000000000000e+00" itree="968">
      <Node pos="s" depth="0" NCoef="0" IVar="3" Cut="1.2596701622009277e+01" cType="1" res="5.6223724037408829e-02" rms="4.0863037109375000e-01" purity="5.0302541255950928e-01" nType="0">
        <Node pos="l" depth="1" NCoef="0" IVar="0" Cut="1.9412759691476822e-02" cType="1" res="-2.0175507292151451e-02" rms="3.9522126317024231e-01" purity="2.7367860078811646e-01" nType="0">
          <Node pos="l" depth="2" NCoef="0" IVar="-1" Cut="0.0000000000000000e+00" cType="1" res="2.0243051403667778e-04" rms="4.3344077467918396e-01" purity="4.1362431645393372e-01" nType="-99"/>
          <Node pos="r" depth="2" NCoef="0" IVar="-1" Cut="0.0000000000000000e+00" cType="1" res="-8.8283547665923834e-04" rms="3.5216701030731201e-01" purity="1.6902828216552734e-01" nType="-99"/>
        </Node>
        <Node pos="r" depth="1" NCoef="0" IVar="0" Cut="4.2733144015073776e-02" cType="1" res="1.1570087075233459e-01" rms="4.0900939702987671e-01" purity="6.8157297372817993e-01" nType="0">
          <Node pos="l" depth="2" NCoef="0" IVar="-1" Cut="0.0000000000000000e+00" cType="1" res="4.0625967085361481e-04" rms="3.4564462304115295e-01" purity="8.4274375438690186e-01" nType="-99"/>
          <Node pos="r" depth="2" NCoef="0" IVar="-1" Cut="0.0000000000000000e+00" cType="1" res="1.4490612375084311e-04" rms="4.3212357163429260e-01" purity="5.7804995775222778e-01" nType="-99"/>
        </Node>
      </Node>
    </BinaryTree>
    <BinaryTree type="DecisionTree" boostWeight="1.0000000000000000e+00" itree="969">
      <Node pos="s" depth="0" NCoef="0" IVar="2" Cut="6.6204593750000000e+04" cType="1" res="5.2497934550046921e-02" rms="4.0935653448104858e-01" purity="4.9722748994827271e-01" nType="0">
        <Node pos="l" depth="1" NCoef="0" IVar="0" Cut="5.0266090780496597e-02" cType="1" res="1.3885615393519402e-02" rms="4.1795286536216736e-01" purity="3.7363395094871521e-01" nType="0">
          <Node pos="l" depth="2" NCoef="0" IVar="-1" Cut="0.0000000000000000e+00" cType="1" res="1.9083902589045465e-04" rms="4.2900240421295166e-01" purity="4.3720632791519165e-01" nType="-99"/>
          <Node pos="r" depth="2" NCoef="0" IVar="-1" Cut="0.0000000000000000e+00" cType="1" res="-7.5318478047847748e-04" rms="3.7248507142066956e-01" purity="2.1173425018787384e-01" nType="-99"/>
        </Node>
        <Node pos="r" depth="1" NCoef="0" IVar="1" Cut="2.2952496337890625e+02" cType="1" res="1.5729416906833649e-01" rms="3.6502352356910706e-01" purity="8.3266794681549072e-01" nType="0">
          <Node pos="l" depth="2" NCoef="0" IVar="-1" Cut="0.0000000000000000e+00" cType="1" res="2.7779201627708972e-04" rms="4.1202712059020996e-01" purity="7.7189439535140991e-01" nType="-99"/>
          <Node pos="r" depth="2" NCoef="0" IVar="-1" Cut="0.0000000000000000e+00" cType="1" res="3.6992406239733100e-04" rms="2.5516870617866516e-01" purity="9.2932718992233276e-01" nType="-99"/>
        </Node>
      </Node>
    </BinaryTree>
    <BinaryTree type="DecisionTree" boostWeight="1.0000000000000000e+00" itree="970">
      <Node pos="s" depth="0" NCoef="0" IVar="1" Cut="2.3310374450683594e+02" cType="1" res="6.0149114578962326e-02" rms="4.1374653577804565e-01" purity="5.0318890810012817e-01" nType="0">
        <Node pos="l" depth="1" NCoef="0" IVar="0" Cut="4.2733144015073776e-02" cType="1" res="3.8555238395929337e-02" rms="4.2315343022346497e-01" purity="4.5040893554687500e-01" nType="0">
          <Node pos="l" depth="2" NCoef="0" IVar="-1" Cut="0.0000000000000000e+00" cType="1" res="1.8789533351082355e-04" rms="4.2112022638320923e-01" purity="5.1589000225067139e-01" nType="-99"/>
          <Node pos="r" depth="2" NCoef="0" IVar="-1" Cut="0.0000000000000000e+00" cType="1" res="-1.5892916417215019e-04" rms="4.1580423712730408e-01" purity="3.5238569974899292e-01" nType="-99"/>
        </Node>
        <Node pos="r" depth="1" NCoef="0" IVar="-1" Cut="0.0000000000000000e+00" cType="1" res="4.0288537275046110e-04" rms="2.8521630167961121e-01" purity="9.0270256996154785e-01" nType="-99"/>
      </Node>
    </BinaryTree>
    <BinaryTree type="DecisionTree" boostWeight="1.0000000000000000e+00" itree="971">
      <Node pos="s" depth="0" NCoef="0" IVar="2" Cut="4.4136394531250000e+04" cType="1" res="4.9192357808351517e-02" rms="4.0472137928009033e-01" purity="4.9904981255531311e-01" nType="0">
        <Node pos="l" depth="1" NCoef="0" IVar="0" Cut="1.2470351532101631e-02" cType="1" res="-1.1150747537612915e-02" rms="4.0001863241195679e-01" purity="3.0056700110435486e-01" nType="0">
          <Node pos="l" depth="2" NCoef="0" IVar="-1" Cut="0.0000000000000000e+00" cType="1" res="3.2614581868983805e-04" rms="4.2190605401992798e-01" purity="4.6135878562927246e-01" nType="-99"/>
          <Node pos="r" depth="2" NCoef="0" IVar="-1" Cut="0.0000000000000000e+00" cType="1" res="-3.3337765489704907e-04" rms="3.8697308301925659e-01" purity="2.5110328197479248e-01" nType="-99"/>
        </Node>
        <Node pos="r" depth="1" NCoef="0" IVar="0" Cut="3.9660222828388214e-02" cType="1" res="1.2970033288002014e-01" rms="3.9687389135360718e-01" purity="7.6385980844497681e-01" nType="0">
          <Node pos="l" depth="2" NCoef="0" IVar="-1" Cut="0.0000000000000000e+00" cType="1" res="3.8450866122730076e-04" rms="2.9383161664009094e-01" purity="9.0198570489883423e-01" nType="-99"/>
          <Node pos="r" depth="2" NCoef="0" IVar="-1" Cut="0.0000000000000000e+00" cType="1" res="1.7170081264339387e-04" rms="4.3257072567939758e-01" purity="6.9173401594161987e-01" nType="-99"/>
        </Node>
      </Node>
    </BinaryTree>
    <BinaryTree type="DecisionTree" boostWeight="1.0000000000000000e+00" itree="972">
      <Node pos="s" depth="0" NCoef="0" IVar="2" Cut="7.1768554687500000e+04" cType="1" res="4.7175079584121704e-02" rms="4.1253918409347534e-01" purity="4.8624941706657410e-01" nType="0">
        <Node pos="l" depth="1" NCoef="0" IVar="0" Cut="2.5405412539839745e-02" cType="1" res="1.6905916854739189e-02" rms="4.2113122344017029e-01" purity="3.9189711213111877e-01" nType="0">
          <Node pos="l" depth="2" NCoef="0" IVar="-1" Cut="0.0000000000000000e+00" cType="1" res="2.5399163132533431e-04" rms="4.2736637592315674e-01" purity="5.0243467092514038e-01" nType="-99"/>
          <Node pos="r" depth="2" NCoef="0" IVar="-1" Cut="0.0000000000000000e+00" cType="1" res="-2.1568784723058343e-04" rms="4.0900039672851562e-01" purity="3.2136058807373047e-01" nType="-99"/>
        </Node>
        <Node pos="r" depth="1" NCoef="0" IVar="1" Cut="2.2947694396972656e+02" cType="1" res="1.6200053691864014e-01" rms="3.5546529293060303e-01" purity="8.4417325258255005e-01" nType="0">
          <Node pos="l" depth="2" NCoef="0" IVar="-1" Cut="0.0000000000000000e+00" cType="1" res="2.2914959117770195e-04" rms="4.0928772091865540e-01" purity="7.7613216638565063e-01" nType="-99"/>
          <Node pos="r" depth="2" NCoef="0" IVar="-1" Cut="0.0000000000000000e+00" cType="1" res="4.2534686508588493e-04" rms="2.5843346118927002e-01" purity="9.2748147249221802e-01" nType="-99"/>
        </Node>
      </Node>
    </BinaryTree>
    <BinaryTree type="DecisionTree" boostWeight="1.0000000000000000e+00" itree="973">
      <Node pos="s" depth="0" NCoef="0" IVar="1" Cut="2.3299119567871094e+02" cType="1" res="5.4397664964199066e-02" rms="4.1200342774391174e-01" purity="4.9570870399475098e-01" nType="0">
        <Node pos="l" depth="1" NCoef="0" IVar="0" Cut="3.9251808077096939e-02" cType="1" res="3.3005572855472565e-02" rms="4.2084702849388123e-01" purity="4.4304203987121582e-01" nType="0">
          <Node pos="l" depth="2" NCoef="0" IVar="-1" Cut="0.0000000000000000e+00" cType="1" res="2.3245826014317572e-04" rms="4.2187809944152832e-01" purity="5.1480138301849365e-01" nType="-99"/>
          <Node pos="r" depth="2" NCoef="0" IVar="-1" Cut="0.0000000000000000e+00" cType="1" res="-1.9295721722301096e-04" rms="4.0988019108772278e-01" purity="3.5067918896675110e-01" nType="-99"/>
        </Node>
        <Node pos="r" depth="1" NCoef="0" IVar="-1" Cut="0.0000000000000000e+00" cType="1" res="3.7389100180007517e-04" rms="2.8752914071083069e-01" purity="9.0019333362579346e-01" nType="-99"/>
      </Node>
    </BinaryTree>
    <BinaryTree type="DecisionTree" boostWeight="1.0000000000000000e+00" itree="974">
      <Node pos="s" depth="0" NCoef="0" IVar="1" Cut="2.3158477783203125e+02" cType="1" res="5.4647363722324371e-02" rms="4.1503188014030457e-01" purity="4.9408909678459167e-01" nType="0">
        <Node pos="l" depth="1" NCoef="0" IVar="0" Cut="2.8488764539361000e-02" cType="1" res="3.3957377076148987e-02" rms="4.2403262853622437e-01" purity="4.4202709197998047e-01" nType="0">
          <Node pos="l" depth="2" NCoef="0" IVar="-1" Cut="0.0000000000000000e+00" cType="1" res="2.3375498130917549e-04" rms="4.2209482192993164e-01" purity="5.3743803501129150e-01" nType="-99"/>
          <Node pos="r" depth="2" NCoef="0" IVar="-1" Cut="0.0000000000000000e+00" cType="1" res="-1.2770864123012871e-04" rms="4.1574850678443909e-01" purity="3.7397757172584534e-01" nType="-99"/>
        </Node>
        <Node pos="r" depth="1" NCoef="0" IVar="0" Cut="5.5020269006490707e-02" cType="1" res="2.1457336843013763e-01" rms="2.9153129458427429e-01" purity="8.9650923013687134e-01" nType="0">
          <Node pos="l" depth="2" NCoef="0" IVar="-1" Cut="0.0000000000000000e+00" cType="1" res="4.2657324229367077e-04" rms="3.3845254778862000e-01" purity="8.4386664628982544e-01" nType="-99"/>
          <Node pos="r" depth="2" NCoef="0" IVar="-1" Cut="0.0000000000000000e+00" cType="1" res="5.6143279653042555e-04" rms="2.6757520437240601e-01" purity="9.1754150390625000e-01" nType="-99"/>
        </Node>
      </Node>
    </BinaryTree>
    <BinaryTree type="DecisionTree" boostWeight="1.0000000000000000e+00" itree="975">
      <Node pos="s" depth="0" NCoef="0" IVar="2" Cut="4.4136394531250000e+04" cType="1" res="4.8273779451847076e-02" rms="4.0927207469940186e-01" purity="4.9169075489044189e-01" nType="0">
        <Node pos="l" depth="1" NCoef="0" IVar="0" Cut="1.2470351532101631e-02" cType="1" res="2.2533987648785114e-03" rms="4.0593507885932922e-01" purity="3.1641560792922974e-01" nType="0">
          <Node pos="l" depth="2" NCoef="0" IVar="-1" Cut="0.0000000000000000e+00" cType="1" res="2.5229348102584481e-04" rms="4.3428072333335876e-01" purity="4.7855335474014282e-01" nType="-99"/>
          <Node pos="r" depth="2" NCoef="0" IVar="-1" Cut="0.0000000000000000e+00" cType="1" res="-2.2992068261373788e-04" rms="3.8917005062103271e-01" purity="2.6565286517143250e-01" nType="-99"/>
        </Node>
        <Node pos="r" depth="1" NCoef="0" IVar="0" Cut="4.2733144015073776e-02" cType="1" res="1.1581704765558243e-01" rms="4.0475395321846008e-01" purity="7.4893885850906372e-01" nType="0">
          <Node pos="l" depth="2" NCoef="0" IVar="-1" Cut="0.0000000000000000e+00" cType="1" res="4.5655050780624151e-04" rms="3.1537687778472900e-01" purity="8.8326656818389893e-01" nType="-99"/>
          <Node pos="r" depth="2" NCoef="0" IVar="-1" Cut="0.0000000000000000e+00" cType="1" res="1.6784406034275889e-04" rms="4.4196593761444092e-01" purity="6.6318714618682861e-01" nType="-99"/>
        </Node>
      </Node>
    </BinaryTree>
    <BinaryTree type="DecisionTree" boostWeight="1.0000000000000000e+00" itree="976">
      <Node pos="s" depth="0" NCoef="0" IVar="2" Cut="7.2246000000000000e+04" cType="1" res="6.0705278068780899e-02" rms="4.1343653202056885e-01" purity="5.0170522928237915e-01" nType="0">
        <Node pos="l" depth="1" NCoef="0" IVar="0" Cut="3.8108117878437042e-02" cType="1" res="3.4273669123649597e-02" rms="4.2289686203002930e-01" purity="4.1584640741348267e-01" nType="0">
          <Node pos="l" depth="2" NCoef="0" IVar="-1" Cut="0.0000000000000000e+00" cType="1" res="2.2222888946998864e-04" rms="4.2827153205871582e-01" purity="5.0219565629959106e-01" nType="-99"/>
          <Node pos="r" depth="2" NCoef="0" IVar="-1" Cut="0.0000000000000000e+00" cType="1" res="-1.9691612396854907e-04" rms="4.0637204051017761e-01" purity="3.0223217606544495e-01" nType="-99"/>
        </Node>
        <Node pos="r" depth="1" NCoef="0" IVar="1" Cut="2.1535813903808594e+02" cType="1" res="1.6718849539756775e-01" rms="3.5341495275497437e-01" purity="8.4759891033172607e-01" nType="0">
          <Node pos="l" depth="2" NCoef="0" IVar="-1" Cut="0.0000000000000000e+00" cType="1" res="2.4375259818043560e-04" rms="3.9967760443687439e-01" purity="7.9234027862548828e-01" nType="-99"/>
          <Node pos="r" depth="2" NCoef="0" IVar="-1" Cut="0.0000000000000000e+00" cType="1" res="5.2961736219003797e-04" rms="2.8376343846321106e-01" purity="9.1026735305786133e-01" nType="-99"/>
        </Node>
      </Node>
    </BinaryTree>
    <BinaryTree type="DecisionTree" boostWeight="1.0000000000000000e+00" itree="977">
      <Node pos="s" depth="0" NCoef="0" IVar="3" Cut="1.4930736541748047e+01" cType="1" res="6.0577061027288437e-02" rms="4.1140097379684448e-01" purity="5.0612217187881470e-01" nType="0">
        <Node pos="l" depth="1" NCoef="0" IVar="0" Cut="2.0980533212423325e-02" cType="1" res="-4.9284594133496284e-03" rms="4.0258285403251648e-01" purity="2.9408451914787292e-01" nType="0">
          <Node pos="l" depth="2" NCoef="0" IVar="-1" Cut="0.0000000000000000e+00" cType="1" res="2.3915235942695290e-04" rms="4.3662700057029724e-01" purity="4.3137043714523315e-01" nType="-99"/>
          <Node pos="r" depth="2" NCoef="0" IVar="-1" Cut="0.0000000000000000e+00" cType="1" res="-5.9509376296773553e-04" rms="3.6457991600036621e-01" purity="1.8956534564495087e-01" nType="-99"/>
        </Node>
        <Node pos="r" depth="1" NCoef="0" IVar="0" Cut="3.9660222828388214e-02" cType="1" res="1.2080989032983780e-01" rms="4.1021606326103210e-01" purity="7.0109230279922485e-01" nType="0">
          <Node pos="l" depth="2" NCoef="0" IVar="-1" Cut="0.0000000000000000e+00" cType="1" res="4.9071543617174029e-04" rms="3.2546716928482056e-01" purity="8.7167525291442871e-01" nType="-99"/>
          <Node pos="r" depth="2" NCoef="0" IVar="-1" Cut="0.0000000000000000e+00" cType="1" res="1.9319097918923944e-04" rms="4.3764367699623108e-01" purity="6.1447799205780029e-01" nType="-99"/>
        </Node>
      </Node>
    </BinaryTree>
    <BinaryTree type="DecisionTree" boostWeight="1.0000000000000000e+00" itree="978">
      <Node pos="s" depth="0" NCoef="0" IVar="3" Cut="1.2596701622009277e+01" cType="1" res="6.1421763151884079e-02" rms="4.0849381685256958e-01" purity="5.0852495431900024e-01" nType="0">
        <Node pos="l" depth="1" NCoef="0" IVar="0" Cut="1.0490266606211662e-02" cType="1" res="-5.5028428323566914e-03" rms="4.0155866742134094e-01" purity="2.8945231437683105e-01" nType="0">
          <Node pos="l" depth="2" NCoef="0" IVar="-1" Cut="0.0000000000000000e+00" cType="1" res="2.0413719175849110e-04" rms="4.3416923284530640e-01" purity="4.4098755717277527e-01" nType="-99"/>
          <Node pos="r" depth="2" NCoef="0" IVar="-1" Cut="0.0000000000000000e+00" cType="1" res="-2.2878873278386891e-04" rms="3.8403236865997314e-01" purity="2.4044969677925110e-01" nType="-99"/>
        </Node>
        <Node pos="r" depth="1" NCoef="0" IVar="0" Cut="3.8821943104267120e-02" cType="1" res="1.1428719013929367e-01" rms="4.0616759657859802e-01" purity="6.8157607316970825e-01" nType="0">
          <Node pos="l" depth="2" NCoef="0" IVar="-1" Cut="0.0000000000000000e+00" cType="1" res="4.1687098564580083e-04" rms="3.2431939244270325e-01" purity="8.6645025014877319e-01" nType="-99"/>
          <Node pos="r" depth="2" NCoef="0" IVar="-1" Cut="0.0000000000000000e+00" cType="1" res="1.7529835167806596e-04" rms="4.3053281307220459e-01" purity="5.8574205636978149e-01" nType="-99"/>
        </Node>
      </Node>
    </BinaryTree>
    <BinaryTree type="DecisionTree" boostWeight="1.0000000000000000e+00" itree="979">
      <Node pos="s" depth="0" NCoef="0" IVar="2" Cut="7.0266148437500000e+04" cType="1" res="5.7800203561782837e-02" rms="4.0968552231788635e-01" purity="5.0459140539169312e-01" nType="0">
        <Node pos="l" depth="1" NCoef="0" IVar="0" Cut="3.8617823272943497e-02" cType="1" res="2.3671595379710197e-02" rms="4.1988292336463928e-01" purity="3.9950960874557495e-01" nType="0">
          <Node pos="l" depth="2" NCoef="0" IVar="-1" Cut="0.0000000000000000e+00" cType="1" res="2.5351764634251595e-04" rms="4.2859792709350586e-01" purity="4.8782894015312195e-01" nType="-99"/>
          <Node pos="r" depth="2" NCoef="0" IVar="-1" Cut="0.0000000000000000e+00" cType="1" res="-3.4566599060781300e-04" rms="3.9655041694641113e-01" purity="2.7583935856819153e-01" nType="-99"/>
        </Node>
        <Node pos="r" depth="1" NCoef="0" IVar="1" Cut="2.3365043640136719e+02" cType="1" res="1.6950827836990356e-01" rms="3.5194045305252075e-01" purity="8.4853994846343994e-01" nType="0">
          <Node pos="l" depth="2" NCoef="0" IVar="-1" Cut="0.0000000000000000e+00" cType="1" res="2.4362186377402395e-04" rms="4.0658318996429443e-01" purity="7.8249579668045044e-01" nType="-99"/>
          <Node pos="r" depth="2" NCoef="0" IVar="-1" Cut="0.0000000000000000e+00" cType="1" res="4.9609004054218531e-04" rms="2.4469944834709167e-01" purity="9.3584895133972168e-01" nType="-99"/>
        </Node>
      </Node>
    </BinaryTree>
    <BinaryTree type="DecisionTree" boostWeight="1.0000000000000000e+00" itree="980">
      <Node pos="s" depth="0" NCoef="0" IVar="3" Cut="1.2480910301208496e+01" cType="1" res="5.1032602787017822e-02" rms="4.0780019760131836e-01" purity="4.9529546499252319e-01" nType="0">
        <Node pos="l" depth="1" NCoef="0" IVar="0" Cut="1.2183989398181438e-02" cType="1" res="-1.6449553892016411e-02" rms="3.9369839429855347e-01" purity="2.7976050972938538e-01" nType="0">
          <Node pos="l" depth="2" NCoef="0" IVar="-1" Cut="0.0000000000000000e+00" cType="1" res="3.5010743886232376e-04" rms="4.2415833473205566e-01" purity="4.4580930471420288e-01" nType="-99"/>
          <Node pos="r" depth="2" NCoef="0" IVar="-1" Cut="0.0000000000000000e+00" cType="1" res="-5.5734644411131740e-04" rms="3.7212550640106201e-01" purity="2.1218653023242950e-01" nType="-99"/>
        </Node>
        <Node pos="r" depth="1" NCoef="0" IVar="0" Cut="4.2733144015073776e-02" cType="1" res="1.0572950541973114e-01" rms="4.1082766652107239e-01" purity="6.6999495029449463e-01" nType="0">
          <Node pos="l" depth="2" NCoef="0" IVar="-1" Cut="0.0000000000000000e+00" cType="1" res="4.2923146975226700e-04" rms="3.5543197393417358e-01" purity="8.3112514019012451e-01" nType="-99"/>
          <Node pos="r" depth="2" NCoef="0" IVar="-1" Cut="0.0000000000000000e+00" cType="1" res="1.3273319927975535e-04" rms="4.2898216843605042e-01" purity="5.7262253761291504e-01" nType="-99"/>
        </Node>
      </Node>
    </BinaryTree>
    <BinaryTree type="DecisionTree" boostWeight="1.0000000000000000e+00" itree="981">
      <Node pos="s" depth="0" NCoef="0" IVar="2" Cut="7.1768554687500000e+04" cType="1" res="6.1756148934364319e-02" rms="4.1177010536193848e-01" purity="5.0621253252029419e-01" nType="0">
        <Node pos="l" depth="1" NCoef="0" IVar="1" Cut="3.4559803009033203e+01" cType="1" res="2.9384475201368332e-02" rms="4.2362901568412781e-01" purity="4.0712913870811462e-01" nType="0">
          <Node pos="l" depth="2" NCoef="0" IVar="-1" Cut="0.0000000000000000e+00" cType="1" res="-1.8806647276505828e-03" rms="3.1647130846977234e-01" purity="1.1359408497810364e-01" nType="-99"/>
          <Node pos="r" depth="2" NCoef="0" IVar="-1" Cut="0.0000000000000000e+00" cType="1" res="1.9679348042700440e-04" rms="4.3926721811294556e-01" purity="4.6900805830955505e-01" nType="-99"/>
        </Node>
        <Node pos="r" depth="1" NCoef="0" IVar="1" Cut="1.9601200866699219e+02" cType="1" res="1.7673550546169281e-01" rms="3.4267240762710571e-01" purity="8.5814189910888672e-01" nType="0">
          <Node pos="l" depth="2" NCoef="0" IVar="-1" Cut="0.0000000000000000e+00" cType="1" res="3.0253754812292755e-04" rms="4.0739738941192627e-01" purity="7.7883553504943848e-01" nType="-99"/>
          <Node pos="r" depth="2" NCoef="0" IVar="-1" Cut="0.0000000000000000e+00" cType="1" res="4.2550245416350663e-04" rms="2.8441229462623596e-01" purity="9.0943068265914917e-01" nType="-99"/>
        </Node>
      </Node>
    </BinaryTree>
    <BinaryTree type="DecisionTree" boostWeight="1.0000000000000000e+00" itree="982">
      <Node pos="s" depth="0" NCoef="0" IVar="1" Cut="2.3310374450683594e+02" cType="1" res="4.9659125506877899e-02" rms="4.1064575314521790e-01" purity="4.9001741409301758e-01" nType="0">
        <Node pos="l" depth="1" NCoef="0" IVar="0" Cut="3.9251808077096939e-02" cType="1" res="2.9746914282441139e-02" rms="4.1818669438362122e-01" purity="4.4107899069786072e-01" nType="0">
          <Node pos="l" depth="2" NCoef="0" IVar="-1" Cut="0.0000000000000000e+00" cType="1" res="2.6811118004843593e-04" rms="4.1745164990425110e-01" purity="5.2133834362030029e-01" nType="-99"/>
          <Node pos="r" depth="2" NCoef="0" IVar="-1" Cut="0.0000000000000000e+00" cType="1" res="-2.5193218607455492e-04" rms="4.0769988298416138e-01" purity="3.3773654699325562e-01" nType="-99"/>
        </Node>
        <Node pos="r" depth="1" NCoef="0" IVar="-1" Cut="0.0000000000000000e+00" cType="1" res="5.0664920127019286e-04" rms="2.9370799660682678e-01" purity="8.9577531814575195e-01" nType="-99"/>
      </Node>
    </BinaryTree>
    <BinaryTree type="DecisionTree" boostWeight="1.0000000000000000e+00" itree="983">
      <Node pos="s" depth="0" NCoef="0" IVar="2" Cut="2.2068197265625000e+04" cType="1" res="6.0382913798093796e-02" rms="4.0918073058128357e-01" purity="5.0769829750061035e-01" nType="0">
        <Node pos="l" depth="1" NCoef="0" IVar="0" Cut="2.4177541956305504e-02" cType="1" res="-1.5795527026057243e-02" rms="3.9330166578292847e-01" purity="2.7597957849502563e-01" nType="0">
          <Node pos="l" depth="2" NCoef="0" IVar="-1" Cut="0.0000000000000000e+00" cType="1" res="1.3408990344032645e-04" rms="4.3150410056114197e-01" purity="3.8450455665588379e-01" nType="-99"/>
          <Node pos="r" depth="2" NCoef="0" IVar="-1" Cut="0.0000000000000000e+00" cType="1" res="-1.0866298107430339e-03" rms="3.3301362395286560e-01" purity="1.4759282767772675e-01" nType="-99"/>
        </Node>
        <Node pos="r" depth="1" NCoef="0" IVar="0" Cut="3.9660222828388214e-02" cType="1" res="1.1012525111436844e-01" rms="4.1168662905693054e-01" purity="6.5900403261184692e-01" nType="0">
          <Node pos="l" depth="2" NCoef="0" IVar="-1" Cut="0.0000000000000000e+00" cType="1" res="4.4979710946790874e-04" rms="3.6082920432090759e-01" purity="8.2035297155380249e-01" nType="-99"/>
          <Node pos="r" depth="2" NCoef="0" IVar="-1" Cut="0.0000000000000000e+00" cType="1" res="1.6159971710294485e-04" rms="4.2654913663864136e-01" purity="5.6606757640838623e-01" nType="-99"/>
        </Node>
      </Node>
    </BinaryTree>
    <BinaryTree type="DecisionTree" boostWeight="1.0000000000000000e+00" itree="984">
      <Node pos="s" depth="0" NCoef="0" IVar="1" Cut="1.0547126770019531e+02" cType="1" res="4.7760609537363052e-02" rms="4.0704074501991272e-01" purity="4.9327903985977173e-01" nType="0">
        <Node pos="l" depth="1" NCoef="0" IVar="1" Cut="3.4573478698730469e+01" cType="1" res="-2.9343735426664352e-02" rms="3.7138479948043823e-01" purity="2.2727306187152863e-01" nType="0">
          <Node pos="l" depth="2" NCoef="0" IVar="-1" Cut="0.0000000000000000e+00" cType="1" res="-2.3858440108597279e-03" rms="2.8827637434005737e-01" purity="9.3750327825546265e-02" nType="-99"/>
          <Node pos="r" depth="2" NCoef="0" IVar="-1" Cut="0.0000000000000000e+00" cType="1" res="2.2921478375792503e-05" rms="4.0127438306808472e-01" purity="2.9295852780342102e-01" nType="-99"/>
        </Node>
        <Node pos="r" depth="1" NCoef="0" IVar="0" Cut="2.8488764539361000e-02" cType="1" res="1.0099232196807861e-01" rms="4.2178922891616821e-01" purity="6.7692559957504272e-01" nType="0">
          <Node pos="l" depth="2" NCoef="0" IVar="-1" Cut="0.0000000000000000e+00" cType="1" res="4.2108420166186988e-04" rms="3.5975718498229980e-01" purity="8.2415282726287842e-01" nType="-99"/>
          <Node pos="r" depth="2" NCoef="0" IVar="-1" Cut="0.0000000000000000e+00" cType="1" res="1.9442761549726129e-04" rms="4.3465042114257812e-01" purity="6.2721234560012817e-01" nType="-99"/>
        </Node>
      </Node>
    </BinaryTree>
    <BinaryTree type="DecisionTree" boostWeight="1.0000000000000000e+00" itree="985">
      <Node pos="s" depth="0" NCoef="0" IVar="1" Cut="2.3285124206542969e+02" cType="1" res="5.3336590528488159e-02" rms="4.0880668163299561e-01" purity="4.9945375323295593e-01" nType="0">
        <Node pos="l" depth="1" NCoef="0" IVar="0" Cut="5.6977529078722000e-02" cType="1" res="2.7097757905721664e-02" rms="4.1864013671875000e-01" purity="4.3855106830596924e-01" nType="0">
          <Node pos="l" depth="2" NCoef="0" IVar="-1" Cut="0.0000000000000000e+00" cType="1" res="2.0112270431127399e-04" rms="4.1829600930213928e-01" purity="4.7946101427078247e-01" nType="-99"/>
          <Node pos="r" depth="2" NCoef="0" IVar="-1" Cut="0.0000000000000000e+00" cType="1" res="-3.3688280382193625e-04" rms="4.0600347518920898e-01" purity="3.2217842340469360e-01" nType="-99"/>
        </Node>
        <Node pos="r" depth="1" NCoef="0" IVar="-1" Cut="0.0000000000000000e+00" cType="1" res="3.5284296609461308e-04" rms="2.7581495046615601e-01" purity="9.1091895103454590e-01" nType="-99"/>
      </Node>
    </BinaryTree>
    <BinaryTree type="DecisionTree" boostWeight="1.0000000000000000e+00" itree="986">
      <Node pos="s" depth="0" NCoef="0" IVar="3" Cut="2.3899627685546875e+01" cType="1" res="5.8339133858680725e-02" rms="4.1169971227645874e-01" purity="5.0105750560760498e-01" nType="0">
        <Node pos="l" depth="1" NCoef="0" IVar="0" Cut="1.2470351532101631e-02" cType="1" res="9.3674622476100922e-03" rms="4.1146132349967957e-01" purity="3.3008140325546265e-01" nType="0">
          <Node pos="l" depth="2" NCoef="0" IVar="-1" Cut="0.0000000000000000e+00" cType="1" res="1.8417106184642762e-04" rms="4.3992561101913452e-01" purity="4.7590583562850952e-01" nType="-99"/>
          <Node pos="r" depth="2" NCoef="0" IVar="-1" Cut="0.0000000000000000e+00" cType="1" res="-1.5394849469885230e-04" rms="3.9602953195571899e-01" purity="2.8601920604705811e-01" nType="-99"/>
        </Node>
        <Node pos="r" depth="1" NCoef="0" IVar="1" Cut="2.2907446289062500e+02" cType="1" res="1.3085149228572845e-01" rms="4.0122079849243164e-01" purity="7.5422185659408569e-01" nType="0">
          <Node pos="l" depth="2" NCoef="0" IVar="-1" Cut="0.0000000000000000e+00" cType="1" res="2.5130462017841637e-04" rms="4.3285590410232544e-01" purity="6.9630390405654907e-01" nType="-99"/>
          <Node pos="r" depth="2" NCoef="0" IVar="-1" Cut="0.0000000000000000e+00" cType="1" res="3.6834747879765928e-04" rms="2.7065122127532959e-01" purity="9.1765111684799194e-01" nType="-99"/>
        </Node>
      </Node>
    </BinaryTree>
    <BinaryTree type="DecisionTree" boostWeight="1.0000000000000000e+00" itree="987">
      <Node pos="s" depth="0" NCoef="0" IVar="3" Cut="1.4930736541748047e+01" cType="1" res="5.9703279286623001e-02" rms="4.0733376145362854e-01" purity="5.0857943296432495e-01" nType="0">
        <Node pos="l" depth="1" NCoef="0" IVar="0" Cut="2.0980533212423325e-02" cType="1" res="-7.2348304092884064e-03" rms="3.9606058597564697e-01" purity="2.9462635517120361e-01" nType="0">
          <Node pos="l" depth="2" NCoef="0" IVar="-1" Cut="0.0000000000000000e+00" cType="1" res="1.6054522711783648e-04" rms="4.2907544970512390e-01" purity="4.2760089039802551e-01" nType="-99"/>
          <Node pos="r" depth="2" NCoef="0" IVar="-1" Cut="0.0000000000000000e+00" cType="1" res="-6.2024523504078388e-04" rms="3.6130112409591675e-01" purity="1.9576328992843628e-01" nType="-99"/>
        </Node>
        <Node pos="r" depth="1" NCoef="0" IVar="0" Cut="3.8821943104267120e-02" cType="1" res="1.2131910026073456e-01" rms="4.0784373879432678e-01" purity="7.0552098751068115e-01" nType="0">
          <Node pos="l" depth="2" NCoef="0" IVar="-1" Cut="0.0000000000000000e+00" cType="1" res="4.1959408554248512e-04" rms="3.2714331150054932e-01" purity="8.7005579471588135e-01" nType="-99"/>
          <Node pos="r" depth="2" NCoef="0" IVar="-1" Cut="0.0000000000000000e+00" cType="1" res="2.2470936528407037e-04" rms="4.3242001533508301e-01" purity="6.3087451457977295e-01" nType="-99"/>
        </Node>
      </Node>
    </BinaryTree>
    <BinaryTree type="DecisionTree" boostWeight="1.0000000000000000e+00" itree="988">
      <Node pos="s" depth="0" NCoef="0" IVar="3" Cut="1.4930736541748047e+01" cType="1" res="5.4737675935029984e-02" rms="4.1411837935447693e-01" purity="4.9422833323478699e-01" nType="0">
        <Node pos="l" depth="1" NCoef="0" IVar="0" Cut="1.0800702497363091e-02" cType="1" res="-5.1244889618828893e-04" rms="4.0599530935287476e-01" purity="2.9554101824760437e-01" nType="0">
          <Node pos="l" depth="2" NCoef="0" IVar="-1" Cut="0.0000000000000000e+00" cType="1" res="1.5653314767405391e-04" rms="4.3819433450698853e-01" purity="4.6624562144279480e-01" nType="-99"/>
          <Node pos="r" depth="2" NCoef="0" IVar="-1" Cut="0.0000000000000000e+00" cType="1" res="-2.9492052271962166e-04" rms="3.8677853345870972e-01" purity="2.4014472961425781e-01" nType="-99"/>
        </Node>
        <Node pos="r" depth="1" NCoef="0" IVar="0" Cut="3.9660222828388214e-02" cType="1" res="1.0870596021413803e-01" rms="4.1485777497291565e-01" purity="6.8830585479736328e-01" nType="0">
          <Node pos="l" depth="2" NCoef="0" IVar="-1" Cut="0.0000000000000000e+00" cType="1" res="4.2344327084720135e-04" rms="3.3459252119064331e-01" purity="8.6249470710754395e-01" nType="-99"/>
          <Node pos="r" depth="2" NCoef="0" IVar="-1" Cut="0.0000000000000000e+00" cType="1" res="1.5945766062941402e-04" rms="4.4025960564613342e-01" purity="5.9893584251403809e-01" nType="-99"/>
        </Node>
      </Node>
    </BinaryTree>
    <BinaryTree type="DecisionTree" boostWeight="1.0000000000000000e+00" itree="989">
      <Node pos="s" depth="0" NCoef="0" IVar="3" Cut="1.2596701622009277e+01" cType="1" res="5.6758567690849304e-02" rms="4.1837617754936218e-01" purity="4.9301895499229431e-01" nType="0">
        <Node pos="l" depth="1" NCoef="0" IVar="0" Cut="1.9946964457631111e-02" cType="1" res="3.6698067560791969e-03" rms="4.1039985418319702e-01" purity="2.9552903771400452e-01" nType="0">
          <Node pos="l" depth="2" NCoef="0" IVar="-1" Cut="0.0000000000000000e+00" cType="1" res="2.5956291938200593e-04" rms="4.4569244980812073e-01" purity="4.2065981030464172e-01" nType="-99"/>
          <Node pos="r" depth="2" NCoef="0" IVar="-1" Cut="0.0000000000000000e+00" cType="1" res="-3.0787548166699708e-04" rms="3.7297642230987549e-01" purity="2.0091165602207184e-01" nType="-99"/>
        </Node>
        <Node pos="r" depth="1" NCoef="0" IVar="0" Cut="3.9660222828388214e-02" cType="1" res="1.0173140466213226e-01" rms="4.1979578137397766e-01" purity="6.6031777858734131e-01" nType="0">
          <Node pos="l" depth="2" NCoef="0" IVar="-1" Cut="0.0000000000000000e+00" cType="1" res="4.7163263661786914e-04" rms="3.5027131438255310e-01" purity="8.4069466590881348e-01" nType="-99"/>
          <Node pos="r" depth="2" NCoef="0" IVar="-1" Cut="0.0000000000000000e+00" cType="1" res="1.6440343460999429e-04" rms="4.4009548425674438e-01" purity="5.7026201486587524e-01" nType="-99"/>
        </Node>
      </Node>
    </BinaryTree>
    <BinaryTree type="DecisionTree" boostWeight="1.0000000000000000e+00" itree="990">
      <Node pos="s" depth="0" NCoef="0" IVar="1" Cut="9.2416587829589844e+01" cType="1" res="4.2374763637781143e-02" rms="4.0484580397605896e-01" purity="4.8728993535041809e-01" nType="0">
        <Node pos="l" depth="1" NCoef="0" IVar="1" Cut="6.1208370208740234e+01" cType="1" res="-4.7318235039710999e-02" rms="3.4977126121520996e-01" purity="1.9928844273090363e-01" nType="0">
          <Node pos="l" depth="2" NCoef="0" IVar="-1" Cut="0.0000000000000000e+00" cType="1" res="-1.7195643158629537e-03" rms="2.9830375313758850e-01" purity="1.0803743451833725e-01" nType="-99"/>
          <Node pos="r" depth="2" NCoef="0" IVar="-1" Cut="0.0000000000000000e+00" cType="1" res="1.0755260154837742e-04" rms="4.0803974866867065e-01" purity="3.4022596478462219e-01" nType="-99"/>
        </Node>
        <Node pos="r" depth="1" NCoef="0" IVar="0" Cut="2.8488764539361000e-02" cType="1" res="9.2922031879425049e-02" rms="4.2453852295875549e-01" purity="6.4959573745727539e-01" nType="0">
          <Node pos="l" depth="2" NCoef="0" IVar="-1" Cut="0.0000000000000000e+00" cType="1" res="4.5567349297925830e-04" rms="3.7908193469047546e-01" purity="8.0004757642745972e-01" nType="-99"/>
          <Node pos="r" depth="2" NCoef="0" IVar="-1" Cut="0.0000000000000000e+00" cType="1" res="1.7287948867306113e-04" rms="4.3277031183242798e-01" purity="5.9621882438659668e-01" nType="-99"/>
        </Node>
      </Node>
    </BinaryTree>
    <BinaryTree type="DecisionTree" boostWeight="1.0000000000000000e+00" itree="991">
      <Node pos="s" depth="0" NCoef="0" IVar="2" Cut="7.1768554687500000e+04" cType="1" res="5.7774551212787628e-02" rms="4.0992072224617004e-01" purity="5.0273829698562622e-01" nType="0">
        <Node pos="l" depth="1" NCoef="0" IVar="0" Cut="6.4363040030002594e-02" cType="1" res="2.4668863043189049e-02" rms="4.2099606990814209e-01" purity="4.0270033478736877e-01" nType="0">
          <Node pos="l" depth="2" NCoef="0" IVar="-1" Cut="0.0000000000000000e+00" cType="1" res="2.3250989033840597e-04" rms="4.2580878734588623e-01" purity="4.4035834074020386e-01" nType="-99"/>
          <Node pos="r" depth="2" NCoef="0" IVar="-1" Cut="0.0000000000000000e+00" cType="1" res="-8.7612320203334093e-04" rms="3.7451332807540894e-01" purity="2.3428776860237122e-01" nType="-99"/>
        </Node>
        <Node pos="r" depth="1" NCoef="0" IVar="1" Cut="2.0022415161132812e+02" cType="1" res="1.7526356875896454e-01" rms="3.4304851293563843e-01" purity="8.5776382684707642e-01" nType="0">
          <Node pos="l" depth="2" NCoef="0" IVar="-1" Cut="0.0000000000000000e+00" cType="1" res="3.0280070495791733e-04" rms="3.9971885085105896e-01" purity="7.8942596912384033e-01" nType="-99"/>
          <Node pos="r" depth="2" NCoef="0" IVar="-1" Cut="0.0000000000000000e+00" cType="1" res="4.2096068500541151e-04" rms="2.8455206751823425e-01" purity="9.0965741872787476e-01" nType="-99"/>
        </Node>
      </Node>
    </BinaryTree>
    <BinaryTree type="DecisionTree" boostWeight="1.0000000000000000e+00" itree="992">
      <Node pos="s" depth="0" NCoef="0" IVar="3" Cut="1.1289975166320801e+01" cType="1" res="5.0935398787260056e-02" rms="4.0969339013099670e-01" purity="4.9442085623741150e-01" nType="0">
        <Node pos="l" depth="1" NCoef="0" IVar="0" Cut="1.9221726804971695e-02" cType="1" res="-2.5927670300006866e-02" rms="3.9414536952972412e-01" purity="2.6606896519660950e-01" nType="0">
          <Node pos="l" depth="2" NCoef="0" IVar="-1" Cut="0.0000000000000000e+00" cType="1" res="1.2531294487416744e-04" rms="4.2223396897315979e-01" purity="3.7441852688789368e-01" nType="-99"/>
          <Node pos="r" depth="2" NCoef="0" IVar="-1" Cut="0.0000000000000000e+00" cType="1" res="-4.0734020876698196e-04" rms="3.6806076765060425e-01" purity="1.8705298006534576e-01" nType="-99"/>
        </Node>
        <Node pos="r" depth="1" NCoef="0" IVar="0" Cut="4.1265200823545456e-02" cType="1" res="1.0637370496988297e-01" rms="4.1173842549324036e-01" purity="6.5912216901779175e-01" nType="0">
          <Node pos="l" depth="2" NCoef="0" IVar="-1" Cut="0.0000000000000000e+00" cType="1" res="4.4324502232484519e-04" rms="3.6067625880241394e-01" purity="8.2399880886077881e-01" nType="-99"/>
          <Node pos="r" depth="2" NCoef="0" IVar="-1" Cut="0.0000000000000000e+00" cType="1" res="1.7592609219718724e-04" rms="4.2643815279006958e-01" purity="5.6842732429504395e-01" nType="-99"/>
        </Node>
      </Node>
    </BinaryTree>
    <BinaryTree type="DecisionTree" boostWeight="1.0000000000000000e+00" itree="993">
      <Node pos="s" depth="0" NCoef="0" IVar="1" Cut="1.5836036682128906e+02" cType="1" res="5.7448808103799820e-02" rms="4.1103038191795349e-01" purity="5.0280135869979858e-01" nType="0">
        <Node pos="l" depth="1" NCoef="0" IVar="0" Cut="4.9881406128406525e-02" cType="1" res="1.5328812412917614e-02" rms="4.1275683045387268e-01" purity="3.5055428743362427e-01" nType="0">
          <Node pos="l" depth="2" NCoef="0" IVar="-1" Cut="0.0000000000000000e+00" cType="1" res="1.7580419080331922e-04" rms="4.2684218287467957e-01" purity="4.1596138477325439e-01" nType="-99"/>
          <Node pos="r" depth="2" NCoef="0" IVar="-1" Cut="0.0000000000000000e+00" cType="1" res="-9.1525755124166608e-04" rms="3.5572987794876099e-01" purity="1.7379364371299744e-01" nType="-99"/>
        </Node>
        <Node pos="r" depth="1" NCoef="0" IVar="1" Cut="2.4954165649414062e+02" cType="1" res="1.3212469220161438e-01" rms="3.9711794257164001e-01" purity="7.7272510528564453e-01" nType="0">
          <Node pos="l" depth="2" NCoef="0" IVar="-1" Cut="0.0000000000000000e+00" cType="1" res="2.5953794829547405e-04" rms="4.2458280920982361e-01" purity="7.2747355699539185e-01" nType="-99"/>
          <Node pos="r" depth="2" NCoef="0" IVar="-1" Cut="0.0000000000000000e+00" cType="1" res="4.1016735485754907e-04" rms="2.7777287364006042e-01" purity="9.1068834066390991e-01" nType="-99"/>
        </Node>
      </Node>
    </BinaryTree>
    <BinaryTree type="DecisionTree" boostWeight="1.0000000000000000e+00" itree="994">
      <Node pos="s" depth="0" NCoef="0" IVar="1" Cut="2.3128488159179688e+02" cType="1" res="5.6611429899930954e-02" rms="4.1443899273872375e-01" purity="4.9779173731803894e-01" nType="0">
        <Node pos="l" depth="1" NCoef="0" IVar="0" Cut="5.2880298346281052e-02" cType="1" res="3.5802893340587616e-02" rms="4.2421770095825195e-01" purity="4.4440856575965881e-01" nType="0">
          <Node pos="l" depth="2" NCoef="0" IVar="-1" Cut="0.0000000000000000e+00" cType="1" res="2.0696832507383078e-04" rms="4.2525184154510498e-01" purity="4.9134323000907898e-01" nType="-99"/>
          <Node pos="r" depth="2" NCoef="0" IVar="-1" Cut="0.0000000000000000e+00" cType="1" res="-2.9562864801846445e-04" rms="4.0804097056388855e-01" purity="3.3086785674095154e-01" nType="-99"/>
        </Node>
        <Node pos="r" depth="1" NCoef="0" IVar="-1" Cut="0.0000000000000000e+00" cType="1" res="4.3208248098380864e-04" rms="2.8703913092613220e-01" purity="8.9907294511795044e-01" nType="-99"/>
      </Node>
    </BinaryTree>
    <BinaryTree type="DecisionTree" boostWeight="1.0000000000000000e+00" itree="995">
      <Node pos="s" depth="0" NCoef="0" IVar="2" Cut="8.1564359375000000e+04" cType="1" res="5.0767052918672562e-02" rms="4.1385483741760254e-01" purity="4.8950901627540588e-01" nType="0">
        <Node pos="l" depth="1" NCoef="0" IVar="0" Cut="2.8488764539361000e-02" cType="1" res="2.7671411633491516e-02" rms="4.2283603549003601e-01" purity="4.2950266599655151e-01" nType="0">
          <Node pos="l" depth="2" NCoef="0" IVar="-1" Cut="0.0000000000000000e+00" cType="1" res="2.2365333279594779e-04" rms="4.2522189021110535e-01" purity="5.0610566139221191e-01" nType="-99"/>
          <Node pos="r" depth="2" NCoef="0" IVar="-1" Cut="0.0000000000000000e+00" cType="1" res="-7.4497867899481207e-05" rms="4.1585990786552429e-01" purity="3.7808075547218323e-01" nType="-99"/>
        </Node>
        <Node pos="r" depth="1" NCoef="0" IVar="-1" Cut="0.0000000000000000e+00" cType="1" res="3.5562025732360780e-04" rms="3.0491822957992554e-01" purity="8.9326840639114380e-01" nType="-99"/>
      </Node>
    </BinaryTree>
    <BinaryTree type="DecisionTree" boostWeight="1.0000000000000000e+00" itree="996">
      <Node pos="s" depth="0" NCoef="0" IVar="3" Cut="2.4516361236572266e+01" cType="1" res="6.1906877905130386e-02" rms="4.0851566195487976e-01" purity="5.1028293371200562e-01" nType="0">
        <Node pos="l" depth="1" NCoef="0" IVar="0" Cut="1.1685845442116261e-02" cType="1" res="1.0305354371666908e-02" rms="4.1243520379066467e-01" purity="3.3292233943939209e-01" nType="0">
          <Node pos="l" depth="2" NCoef="0" IVar="-1" Cut="0.0000000000000000e+00" cType="1" res="2.3114234500098974e-04" rms="4.3341970443725586e-01" purity="4.6485260128974915e-01" nType="-99"/>
          <Node pos="r" depth="2" NCoef="0" IVar="-1" Cut="0.0000000000000000e+00" cType="1" res="-9.7255171567667276e-05" rms="4.0240374207496643e-01" purity="2.9773926734924316e-01" nType="-99"/>
        </Node>
        <Node pos="r" depth="1" NCoef="0" IVar="1" Cut="2.2169929504394531e+02" cType="1" res="1.3712288439273834e-01" rms="3.9071220159530640e-01" purity="7.6880919933319092e-01" nType="0">
          <Node pos="l" depth="2" NCoef="0" IVar="-1" Cut="0.0000000000000000e+00" cType="1" res="2.3985728330444545e-04" rms="4.2684918642044067e-01" purity="7.0248812437057495e-01" nType="-99"/>
          <Node pos="r" depth="2" NCoef="0" IVar="-1" Cut="0.0000000000000000e+00" cType="1" res="4.4971678289584816e-04" rms="2.7159619331359863e-01" purity="9.1713660955429077e-01" nType="-99"/>
        </Node>
      </Node>
    </BinaryTree>
    <BinaryTree type="DecisionTree" boostWeight="1.0000000000000000e+00" itree="997">
      <Node pos="s" depth="0" NCoef="0" IVar="2" Cut="6.6204593750000000e+04" cType="1" res="6.7437261343002319e-02" rms="4.1115987300872803e-01" purity="5.1440161466598511e-01" nType="0">
        <Node pos="l" depth="1" NCoef="0" IVar="0" Cut="6.3502378761768341e-02" cType="1" res="3.5495519638061523e-02" rms="4.2245411872863770e-01" purity="4.0044754743576050e-01" nType="0">
          <Node pos="l" depth="2" NCoef="0" IVar="-1" Cut="0.0000000000000000e+00" cType="1" res="1.9809236982837319e-04" rms="4.2913389205932617e-01" purity="4.4510385394096375e-01" nType="-99"/>
          <Node pos="r" depth="2" NCoef="0" IVar="-1" Cut="0.0000000000000000e+00" cType="1" res="-1.1253806296736002e-03" rms="3.5495319962501526e-01" purity="1.8453149497509003e-01" nType="-99"/>
        </Node>
        <Node pos="r" depth="1" NCoef="0" IVar="1" Cut="2.2952496337890625e+02" cType="1" res="1.5725056827068329e-01" rms="3.6282801628112793e-01" purity="8.3481591939926147e-01" nType="0">
          <Node pos="l" depth="2" NCoef="0" IVar="-1" Cut="0.0000000000000000e+00" cType="1" res="2.7032764046452940e-04" rms="4.0309202671051025e-01" purity="7.8386175632476807e-01" nType="-99"/>
          <Node pos="r" depth="2" NCoef="0" IVar="-1" Cut="0.0000000000000000e+00" cType="1" res="3.5094207851216197e-04" rms="2.6017946004867554e-01" purity="9.2652499675750732e-01" nType="-99"/>
        </Node>
      </Node>
    </BinaryTree>
    <BinaryTree type="DecisionTree" boostWeight="1.0000000000000000e+00" itree="998">
      <Node pos="s" depth="0" NCoef="0" IVar="3" Cut="1.4930736541748047e+01" cType="1" res="4.9158234149217606e-02" rms="4.0767091512680054e-01" purity="4.9437800049781799e-01" nType="0">
        <Node pos="l" depth="1" NCoef="0" IVar="0" Cut="1.1065950617194176e-02" cType="1" res="-1.2086240574717522e-02" rms="3.9453154802322388e-01" purity="2.8838288784027100e-01" nType="0">
          <Node pos="l" depth="2" NCoef="0" IVar="-1" Cut="0.0000000000000000e+00" cType="1" res="1.9850683747790754e-04" rms="4.2873686552047729e-01" purity="4.5497116446495056e-01" nType="-99"/>
          <Node pos="r" depth="2" NCoef="0" IVar="-1" Cut="0.0000000000000000e+00" cType="1" res="-3.7599683855660260e-04" rms="3.7450408935546875e-01" purity="2.3289078474044800e-01" nType="-99"/>
        </Node>
        <Node pos="r" depth="1" NCoef="0" IVar="0" Cut="4.1265200823545456e-02" cType="1" res="1.0762751102447510e-01" rms="4.1141071915626526e-01" purity="6.9103872776031494e-01" nType="0">
          <Node pos="l" depth="2" NCoef="0" IVar="-1" Cut="0.0000000000000000e+00" cType="1" res="4.8076410894282162e-04" rms="3.3678495883941650e-01" purity="8.5937684774398804e-01" nType="-99"/>
          <Node pos="r" depth="2" NCoef="0" IVar="-1" Cut="0.0000000000000000e+00" cType="1" res="1.2046677147736773e-04" rms="4.3645462393760681e-01" purity="5.9710109233856201e-01" nType="-99"/>
        </Node>
      </Node>
    </BinaryTree>
    <BinaryTree type="DecisionTree" boostWeight="1.0000000000000000e+00" itree="999">
      <Node pos="s" depth="0" NCoef="0" IVar="3" Cut="1.1430821418762207e+01" cType="1" res="5.0996202975511551e-02" rms="4.1139322519302368e-01" purity="4.9399772286415100e-01" nType="0">
        <Node pos="l" depth="1" NCoef="0" IVar="0" Cut="1.0490266606211662e-02" cType="1" res="-2.0865796133875847e-02" rms="3.9908689260482788e-01" purity="2.6908627152442932e-01" nType="0">
          <Node pos="l" depth="2" NCoef="0" IVar="-1" Cut="0.0000000000000000e+00" cType="1" res="1.5168254321906716e-04" rms="4.3894249200820923e-01" purity="4.1072216629981995e-01" nType="-99"/>
          <Node pos="r" depth="2" NCoef="0" IVar="-1" Cut="0.0000000000000000e+00" cType="1" res="-4.0667282883077860e-04" rms="3.7783953547477722e-01" purity="2.2029647231101990e-01" nType="-99"/>
        </Node>
        <Node pos="r" depth="1" NCoef="0" IVar="0" Cut="4.2733144015073776e-02" cType="1" res="1.0382755845785141e-01" rms="4.1229763627052307e-01" purity="6.5934771299362183e-01" nType="0">
          <Node pos="l" depth="2" NCoef="0" IVar="-1" Cut="0.0000000000000000e+00" cType="1" res="4.4702040031552315e-04" rms="3.5870632529258728e-01" purity="8.2387280464172363e-01" nType="-99"/>
          <Node pos="r" depth="2" NCoef="0" IVar="-1" Cut="0.0000000000000000e+00" cType="1" res="1.1874998017447069e-04" rms="4.2954689264297485e-01" purity="5.5404365062713623e-01" nType="-99"/>
        </Node>
      </Node>
    </BinaryTree>
  </Weights>
</MethodSetup>
